
/**
  ******************************************************************************
  * @file    network_data.c
  * @author  AST Embedded Analytics Research Platform
  * @date    Sat Jun 11 11:19:33 2022
  * @brief   AI Tool Automatic Code Generator for Embedded NN computing
  ******************************************************************************
  * @attention
  *
  * Copyright (c) 2021 STMicroelectronics.
  * All rights reserved.
  *
  * This software is licensed under terms that can be found in the LICENSE file
  * in the root directory of this software component.
  * If no LICENSE file comes with this software, it is provided AS-IS.
  ******************************************************************************
  */
#include "network_data.h"
#include "ai_platform_interface.h"

AI_API_DECLARE_BEGIN

AI_ALIGNED(32)
const ai_u64 s_network_network_weights_array_u64[ 5322 ] = {
  0x37884a3a3751879aU, 0xb78df684b763cd96U, 0xb70e83d436cc6aefU, 0xb6982097b649893dU,
  0x368f5eb436d5dc6cU, 0x36a37190b7b7d492U, 0xb6d2f31737e7516eU, 0xb755f1b337a65618U,
  0xb7850c39362039aaU, 0x379a9136b6289a78U, 0x35b19c9f37008320U, 0xb69621c2b5e182e0U,
  0x369d7a8cb6e752bbU, 0x37280248b77769abU, 0xb6da5602378575cfU, 0x37074f43b4096970U,
  0x375ca2a0378f7f4fU, 0xb7f7bc3f37a8b0a1U, 0x369c0740b8180b63U, 0x36efaa7eb62bbf10U,
  0x3775d96cb74e2de6U, 0xb7d2e67e371e9a95U, 0xb7a85bc536e95fc0U, 0x3790bc31b727d46dU,
  0x3795ed7eb7baffe4U, 0x36a0e360b6ab1a58U, 0xb7184bda35c82e08U, 0xb79db0e434ddcdd4U,
  0x35ac4b38378c7ea6U, 0x36962c4a36cf77f4U, 0xb72c7a86b7710023U, 0x37839398368cd058U,
  0x3595a744b6fe4e46U, 0x376d3ca8b7b4472aU, 0x374fc91c3644c1c5U, 0x3599bd28b704acb6U,
  0x37c1b4c6b79e54e1U, 0xb73aa7c0b79cce3cU, 0xb58fdb18b57bff24U, 0x374c098c37346146U,
  0xb6808590b7710df3U, 0x38004e0236389a94U, 0x36def124b76bc749U, 0x370c2eca379cfd56U,
  0x3793703433ebd080U, 0xb7140214b6115eb0U, 0x365e37e037c3e793U, 0xb7619530b76b17b4U,
  0xb6107bf835b3db9cU, 0x3728d53ab7782d26U, 0xb64e6d54b62366f8U, 0xb7792fb43767cf06U,
  0xb64aa58ab7acf4e8U, 0x378be14ab80089f0U, 0xb66ee9a8b6b7a168U, 0xb47e7d00b78a770cU,
  0xb2c3e300382964aaU, 0xb6659850b62c9062U, 0xb61cc228365f89e8U, 0xb6e85d54b5aaa0b8U,
  0xb73839e8b6246c36U, 0xb7e6e714b59e8ea8U, 0x37c62a8eb6948fdeU, 0x35fd18b837dd2790U,
  0xb689fd24b3ecf448U, 0xb75c1c4c35839d0cU, 0x35481390371b2274U, 0xb6d7698bb6f77526U,
  0xb7790bc337190e38U, 0xb78a381eb644bf1cU, 0xb60adce0363aa9beU, 0x364288c8379c28dfU,
  0x378a3af836e9682bU, 0x37c3e5033702a565U, 0xb756831b35f90370U, 0x353484e03713ebaaU,
  0xb5d84df4b7134fd5U, 0x36d15590b5dbe89cU, 0xb6eb358ab78d0d3eU, 0xb2d7f60036352570U,
  0x375d7cbc35992cd4U, 0x36d21ab435c0139dU, 0x36be9a77b52be874U, 0x3733a7353731ea5cU,
  0xb54187dcb77f66ddU, 0xb7f4fbee36d79f68U, 0xb3aafe003788a1c0U, 0xb72953b3372af18cU,
  0x342f08c0b751ffeeU, 0x34d8629cb69203f6U, 0x37c0fa72b71d7ecaU, 0x374393fe3794b1b0U,
  0x36bd238ab756246eU, 0x35b4aec0b660abf0U, 0x360a7880367276c8U, 0xb6ec2f8eb7252e4cU,
  0x370d30403687334eU, 0x379b1e48b6d0ce96U, 0x374bc336b7736bb8U, 0xb7c8c5cfb65f9afcU,
  0xb65bb14f36beaab6U, 0x37388ad2b693aa18U, 0x36ff2424b814f98aU, 0x3452db60b68edab2U,
  0x37437a16b6ef8456U, 0xb74a9690b685b104U, 0x3711c68bb74e776cU, 0xb72eef8b370257b5U,
  0xb56c7970b6a606e2U, 0xb6d7e182b808dc7cU, 0x37171813b5338554U, 0x35f13008372e274fU,
  0xb61e9c8434c3dc40U, 0x374ad9b0b7588eeeU, 0x3716547236db2940U, 0x35b33f44376d6ee2U,
  0x378dc01837803f26U, 0xb6100728b5eabcbcU, 0x373d61c2b69e8546U, 0x377b29fe367a2e90U,
  0x3748969a36b02ebeU, 0xb71c3914b720f6c6U, 0x3686d3e6b794e144U, 0x37019f96b69f96ecU,
  0x3738eab63625a2e7U, 0x36367fbe36197ca2U, 0xb78ec038b6821209U, 0x37b0af08b7e41616U,
  0x3d4959663d65346aU, 0x3da48357bda74f91U, 0xb9ba5793bd7489d0U, 0xbb9cccfdb98a1606U,
  0x3d800fabb947fe60U, 0x3d6c93263d6e3123U, 0x38a85e94b900b78fU, 0xbc425b3d3b26503aU,
  0x385d5c05b917e0f8U, 0x396fa4d1b9cfb474U, 0x393145c83c9d4083U, 0xb7651166b989154dU,
  0x3918b818b93cf5f8U, 0x38e0f9533d20b9d4U, 0x3937416937d7e6c6U, 0xb7ed3708b71cd548U,
  0xb7873ee6b8aab4a8U, 0x39353b7db87803baU, 0x3d8f163736f78529U, 0x3d5a7cd6b70b09d9U,
  0x3aa57992b8961bb7U, 0x39338dd9b66a0c14U, 0x38a85a78b695398dU, 0x393395c3b8d1363bU,
  0x399b8533b74fb1eeU, 0x3808b5a9b803963eU, 0x392155a13686bf6fU, 0x3887efbeb91bcf6aU,
  0xb712e3ccb6a0ee12U, 0x393ce499b55ce39fU, 0x36dfdc5bb6d82ceaU, 0xb7e42d48b7fbb177U,
  0x37f6795937466c15U, 0x363706e437e9c63fU, 0x3877600cb763daf1U, 0xb7bed820b74d727eU,
  0x385b9020b747ca75U, 0x37b7fb7eb8a525bbU, 0xb79f1188b5db9826U, 0x37fdde00b8831cf2U,
  0xb7d08edab675bc48U, 0x3804213436a021c0U, 0x376521ef37b5f834U, 0x379ebfdcb8508f52U,
  0xb7e28153b7c87b94U, 0x373d861c37050086U, 0x357f506137ad1f49U, 0x379a3fd6b86e2d16U,
  0x37924849b7ad62c6U, 0x38a649e0b78b2138U, 0x379041d0b5d463b4U, 0x377a43d336fdd17eU,
  0xb7cb38c2b730771cU, 0xb742ccb3378b2f40U, 0xb804ea3a36ce4040U, 0xb7ad1a2f374ce358U,
  0x37425f4cb72751e2U, 0x385352f436b2be99U, 0xb79e7b34378720ccU, 0xb7c24725379496c4U,
  0x3599eea03647c378U, 0xb78a3ff637492deaU, 0xb7b5e615b7ee829cU, 0xb73c2de8b6fd12a4U,
  0x3780a271b716dbcaU, 0x37648a853755fb9eU, 0x36d31ce637901b3eU, 0xb7a00894368e3b99U,
  0x37222d0e3724fc71U, 0xb792b2e0b4dd1d30U, 0x37a51cc2371a594dU, 0x36527a443747864cU,
  0xb73cf5a635bf266eU, 0x375f22e5b69c71e2U, 0xb6fb305a34b54110U, 0x373184abb61a2008U,
  0x36f6174a36e17778U, 0xb78ec25234341500U, 0x35b2b1c0340dd9d0U, 0xb6964f52b646e633U,
  0x3613c607b7891429U, 0x358d40bc37cd262bU, 0xb72320d8b76cd86dU, 0x37012a51b7ad5624U,
  0x36ef28a23749cf78U, 0x370048b435706748U, 0x373526a3b59ce16fU, 0x3417c560b6267faaU,
  0x36fa9cf2375f3bddU, 0x374b429b356e81c0U, 0x3665025635f49720U, 0xb69a4ce436b5cb16U,
  0x35b5dd88b6124bacU, 0x37819718b6ff2ab6U, 0x3736fd56370600d6U, 0x365db5e8b7d75d2bU,
  0x363c36c037c13ee8U, 0x36f71f6e370b205bU, 0xb6e03bf8b6072a80U, 0xb60f1bdeb54a73d0U,
  0x37686fe43799934cU, 0xb7679211380940c2U, 0x36402d9bb69f87a5U, 0x36a26874b6cbe724U,
  0x371c1e44b7073e42U, 0x373069f83674b54cU, 0xb6ad3d78b6d24400U, 0x3630fef437109fc4U,
  0x36e985bd36b3c7d0U, 0x373cecc2372d2494U, 0xb645bd3a371352b7U, 0xb6708c3135a80830U,
  0xb5e1216036bb0c88U, 0xb79d3667b8172c9aU, 0x37d80812b8291237U, 0xb5456aa034de9ac0U,
  0x36460d6836df3d0cU, 0xb80d3d913766cd83U, 0xb7810729b78f52e1U, 0x363317e036914f06U,
  0xb7c9c77936d9f9d8U, 0x37b96eb1b7128847U, 0x370a566b36162520U, 0x37ed8509b68081f1U,
  0xb6ab49ebb67d006dU, 0x37967299379b9129U, 0x378df0b9b754034aU, 0x376e740c35efd960U,
  0x3733f6e03544a143U, 0x37c5107eb58bfa90U, 0xb77130233734cf45U, 0xb75e76ed36b48a9fU,
  0x376949e4b520a5b0U, 0x37c51266b750d17cU, 0x36bb41dcb7b81c0aU, 0x37273087372c94e6U,
  0xb640ddd4b5e3b1c8U, 0x37a5f156b610c35aU, 0x37cd0314b6c355a8U, 0x3845c4e2370a14c4U,
  0x36a87472b71ecf00U, 0xb7b57042b7b1229fU, 0x36e44669b70f98e5U, 0x34dd67c037df1c82U,
  0xb7b78de4b704056fU, 0x36abacf3b706d144U, 0xb75e5a7436a41149U, 0xb80ae9fbb8035486U,
  0x36a2ab89b605cf2cU, 0xb6ed3323b703f978U, 0x37bc414db835ad8aU, 0xb72fc81cb5f80494U,
  0xb72a040ab7ce2af8U, 0xb74c4ac2b765c6a2U, 0x3794994036be79deU, 0x364d219a3749762fU,
  0x37d92ae9371b6a0dU, 0xb80cee66378a6a8eU, 0x382d14563607134fU, 0xb80e1f68b5a87720U,
  0xb7239fcf379a821aU, 0xb6e5c0283772b468U, 0x34756ff0b6d2c230U, 0xb7eae5ae361384b8U,
  0x358dc116b705868bU, 0x37c1e51137500636U, 0xb67efa5436fd47beU, 0xb7842eacb6de503eU,
  0x378c8b52b76acdb6U, 0x357a56e0369a318eU, 0xb68f7ad5b7510b12U, 0x36e44ce8b7583bbeU,
  0x3691d7bc37601042U, 0x36ae639db72ca4d3U, 0x37a57f2236909f38U, 0x375d6f3c37ab25eeU,
  0xb66e2a60b7630e14U, 0x37376c30b7081c39U, 0xb7ab8ed6370c63efU, 0xb7082d6036ea2870U,
  0xb6f64fafb78a2af0U, 0x3760354936c11083U, 0xb7871f60b7949793U, 0x35db7160b46e6c80U,
  0x3729acceb77df448U, 0x37717fb236a17342U, 0x36a93d44b713e65eU, 0xb7d7d337378723f2U,
  0x36c3fd8b3785001bU, 0xb771b055b74a4786U, 0x371c73ac370fcbf1U, 0x36a4527c379b730cU,
  0x38bf207cbe1931f9U, 0xbcb65250bcf15b6bU, 0x38e0e0dabce96cb5U, 0xbd007d90bd24ad8fU,
  0x38ca6cb239844af4U, 0xb8637bacb939f413U, 0x3d91c7813ca38d6eU, 0xbb4e15f9bd16b0baU,
  0xb7a0ae48b70041a4U, 0xbde16e543bfd4fcfU, 0x356ca0163ab9fc85U, 0x3c9b60d9389c5a1dU,
  0xba10b16f38d0eb6dU, 0x391a4f9538a629d5U, 0xbccd0df7b882452cU, 0xb730ba16ba060acdU,
  0xb7fbf772b90993ceU, 0xbc99013e3a2eb0e6U, 0x35dc5720b9b53e46U, 0xb8f1b243b718f30bU,
  0xbb971763b715b902U, 0xb728303239d9b648U, 0xb94d1929389d9bc9U, 0xb82bb17ab7f6ad94U,
  0xb86fc9ba3892b495U, 0x3648b44c390ed855U, 0xb729f0773692ce69U, 0x387ccf7db9111b56U,
  0xb803b1e3b7a97c47U, 0xbc79e9f4b87f40ddU, 0xb82d83ec37be23daU, 0x36c8b9c63784f6a8U,
  0xb764347f37babfb1U, 0x370ad84db7fef78aU, 0xb8868157384c6d76U, 0xb90db7f93891ee90U,
  0xb80b182236f0cea4U, 0x382e6d5836f590b2U, 0xb8f37b94b8d818beU, 0x3720be69b7139b9bU,
  0xb783a8c63849193cU, 0xb69056d637fd6ad2U, 0x35c889c83909b683U, 0xb755d5e83877a6f6U,
  0x362f8d54380e0a1bU, 0x36e4fcaab74558e0U, 0xb7b2b8ec392b6292U, 0xb708f34ab736d67aU,
  0x373e8faf380fca4cU, 0x38b4fb3a38875a2fU, 0x37e1734537cf8812U, 0xb67f52c63744b750U,
  0xb7ab7a0cb5d6a910U, 0xb871a2783721ca01U, 0xb6fe3430b50f761aU, 0x35c09a813909ea7aU,
  0x36fe99f4b6cccb2dU, 0x3800b50fb79c83d5U, 0x3793e39bb63f8966U, 0xb87b99e4b8017431U,
  0x36e44d38b6afac13U, 0xb72f42a7b7b61400U, 0x372db0f5b7142ca6U, 0x37d4180538d15db0U,
  0x3c40eb683cbf13cdU, 0x3d47f1dbbc8089d8U, 0x3db719ccbc02234dU, 0xb6509a7fbd7d58fbU,
  0x3735adc1b9de31d0U, 0xbe404b51bd5b848cU, 0x367b5fe5bd709757U, 0xb88e56683cd27640U,
  0x3d85143cb8ddcfa8U, 0x3de96acd3cbb255aU, 0xb8a1744a3df5c68bU, 0xbd147eeab9814c88U,
  0x37799b503cbb26beU, 0xb78d4406be1d7a0cU, 0xbca8cec6389fe72cU, 0xb7bb5a703adf7512U,
  0x39073ef0b8e32f9bU, 0x38044fe53ac959abU, 0x35e7da04ba2697f3U, 0x3c045efe38189e0fU,
  0xb817ace6bc8420e1U, 0x363fe68f378b7b94U, 0x3897e0c638c40c34U, 0x359f5220b7a76027U,
  0x3971874937fe1fb9U, 0xb98561643890c229U, 0xb6b4683dbb3e254cU, 0x368b0b1d3b26abb7U,
  0xb7c1c9ccb8c4423bU, 0xb7d0d64d350b8224U, 0xb669b9d8b8b6cc96U, 0x38e5d4ed380300f5U,
  0xb8a3211bb74cc209U, 0xb9865e3c3767cd5aU, 0xb96aeacfb6d8ae62U, 0x3d33272d37af6028U,
  0x37afc00ebc42d8bfU, 0xb966ced2399c3ec4U, 0xb8b8164036eb7035U, 0x3722cd91b80bff1dU,
  0xb790b235b7fbf903U, 0x3699000a376480e2U, 0x3785d8ba38dcd01fU, 0x37bc6094b7972648U,
  0x3898fb24b89f9868U, 0x3500b0723798b306U, 0x357881d0b84b8f9fU, 0x3455aea0b6fba7f6U,
  0x3843533f37a30184U, 0x38e312eb36f15979U, 0x374618aab6969c27U, 0xb87e5cea3530fae0U,
  0x39350330b7cc334eU, 0x36c02737378bfc5eU, 0x390f58be3835ec5cU, 0x37cfd4bd3902dcd4U,
  0xb6d94f3fb7bc3757U, 0x37cbcfdeb6759aa5U, 0xb6f9fc95b7280709U, 0xb9bb459db7d8047dU,
  0xb80447ee395aeda0U, 0xb8468b3a3617a0dcU, 0x37420ac0370e6286U, 0x36c0ab6cb7f088ecU,
  0xb6d62070b6e17024U, 0x370813bdb6a3f734U, 0xb752d94cb5a53242U, 0x368ba583375de0fdU,
  0x37b8e990376f4f7bU, 0x371fd4afb7a63964U, 0xb5b5d280b6c62084U, 0xb4a07f90382d9121U,
  0x370c733fb6fb4b7eU, 0xb7305a46b766f443U, 0xb697c450b6a30c80U, 0x36ba179db71beb2eU,
  0xb71b578e38236745U, 0xb4cf4148b7ac5a8eU, 0x36f7e77d37961a52U, 0x37161346b634f2e0U,
  0x374e502bb78176e2U, 0x3646e1d8b30f9380U, 0x374a4c3db7c17bd4U, 0x37c3c10c36c140dcU,
  0xb667ae5ab7a90838U, 0xb7995fb6b725b814U, 0xb701555e36f2769bU, 0xb7297354b7aecaddU,
  0x37e29c1bb723d44bU, 0xb6ab525c37d5cfd3U, 0x3598000435cf7870U, 0x365cb12237659978U,
  0xb7d254823787bb7dU, 0x373415efb715be90U, 0xb8215b10b7859728U, 0x3594ad3434884300U,
  0x37934ed337e05a0aU, 0x3731e4513611ca5cU, 0x37d4a005b6b5d8ecU, 0x37338f1036fe502cU,
  0xb6723c40b4e26d60U, 0xb780de2536ead05bU, 0xb6d7351ab659ebb9U, 0x370bbaceb7639c8bU,
  0xb75bf218b7df398cU, 0xb6fbdc7a374dbb79U, 0x371a1836b7db2cecU, 0x373225d5b688db2eU,
  0x3292a200378e35c3U, 0xb6e3275c378624a0U, 0x374a261c37087797U, 0xb58842dc36079b50U,
  0x369ed8b936d3c5d0U, 0x38064a06b7e97002U, 0x356f6390b649f468U, 0xb764af50b6b9ad3dU,
  0xb816a96bb5def464U, 0xb6c002e8b73361adU, 0x366f4c10b7b6a76bU, 0x351d84c037cffabaU,
  0x36b7d9ac37213a79U, 0x36ec4df9b62292d4U, 0x36ddb156b7ae14caU, 0x34c479a035302e40U,
  0x37828000351034c0U, 0x3668b000b5d8e134U, 0xb7adbb3db6182ee0U, 0xb5c79a4037755ac4U,
  0x3d81a3933c3d508aU, 0x3dbcbc683e228b5bU, 0x3d208da7bacfb668U, 0xbbb66569bde2ad2aU,
  0x3e17464ab8f1ea62U, 0x3e3b442b3d71ce6bU, 0x3cc7c158bd2b9b8eU, 0x3e1fa8e6bd9db757U,
  0x393478a1bd9adb2bU, 0xbc9586ef3cb87b20U, 0x3d433bba3e2267d7U, 0xbb9a652e3c8c4c41U,
  0x3918140a3a7e8975U, 0x3cdc614b3de48bb8U, 0x39a654b23d8e0973U, 0x3b10897cbd5993d4U,
  0x3991e2ce3b5ca49bU, 0xba9899c7bc8c77a1U, 0xb8d39dd6bd868ef8U, 0xbe04ce11b95c2d72U,
  0xbb01c16bbd8acdc6U, 0x3b8646a9bc8424ceU, 0x3d9f4c793d78c2f7U, 0x399b2f033d8f44eeU,
  0x3c79c0f6b98ce0faU, 0xb907a0f4b9dab758U, 0x3d784beebc123747U, 0xbb93337eb869f886U,
  0x39a1898cba02573eU, 0x3d8130e53c00d25aU, 0x3afbac76b7c176c3U, 0x396a36a3390c549aU,
  0x38e74797b8c182c8U, 0x38059c973abebc71U, 0x3ded66853a5056dcU, 0x3c1c7f82b8a86787U,
  0x3806a07fb81cd95dU, 0x390d34e13a62ce25U, 0x38a28abc3ac6c8d1U, 0xb713717dbc8025b2U,
  0xb90ca655b970ddb4U, 0x375e4f9cbbb4a7b6U, 0x3800044fbcb72f69U, 0x376c7c9eb91127c7U,
  0x38a4ec33b9aa17bbU, 0x38c10693392b617fU, 0x384956e6b8edef46U, 0xb7f8e89ab9622f5bU,
  0xb866d8f2ba9596d6U, 0xb92cc54fb8d46182U, 0x3809a7ffb86e855dU, 0xb858974f37891046U,
  0x398e08f5b753387aU, 0x39003028b905ef52U, 0x3878025ab853aaa1U, 0xb836bd0eb94d222bU,
  0x38d7f841b8055746U, 0xba71f577b9623208U, 0x38f7e654b99eba1fU, 0x37b2d758382afe8aU,
  0x3909cd3638884a4cU, 0xb759b772b51ab9d8U, 0x386eb01236a86f3eU, 0xb8c89365b9267b4bU,
  0xbc32650fbd377e44U, 0xbe07facabe0d232dU, 0xbd5e1e4a3d33685fU, 0x3d910aee3e064a0bU,
  0xb99d9bc33d9104b0U, 0xbab3d2093d827ac6U, 0xb6a1274b3dc098bfU, 0xbce398733c369e78U,
  0x3cdaf0dfb8747774U, 0x3b16772db82cdf4aU, 0x3d1416203dbb1965U, 0x3cc4f73ab87dd2dfU,
  0x3bb67705babde806U, 0x3bd062223d74f6e2U, 0xbda907d33cf763afU, 0xbb830fa4b92de2c9U,
  0xba84abe33869d39cU, 0x3aee2930bd0ae558U, 0xba96a0cb3708bd4dU, 0x37cc86a8ba04983cU,
  0x384c2f65b908577eU, 0xba7dad5b3a35fdb5U, 0x37cb7d56bba70269U, 0x3822295c38a9d968U,
  0xbaf4b02cb817f115U, 0xbb1bd676b8d90124U, 0xb8752d3b37d6240eU, 0xb6c2191f3832b232U,
  0x394949493ce92058U, 0x392b2bf5b789b403U, 0xba975bbbb8ec12b9U, 0xb8443916ba80cb7fU,
  0xb8018ac7b76fbafcU, 0xb6cd39afb936cdefU, 0xb7b79935b7d66394U, 0xbca403afb865ae9eU,
  0xb9f7e65db845ae2aU, 0x38d7f770b831e228U, 0xbbe81ad537af6a70U, 0x35e267cc35960060U,
  0xb84e82f3b8552716U, 0xb6afd8acb828bda2U, 0xb71177a1b896893fU, 0x390eff24b7e37decU,
  0xb769ff12b7c40d58U, 0xb94013a5b8c0cbcaU, 0x38978c4336f67382U, 0x380d5530b8033a0bU,
  0x37f39988b9077e94U, 0x3886b5dab8ef9928U, 0x3824e500b8dc6fe6U, 0x395dda9db8a91e5fU,
  0x363a592c3701a77aU, 0x38ed1ca03656e34dU, 0x388c5a13b8216997U, 0xb6cb4251b862aa2aU,
  0x383d01a8b8c16008U, 0x37da717338822b31U, 0xb7e42b733640e643U, 0x3890a7dcb780ea56U,
  0x387e291fb76531cdU, 0x38e3ca44b8249afbU, 0x388bfd64b81e5bc8U, 0x38232a2eb8be0f8aU,
  0xb687dd9c3644d540U, 0xb718ae45377bab0fU, 0x36eeb2ba360052eaU, 0x372ba924b64b85e2U,
  0xb6ed16f23705edeaU, 0xb6845a7f36bae207U, 0xb531b13036e68cb4U, 0xb7520d8d36437a28U,
  0xb6bcf124b71c8af5U, 0xb788a05b371bf032U, 0x36b92f0cb6a41d4eU, 0xb7b8623cb78e45edU,
  0xb70387a8b709f292U, 0x370b6c7bb6d27a68U, 0x36082d9eb752f052U, 0xb7e48894b77f8e58U,
  0x374b374437267eedU, 0xb78a3814b782f51eU, 0x372ae63cb829367bU, 0xb722bf5db71116f5U,
  0xb7d4d41fb4a61e80U, 0xb54e8ea0b73270ceU, 0x369a6dbdb7319c8fU, 0xb7af58c7b788413cU,
  0x35e70c2037420750U, 0xb67cd13e3654bfa8U, 0xb68f6b3c345a8080U, 0xb694cc623798ca74U,
  0x36b0b21237aeeb6aU, 0x37f93a9a373f3a0eU, 0xb75dd314b6428080U, 0xb670898437f2f62eU,
  0xb7fe9037b7237206U, 0xb7ded8dab73eb4b6U, 0x3646aa3cb70182cdU, 0xb7048c8fb70fdc33U,
  0xb7337a6c38069d07U, 0xb70cfee5b6a7b30dU, 0xb6d574db3688db96U, 0xb70a67483704c3e2U,
  0xb5f88428b4488aa0U, 0x36bba0b8377bda7cU, 0xb7ae5802377ab383U, 0xb6d3b434b51a9630U,
  0x37681dea3807dec5U, 0xb77a4c1934c954e0U, 0x375721d83781c61bU, 0x36a5e09cb796e032U,
  0x37bebab235a89226U, 0x378d9ec2378d9e3aU, 0x371ed2ee374f7032U, 0xb620e0f9351743e8U,
  0x38074a5bb61b9b84U, 0x37dee8aa361ed0daU, 0x37aaa4fab659d56cU, 0xb6b55cd0b5fb3cc0U,
  0x36d2f883361d3244U, 0x364e3decb4428400U, 0x36b0a5b9352bddb4U, 0xb6fefe3637342571U,
  0x383087f7b5922136U, 0xb704c4f735b72328U, 0xb70e6f563650ad64U, 0x37d26f0bb73256eeU,
  0xb6f8a20a37bd1702U, 0x37ad482b37a129a6U, 0xb65bf664b7bfffa8U, 0x37c9e4e83742c7adU,
  0xb71f8992b7d3afbeU, 0x3675dad9b78efbfeU, 0xb52be75037bd9c35U, 0x37d1fd0e369773cfU,
  0xb6e2417a37765a4eU, 0x3784a8ec36bb5dc0U, 0xb4f42a2037803cffU, 0xb72ad53eb59979d8U,
  0xb75fe704b783770aU, 0x379b4f8037b855faU, 0xb6ab650c37da1af3U, 0xb6fd4739b50f3b9cU,
  0xb61304a037839eceU, 0xb759e2e03784521eU, 0x3810c5b236560822U, 0x3794a50b36a05fcbU,
  0x3774e6c836b93ba0U, 0x3731e87f350aa784U, 0x36839eccb7d8d5a7U, 0x3786d7ccb738e966U,
  0x36e427ac379a8c09U, 0xb6ae3a6ab70b4066U, 0xb7a4e19c34f277d0U, 0x378f07bcb621070bU,
  0xb80d0c08367eea24U, 0x36deac14b6793880U, 0x383743ebb77b5337U, 0xb75507c4b65623c4U,
  0xb74375fb350c92acU, 0xb74d967c36e911beU, 0xb640ff1c351f9974U, 0xb2a3d480b6c9f753U,
  0xb654430235dd551eU, 0xb7b7bfbe36b7d96aU, 0x36361be135af6002U, 0xb768b5e4351460d0U,
  0x3761001e37fb94a0U, 0xb7fa6c2ab74e73c6U, 0xb782f83cb73e795dU, 0x363ac00c3680dbceU,
  0xb8126bd236d37e18U, 0xb718e6d53796348aU, 0x3758803a36622afeU, 0x363790803793b4aaU,
  0xb7d6d506366f33daU, 0x382dc5d437302779U, 0x36da9b4a36adf46fU, 0xb82d802935426d98U,
  0xb72a55163666798aU, 0xb72f8aafb737b5d7U, 0xb756e3dd34d52a00U, 0x375ac0f3b7a3189cU,
  0xb681ba15b77bb00dU, 0x3793427ab7830cc7U, 0x35479cc8b66ca5aaU, 0xb79a1df8b7cb783aU,
  0xb69624a637956028U, 0xb6242e98371d2564U, 0x3649baa4b7ba2f00U, 0xb696db7036efe11aU,
  0x3e0fd40dbdded4a1U, 0x3dc361a43e2a022fU, 0xb8f0d8e2be0eb718U, 0xb9c8874d3d2d991cU,
  0x389df45a3abb591cU, 0xbd3d1dc93dd45690U, 0x3a70d5863dbdd217U, 0x38b402f2bd294cd5U,
  0xbd94530cbd9de250U, 0x391ebd53b9c8157fU, 0xbe000fb5be10f674U, 0x3dc5097ab90a203eU,
  0x3de1bd9cb6ba0f1cU, 0x3882862f3a9a43e8U, 0xbd144d603b79a0d9U, 0x390eb6123c140f8fU,
  0xbd7e802c3b542f91U, 0x3d1748a1bd6bb595U, 0xbd0ac9343b07927cU, 0x3c2ae909bbdc2271U,
  0x3bbc4b273ddd8f0dU, 0x3d5f56ebb7a98119U, 0x36df1e7238dd7934U, 0x387ae277b7c2ad79U,
  0x3ab84de1b94d0116U, 0x38f754703d5a4b9dU, 0xb83eca0ab8cee4efU, 0x3d03cbadb884c27aU,
  0xbd0c3b363cdaed7eU, 0x3ab91346b8f310a6U, 0xbd3460ee38456a60U, 0x38d7cbc037968501U,
  0xb799df57b7c271f6U, 0xb8681ed63cb4ef58U, 0x399984eab90a2d48U, 0xbd1ca9d8b913d7caU,
  0x389611efbccae2f4U, 0x38a25ace3880286cU, 0x38f25224bdb4cc7bU, 0x38485b93b997ad09U,
  0xb7a6a6d4b96fa7f1U, 0x39820c4b3c9ddc7fU, 0x3ce288eeb89c95dcU, 0x37f4d35db83296a2U,
  0x36cdd09bb90db353U, 0x35c50028389dccaeU, 0x385f48b23775b5c6U, 0x37e00b04381a1198U,
  0x388acc4d370fffa7U, 0xb85efdc4b8bfee30U, 0x37e49b5338787922U, 0xb88c4d1936b0da5aU,
  0xb84aeaa4371ea95bU, 0x37959de4b7ec59ccU, 0xb8447a8936cad636U, 0xb85835143716667eU,
  0xb7bbae7f377b0a32U, 0x36e4b3c4382d027fU, 0x37de359bb5a35b28U, 0x3748e3183826c2bcU,
  0xb8946fb7b920ab3cU, 0xb663bba2370b2d12U, 0x38d9c863387d01e7U, 0xb7b587ec37a19e45U,
  0x3714449437663fb2U, 0x37a899a4379ab323U, 0x36972a8c3778880cU, 0xb7686b08371db2b0U,
  0xb732e956378df5b1U, 0x37c95fc4b6e2fed2U, 0x35908b8836fbeeb0U, 0xb631adb6b5573b10U,
  0xb61aaebab6ddf93cU, 0x3793f82e36ec12a7U, 0x370a52b83604bc94U, 0x37512962381ba1b8U,
  0x371daecc354cc2c6U, 0xb5fea6e036a3ee9fU, 0x370c35b3b6c7b17cU, 0x375e75903783af00U,
  0x37de499c36d86e3fU, 0xb5f6a108b74e2e76U, 0xb7bc8afbb7193d10U, 0xb74a2e7736c3448eU,
  0xb65fbf7c37c3a054U, 0x355f594037c7b442U, 0x37748f0e36df2054U, 0x37943288b6bad304U,
  0x37451f3637c2666fU, 0x36badceab6f9a005U, 0xb698ba96366e6024U, 0xb7c3ac0cb6b40996U,
  0x37a2e9fcb773831cU, 0x37939b2e37ad71aaU, 0x364fb382b70b962eU, 0xb604e07036d4ad72U,
  0xb79a2e513686b4d0U, 0xb8029b57374182e1U, 0x36a904c83759f2fcU, 0x3687d4c638167bbeU,
  0xb7515202b741439dU, 0xb76088ecb7a6fa75U, 0xb74faf1fb792dde3U, 0x37a455e6376f02d4U,
  0x36ca04343738dcdeU, 0x36996014b7266090U, 0xb62b89c4b6b8e2f4U, 0x37858f08b5819694U,
  0x377680cab76ef2bcU, 0xb80b9b6db70baf0eU, 0xb6a96b6136b79a67U, 0x37d8b2f4b593d9ceU,
  0xb662d948b79e09f4U, 0xb7133930b62ffc58U, 0x373cf56635de4b70U, 0x370a62d436826984U,
  0xb61b146037b7e444U, 0x37816cbe37975273U, 0xb6231d2237487fb3U, 0xb656679c36a50162U,
  0x368ca4b8b5b5c46cU, 0x361451f0b57c04c0U, 0xb65d5f6137dae6c0U, 0xb5958da0b724bcdcU,
  0x35980decb6d07a25U, 0xb7df6535373a6e59U, 0xb6b5b35cb69eae50U, 0xb7a465703736d9b3U,
  0xbe3168ddbe05be63U, 0xbe020a07bdaf0641U, 0xbc9ca0e63d8107a1U, 0x3e025f693d9627a9U,
  0xbe32e7bf3d8502d1U, 0xba462576b862b692U, 0xbc8662da3e189e55U, 0xbba97962b8ccc0e5U,
  0x38a43ee43db63e0aU, 0x3a205dad3da11bf4U, 0xbd8070af3dccfb0cU, 0xb74d87bc3d4b87efU,
  0x365d151d3d471156U, 0xb8fa94d1393b309eU, 0xbd907b863cc25ed5U, 0xb9d4bf0db90f24daU,
  0x383b0c7dbcea9e00U, 0xb4528c603c01a023U, 0x38b86d7f3d16d1f9U, 0xb9fdc5c93c2444deU,
  0x38225f92b98df80eU, 0xb890e2353b1cffc9U, 0xb5dd6100b9a0cab6U, 0xbd530db33caa4249U,
  0xbc71b73c373c658bU, 0xb7d20cc23b5482daU, 0x3c739c9d3d2aec51U, 0xb9198a203c43b745U,
  0x39153dfab949ae61U, 0x38bd9ded3ca856a5U, 0x38b8aa79387e7c72U, 0xb95efc843925cfb4U,
  0x3429ce803703f21fU, 0xb879e54fb9846971U, 0xb8b6b41637d76889U, 0x38a71aeab68ae8c1U,
  0xb6a7d11cb62ce98cU, 0x3895fcfcb94ce6f1U, 0x37c33ea839b10faaU, 0xb70a704d391258b9U,
  0xb95e39ac385c9a1fU, 0xb8190f0037d03e9aU, 0xb8ac567a37bdea86U, 0xb7dc1b5936979112U,
  0xb9429d78378fe82eU, 0xb7b1a728b821b109U, 0xb87913c1b7c8e43bU, 0xb90cdc8cb94795c8U,
  0xb840c6e2b6bfb79cU, 0xb96d60453559d190U, 0xb816ce0fb813910aU, 0x392d8759363cffe4U,
  0xb62393d4387639b4U, 0x384c36dfb7319636U, 0x38d9dee0380b1664U, 0xb54648b837070bf7U,
  0x37a32114b5bec4c8U, 0xb8f7f23d38b68feaU, 0xb890d6b63840d973U, 0xb7f3e6ed37a43908U,
  0x373db57837cc09b0U, 0x38bd12fab4ad0900U, 0xb872b7c73787d10fU, 0xb81c5b38b8b1390dU,
  0x37a1a7bbb5144f4fU, 0x378660de37625f66U, 0xb51ead5037c4a2c8U, 0x36e215e8b72eccb9U,
  0x35a02134b79aeab4U, 0xb70f34663719c641U, 0xb619743c35f5a294U, 0xb6954d0ab77ee2b6U,
  0x374a6f0e3709611cU, 0x379477b2b73e86e1U, 0xb5cbef783794e23fU, 0x37ba6b31b660c85dU,
  0xb70aa32437042b18U, 0xb7cc83fd36dba1f7U, 0xb70edb00b73dc626U, 0x35ea4ff036dd2d6eU,
  0xb7988f4ab796dcfaU, 0x370b24363728fe78U, 0x3708f4783758081bU, 0x36b0fc11b71870abU,
  0x367c9234b7289528U, 0xb570f1d0b7680289U, 0xb730fa4a35852598U, 0x36a72adab626f34cU,
  0xb7f0bb9137f4bbfeU, 0x370f2d2737848e6eU, 0x3692a8ee36c92e91U, 0xb71c5b8836e666ccU,
  0xb705d1f1b7716d2aU, 0x37ab02af35727448U, 0xb6caa734368686feU, 0x369b518c38146905U,
  0xb6564e1633142b00U, 0x3711cfc33713c5c2U, 0xb68ed2783542a518U, 0x37905430365f16f2U,
  0x373c11e7377c70e5U, 0x37e151003508e2d4U, 0xb6f6490435b73aa4U, 0x3710cd073717e0a0U,
  0x37f89613373a04efU, 0x3621642cb681f17cU, 0x36d9333cb50df570U, 0x362dd85437129d9eU,
  0x36f0d5cbb7522c35U, 0x37a73856b6a631c7U, 0x358dc61837b55215U, 0xb71fbe54b733d867U,
  0xb69c9f2bb5788f70U, 0x371a9c403828b0a0U, 0x36f878b6375de2f0U, 0xb61510f23713b5e4U,
  0x37b59b1cb711b0b6U, 0x361768d0b6f7ee53U, 0xb6e0719e3749b8acU, 0xb7d7d209328a5800U,
  0x363561beb7479a26U, 0x369ef51e374ae84bU, 0x36d67a4437b415b6U, 0xb69ad99236eda371U,
  0x37380aeab78ff359U, 0xb6cded9eb68ebbacU, 0xb7ee2167b5455874U, 0x378ff1ecb797c75aU,
  0x381a22383d9e3183U, 0x3d98f6debe1560afU, 0xbdbd6145be446e6cU, 0x3d65dd463ce4dd07U,
  0x3de2f4443d6fb3d2U, 0x3d567abfbd921d73U, 0x3dcdab8c3dcda1a3U, 0x3d8ac401ba471246U,
  0xbe1849093dce8ef3U, 0x3ddd7c84bb71a65aU, 0xbc20db79bd25f136U, 0x3cf4b5153db792f4U,
  0x38bb0739bdefc432U, 0xbcedfa6e3e11939eU, 0x3e4e7d803d0a1295U, 0xb8e912953d667728U,
  0x38b27fdf3e3f5ff3U, 0x3df08430bc3d0783U, 0xb8bfa5853d18d66fU, 0xbc83d727bda08d85U,
  0x3b81945bbd99e1d4U, 0xbb3191fdbd3a5c4cU, 0xb7c64ad0b8ae47e3U, 0x38076a6b39853d53U,
  0x3d846d16bd59106fU, 0x3bdee2e8bd510983U, 0xbb355a1f392a839bU, 0xb7e42bd83c14d1dfU,
  0x3957a60cb9042426U, 0x3886f7473c3d3699U, 0x393f726fbd56fc4bU, 0xb8d5635cb80da597U,
  0x39832cee38e4a63fU, 0xbc87d6ba3c0092d9U, 0xbbdbc6793694f896U, 0xba99e84c3964a3f4U,
  0x3d1c3e43b8341e10U, 0xb5b7c2d03cbb6103U, 0xb946903d39eb423fU, 0xb67c2bae3d6c734cU,
  0x360bc7883cab016fU, 0xb8a9d7993c508936U, 0x36de49083caa1378U, 0x386ba0a9b94a4490U,
  0x3847b5f137a83537U, 0xbd8a0762b881d287U, 0x38f780edb9086f51U, 0xbc4b17ecb922aff5U,
  0xb7c7ac63b88ee11eU, 0xb923b621b8d69684U, 0xb921230cb85615f4U, 0x36ec44f5b8ad648cU,
  0x3700057a366f9938U, 0x38ff0cd3b981795fU, 0xb807025bb892279fU, 0xb7737499b91db09fU,
  0x37ae61ecb6aa3eb6U, 0xb9008def38da4c0fU, 0xb923e43537b00a6eU, 0x37831bfb3863fbf2U,
  0x388fd949397669acU, 0x38e7c8a036165803U, 0xb938dc1fb91be710U, 0xbb511fddb9579f65U,
  0xbd880cebbd1ec470U, 0x3dc40fd8bdb3b3daU, 0x3d6cafb03db30e14U, 0x3cc45704bde2f098U,
  0xb8cd6730b81058a5U, 0x3c77b769bbfb1953U, 0xb924c5b3badd6313U, 0xb8a49d7b3a9dd51aU,
  0xbc523380bb097a71U, 0x38299dd2bb292396U, 0xba9468e639726f17U, 0xb97b7fe0b8e326e2U,
  0x3e1eaf4db80c7a11U, 0xb98e224db951682bU, 0x3da7ad8c370f2002U, 0x3aa71babb7453817U,
  0x3925769f39cdec6eU, 0x3981416c3998aecdU, 0xb9301bbf37db812aU, 0x3997067cb99e15d6U,
  0x38ba04ec38c7ce42U, 0x3901853ab9462930U, 0x39b34a343879cca3U, 0x389c7900b93aaf36U,
  0x399e4ea7364f343eU, 0xb991f311b961d13eU, 0x37c50624b950b252U, 0x37cd82a0398c67acU,
  0xbd53bd4db9120349U, 0x35859ae0363c980cU, 0x37e4bd50b9bb1baeU, 0x378e04fcb94867f4U,
  0x3939ddeab9556b73U, 0x378ccf06360ba7fcU, 0x37a47588b807815cU, 0x388c23b7b7a60f06U,
  0x38bfb0d3b925abbbU, 0xb917cdb93915cce5U, 0x378add42b924a220U, 0xb89828f3b8e07515U,
  0xb7a10713b83a4142U, 0x36ed613eb8b2da0cU, 0x3964e097b89f1bf0U, 0x3793ef42b8765380U,
  0x395b934fb91014bdU, 0x37d9919737b40714U, 0x38984dbab8f07c85U, 0x3754d7d0b7ac7422U,
  0x383c9504b7ac8ba3U, 0x38e327f9b90d79dbU, 0x38206eecb837aacaU, 0xb912e9a5b48318e0U,
  0x37a9bb27b8987c61U, 0x391f592ab7e43416U, 0x37f7343cb7bc3b51U, 0x38df99dab850e5d1U,
  0x38de8ccab8c534fcU, 0x3724ea51b917eb36U, 0x38bafffcb803356cU, 0xb89cc71eb821e08fU,
  0xb7264f2d3918c82cU, 0x37cb645fb5998d98U, 0x39400670b7f64909U, 0x387154f9b86b4bbfU,
  0xbc8d3e8c3c64f1e4U, 0x3c0ff882bce09bcdU, 0x3e2b2b543d331004U, 0x3d0982dcbb778a6fU,
  0x3b8ab1d138be80aaU, 0x3e37bd9ebc45fc82U, 0x3dd76971bc046890U, 0xb95965ea38bd9223U,
  0xbad48e9dbd02746bU, 0xbd5ed837bd507dceU, 0xbd2fb599bde18969U, 0xb8b55c6ebd6e97fdU,
  0xbcf1705bbc8ec196U, 0x3cb85b3b3bf83e5bU, 0xbab8cc133d1b0f90U, 0x3c32dfcdbce80a61U,
  0xbcb825e7bcd9f962U, 0x3d9e187f3a91b9bdU, 0xb74761543c8d1c9dU, 0x3cdd74ac3cc28a65U,
  0x3c245e233d1bb326U, 0x3d18793ab9954373U, 0xb921e2c53d50d276U, 0xb938a8a2b993fed4U,
  0x3c858ea53d03fe5cU, 0x3d2913b7ba95a116U, 0x372cd889bb7b1231U, 0x395aa726bd0fb6b7U,
  0xbb67b50c39894e8aU, 0xb95c077cbcfb84d2U, 0xb7ee9e1cba39bffcU, 0xb8d4a08cb943b10fU,
  0xb8a7ebb3bbf303c3U, 0x37e08e5839201974U, 0x38256b1a36c96213U, 0xba9ac34e370dec5eU,
  0xbb8e472d3726a30aU, 0xbc6af2f1b92be038U, 0x3812836ebcdc0123U, 0x35e38ea0b7ed59d4U,
  0x394b39bf38d051e3U, 0x38c1407d3b3983dbU, 0x3797750f385f0b18U, 0xbba37f133dcf441cU,
  0xb850c5bb38a63c9cU, 0xb82a43dfbd085d20U, 0x3cd3cf86384a197aU, 0xb6e132ca392d4c87U,
  0x3818ffbc38ddca28U, 0x394e04593af67dabU, 0x37a96bdd37e3b4c8U, 0x3667878c37aa1cb5U,
  0xbd50bb76b8345400U, 0xb8bda4d537582d14U, 0xb870827837f41ca4U, 0xb6713a5838a598b1U,
  0x375801d0364e8184U, 0x390f22dbb6cfe4eeU, 0x382c912935a953ddU, 0xb7116310353e6062U,
  0xb834b54bb8833c08U, 0xb8bc3ddbb7812d7eU, 0x371efd3eb7515c96U, 0x383397da3925bddfU,
  0x3dd0e0d93bfe624bU, 0xbde2cbcc3be6b1deU, 0x3cde7542bd559a43U, 0xbd9c97e73ca8170aU,
  0x3d47eb513a42010fU, 0xbe49a945bdbb6674U, 0xbd1140aebc998147U, 0xb87a8b143a24e407U,
  0xb95d4f2a379d19cdU, 0x3dc125343d27725eU, 0x3df499893e176575U, 0x3d5ea32e3e0508a0U,
  0x3c56908b3d127df1U, 0xb988c3a83cdf99aaU, 0xbd14eabc3a902b34U, 0xbce525aabd000059U,
  0xb82b16edbce23ce4U, 0x3a37100dba4731b9U, 0xbc2df429bc04dc20U, 0xbd803354bdc813adU,
  0xbcac6c4dbcaecb30U, 0xb82a96c3bbd1ba84U, 0xb8046de3bbcbc07aU, 0xb9786157b9afa69eU,
  0xb84597b4b59b49e8U, 0xba1067d538effd6cU, 0xbdab3977bbead6ecU, 0xba8e9b5b393db268U,
  0xbb988101bcaa09deU, 0xbb974893b915fad7U, 0xba847706bba841b4U, 0xb805893cbc086220U,
  0xb8ed5f7ab91bbf7eU, 0xbb34f1f7b770942eU, 0xb9a7c0e2b81cbfb2U, 0x37cb389f3c79e4ceU,
  0xb93f1abb3713b226U, 0x3993762739a9aa62U, 0xba0976eab826063eU, 0x3a2667033a9360dcU,
  0xbb807b07b90a19edU, 0xbac4ed1cb7ce6e8fU, 0x3883f85d3a56d8b8U, 0xb6f3d188b8a37a41U,
  0x3a4d1cf839cefba6U, 0x383855b83cdbd1c0U, 0x38e5b2f239c1d3baU, 0x391a9adf3896284cU,
  0xb9d39c0a392ae639U, 0x3921ba0cb69c3786U, 0xb819cd2ab77ab528U, 0xbb1c66a138c9d6faU,
  0x39bd1d3f39683a78U, 0xb848ddf639b7ffddU, 0x392c3c86b80d31eaU, 0x37de711239e1c189U,
  0xb9a11ce6b7a31f5fU, 0x3852d2ccb788813fU, 0xb93ebe9a39cdd6a2U, 0xb9b8dc3338814403U,
  0x38d897643a2acdd6U, 0x37be0b8f380a1d48U, 0x37a16071398b7305U, 0xb7d8c616b7af2b00U,
  0x3dc6275ebdb71ffbU, 0xbd8d5ef5bd86864fU, 0xbdd9f921bcc6854aU, 0x3c4cfe1d3cf55adbU,
  0xb94e089f3e2465f9U, 0xbe101dff3a0c0aa3U, 0xbe1a9e48bcbb4f7cU, 0xbce7786d3e09af4bU,
  0x3c334c1c3cc86017U, 0xbbed8f4eb441b740U, 0xbd51b9c5bdfc3d4fU, 0x382d518d3867cd82U,
  0x3d8c7ce33deee3c5U, 0x3cbe55a8bd28c7ddU, 0xbbc6b2403c25ac2fU, 0xbe38272b3af567deU,
  0xbe08f324bd5cdbc0U, 0x3d98bd06bd7207afU, 0xbdd61d86b7880b7cU, 0x3af00f72bade9af7U,
  0xb8d2a3c837d9a182U, 0x3800e86c39cd0c20U, 0x3cfcd5ba3d72de30U, 0x383ec67a3982c1f3U,
  0x396f43b3b926dca4U, 0x3877e6d1391b0527U, 0x37007a5138fc9351U, 0x3b9a53943d2dc45eU,
  0xb69d96ed398e8807U, 0x37c42a85b903e646U, 0xb7589e863799ced2U, 0xb8dac953b97e6176U,
  0xb8fc7fabb8089bb1U, 0xb6e3b2e7b832b3b9U, 0x39281fad391baa1cU, 0xb7ab35c638242ab8U,
  0xbd1d020437073202U, 0xb9575c71b8e57056U, 0x376643ebb9793fddU, 0x384331d0b6e5e60cU,
  0x384363a137a15f76U, 0x390cb13238a9d39fU, 0x381e622bb6fd507eU, 0x384edbde3804d106U,
  0xb7d2484bb70aee4eU, 0xb66164d8b8c89bd9U, 0xb79fbc7238c6b5deU, 0x3891c928397c1de2U,
  0x38864467b831a7dfU, 0x38461173b8368a1fU, 0x3804f395b708bec4U, 0x37f713a0b76ad03cU,
  0xb9480998383076ccU, 0xb7a1738c395bec76U, 0xb7b868dab7c77a30U, 0x3854670138c08580U,
  0x36bbf62838049fecU, 0x38dd2142386f7b91U, 0x389ca50e38b9ebdcU, 0x3819d46ab7f44ad6U,
  0x3823c7d7b89d41f0U, 0x37c139a6b7d98821U, 0x385b3cb4b7e3e995U, 0x387405ecb7f9409eU,
  0x3d91c2723d059a0eU, 0x3a913ef6bce23426U, 0x3acbb5fc3dab0328U, 0x3d6b75abb9941b39U,
  0x3a0f390ebd20ebd2U, 0xbcd754feb9d354a9U, 0x3974afff3c80cef8U, 0xbc193140be034729U,
  0x3dac694bb7878e6eU, 0x39963785b90beb13U, 0x38a1d407be1d512aU, 0x3db72298b9601cecU,
  0x38d48cf2b7eb8149U, 0xb9d94233b9b89447U, 0x39a6b78abcefbcafU, 0xbd7d79a53d10ef1bU,
  0x39559e19b99756f0U, 0x38977917bd9db053U, 0x3d1265c23d51729cU, 0xb94ff454b82d4359U,
  0x394fc3d03d863bb1U, 0xb79965843878822aU, 0x39f415c3bce07cb6U, 0xb7a75b6738c66023U,
  0x381fde7bb7a61102U, 0xb882d27fbd30c906U, 0x398905d3381e7aebU, 0x3823ed75b7d09fb8U,
  0x3902f036b954a20dU, 0x393883fe397f6aecU, 0x37f729c9b856a8b9U, 0xb72d740db8d56851U,
  0x38eae96cb8052e8cU, 0x39a9d92e38dd811bU, 0x399890e3b9d6dc52U, 0x3925f904b84114a8U,
  0xb831f49fb90d6780U, 0x39a6ce0cb828a44cU, 0x3a137c38388d5aaeU, 0x371830b7b5c40978U,
  0xb6c5fee4b82b8404U, 0x30a94000b99f3784U, 0x370e9042b8a30e62U, 0xb86594d2b90a90ccU,
  0x387f2fe0b9a37e7eU, 0xb8b0361ab93154b7U, 0x36dec1f8b90503a9U, 0x362cc96db92a30dfU,
  0x3998fab1371a32a0U, 0xb9f4014536e4b8fcU, 0xb89c950a373c945bU, 0xb8238fdab9062239U,
  0xb874c970b7b8ce04U, 0x38df2e82b857fafdU, 0x3884a014b7f5d4e8U, 0xb6c09180b9ba4ae0U,
  0x382efac73519cb40U, 0xb853c59b375fc76cU, 0xb7a875deb90277abU, 0x391ae90038341471U,
  0xb5530714b9501d58U, 0x3889e0e4383afeecU, 0xb8b7ffedb7635c39U, 0xb88379aeb898972aU,
  0x369fc4d6b639b40cU, 0xb6e73ae6b74278c4U, 0xb6930a6cb51e25f0U, 0xb5f714ba371f2221U,
  0xb666040837634f0aU, 0x3777418c36e4a848U, 0x36e82dadb713bd9aU, 0x36852fe63746e8fbU,
  0x37a9eea437447e0dU, 0xb773ad7e35fb1cb0U, 0xb74e62cdb7467029U, 0x349cc0f4b3ad27e0U,
  0x375e60c2380a5d26U, 0xb631c3e0b7b672b3U, 0xb5c1fb30b6713e5aU, 0x377815dcb78fe676U,
  0xb5f34094b7800cebU, 0xb7ab825ab6825a5dU, 0x35d774c8b55a2f40U, 0x3623e7bfb4ee9e68U,
  0x352868e03722a6d2U, 0x37989165b710b9adU, 0xb6d3cef6379ea409U, 0xb68bde8c373b3e2aU,
  0x3794c617381b81e5U, 0x35f19ce037ab8cfbU, 0x378f53d1b7112ccdU, 0xb7b5427c345c5340U,
  0x3742700d375b068dU, 0x37d3c99b37c2a21eU, 0xb7424170b6d44068U, 0x36de3bbf377d0d58U,
  0x36c4bc7a36c149b2U, 0xb6208f3036019e6cU, 0x354da380361c8d70U, 0x3741c50a37a40647U,
  0xb688424336b16956U, 0xb6d4275e378c4762U, 0xb3895e1037632f90U, 0xb6bdb5da374c0f58U,
  0x36506ba8b6de11fcU, 0xb52d5ce4b7875d84U, 0xb6e8fac63676f87eU, 0x35daf7403697ea60U,
  0x37f5e28d36d68cd6U, 0x37fa9b5e3664859cU, 0x379a13ceb7f9982fU, 0x36c91df037f3bfc8U,
  0xb797efb035d59c88U, 0xb839196cb76b5364U, 0xb6db544037daf408U, 0xb55f1e34b645199cU,
  0xb7978ac9b83d0066U, 0x364cfff6b759eb52U, 0x3786160ab69f6c10U, 0x36dc907236978ddeU,
  0x367ccf6838080c5cU, 0x378070fcb6a9398aU, 0x369a188e3743f3adU, 0x37a94cdeb7939adaU,
  0xb6e59ba2b8087318U, 0xb744d3ba37aff2c0U, 0xb6a8667cb7a88883U, 0x329ddf00b6d290f5U,
  0x3816c994bdb7f285U, 0x3cc92ebd3e26d1a8U, 0xbd81eeee39b8007bU, 0xbe26388a369a6b6cU,
  0x37958c6cb788ccceU, 0x3d2de3903828ef55U, 0xbc9ef94a378b2eb2U, 0xbdd696173d5b3c79U,
  0xbd0ca1bebcfbe992U, 0xbd4212593b3c2c3bU, 0x3df4126e3e088feaU, 0x37eca06f3ac3016aU,
  0x3891971737e1e9fcU, 0xb8f488a0b87c140bU, 0x397b0dbf37274934U, 0xb91a11803cffb336U,
  0x3d3d20c73da78b70U, 0x38b15587b8c42322U, 0xb83cb6acbd81510aU, 0xba12fb2cb8221185U,
  0xba2c3695b9b6233fU, 0xb7e5abc03a97deffU, 0x398e33ecb763bc97U, 0x371d6b5438397ab9U,
  0x3689aecc36099eaaU, 0xb8c55382b95f2cdeU, 0x3794ea4a38932daeU, 0xb988c43138dcf24cU,
  0x390806ecb964f774U, 0x3828b29638805b6cU, 0x38a45bccb92ae36aU, 0xb79dd71e37b0dffaU,
  0x3920136a36601c18U, 0xb7960972b92af8d6U, 0xb8406378370c4066U, 0x38a8e18937b32a45U,
  0x38e2b37db8c3ffbdU, 0x3c9ef043b7833ba4U, 0xb7d0b7e938e9a61cU, 0xb89ccf13386add45U,
  0xb85305e0b8882549U, 0xb8731cdcb5c7d9c0U, 0xb8231e52b8112396U, 0xb81c6441b858275bU,
  0xb5adc09cb782147aU, 0x370e9b283791dd77U, 0x35300660b839e025U, 0xb7b1fb9136ffdc00U,
  0xb7b9a3d8b60470ebU, 0xb79fb19cb856921cU, 0xb80628cdb8e3c2e6U, 0xb639b6aeb86cd5edU,
  0x39225537b74692c6U, 0x3822739db3760800U, 0x3885b7403813d834U, 0xb654f34cb8e00ec0U,
  0xb49f8f00b6f056f4U, 0xb780a19fb7dccafcU, 0xb8942620b6e06807U, 0xb75a1144b79f1196U,
  0x36b8f730374a577aU, 0x386e72763794bbb4U, 0xb776ff2eb7c3162aU, 0xb51b7990b8be1dc0U,
  0xbd8324f9be101623U, 0x3d4184c7bdf0b5deU, 0xbdb749dd3e2baca2U, 0xbe4e44403b11eaffU,
  0x3e1e25e8b84d0249U, 0x396718f3b861f6ffU, 0x3af530d23db2867dU, 0x3842b21eb868c229U,
  0x3bfae84a3d3658b0U, 0xbad9d5443de86ee0U, 0xbc2d29bfbd22131eU, 0xbc78cab1be3c0221U,
  0x38a7e9243a1bbc16U, 0xb87cda1db8837baeU, 0x393b24eeb9201c67U, 0xbac595c23d10f018U,
  0xb8a1b0833b1c20abU, 0xb91f1295b99b3685U, 0xba4555b0bd2cd9f1U, 0xb93cd4d7bd648f0aU,
  0x3921cee7376e8cc6U, 0xb8448c5b38311800U, 0x3881e8afb80fd10aU, 0x389a3941b8d648b0U,
  0xb85665c1b651bd37U, 0xb77b2cd3b806a263U, 0xb73691613911f03fU, 0xb5f9c6beb4cdaa10U,
  0x396eb0ae37beaa9bU, 0x384e2646b7da54dbU, 0x39287a7538d21df5U, 0xb82f6f693781c8fcU,
  0xb724c6e4382d4fa8U, 0xb886635cb8f853c7U, 0xb936573f381c187bU, 0x3888f301386b6528U,
  0x39966190b874f0feU, 0x395bb771b8ec0b75U, 0x37775a1836b26a40U, 0xb8ffd8f038c3f1abU,
  0xb802b82f393996a6U, 0xb8c0fb86b8a1f5c3U, 0x37c93574b7c4ce76U, 0xb77a319c38b23979U,
  0xb8cf7ab938a446b5U, 0x37d4f788b3095fa0U, 0xb80ba03039241e4aU, 0x364ff508b669b714U,
  0x38f6532a37b13610U, 0x3817fd7ab8f41fc9U, 0x3684fa38379c1f36U, 0x3928b1bcb7acdafeU,
  0xb7ae390438886e40U, 0xb7b68940391b75c7U, 0x36096894b75e2e47U, 0x385c1bc73889852fU,
  0x3752aa683766ae8cU, 0x37414745377a60b8U, 0x372e8dc73867d669U, 0xb8ad511ab5562034U,
  0xb8129346b784d22eU, 0xb7ae3f4d375a19c3U, 0xb6f2e639b59ecb68U, 0x37cca57738b94be2U,
  0x377ff03837183bb8U, 0xb6c5687b368a5689U, 0x370384e33788d1d6U, 0x353febfc378025beU,
  0xb7ca2f8537458161U, 0xb601d91a35ede350U, 0x36806a96362e918cU, 0xb718f249374952c2U,
  0x3699ac38b7968502U, 0xb7302b1837c04d77U, 0xb6fe0a23b718a32eU, 0x368e28c334b491acU,
  0x35a6e4a0b7165fecU, 0xb738457e369256edU, 0x350705d8b7c139e2U, 0xb781091b3717e128U,
  0x35df88dcb74c8976U, 0x36ff7b0ab6f95870U, 0x37998b313694edd3U, 0xb77e7ee6b70fd83cU,
  0xb7292820b6618228U, 0x3727175a370b14a8U, 0x34e0ad58367b87deU, 0xb712ea1bb71a1ed0U,
  0xb73e6e72b64d1330U, 0x368ef7c0b704a16fU, 0x3585c2d0b70114ceU, 0xb5c90f5c36414708U,
  0x3763ca3935a71b0cU, 0xb676dd18379c5dc5U, 0x37174f84b72911f4U, 0xb69807b436f7070eU,
  0x36a75fa637070257U, 0xb76c9046b791cfc2U, 0xb6d3f9b2b79a3b3bU, 0xb768a4b7b6f8c41fU,
  0xb6295adfb70e41d5U, 0xb64f3e113670c068U, 0x378022feb5288a50U, 0x35a9746c3787d0ecU,
  0x35a52434b6af56b0U, 0x36ca90c4b6e3adf7U, 0x369ad1c6b6fcfbddU, 0x36f3c86237156d9bU,
  0xb758ea7db7bf932dU, 0x379b687a368b2b5aU, 0x374115d5b709a7b2U, 0x374ab1e43708f622U,
  0xb7089ffeb7c1ad3eU, 0xb7882ccbb5ba5cf0U, 0x378ffb6437fd4a86U, 0x369281e236c7c6b6U,
  0x366195313637d0c0U, 0x36c6bed637550a34U, 0xb768846ab71e0604U, 0x3761f674365b8a64U,
  0x36f48032364f7614U, 0xb810233c37884682U, 0x35e29e6836baeca3U, 0x36aed35ab650af00U,
  0xb79c8c0fb70d7551U, 0x3787666cb764a7f2U, 0xb6e282d2b6850baeU, 0x35b280d6b608049eU,
  0x3df0b27b3cd1c2daU, 0x3da98433bc063d43U, 0xbd452c61baf07c19U, 0x3ca645fe3d9c947bU,
  0x3c04203e3d88a727U, 0xbb63e9f93d4a2117U, 0xbe14e836bdd52347U, 0xbcacb55cbe284530U,
  0xbc81f4503d5a44b1U, 0xba4229193b686d32U, 0xbd1a624ab88df85aU, 0x3c5b0ce53cc48e75U,
  0xb892c4283bc8ec59U, 0x3b0091533c535b85U, 0xb94ae0b1ba1c5684U, 0x3d9321a03d46325cU,
  0x3d598a9ab8991c63U, 0xb89069db3d39a2a6U, 0x390e74f43cf2b0f1U, 0x3da7a22f3dafdad5U,
  0xb827d22a3b86a2c4U, 0xbbe7a3483d2c6bbbU, 0xbce18c5a3ae65d4bU, 0xbd26df70b919568dU,
  0xbcc5a71dbc97dafeU, 0x3c9abcb23b1d735bU, 0xba06a0363b2b7503U, 0x39af95343c64213fU,
  0x391e4c393c0b4c65U, 0xbb7904bab989a5b7U, 0xbaaa02c03d4d230eU, 0xbb409707b8c378d8U,
  0xbd2f49e0b763b6b1U, 0xb83182dbbb0bf3f6U, 0x38f60c9e385c21b2U, 0xb9320126b8c66a11U,
  0x384e8d893cad1ba3U, 0xb825b46eb933172aU, 0xb7ef4260b964df83U, 0x380b2c6239cef3bbU,
  0xb994a5f1b9ff5f68U, 0xba22fa7c3caa454dU, 0xbcc4c2693c6f8669U, 0xb88de6683a2575aeU,
  0xb7ce42cb38f915a5U, 0x38069b86b8a06a9fU, 0xb8840e3039aed5c6U, 0x39029c5a39a4a4e1U,
  0x369dbbbd3c8f3893U, 0x3962166b3c924c51U, 0xb7fd610c38047f88U, 0x37c4e86433728600U,
  0xb8fad02e379a4136U, 0xb918ccba3aa4535eU, 0x3812a072392caec5U, 0x382574ac39911f1dU,
  0x371cef50b8fc5a0bU, 0x3999dd1e389df26dU, 0x37cf8ace3927a111U, 0x386b9a72b7640150U,
  0xb85e3007b8a72dbaU, 0x36c821e5b72addefU, 0x378d03be37537b1eU, 0x38b8d09d3d8fcb69U,
  0x3bd8343cbdfccb84U, 0xb7f30d04be0e3333U, 0x3563f460bdd0ff68U, 0x3cabad793cc70c2fU,
  0xbd178e7d3c74fb58U, 0xbd255d4abd95da01U, 0xb843fb0e3d6e3129U, 0x3d00ed79384f0a8cU,
  0xb9bbd6a33dde6d8eU, 0xbcc90f84bdbcd9ceU, 0x3dc383a73dda85c2U, 0xbc931b223c522246U,
  0xb863c81c39366366U, 0xb876ab66b86cf586U, 0x3559fd9c3cf601b9U, 0x3bebdcfb3a21ed45U,
  0x3935c4be39852675U, 0x38a1efeab9056152U, 0x3889d8eb3c3b4dc2U, 0xb95eec1137ff8ad1U,
  0xb8aa73de383f8b68U, 0xb94209d2b910464aU, 0x3919c6643760ca4bU, 0xb95c18f339376368U,
  0xb9695786b82b98c8U, 0xb873ad6cb90e0e63U, 0xb7fd039eb57b834eU, 0xb97a168638ad66a4U,
  0xb7ebd11fb7c187bcU, 0x3851d5f439002fbfU, 0x37c82e06398b149aU, 0x378f0954392a126dU,
  0x38898e383860f437U, 0x385660ee378f8902U, 0xb82ab1fab70ebb6dU, 0xb857984cb789d383U,
  0xb84f9132382cc47eU, 0x39d95f073959c5e4U, 0x36cd5f8839b0155eU, 0xb88d4c7a38630c35U,
  0xb6e1d748b7f9caceU, 0x35d65514362d999cU, 0x3780c0e4b73289bcU, 0xb8593744b89cfad7U,
  0x37b6a1d6376dea27U, 0xb809acf2b83bc388U, 0x371bbd36b91c229cU, 0xb8940ed9b888373cU,
  0xb7d45d833814f02bU, 0xb92991633722e9c5U, 0xb7d7de07b784a3c4U, 0xb62cd57e365a4430U,
  0x37e5d48f372875c6U, 0x38706dc0b8e11e1cU, 0x37efa27e381bf69cU, 0xb6b5560cb9028fb9U,
  0x37bf4d9c392cf620U, 0xb8740914b675ead0U, 0xb88de1d836f1efd7U, 0x37005660b7014e9cU,
  0x36d34d163830ef00U, 0xb71966dcb3d82e40U, 0xb7d2fc8537ab495fU, 0xb85fc78bb8a412fbU,
  0x36b1af4e3550c1e6U, 0x3572a4983702a05eU, 0xb7986b25b76b08c6U, 0x3727e8fd365f6620U,
  0xb52d125037dfff5fU, 0x3742904c37714380U, 0x365d3df8b6f2c070U, 0xb689ae063737dbacU,
  0x35ecf448b797bfb0U, 0xb64d839a3707ed14U, 0xb590d0883745bfe2U, 0xb7930914b78b1b7eU,
  0xb7ab814db68ffd47U, 0xb75eacf0b6e95ad9U, 0x36bc156137821902U, 0x381441c3b6192878U,
  0xb7dfb71f370709c0U, 0xb628816c36da0343U, 0xb7915e24b62769a8U, 0xb6a4b88c37006a84U,
  0x36f430d0b65d933cU, 0xb668fe3e35ce1b50U, 0x36d044fdb792f572U, 0x36102260b5a50c8fU,
  0x36ae0b76b7efd31bU, 0xb78b574cb72c9453U, 0xb55535e2b4e2a400U, 0xb73324f4373b5c5aU,
  0xb808464e37a0f545U, 0xb6aedfc8b7c1c920U, 0x370b329ab5b70a10U, 0xb501d078b78dc3f9U,
  0xb7496136346c2c20U, 0x376c0a1fb5b37ed6U, 0x3777006336dea36aU, 0x3715a76b3784a308U,
  0xb58ef0b0b74cf992U, 0xb7ca985c361b4ff1U, 0xb786d39f36cf313eU, 0x36221c9bb61908a0U,
  0xb7ac114eb71b24b4U, 0xb67e7b6137110248U, 0x361bfdf6b6507792U, 0x364e943e34a1eadcU,
  0x37a8ac66b7959272U, 0x37061f8a380d4abbU, 0x36c0c818b6f33cf5U, 0xb75cc87eb7c0bd3cU,
  0x37592882b6cdfb1aU, 0x37880d77b79bda30U, 0x36d595eab7875a73U, 0xb68e3cc137152a86U,
  0xb68e5a5ab5dec5d0U, 0x37ad5bdeb76e924aU, 0x3753db3eb6c90574U, 0xb736d66637101a83U,
  0x372fa78137bdc810U, 0xb809834e3774a858U, 0x3769eb19371dacb0U, 0x37b126b43680af20U,
  0xb75c2ccf37313764U, 0x378da380b6dec0e7U, 0x3500af50b6a03a20U, 0xb7dcb686b7595344U,
  0xb603b72433e6603cU, 0x3749cf9e362e9f00U, 0x36039deab5fad2d4U, 0xb6fae3b9b74742aeU,
  0x36592b8d37a5b3c6U, 0xb73a3b34b51253aeU, 0xb743b4083785c0f8U, 0xb7db71743701729cU,
  0xb622b53a36959a9cU, 0xb6bc876db7301583U, 0x35efe728363bbf32U, 0x36fb4cfd3759b85aU,
  0xb6280ac0b70b2dc2U, 0xb6f18b41b57c7630U, 0x35fa244a35a08ea6U, 0xb697d735b733e00aU,
  0xb68e7e6436e8b7eeU, 0x3762150ab7900f32U, 0x3780f4e6375cf36aU, 0xb6cae65e36990a09U,
  0x36a5c09038287e2eU, 0x37541a8a36c57275U, 0x378b7bf2b68b592cU, 0x34be3fe0b6bafd08U,
  0x36301150b60ebf57U, 0x381160d3b6bc0388U, 0x37bb2d9636215294U, 0x36e4c1aab71c722eU,
  0xb6147290b67ba88cU, 0x36ec6056b69f00bcU, 0x380f919137914d21U, 0xb78434e63680af76U,
  0xb69577873704a427U, 0x372a2b98b69249bdU, 0xb73d3b8ab736218eU, 0x3728603e369b88a7U,
  0xb749a59cb6e471c6U, 0x3680078cb737541dU, 0xb7394b2eb75d231aU, 0x37626eda37647174U,
  0xb72155e036318af0U, 0x375e9a68374bdf80U, 0xb6a7217737c63468U, 0x3733855a36ed5e22U,
  0x367fc29ab78617f4U, 0xb78e8b5fb721f687U, 0x36828e14b7cf5ddeU, 0x35ecc6ccb736c3b2U,
  0x37ca9c2a3699a082U, 0xb7199bf6b569b9b0U, 0xb7d41e5a36e632e6U, 0xb785a11f36922f81U,
  0xb61cd5b036ceb074U, 0x366fb440b724c95cU, 0x3471c3a0b6b24450U, 0x36e93ed03678dd24U,
  0xb72f427337d4ebf1U, 0x359f29c034ccfb40U, 0xb6b989c3378026baU, 0xb79a379cb6bd0f64U,
  0x37fade6cb79740c2U, 0x37351252b769849cU, 0xb7303eb6b63abdd8U, 0xb5c77bcab5d04308U,
  0x3d1c12e1bcb245e4U, 0x3e0ade7d3dab33bdU, 0x3e27b2c43e2e2e47U, 0x3ddbc6b4bbd9cda2U,
  0xbdd2eed6b7a0e117U, 0xbce4e807b84cd154U, 0xb654e9ac3cf8c138U, 0xbe35cdd1bd0bf8e1U,
  0xb92cd6cfbcc236b6U, 0xbd16ceee3c09a12fU, 0xb86c594d3d1aae25U, 0xbcd1db5738f0f34aU,
  0x377369a6b720a712U, 0x3de882523bd28539U, 0x37eb1d733c16dba0U, 0xb83046953cd56febU,
  0xbcf73f1b391b228eU, 0x38d8dea9b919bb28U, 0xb7c48a4438b5f461U, 0xb8cdd5dbb8c8c6e4U,
  0x38301a2f3939b69bU, 0xb8b634ffb88bffc5U, 0xb89b8da8b6628530U, 0xb892afec38915dc7U,
  0xb9853ae638945058U, 0x386c4533b9099cedU, 0x3624565b390a55bfU, 0xbc9f94ed38344c7bU,
  0x391a4c10b93e1490U, 0xb80f32d538098310U, 0x38556494b84e864bU, 0xb93937afb83b9898U,
  0x38b90c24354f8dd7U, 0x37d8ceebb8d5ce5cU, 0xb90022fa37e28189U, 0x3660cea0b7f4acdcU,
  0x36070dcc36539c5eU, 0xb69c9846b7c59d8eU, 0x379f5f9e36352070U, 0x3744b13638e2735bU,
  0x3705b2a838a011a8U, 0xb63db18738328b71U, 0xb79914c2b769def1U, 0x378a97dcb7249175U,
  0x360537dc38abbd56U, 0xb76ff72cb794067dU, 0x38273858b7161a84U, 0x36a8c3afb6ea2c97U,
  0xb7af94533779234dU, 0x37dc1cbab69fbd14U, 0xb6ce1c25b7fad77eU, 0x38a61fcc36bcfad8U,
  0x3756872f379e2ecbU, 0x380c9245375bd71bU, 0x382799a437994fdeU, 0xb7676ce037e89e9cU,
  0x3602aedcb8739d87U, 0xb6f146b6b891ca5cU, 0x349d20e037cca68eU, 0xb74109eeb74ea061U,
  0x375d34323830d928U, 0x37c499f9b635dd6eU, 0x372c8980b75fb5d3U, 0xb7890156b7c682e5U,
  0x3d21e1bb3bd87a50U, 0x3e048d75be1323bfU, 0xb8b643c4baafc916U, 0x3cffda713d5f4529U,
  0x399d46853d594b3aU, 0xb707957ebd6e313aU, 0xbd043585bb225358U, 0xb998513836881d68U,
  0xb8897f193d343570U, 0xbdec76a0bc98c3bfU, 0xbdb5f1fbbc6c3402U, 0x38f09688390d12c7U,
  0xbaa23b3b3d6b1259U, 0x3847712c388722b4U, 0xb528b2e4b91bf577U, 0x386faf1c38a4c78dU,
  0x3d0b53d6b7cc86f5U, 0xb9218e5c3d227777U, 0xb800804eba34a585U, 0xb800a4e83c72180eU,
  0x38891d4a39421219U, 0x3af5c088391d858bU, 0xb915df313acd1fdfU, 0x3928e73eb9630b46U,
  0xb6aa83fc39c75246U, 0xb7cffeb9389b1d33U, 0x35dcdda038655f45U, 0xb859a64bb85df143U,
  0xb8893d2ab78a86eaU, 0xbb1f07dcb81c9694U, 0xb7f9072e36d421c4U, 0xb8c7a55fb7ce81eeU,
  0xb8f25b173725af7dU, 0x37e1c265b8215b6bU, 0xb9000de938046a26U, 0xb8a79f60380457f0U,
  0xb8b54e67b73465baU, 0xb8db8df0b8ac21bbU, 0xb90c6d36b83d43dfU, 0xb82a91c938b8c7e9U,
  0xb80d89ef39390d84U, 0xb8a147c237ccecebU, 0xb824059c38dd1b19U, 0xb8c27f9038d2e00aU,
  0x3703de41391d8b17U, 0x37dec780389b119eU, 0xb8afba1139095534U, 0xb75b8371390233c5U,
  0xb6db59e1390d1d3eU, 0x35b9d0383963d117U, 0xb7a0d4be38421118U, 0xb777c01e389d3e28U,
  0xb6eb857eb6e91559U, 0xb91ae46e3731b1e8U, 0xb8a49d2ab82d243aU, 0x3765572439274b07U,
  0x345792c03869878aU, 0x381d0a5b37fbd93eU, 0x383cefc138166e75U, 0xb8959bb7b721137eU,
  0xb83ac643b737e946U, 0xb898d233b7abe16aU, 0xb6b463f537528796U, 0x380b41cc38ef1bf4U,
  0x3d58dfccbe249d97U, 0xbdcc5253bdec9a67U, 0xb91baa2e3e39004eU, 0x3e24e427bd4b44e3U,
  0x3d8e39c93d1c5451U, 0xbdfad7c1bdd0eac9U, 0xbbdd4cda3d9a5d4fU, 0x3c2ffbb0be181a40U,
  0xbd7bd2603a16e4c0U, 0x3d1930de3cdbba73U, 0x3db1b1233d46f43fU, 0x3cf0daa3399fef3cU,
  0xb807e607bd271202U, 0xbc842cfeba7f22feU, 0x363fc201ba69395eU, 0xb8334eae3d74368eU,
  0xb948eb0fba79cf26U, 0x38eda1953d8eb65eU, 0xbde6a2efbb16cf13U, 0xba9ef60d3bbf4c5bU,
  0x3aad5b9e39d4168dU, 0x36c5c83b38b0b755U, 0x39846c42bcd68c19U, 0xbd1b2f7039cf7ab0U,
  0xb86f2feb39a10445U, 0x36a3d4dfb7d476d9U, 0x3d2640243907df3bU, 0xbca7ca11ba3d1701U,
  0x37d75cadb8e6f364U, 0xbb113e82bb87615aU, 0x370945c6b869679fU, 0xbd8d8a3fb96475d9U,
  0xb7dd980fb79080b6U, 0x38372340bb0d6c77U, 0xb8ac9ff33918d14cU, 0x3a575763391ac71cU,
  0xbcbba6693cffacb9U, 0xbb90de0cb9714a5cU, 0xb95450c3b910f4f0U, 0x370a757c3cb9bf78U,
  0x391fab7138c3e00bU, 0xb89abf9739284dd5U, 0xb8d6d29b390e7290U, 0xbb33a6973bc946ebU,
  0xb8b745443b1b0babU, 0xb8b53795b952d875U, 0x37823a7b3858b021U, 0x37fa9e5a39b2eeb1U,
  0xb87765ce39499757U, 0x390250b53b56dd68U, 0xb8c50c5537c651a0U, 0x37582043b743f63aU,
  0xb93d23eeb884212fU, 0xb892fa02b6e3b19aU, 0xb5017365b8458ac7U, 0x38310fa238cb1c3dU,
  0x37830dbcb6181a9aU, 0x3866acca364d5dbcU, 0xb8f62a09b7b0a396U, 0x368e0760b8a66bfcU,
  0x38089867373ba85fU, 0xb92fbd06371fecd4U, 0xb712395fb85f8da8U, 0x389875f039120ed0U,
  0xbdb7733ebdd378bbU, 0x3dec64ea3e218c4aU, 0xbdfdfe083e1a9f27U, 0x385e1e033d57a5ebU,
  0xbe4496d03d9e8db9U, 0xbd04aed63c21b10bU, 0x3d9996f13d41d111U, 0x38db850d38e7d936U,
  0x397e08f43e2b30e8U, 0xbe1629b7bcde96a2U, 0x392d2255bd1de2ceU, 0x3da38f463a1dbc3eU,
  0xb83865033d61d3fdU, 0xbdc1865ab840bf4dU, 0xbd83a8a3b80c6fe2U, 0xb72405f5bd313b5cU,
  0x3cf3afc5bdbc56f2U, 0xbd9400db38515a03U, 0x37ec9522b91f5a9bU, 0xbc789c4fbc5e3d33U,
  0xb873a563b97ada18U, 0x34fcc3a435ebcd1cU, 0xb9baa55239846f1aU, 0x3911e8bb3c7ae813U,
  0xb69153c6b8b8dceaU, 0x368c684a3c96f83fU, 0xb8102fbf356e0c58U, 0x395bf16c3a1b9f6aU,
  0xb892a61e38ab7357U, 0x38f1bfbc3d9696cbU, 0xb7caa45b38be086fU, 0x393e34b83959929bU,
  0xb8e2aac7b635c28eU, 0xb7d048a837496d2fU, 0x3888e27bb7d74a30U, 0xb714fd2db6cbfd2cU,
  0xb7eb666f3746ba2fU, 0x386e7a2438fa07e9U, 0x37a023cbb6ec2226U, 0x39fda20936b62bb6U,
  0x381167f1bcc08d89U, 0x378f7921b8659dbcU, 0xb840ef923745ee1bU, 0xb7d942e6b7fe7840U,
  0x370130b4b716c73cU, 0xb78e17ab365211d2U, 0xb7eb062cb6fc3808U, 0xb747bde637328dfbU,
  0x3519a3d8360c9dedU, 0xb8c0255236cd32e6U, 0x355292703821a57bU, 0xb8c8c37238070cc4U,
  0x3748ff48373e9ebaU, 0xb8246923b76876d4U, 0xb8255d1e36ab9365U, 0x378818d237f7fc76U,
  0xb80bcb5c3895d3c8U, 0x3619277e366896b8U, 0xb79d823336bf7ebcU, 0xb723f06c37a91be6U,
  0xb746c1a93627a1f2U, 0xb80956d735d521beU, 0xb86f50ba3776760eU, 0xb69b329337916503U,
  0xbca9a16e3c993c26U, 0xbbe739c8bd1eb6aaU, 0x3ccc7b84bc1ae0d0U, 0x3d750ffa3be7359aU,
  0xbcf45632bd03ddffU, 0x3cfaa415bb007c7fU, 0xb9ba2facba711b61U, 0xbbad8a35bd1bcbfaU,
  0x3d9bc58cbdd4f733U, 0x399051cc3cc5ba24U, 0x3cf508b3bd16cc3bU, 0xbb854d5abcd62a63U,
  0x3dce89343d802040U, 0x3d82742b3cd90c4dU, 0x3c01d8f93ce36d3bU, 0xbbac9e713a08bb78U,
  0xbd81d4e5bde13db9U, 0x3aca0f02b932efd1U, 0xbd00eb7dbd023bb3U, 0x3ba30a7abc8500f1U,
  0x3baea3dd3ceb3400U, 0x3c066f063abc15f0U, 0x3cb2fce9b86cf33cU, 0xba87129b36d46771U,
  0xb99ac71c3a736725U, 0xbb12be55b8d72c66U, 0xb88ccc9eb92dbb27U, 0xb8bea83939ee01f9U,
  0xbc53230db89580cdU, 0xba0725ccbc256d16U, 0xb7a0284e3b5e0e74U, 0x39ad2a8438fd7aafU,
  0x3d30693337d36c66U, 0x3b1942d23a91d641U, 0x37a405833b3962eeU, 0xbd19c52a390c367cU,
  0xb8cf8700bb4fa96aU, 0x38b9496dba9a79e8U, 0x38e406d8397610d3U, 0xb979b11737d9f484U,
  0x3e0886ab3d01ae1fU, 0x3d7ab2db3753861eU, 0x3a0dfb9237d1e336U, 0x3cef2dd4396227f3U,
  0xba9fe48538aa6b13U, 0xba242d9dbc457885U, 0xb8856494ba583ebdU, 0xb95398a3b71f964bU,
  0xb808656837ecc3c7U, 0xb9896f87b682a1afU, 0xb8031938397cc384U, 0x3b3e73a3bdda16c0U,
  0xbc3f28d3b8b4917bU, 0xbbb9de35bc95f86eU, 0xb9f7be60b9d1b082U, 0xb8348479bb45af89U,
  0x3a6ebd5439ec2875U, 0xb93e7dc03b95c4d3U, 0x3abf3c9c381f7048U, 0xb809675038890e48U,
  0xb91ef7c0bb10e699U, 0xb8fc821e379e0ff6U, 0xb8ec4dbd376064efU, 0xb88e6fe9b5f7375cU,
  0x3cb85d50bd93765fU, 0x3de42d9bbdf6ab92U, 0x3d903d21be016052U, 0x3ddf8edb3b632997U,
  0x3bd5bf92bdced80eU, 0x3de03142bdc282cfU, 0xbb034effbda3c687U, 0xba661fd03dfcb852U,
  0xbc2b7e16bd4d6785U, 0x374aaf10bd66fd70U, 0x37b0d32f3a9bf8caU, 0xb8a855b3b9559d0aU,
  0xbd82a89f3c380f21U, 0xbd7e01a3bd86807cU, 0xbc0a21cfbdc9db05U, 0xba51e3fe3a96f4a7U,
  0x39398e2dbbd4843aU, 0x39615e3aba01443aU, 0x391b9d5e38e9130cU, 0xb951b1e03bdcc09cU,
  0x3d845946b9387047U, 0xb88d09043b1e06bbU, 0xbd703827bca3c5abU, 0xba375e2b38484a0cU,
  0x39a57b35bdaa4066U, 0xb8e1a58db9740b00U, 0x39008ade3d50f1e3U, 0xba2e3065b77cab72U,
  0x3d818226b9af91fbU, 0x38f63d2b3999e443U, 0x3a81088d3da4d04eU, 0xb9458ec53883784dU,
  0x3d6bdfe0384c75e4U, 0x38eef6e7bcbc8028U, 0xb81e497e37ec9178U, 0x392591bc37f59917U,
  0x38a3879b3b988ccbU, 0x394670f1b9040c04U, 0xbcb8ea8e3b76856fU, 0xbbdadfe23d8c100aU,
  0xb966d55d3afab989U, 0xb97bbea835becee0U, 0xbde82114b8823cf9U, 0xb685834ab8b57807U,
  0xba5cb997381cd31eU, 0xb80c5be2bc886ff8U, 0x3715e52cb98eef3bU, 0xbaf52682b94ab7c4U,
  0xb78a07f237654963U, 0xb9196f42b7930cf9U, 0xb869e15ab8fb2116U, 0x38eff4c2b69f0e32U,
  0x3828ff5fb8abc8fcU, 0x38ec2c58b8b7958eU, 0x38a59a2137eba800U, 0x370df59eb9b8ff8eU,
  0x372ea21ab8113434U, 0xb8cf2417b7a6355cU, 0xb8997d42b88e5c1aU, 0xb832bcff37d57c41U,
  0x38066972b9490652U, 0x38f511183801b851U, 0xb7bc2c46b8006ab4U, 0xb893e93fb91b2303U,
  0x35d5eab03761f216U, 0x37693b5536d88e46U, 0xb55e25e0365d8960U, 0x36ededc0340569f0U,
  0xb74d0cecb6483730U, 0xb71e7ebe36bba80cU, 0xb7c7c9a1b75dcf8cU, 0xb7059dd0b5283400U,
  0xb72bfffab80dd123U, 0xb672ebccb62a1f54U, 0xb756fa9b37907816U, 0xb64e2f48b6b7b5d2U,
  0xb7f1f64a3630c8b8U, 0x36daa308b687d0a8U, 0x37541b09b61e8eeeU, 0x36fc9b65333c0600U,
  0x36e3df7a365d2604U, 0xb79bb4d5b5b8c8aaU, 0x372710fdb795c102U, 0x3712f19936185717U,
  0x370f22cb3511c520U, 0xb80b248836de5ef6U, 0x3719470237d2e3fcU, 0xb6ba31f4b47999e0U,
  0xb759afc3b700d9f6U, 0x3794bbdc325ca0c0U, 0x3622ea4437884a5cU, 0xb6a2ab68b5201a88U,
  0x3726f11f378efebaU, 0xb71c900c3827de0cU, 0x369a66e6372422cfU, 0xb60f6e4436c62fbcU,
  0x36b81f4035c6f768U, 0x3329740037c06717U, 0xb722a95537718f29U, 0x36f7ed40b75efe98U,
  0x37d6605bb6fedd5eU, 0x3780e263b4d52940U, 0xb5715c30b70a2a53U, 0xb7d4c771b721d162U,
  0x37288b00b6fadf61U, 0x368f2e8536a73256U, 0xb754d9deb658e1acU, 0xb7c1376fb53168c8U,
  0xb781f04c361a02bcU, 0xb77abac2b7b27ccbU, 0x379d3abcb698174bU, 0xb7ba6c2ab4da98b0U,
  0x367a596cb7e4d626U, 0x36adcfbcb49a5dceU, 0xb7062581342be7c0U, 0xb6a0bfb6b6bd1218U,
  0x3726aa3bb791c2d6U, 0x3700f2e4b77c842aU, 0x372b0b1337aa6e1eU, 0xb7516e2337cc1fa6U,
  0x3661d594b376b260U, 0x3704fde737b4ce5bU, 0xb5a96d58b6c55cdcU, 0xb5ce599cb7c52e34U,
  0xb7a50b8ab56067b8U, 0xb74849e237704206U, 0xb720fc42b7a10a86U, 0x360319f4378011d0U,
  0x3e131890bdda851fU, 0xbddf18c2bb7f2c30U, 0xbe142d91be11bc4dU, 0x389ed1a83a571d67U,
  0x3ce0860f38813451U, 0xbd2d2daf3df62b7eU, 0x3d313c183c991e3bU, 0x3893f6993db9f9c3U,
  0xb9a389e63cd00863U, 0x3c1c8753b880dc51U, 0x3d363d8b37e7ea5fU, 0xb71573f0b90d933aU,
  0xbc6688673d700b89U, 0xba17a9113cf3346bU, 0xb9425ba039a71c6eU, 0x384d9d113d98392bU,
  0xb938dea6b87588dfU, 0xb91a8cee3d9cce89U, 0xbbc41b773a71917cU, 0xb8bcee9e39056d43U,
  0xbaf1c8e6b98a7a16U, 0xbc6b4851bc785c24U, 0xb968df7e36e26376U, 0x38b4a71439000234U,
  0x38685413b98a33baU, 0x3c251ab13c0d3f8dU, 0xb89d1b52b93ed4d0U, 0x3dbc9114b82424bcU,
  0xb8cd28d33d3a78c7U, 0x3a18b4af3a7af234U, 0xbacc995838d78009U, 0x3b05656739261875U,
  0xb79bec813664518aU, 0x3d5873353902c448U, 0x393e3c0cb8de8354U, 0xbcab01eabcb33583U,
  0x389ba1b337ced633U, 0x38f7552d39151b06U, 0x38c577a8b8207b2aU, 0x38a582bcb91addc2U,
  0x3744b5e8b941002dU, 0x390e14c1b8bfceddU, 0xb7832634368cc9f1U, 0x38b8fb1dbaaa4e4dU,
  0x3874b635b935adcdU, 0xb74b77ed390c7086U, 0x367f0c7b383c7d9cU, 0xb767321db816ef0eU,
  0x3860f32537995e8eU, 0xb8973401b9325a8cU, 0x373076aa38196810U, 0xb89366a03389caa0U,
  0x38f6f06f37790491U, 0xb69e5d7bb6d9cb7aU, 0x36a64cb938507b35U, 0x3738587236aea7ecU,
  0xb59bc87238594a79U, 0x3728dbe1b7375eb7U, 0xb526d05ab7f02415U, 0xb6b53e2036f9d0f9U,
  0x377c3f3eb8b69e1eU, 0x3857cd66367056baU, 0x359445a437e2fdf9U, 0xb716ccbd37aa4e06U,
  0xb6b9b66637148343U, 0x372b62a53711ffcfU, 0x36d499f836bec77fU, 0xb621d4f8380f7d5dU,
  0x369a0f9eb66a5b3aU, 0xb5c56fb036d73ff8U, 0x377fdc91378120b7U, 0x3416b56036877836U,
  0x36ee89b1b42435a0U, 0x3800c6b13746f6d3U, 0xb52551b4376c5a9cU, 0x36261ddc374ed24eU,
  0x374219d1b61b8a62U, 0x367a07473707f8aeU, 0xb643dc32b5cfda6bU, 0xb7a76b91b812960aU,
  0x361111de379601c8U, 0xb75838c3b6bf1446U, 0xb6e1921b367f38daU, 0xb7bfdf8eb5bd6ab4U,
  0x368474ff376a2bb8U, 0xb6ab894836524ee0U, 0x368c794a37bad8b4U, 0xb4d37ae036f2cc95U,
  0xb69fdee636c384a2U, 0x359a6a30374676cbU, 0x37ea67cf37a230f6U, 0xb6f6c6c137da12e8U,
  0x3788537d3735dabeU, 0xb5ee24c03675705cU, 0x367b752c379304feU, 0xb78b531eb79e977aU,
  0x36121d82377115ecU, 0x3724dcf4382dd983U, 0xb65232b03749d5f8U, 0x376a9d64b78af93bU,
  0xb7455251b69d0e48U, 0xb6996f2fb645c927U, 0x37d53d1eb757b7ecU, 0xb6b2b534b6d081d4U,
  0xb774e0a0b51541ecU, 0x37381efe35bcde0cU, 0xb7616cd3b5c7b5c4U, 0xb6049d58b84f9e92U,
  0x3702a1fe36e73e98U, 0xb603992837aff824U, 0x3623c1ea36b381a5U, 0x36950ba3b6fbc1e5U,
  0xb69d0ca036356634U, 0x376c2db1361686b0U, 0x380d570fb4800fe0U, 0xb7838fef3725147eU,
  0x384d75ff3613c6f5U, 0xb763a7a2b60927f4U, 0x364301d835272fb0U, 0x369a6726375f0eacU,
  0xb7258f26b7a85eefU, 0x368f4236b6ec5e3eU, 0x35a9e3e035f37060U, 0x376ed12936e6e5b8U,
  0x36d0c24cb757cae8U, 0x37275cfe3357e580U, 0xb48917d036835d8bU, 0xb78539a7360e7b10U,
  0x378696d1b6395b7eU, 0x36bd2992b795d9c2U, 0x37445eb2366d629cU, 0xb7c103d236bfed33U,
  0x361c3820380b0de4U, 0x36e890ec378979e4U, 0xb7a29b72374fd85aU, 0xb79bb36eb6adc148U,
  0x375791b234dd6b60U, 0x376d5e3c36f809c8U, 0x36b37274b6452eeeU, 0x36d5293d37438ee1U,
  0x362aaa40371fd360U, 0x37cde08f35d64f90U, 0xb6112a46b6d17464U, 0x37a3955c373d3e6eU,
  0xb7833646b7c71508U, 0xb68e2dc3b7c5af69U, 0xb7822c16b7dbd858U, 0x368fcd74372ab8a8U,
  0x35d00390369208f0U, 0xb50a0ab0b73da618U, 0x3767c5fc3698c42cU, 0xb70e6a54b8270616U,
  0xb6501c0037abccb4U, 0xb81d60aab7893b66U, 0xb76a5d8235adc4f4U, 0x37873010b7a9b6e0U,
  0x36e26eb0b704803dU, 0x36c8558637d3b4b9U, 0xb77e71fa36ef66a1U, 0x3756128a3815532bU,
  0xb678f5f8365cc1afU, 0xb6e458c8b822166cU, 0xb75160a43712ce80U, 0xb6bc3664369b13bcU,
  0xb74b0bfa365d6bd4U, 0x35dc99a0356fda70U, 0xb7c45425b76c159aU, 0xb6488f3eb60f3cc2U,
  0xb4d976c0b54cc9f8U, 0xb82871fe3796d251U, 0x375d26f337951082U, 0xb81afe3bb34164c0U,
  0xb6923916b7b1cf07U, 0x37b30068b68cc3f8U, 0xb6f59c16b700d5f4U, 0x3751c326b7044672U,
  0x37afc74837aae384U, 0x371cb63b36fed63aU, 0x374b08ac37991bb9U, 0xb6bef1e4372a6316U,
  0x37a6df7936907264U, 0xb7e581943763ad05U, 0xb52d11fc36e1d744U, 0x3565e700b7d2e7c2U,
  0x36c712e8372f2cceU, 0x37acb2be37a9eadaU, 0xb5ddeb58b72d7a31U, 0xb70c3220356b1370U,
  0x37d4a52ab5cbc680U, 0xb52c1950370b7133U, 0xb5e8de58b734996dU, 0x36f8241a37573276U,
  0x3a13da0f3c6049edU, 0x3d394d2db7ed8f6cU, 0xbd27d4e5bcfb7622U, 0xb67a3b42b8e65417U,
  0x3cd7e296bdbedf90U, 0xbdbf47ddb8e49948U, 0x3c9ade48b6d49580U, 0xbd0b9704be1df819U,
  0x386daec43c83b510U, 0x39ce6a233dfda876U, 0xbcf1a15fbde98dd8U, 0x3c51eea43d8dcc21U,
  0x38de7c40ba0cdabbU, 0xbb199d33bc4d44f9U, 0xbc68b2a6bc3224bbU, 0xb9cfd1ba3cfcb595U,
  0xbb4c981fbd4156c1U, 0x39a3a091bd36db5fU, 0x38067ad43aaf7db0U, 0xb90354763c5233b8U,
  0x3b95f1813aebfe03U, 0xba67f51e36f54dc6U, 0x3a221945b98c7190U, 0x3d7aa7bd3d7d185fU,
  0x3c258d793ab62882U, 0x3c6ef4c6b9b49cf4U, 0x39dddff33d8b0bf3U, 0xb91bcf393936bf79U,
  0x3bbcee6dbd9c9b5dU, 0x3790542e3cee8545U, 0x3988e034b9513949U, 0xb94a5cffbbdd8cbfU,
  0x3bc4c3163d18567dU, 0x3b572badb90338faU, 0x393dd6933b089c7bU, 0x3ac495a1b862b3a2U,
  0x38d1e709b9a2edf9U, 0x37d2e0a6b99cd4c6U, 0x3a1c961439080c18U, 0xb92d842cb86fe489U,
  0x37054b223bbb565dU, 0x381b0868b2a85d00U, 0xb8fea235b9046144U, 0x38c19066b80dfd3dU,
  0xba9fd9d1bb9f3d47U, 0xbc9b308cb9a635a3U, 0xb79b572cbd6e7cadU, 0xb8797c09b966c9a5U,
  0x3a0579b7b944ac58U, 0xb93f5d0ab90a968aU, 0xb88ddca0b8b7439eU, 0x39b2d5c7b981d008U,
  0xbc613fdcb9a1a654U, 0x393660e5bca91db3U, 0xb9100bc4b94ff70eU, 0x37b48677b9f033ddU,
  0x39addc0ab6acabc8U, 0xb79d84e7b8d3601eU, 0xb5bba6e0b9eeed96U, 0x3d7e1d2eb8db874fU,
  0x384888b5b9874411U, 0xb91651f4b88a2212U, 0xbc13aff9b9549546U, 0x39628732b9554776U,
  0x3cf6999e3b2b1a33U, 0x3da0fe693d8efe45U, 0x3ddb7d35bdeb67afU, 0x3d3b06a938edb4ccU,
  0xbd9793b0bd87280bU, 0xbd629942b88fc62dU, 0x3b5a6bce3c1efefdU, 0xb7983431bb748094U,
  0xbb0ea863b8dc6a37U, 0x3d0ce7643698dae6U, 0x3e3829ba3d8a9b91U, 0xb8c164f63ddc901aU,
  0xbe36094fba895ff0U, 0x3cc94787bd3694e4U, 0x3799d9e6bd895716U, 0xb92c66083cdb808fU,
  0x397930abbba603ebU, 0x381550943dcf424bU, 0xb8ce5cb638a84734U, 0xb98cdd033d37c3f1U,
  0xb8ebdd22b81ac552U, 0x364937883a522906U, 0xbc431e24bb7c6fa8U, 0xb7edd639bba1d042U,
  0xb9437466b9b08494U, 0xb8489fdeb82967dcU, 0xb7986ad1b710a896U, 0xb5c318cc3891af9cU,
  0x3a4a5ad8b8dea3dbU, 0x37f3dbd63a8233faU, 0x376d03f6382bfe17U, 0x398269a33936d196U,
  0x38a9c86237b0ff6dU, 0xb5e81daa39b6fe2bU, 0xb945be1db8925372U, 0x38556a71b80b3504U,
  0x395df1fb38024320U, 0x382e268c392b8e8eU, 0xb599091c39a8e519U, 0xb7a5cfa837b31f0dU,
  0x370c3052b88a0025U, 0x37d45891372cc474U, 0xb8989045374cbd89U, 0xb72e7db0b8226e65U,
  0xb8350862b7df5f3bU, 0xb86fd16f37c5866dU, 0xb6f9fb96b8be5ebcU, 0xb83122dcb99db98dU,
  0xb832ed64372ce4d4U, 0x36d5b1e437da5cdcU, 0xb760eac2b754745cU, 0xb5b9b254384385b0U,
  0xb703fd85b75cb918U, 0x37d2c222b867a45cU, 0x38918a4338ad5cdeU, 0xb6cd5faeb895b167U,
  0xb81b487cb7b143c2U, 0xb906beb0b8134b74U, 0xb8964650364f0ebeU, 0xb7b5c0bb373a98ffU,
  0x37198f8638e152b4U, 0xb7fa02c0382dbed6U, 0xb8c755b3374b270fU, 0xb7be0b98b77f8eacU,
  0x3e00e2773d04b1e7U, 0x3e006ca3bdcb5708U, 0x3e27f2d03d898422U, 0xbdb28f3bb8b6acc4U,
  0xb71da888bcf8fc94U, 0x36c792c3b8f94816U, 0x3dd1a8df3a4bfc2cU, 0x38e0a009b8756d87U,
  0xbda8049bbd8b7ba1U, 0xbbfd1c2cb9744b22U, 0x37daf7003a523b74U, 0x3d8296903bb05c0aU,
  0xb7d924d2bcace706U, 0x380225b4b7c13d20U, 0xb83141beb64c5b16U, 0x398043ea381e6714U,
  0xb7219370b898093dU, 0x37cbbe963767ba78U, 0xb8937d4db7bfda9bU, 0x39c208c9bcaf0b28U,
  0xb76e50ae398cd847U, 0x3c1190cfb83c1bceU, 0xb88d0e84b6a34a9aU, 0x368851fcb8a8e35dU,
  0xb7d80f8337a22a32U, 0x37bd7b21bc23de04U, 0x36bfc133b8cebe3fU, 0xb7f0fdd0ba51af88U,
  0xb87d03cab6f3b329U, 0xb88ffd2db8601e2dU, 0xb808c29838a33e39U, 0x37deb8ef3698c39eU,
  0xb828e49935b62a38U, 0x387a2a753830aca1U, 0x382b76fdb6f468d6U, 0xb88cbb68b783237aU,
  0xb815cc32382e3f04U, 0x3769eeb8b7e86928U, 0x37872377b89a5bc8U, 0xb60fc0eeb91a1f5eU,
  0x3708d82c3801fa54U, 0x37e0b762b7258241U, 0x3706c7c337073828U, 0x3731857037d6a30cU,
  0x36eeec92b782d47aU, 0x36eb2051b6745916U, 0x383b8a4fb607db98U, 0x37f55c61b7b82277U,
  0x374465eeb71b219bU, 0xb72dd7ba3823a54fU, 0x342bead8385dd243U, 0x372437a53139e000U,
  0x36b698e6b7f4599cU, 0xb7f3cb1837c75e18U, 0xb83091bdb7c0e0b4U, 0xb77590f837d69a48U,
  0x350f27f0b6416930U, 0x37646e1bb692df87U, 0x37abe54f36db165aU, 0xb612829eb563cb78U,
  0xb71ec446351e41c0U, 0x36deb7fcb7d94b30U, 0x37b8137cb78e5edcU, 0x371b96ad37d81188U,
  0xb75ff9a2b5b511a2U, 0xb67abbca364405fcU, 0x37091675b741a0b0U, 0x36f0e550b6e0c296U,
  0xb6e0db8cb7173e24U, 0x370ec614b7284ca1U, 0xb6c492803726f70eU, 0x356b6e3831e31e00U,
  0x370b81f7379264dcU, 0xb501777036050d40U, 0xb58499fc37ab0f03U, 0xb792959cb74acb34U,
  0x36c38bf4b68f9d0cU, 0x37723362b61d7da6U, 0xb6ec756c36180cc7U, 0xb68c8be436903422U,
  0x362075ea373e3d61U, 0x354110c036f28d3bU, 0xb6f5714836fa3446U, 0x36d8b872b6d3b7caU,
  0x3718e2e136b284daU, 0x3495cb50369f001cU, 0x373789b237d65d15U, 0x3710569ab65e2168U,
  0xb693224eb5448d60U, 0x379b1de1b4247f60U, 0xb81af20536ecb226U, 0x36f4820a36cc0ce6U,
  0x37db2828372cc73dU, 0x3788b635b6f661f0U, 0x377dc54f35a5f174U, 0x37729690370d7f5cU,
  0x369e1426b7545a18U, 0x374abc8ab6bdc8acU, 0x35c3c630b76bfb9eU, 0x3716bf94371d6f82U,
  0x36eafef4370d8afaU, 0x36d977ea3789a27aU, 0xb646755c378d0d82U, 0xb79665ad3797a4dbU,
  0x366b551c369bae36U, 0xb5891310b67cf9c2U, 0xb62af81436f412cdU, 0xb839e52c376a1f64U,
  0x368177f5b767afb0U, 0x37641a27b68be6f7U, 0x36f6cb8835bc05e4U, 0xb6809cf2371842a6U,
  0x3601b40238453554U, 0x33ab3f003743180cU, 0x37ac9cba36b47a56U, 0x371b56f3378dad9aU,
  0x358f762437cf665dU, 0x3760a121b5a89a1cU, 0xb67ca44c371598e1U, 0xb754d20233bca000U,
  0xb4214e00b798bfedU, 0xb78688463690f418U, 0xb72047db378ff436U, 0xb745a720368eb1d4U,
  0x36b4b4c0350d6b0bU, 0xb58bfe0837919c6fU, 0x37577798b4a2c658U, 0xb5843320b6fab6e0U,
  0xbd157067bcafd7bbU, 0xbc873955bd58a11dU, 0x3d1590393dd006edU, 0xbbb26e45b6bde8fdU,
  0xbe21a3fbbdda082cU, 0x3b36d4223c0010ebU, 0xbd03a4fc3d8cdf77U, 0x3d6cae9e3dfd6c8bU,
  0xbd2f4c393d3233a8U, 0x37b1fca83e00aa30U, 0xbb029b413ce1db0eU, 0xbd93367abda9b283U,
  0xbdc91fb6bd57b654U, 0xbd4ac39fb8253243U, 0xbb592d4abd2e833aU, 0xbd395ca8bbb406ddU,
  0xbda050173bd94b53U, 0x38f30ef7391ac62bU, 0xb8d2052dbaafd317U, 0xbd89e8b3bdd35ec5U,
  0xb9475006bd8082c5U, 0x39a0a9cfbd16b0feU, 0xb86f494d391f8089U, 0x3d273dfd3cbc980aU,
  0x3d0468503b251345U, 0x3ac91b4338142c45U, 0x3dcb72f437b98a6aU, 0x36e67f8d36d7d1cdU,
  0x379ca3c839122820U, 0xb832e092b83b6aecU, 0x370f9de5b7213a81U, 0x3b0fc733b65cd048U,
  0x37c8ec1435599188U, 0x382f6f92390de584U, 0x36c3901f39116ae9U, 0x3a2f293db5dea6f8U,
  0x37aec462b6e24f88U, 0xb97f4c73b7c7d417U, 0x3b1afb83b8dac0acU, 0x37b044d8b803d0adU,
  0x39ad0ab7b2ef2200U, 0x3843eb0237c05cfbU, 0xb75b60e2382c1fb0U, 0x37910422b6b083a8U,
  0x385cdcbcb808a152U, 0x3a8072e83595cd70U, 0x3644a26bb71529c5U, 0x376fec2db835f6f8U,
  0x3870aba8b80fb0beU, 0x3862783ab7a4a1baU, 0x3885412fb7a12aecU, 0xb547940c3695fd18U,
  0xb7b44583b78697deU, 0x36545ef8b7f6344bU, 0xb6d1cceab73d4297U, 0xb708c45ab70131fdU,
  0x37bb5b8db7591447U, 0x38351fd836352630U, 0x377eb848b7bf5a8bU, 0xb67035523586ac3aU,
  0x37d93e1bb73273e5U, 0xb694223fb7c61826U, 0x36bb2aa7b81dff04U, 0x3832450fb737470dU,
  0x3dc15f8e3d15ad5cU, 0xbd14635fbdc597f6U, 0x39a724bd3dab3142U, 0xb9b0f39a396f8093U,
  0xb99faf6539151212U, 0x3d977abfb7ee43ceU, 0xbbc37bba3d47506bU, 0xb6b5677ebd10d478U,
  0xbd2f2e58380e5543U, 0x3e49272e3989a5c5U, 0xbda689c1390d9a9aU, 0x3bd3eb583e1c8d93U,
  0x3737104e3db550e3U, 0xb9006e543944c958U, 0xb739da7736b6bd3aU, 0xb8dd5cc638e5c1c2U,
  0x379ea40038cd44e6U, 0xbc87fd0c3dc5692eU, 0x3697aa7136d90c5eU, 0xb93dd4f2b8c8939dU,
  0x37dd49d6395b659bU, 0xb994a9b2b86b2722U, 0xbd072f9db7558922U, 0x370ec188b864a615U,
  0xb935b7763950aa53U, 0xb7413590378853c7U, 0x376b28acb897d55eU, 0x36c53026b6bf6f56U,
  0xb6126bb838907cfbU, 0xb80b799ab68c76dfU, 0x35c929e83696f55fU, 0x36e83c0b37ae8e92U,
  0x36fb78d43825312bU, 0x358c846e3816ef30U, 0xb9329c06b642c107U, 0xb3e6cbc0b7d00e58U,
  0x37a926553713760aU, 0xb7807ee6b78e1837U, 0x38613b44380f7d7eU, 0xb6dbd559b7848a7fU,
  0x388cad9737574e7eU, 0xb72a30f63773eb9bU, 0xb62a5a62b740ed7aU, 0x36c075b0379d117fU,
  0xb7ba3ee7b6c0f2d9U, 0xb62633eab5ddcff8U, 0xb7ed375fb64ac0ddU, 0xb7645804b6fa1c04U,
  0xb6764320b6c46f2eU, 0xb794a3cbb6617c2dU, 0x36b8da2ab670638aU, 0x373e1cf1b7aabbdbU,
  0xb396b570b62646d0U, 0x381661f538094f42U, 0x37f185853700d34fU, 0xb7a0a13737cd2325U,
  0xb731284a379f7f7aU, 0x3798f2ad36e5566dU, 0x37f1fd2437333f33U, 0xb7dd5d3eb6860f21U,
  0x3769621436bafd50U, 0x3743c5beb7330130U, 0x3808f0de35ae8b0cU, 0x3581feb83625530cU,
  0x368e989837845ac2U, 0x37c89063370aceb3U, 0xb7ae4b58376d2e5fU, 0x36ebb284b827aed1U,
  0xb6f893bc37871f4cU, 0xb7652aa4b68bd7f8U, 0x36f203d0b7806140U, 0x3736a6c9b696caccU,
  0xb6a8a380370548faU, 0x35b3b7a037043cd8U, 0xb7d75df136f451d9U, 0x37cc2d76b606f858U,
  0xb4e631183795229aU, 0xb5da9fd037b5aee5U, 0x372b37ec36dd66caU, 0xb6682a703745c578U,
  0xb70abdbdb6b18d1dU, 0x3708442635273cd0U, 0xb4beebd8b7484308U, 0xb6dffbdcb64d007fU,
  0x3690bd76374a755aU, 0xb68560f2b6481074U, 0x3792d9d43741e548U, 0x36966e12b651491eU,
  0xb6f0334fb6dad288U, 0x364c6718b683013cU, 0x378d684e374a207fU, 0xb6092ec83700297cU,
  0xb7149744b75922d6U, 0xb7213b46377f67bdU, 0x37cc43b4378d1546U, 0x37b2d603b6b55256U,
  0x37b7533cb71cddbaU, 0xb76ae2bd3820b035U, 0xb52fff9a36ac6478U, 0x3601e80db4507720U,
  0xb70a4ffe37e75c3eU, 0xb70490d4b74cbd55U, 0x375cd79c3654e5b1U, 0x366e1dceb79a0957U,
  0x375df6303732512aU, 0xb6b56e3a36626db0U, 0x36762578b7b6f252U, 0xb63110f0b6377929U,
  0xb65ad458351bbc9aU, 0xb49e222037938d78U, 0x3801b1c7b6994854U, 0x378dd2ca37459aaaU,
  0x372abd9036a30764U, 0x3780f50937006e71U, 0x357b9c7c382f7fbbU, 0x3767e29cb78966daU,
  0xb69b856ab65495f0U, 0xb5f1b69cb4dc6de0U, 0x370292eeb7a013e1U, 0x371accda35d74788U,
  0xb775f73636b52884U, 0xb274900038221048U, 0x37d9c224b62b8a6cU, 0x3762410b37ee5088U,
  0xb50e159837ddc567U, 0x36fc2cb4372290f4U, 0xb7831f8f37a2e4b2U, 0xb6c9ede237f216e8U,
  0x3cddc3b3bdd13ecaU, 0x3c4936cc3e1e2cddU, 0x3da3676bbcc47258U, 0x3dee6ecfbd78526bU,
  0xbdbb316cbe574bddU, 0x3d8bd8d839bf426bU, 0x3d50ccc7bc249c1cU, 0x3c8fb493bd8c30bdU,
  0x3c639522b933d652U, 0x3a4984a53cd164f7U, 0x3dee893339519491U, 0xbcaf42343751a7ccU,
  0xb8c5c005b745a4fbU, 0x3a6b08963dd28879U, 0xb902cc873975259eU, 0xbc9aa37b3c466ef3U,
  0x3b9d77d23bbca98dU, 0x37a594623cac376cU, 0x3d4e2b7a3c1c6b80U, 0x3db366ef3ce0e68eU,
  0x3cde172338852b1aU, 0xbd58f299bd1845e8U, 0xbc345d2cbd091021U, 0xb98c77bcbd2fd15fU,
  0x3cf5c356bdd432eaU, 0xbb670a2ebc17e590U, 0xbdb487e6bd31bdabU, 0x3d87be4a396ca0fbU,
  0xb9634ccd382be747U, 0x380d5b4db8350bc6U, 0xb990b7b8bb56ae1cU, 0x3c4af179382adeb0U,
  0xb8b53a45bb47e320U, 0x3ca3b36c3b824798U, 0x383bf7ea3aab9c30U, 0x3d655b11b822804cU,
  0x374858e138dd9870U, 0xb9a266ca3b30a4c2U, 0x3d0d1cae370028e1U, 0x3b5e0885bc1e3f5aU,
  0x39615e06b839eeffU, 0x3d917e9534a624f8U, 0x3c0c1d82385b74e9U, 0xb756c9bbb798fdafU,
  0x3b62c77db8a130daU, 0xb8a166833d142c78U, 0x3a536fe338ef1fe3U, 0x35b82814ba38c53fU,
  0x3a962466b9cbfb3aU, 0x37b6159637a5fdc8U, 0xb78d08e638c63e02U, 0xb994bbd437d0ab6dU,
  0xb76b124f38eb15faU, 0xb80b7976b7f30dcaU, 0xb86f48d837a528eeU, 0x37aad13c395f36dcU,
  0xb8326f2838404a88U, 0xb93a48c7b73431aaU, 0xb60013d4b84b1728U, 0xb95cff9b39203599U,
  0xb7a3c4d139d30c6eU, 0xb87d82f0376b139dU, 0xb7f45888356ac2a8U, 0xb938b835b6dc56b8U,
  0x36ce32a6374014f3U, 0xb76715243640afb0U, 0x3524e88035f234b0U, 0xb77f18c2b5fe51b4U,
  0xb60a5fd8b7862925U, 0xb774ff10b7167a6fU, 0xb684fecb3714c7afU, 0x36f2455cb6f5d718U,
  0xb58f11a8b641e8a6U, 0xb78bbc5eb807fb44U, 0x37a7ad6435b76512U, 0x3707352134420f90U,
  0x3705a45c376c3b85U, 0x376d2eba3642dfa8U, 0x36b2cc0a374179a9U, 0xb74d32ca36792299U,
  0xb60c6068379c10aaU, 0x37071f4937401012U, 0x3653c88037913a49U, 0xb69a6a13b377ca90U,
  0xb6dbbdeab64e01f4U, 0xb75875f6b71cf41eU, 0xb7850ecc3714c0a8U, 0x382a52c636cd7cd4U,
  0x375b9040369c72aeU, 0x34f0891035e09f58U, 0x35253e80b757928aU, 0x371bbea6b6215a84U,
  0x376ae727b6dfbd79U, 0xb68c9c5eb73f24ccU, 0x371d622f378715cbU, 0x35d5a120b722bb7aU,
  0xb5357ff83690209fU, 0xb623fd94376d498cU, 0x36f6f985b51cd730U, 0x36b479e237495d74U,
  0x36a84adc37051220U, 0x35c4cb2d35cbb3b4U, 0x36eac59e32688f80U, 0x37252906b6291c2aU,
  0xb7430f67b719e43cU, 0x365cf35c36fb14fcU, 0xb7023d43b773ddefU, 0xb730937e3709523cU,
  0x366be184b65b8ab0U, 0x36a506fab7552cceU, 0x36b54a98b50e6620U, 0x36351a1eb65c3119U,
  0x378dc109b4b42b18U, 0x36769b0437e4a522U, 0x37960bc3360671d1U, 0x36d85860b74e83deU,
  0xb6371ab0b72d655aU, 0xb6be98b6b6cce875U, 0xb73522e63753009cU, 0xb745eeb1b7695167U,
  0x375613ef36332b23U, 0xb653a3acb7269b46U, 0x363029a8b73a14a4U, 0x36279a06b715d7b4U,
  0xb6e8605f36e1610eU, 0xb70c6dd0373b306dU, 0xb796106136cf4525U, 0x375aa363371265c9U,
  0x37098808b70f9ddaU, 0xb5e76200b73e6bffU, 0xb7a45f7d36648fa0U, 0xb68cf82bb65638b0U,
  0xb748adaeb61e559cU, 0xb7824ab237aacdf4U, 0x37322ce0b71a8464U, 0xb5b0c000b7767e0dU,
  0xb738861eb514e2f0U, 0x37d9d98736cb3114U, 0xb773653036ef8250U, 0x370914cf3785139eU,
  0x36bfb85b368e5518U, 0xb7474b4f3762dabcU, 0xb706c8023713e1b6U, 0x360b781937c06126U,
  0xb7ad9f70b717c5fcU, 0x36abde7436c9685bU, 0xb652722cb3807a00U, 0x3785a82637a0f382U,
  0xb7fc9a1c368d4390U, 0x36a2f1b6b6c2be75U, 0xb7f821f03796c7dbU, 0x3697660837330ad9U,
  0x369769a836b1f89fU, 0xb796d73c374c2b88U, 0x3739792eb81c5f31U, 0x376a17913767b1ceU,
  0x37df79f036fbec79U, 0x37a173203512c7e0U, 0xb6e03ebe376887b6U, 0xb6f23acfb70a2262U,
  0x37b281e2b738f206U, 0x37c153f4375b50e6U, 0x36626f6435e098d6U, 0x34eba448b7ca5d30U,
  0x3791cdfc38122ebcU, 0x35fea16837bf4872U, 0x35435ac036a15b0eU, 0x379df751b7563c70U,
  0xb774fc8a358e1e14U, 0xb7156fea3621c220U, 0xb7232bca36404530U, 0x381829a6b643efdcU,
  0xb532a664b6c61b6eU, 0xb7a552be37d119f8U, 0x363d80feb774d110U, 0x354304d0360b6ad8U,
  0xb7473cd836e782ffU, 0xb62a7ea835ec3008U, 0xb6601b78b82ce0a4U, 0x377291153730e57eU,
  0x36c0e97eb731c47eU, 0xb81550afb75db697U, 0xb618bef8b74b11a2U, 0x3726b590b849c332U,
  0x368a22fa370dc5c4U, 0x3791e4943766c5deU, 0x37b32961b654f311U, 0xb70332f8b741a6e8U,
  0x3517e390b7d0165cU, 0xb791fc883767bd3fU, 0x37f41663b7a2f055U, 0x37776f0437a3888eU,
  0xbd6753f4bc8dd910U, 0xbdd61cd9bda2c76eU, 0xbdbde58f3c356c22U, 0x3d597ba136af3126U,
  0xb9904a863824016bU, 0xbd01d8f237918dcdU, 0xba7e26eabb1eea36U, 0xb87e8eae378b7e14U,
  0x372851dcb9019fdeU, 0x3db5e99ebcc742bfU, 0x386c59173a374a45U, 0x37f8b230b8067e15U,
  0x38c99afa3cadadfaU, 0xb8b3b5b638182ec8U, 0x372039533d9a11e5U, 0xb887d3d9b916bdf0U,
  0x3896c1543a642fe6U, 0x3930ecceb88e8d33U, 0x37a34fd637ce73f2U, 0x3871714a388e0d10U,
  0x381ff163b75802cfU, 0xbae3bef7b7f45cd1U, 0x3872ce67b8ba783eU, 0x376a186e385e572aU,
  0x385b2dd1b7fbdbe3U, 0x36bdf609b8dbb139U, 0x3767d562b82beb80U, 0xb6fd213db6e2d67eU,
  0x38bd166ab6b9bb7cU, 0x3918e1f738482e16U, 0x3832da63b849a1f4U, 0xb78372ccb82402f6U,
  0x38e05371b83e5ea4U, 0xb7c64a3737b60f60U, 0x38bd11e1b779b29cU, 0x38839e21b8e7e5d0U,
  0x38875410378fd425U, 0x38bd9dcb382e6989U, 0x38c87001b699a5a4U, 0x37e34a90b81559a5U,
  0xb6f54036b8b86d47U, 0xb4385c90b84deb4eU, 0xb802a7f2b900884bU, 0x3777b735b87e244eU,
  0xb78b3f6db8487374U, 0xb7f1400ab70e7312U, 0x3880472b371034b2U, 0xb5cc5368b6d217afU,
  0xb82b6962b85ec11bU, 0xb78aeb18b8e5a66eU, 0xb782c536b8127c56U, 0xb7eedea8365a2188U,
  0xb75593be37b49d2fU, 0x3899f724b703ee5aU, 0x36cc310a37d122faU, 0x372dabbeb8ed4ca2U,
  0xb7465b0db83aae56U, 0xb7f967f7b880ac20U, 0xb85edfbc37a57b84U, 0x38395404b6f0849dU,
  0x3800949c37da1017U, 0xb62e79b537ac8470U, 0x381498fe37808a51U, 0xb7c1a9bab7ab43daU,
  0x3e575fc53d9f747bU, 0x3c482dfc3db46a19U, 0x3e13cf82bdeb437aU, 0x393de7bfb8d4fa43U,
  0x3d9e2c3bb84e5355U, 0x3a952415b92bd480U, 0x3991f31fb8cd74e9U, 0x388488b0bc332d31U,
  0x3891898037f0b3dcU, 0x39240a33bd61bf8eU, 0x37805074b99af392U, 0x3903f70535688798U,
  0x383a1f1d37d2f937U, 0x397578f037c52403U, 0xb7b9f7823781b01aU, 0xb79315f636e810afU,
  0xb7a117beb78ea23aU, 0xb7db8349b9597601U, 0x36b3684d374f9a95U, 0x39a4bcb1b76dfefeU,
  0xb6172bd73846f677U, 0x35e1bd76378216e8U, 0xb70e9860384ed214U, 0x3667fded3808297dU,
  0x352b253eb6a08876U, 0x3917f2ca37e1da94U, 0xb8094f01361954c4U, 0xb81bdb4db9599d59U,
  0x36a960f238bcc6d7U, 0xb78624cd34a5eb18U, 0xb7f7b4b9b5b6942cU, 0xb681be6eb67ef3deU,
  0x38e3d3053752e21cU, 0xb7fa19feb6d764ffU, 0xb7df51dd375a3502U, 0xb54c837036bfd167U,
  0xb6cc9dcc34ff1a74U, 0x389c8230b8b8ad99U, 0x37be803037590700U, 0x36d5f9a2379f7171U,
  0xb758c07eb565ef87U, 0x35423e9ab6181560U, 0x3573be45b7fb067eU, 0x3700affa3515b964U,
  0x36e1ad2a37612363U, 0x36cb0ed5359f4d0eU, 0x36280a2bb78385e4U, 0x34c8f9c834ed4f70U,
  0xb82d8702b38c2480U, 0xb84094b8374a3162U, 0x36392b5f377d2e60U, 0xb81344fab55d35f8U,
  0x36e6f5acb7934ceaU, 0x36c73dc4b6ad15bbU, 0xb5e0bb4eb716f368U, 0xb621bbccb7924d40U,
  0xb4261ec8b5f960edU, 0x36b8cae536ae7fb2U, 0xb75c2ef1b631cbe5U, 0x37c93ea3b75a51baU,
  0x35e8bef0b821c342U, 0xb7142c54b663c91dU, 0xb6d12c55373edef2U, 0xb6cd7ee4361c8ea4U,
  0xb71c04f2b6f30c4aU, 0x34110d90b78fe094U, 0x37295e45b73990aeU, 0x3704b340b758d63eU,
  0x36524e7eb7f370fcU, 0xb79f38c636ed4eb6U, 0xb7290ab9b726d32fU, 0xb7aaa3a9b4e06458U,
  0xb742d867b7a9e219U, 0x3600622eb7b5a8acU, 0x3792f6feb782099eU, 0x3793ac5837454de4U,
  0xb7aaf87037659c5fU, 0xb6eab388b789f8fdU, 0xb7325df23817dfe8U, 0xb800ecfdb72de1e2U,
  0x376d5cf93739862cU, 0x3713c833b595a984U, 0xb6b735b8378a8131U, 0xb717dd9cb7982e7eU,
  0xb7990cae3700f42aU, 0x37cbd39db7975de7U, 0x37d0a6fcb801f7a9U, 0xb6802ec2346782b0U,
  0xb77768f4b7461203U, 0xb5debd603731ea6aU, 0xb714a8f2b7576b84U, 0xb716b34636d3e17fU,
  0x374948483632154aU, 0xb74f39d03730732bU, 0x3793a1cb37b8e8c1U, 0xb7111f7d373186b3U,
  0x37e2fc82b6a76cb0U, 0x37945149b7e5d16bU, 0xb763eb0036eb4f7eU, 0xb6cc4abab5a64940U,
  0x37b5506436a8525cU, 0xb7116effb640a6b8U, 0x364bbe28b7254ce9U, 0xb582d480b73bb6a7U,
  0x36f2da40b7d273b0U, 0xb3dc3380b78f6dbcU, 0x36d5d62bb7555fdaU, 0xb72a908eb7d3f0beU,
  0x373df771361dd818U, 0x37d4137b3754bfb8U, 0xb408c7e0b72b2dbaU, 0xb72a85f838325d95U,
  0x3661ede0b6c13f02U, 0xb74ca32635b324f8U, 0x3709e772360e8c97U, 0xb7d44d28b77befabU,
  0xb6ce1b1fb6c743e8U, 0x3827c18e37543315U, 0x376c96b5b71b5a5aU, 0xb6be4a3437d31344U,
  0x36b3ffcc37f8588dU, 0x381b5816b6e517faU, 0x3734281ab7d35f73U, 0xb5b92618b6368ab8U,
  0x370d6786376f630eU, 0x34beffe0b755f37bU, 0xb72e4b57b50ffff0U, 0xb78cab26b6fcad2fU,
  0x3c42113abe250efbU, 0xbdd10cf63de83e58U, 0xba9677b038987e11U, 0xbda3874cbd73519aU,
  0xb82eb3a8bbc72973U, 0x388e4d6e39626c56U, 0x3d010b38bc950088U, 0x3d00b008bd4e4520U,
  0xbd3db417bda555ecU, 0xbe39bbcfbaa7d673U, 0x3d89e599bdc37438U, 0x3d06718e3e0e4dd8U,
  0xb86dd6e2b92a21a3U, 0xb813428438c1431dU, 0x376989bebd60f9b1U, 0xbb2d6ed3bdde1e90U,
  0x38e4eff1b8953d0bU, 0xbba5d80b3de98bcdU, 0xb86b06753d89ed54U, 0xb99d044db75378c8U,
  0x3df748123a1b01c5U, 0x39bc299b391a7bb0U, 0xb8635374393170beU, 0x3a0de443b833dd3aU,
  0x399a58ce374a1bb3U, 0xb96e66f53b1c05caU, 0x378f6d4ab9374354U, 0x369124aeb77577e7U,
  0xb87580a2b8b5fb0fU, 0x372231d5b8446eb3U, 0xb82b3f9e3731cb0dU, 0xbb28f7ab378cba09U,
  0xb89cc05ab93b99efU, 0xb904e1d2379f4faeU, 0xb906919bb8ccd197U, 0x38ff371fb857a058U,
  0xbce0d78eb86a989dU, 0xbc36be6f39b766a2U, 0xb89a1f99badc197bU, 0x39977168b8ff93bcU,
  0x379abed7b7e00546U, 0x3842a0a43d368a4dU, 0xb834f82fb6616de2U, 0x36fb7196b8820a41U,
  0x39dbdd8cb7832b4dU, 0x38b4644eb699fea6U, 0xb80f67033862e3f0U, 0xb6eba2c837668612U,
  0x3841913cb72a8ef6U, 0x398617fc37898973U, 0x376db7e5b6658e37U, 0xb851aff637f76351U,
  0x3932c4003867dd87U, 0xb7fcb0d0b7b46e0dU, 0x399a5560b71172c3U, 0xb82124373994cdfeU,
  0xb81f487cb609b231U, 0x37f33f28b8b67b05U, 0x37dacf2bb843dc95U, 0xb8a3e8aab8109f4cU,
  0x36cabeca38f9b8d2U, 0xb69b151637127416U, 0x390bad44b6cea2d6U, 0x3854d9b2383ae64fU,
  0x37cf06e6b681b306U, 0xb527f644b780a1efU, 0xb737ecbcb71177e2U, 0x375801dd36b5874cU,
  0x36196a90b64155e8U, 0x3696d2dab6b80657U, 0xb7c8e18136b4160cU, 0xb6ce27b4b71673f0U,
  0xb75e4dc037886d02U, 0x374a0a0eb70ec30cU, 0x36fd5b34376043f4U, 0xb5b1a60cb52261a8U,
  0xb757c18fb7273f81U, 0x379be32eb67a95ccU, 0xb708a4b0b6fcc8c3U, 0x378fb794b528d820U,
  0xb70fd1f5b74ddf8aU, 0xb771967eb405bd40U, 0x3600dac236944016U, 0xb7cbb144b7378f5dU,
  0xb7048a0236d271b2U, 0x37530377b64dd1c0U, 0xb5ab7a90b7069e03U, 0xb72d230b3537ac80U,
  0x37812c3c36a44a2cU, 0x36e356a1b7339277U, 0x3764ed16b65a7500U, 0x37540c1eb777bdf3U,
  0x3742082135811340U, 0xb726e1d4b5c0e048U, 0xb79adbbfb79e4280U, 0x377ffda8375f5270U,
  0x37d35355b72a9dbeU, 0x37862d1c37c8bf02U, 0xb71b7ad3b59fd160U, 0x370869beb8285579U,
  0xb5d499583807cbb3U, 0xb6e35fbf37884e63U, 0x3722b910b6c9c0a5U, 0xb7e0d29fb6e2aa65U,
  0xb797953734a496c0U, 0xb713342cb6fc6f09U, 0xb61bd00037519fd4U, 0x369422e737870ea2U,
  0x37d17977b681796cU, 0x3617a35eb7c75994U, 0x378851b7b5d7a660U, 0x3740645cb729f812U,
  0x3775431db7ba4d3aU, 0xb5b1712835fb9204U, 0xb685133ab78f55bcU, 0xb6326490b75238d7U,
  0xb67142fab526d260U, 0xb6c442f0363cea09U, 0x36406500b6b01ee0U, 0xb68710d2b6b74d68U,
  0xb7346042b6bd5f6aU, 0xb7855d2837fe0331U, 0x376714bfb5bd650eU, 0x375f3eecb6f5033eU,
  0xb84b523635e74658U, 0x35964ca4b7da386fU, 0x358748b036f48ae7U, 0x368d13d93606b092U,
  0xbe16f933be0eb9d6U, 0xbde01f8cbc4f16e7U, 0xb8626abb3d68a768U, 0x38720f0739bd335aU,
  0x3ca9be49b5a44286U, 0x3c328ea8b612adf3U, 0x3d09996abc49a1cdU, 0xb89325be37e2f3acU,
  0x3dc0ed0b3d228597U, 0xb81c83793ba4f823U, 0xbddaaf6ebdc867d4U, 0xb8860d2ab75c48d2U,
  0x3d9bf5fbb6a98a1aU, 0x34ac055c3d216af6U, 0x396996a53d5d3b97U, 0xb755a1d4b8302594U,
  0xb89a910e3d41ef1fU, 0x392e02f9b9793cb3U, 0x388afea83913b386U, 0x3666fd14b89e994cU,
  0x37c34a2c387f723cU, 0xbcc50d30b9d1db01U, 0xb8311ace36e88b98U, 0xba885eb3b7d80e00U,
  0xb8c73a4f36e2e466U, 0xb700bc5f38adb48eU, 0x38137a0eb6611f73U, 0xb8fb8cb6b72ecd17U,
  0x383b2d47379d0ff5U, 0x34e1914837320e7aU, 0xb633292cb8b610bdU, 0xb8f1532c37ab5a6dU,
  0xb8a7885a36bf9fefU, 0xb79ca226b73dca12U, 0x37f57d4bb7482887U, 0x36a2a010b83e7851U,
  0x37ba554ab764055aU, 0x380ef68cb8827c96U, 0x36adaef4380d9c50U, 0xb7f92a48380150a4U,
  0xb7973efb368f83c9U, 0x3657d66fb71307f4U, 0x38cb8045b7ec2382U, 0xb7f8caa137ea62c4U,
  0xb7bcb4f837e1d347U, 0x368dcfa2375b636cU, 0x36fa4cf2380b4b35U, 0xb6c2755c3811e45fU,
  0x364352a037a04b95U, 0x36af59bbb5e17c28U, 0xb7eae57532fe3200U, 0x38e38c3c37e10093U,
  0x367a989a37263c96U, 0x37963c4e3686d598U, 0xb7c59e78b408ec40U, 0xb783323f37e7f6d0U,
  0x37d25f32b638afc8U, 0xb7aa4240336f6b00U, 0xb7fecadf386d36b7U, 0xb7d34384375d82ffU,
  0xb7ee4fa6b6c9d407U, 0x3862417c381a3632U, 0xb7f0188037d46278U, 0xb80c6936b69e7ff2U,
  0xbcd4a98dbcc5ac0bU, 0xbccf60a9bd870162U, 0xbd30a4e53d25bfe7U, 0xbcf311763bcd47a9U,
  0x3d53fa4dbd6e9ab5U, 0xbcf758cdbccb3cbcU, 0xbcae872cbb838e8dU, 0xbcc057a83daddc0cU,
  0xbe47b7b23d183205U, 0xbcc97311bdb93dd6U, 0x3ce26c8d3d813eacU, 0x3d467b2dbce36bf4U,
  0xbce6fbd73e09cfafU, 0xbc5c77a73e0d4410U, 0x3a49b908bce0d4f6U, 0xbd71448ebdd36afaU,
  0x3dbbc856bd850b2bU, 0x3b61ea783b202925U, 0x3dba13ebbcd3e025U, 0xbcc9feb7bcdbf180U,
  0xbdce1bde3d297017U, 0xbcc6d4f4bdd7fa3cU, 0xbc9a0008bdc8ac9bU, 0xbdc569d1bce0df48U,
  0xbcb5591ebd0cea11U, 0x3c5854093bff58d6U, 0xbd72df49bcda0a4bU, 0x3d162388bcd3690aU,
  0x352a36c0b6fc8eeeU, 0xb6e26180b5013ff0U, 0x3653a1e7b6fdad1dU, 0x37bcdaa4b742113eU,
  0x380152183791e136U, 0x334d9900344236dcU, 0xb7a4bd31372293feU, 0x376ca7c2b55726b4U,
  0xb76ad662b7af5fd6U, 0x3646ecf8b77efb27U, 0xb80fe31cb7ca318bU, 0xb725cb51b656ce97U,
  0xb7305e7e34c3ba24U, 0xb6fda725b71a22c0U, 0x366acda3370fb074U, 0x362a886b35d47fbcU,
  0xb821a422b6e54dfeU, 0x35448a48b63f8a28U, 0x34dfe7e4b7dcd224U, 0xb6b13ae436e49960U,
  0xb8099a77b68a17acU, 0xb795334433d9e500U, 0xb6eab55eb67f3e54U, 0xb76a8a68359d8a70U,
  0x381f514037974e77U, 0x349dd99e375913beU, 0xb741f3a4b730c40aU, 0xb73db979b7744b1fU,
  0xb7b0ad5e350ff754U, 0xb7fd57e236e381acU, 0xbc5c404637cc1ce0U, 0x36fb23c4b93cdae8U,
  0xbe08e122bb3d27b6U, 0xb549cdc037840e76U, 0x370d3384bc4bfb8dU, 0xb68fddea3e0df5ecU,
  0xbcda28e9bb0cfdc3U, 0x3710ea243ba6cb34U, 0xb79e75cfbdef60ddU, 0xb9aa8e70370e544eU,
  0x382967b93e238eadU, 0xbdd32c493819ceadU, 0x37069305b734ceb8U, 0x3e1b8170b80d27dbU,
  0xbd315083bda37c5aU, 0x3e2d8151b8ae8b33U, 0xbdef2d89378e3f00U, 0x3670972037996406U,
  0xbc12bdceba8943b6U, 0x373eb193bd30cc5bU, 0xb7bafc6c385330deU, 0xbd52e306b5906100U,
  0xb78cc0c23743be9cU, 0x378c01e8bd9894eaU, 0xb986b2ec3735c90aU, 0x3e12ea60b70b06ceU,
  0xb48c5b40b71aa238U, 0x370cee0fb79dbcc9U, 0xbe1866a2371d7940U, 0x370b404039850011U,
  0x3e27b1b5bc878dbfU, 0xb7542194b6660d03U, 0xb5d90ee43e495333U, 0xb713f50c3d030ea0U,
  0x3dfa862e3895470fU, 0x3563dd2838bef408U, 0xb5fde4ac3ca29182U, 0xbe1c9249b681ddd9U,
  0x3787dff53d6bebb6U, 0xbe148a57baef9e85U, 0x37d44d8bb6a69b3aU, 0xbe4ba67a38cd5c57U,
  0x384f76a43987b0d2U, 0xbd673ddb384a10beU, 0x3e433758b722b072U, 0x36c4aaea36950408U,
  0x3808ed25b61b7944U, 0x3511468abdbf0cdaU, 0xb666b973b6af9838U, 0xbd078cbcb7e0a330U,
  0xb6ddb634b72d2568U, 0xb5b04c4438cd5307U, 0xbc33072337d47c35U, 0x3c9fb512b68c7818U,
  0x36c25862b61dbbc8U, 0xb7dc3894b78b9cc3U, 0xbce3005e35afd9a4U, 0xb72a6ac8b8ab9ae5U,
  0xbdeca8d33e697b43U, 0x3806a234b78e79daU, 0xb6d0823fbddff5acU, 0x3778854c3e0e8bbcU,
  0xbcfb5f4c3a08ee33U, 0xb93cb88bbe504811U, 0x38575170be3a910bU, 0x3dfa87aab7dada7aU,
  0xb75b7c13be25c6e5U, 0x3e461430b989bf2bU, 0xb73c2fcd37444920U, 0xbdaecb51bdf0b7b8U,
  0x3e1abfd0be4ed4afU, 0xbd4cc4d9b6e41700U, 0x3e17dbd2b5758938U, 0x3834990eb73fb2e0U,
  0x3d9490793757c822U, 0xb631b8683d8446cbU, 0xb4b9e3c8352eb094U, 0x3d6d18c03767044eU,
  0x37485f70b7120766U, 0xbb70dd3cb8cac6eeU, 0x3e468f8bb5885948U, 0x3e52d7b9b7243b0aU,
  0xb78d3cb8b7844bfeU, 0x369351f838b24fa5U, 0xbe3c2446b6c632a6U, 0x378e451d37a570e0U,
  0x3d9417e0b932daddU, 0x376620a9b721bfd8U, 0x35222a803e0b8edbU, 0xb58c9e50be1e485eU,
  0x3e0e057a38d5840aU, 0x3e1d6f6f3e2fce09U, 0xb7d435c6bb023f04U, 0x3832ea2bb5140c80U,
  0x3687848ebdef1bc6U, 0x3dd799e7b7c8324aU, 0xb704d8d4373c1060U, 0xbdbeef35bb9d4242U,
  0xbe57f3aeb9feeb00U, 0x3dd373fbb4f75550U, 0x3d58ece235b9020cU, 0xb6f76e08b54c7104U,
  0xb74cc5a6b872e412U, 0x379c314cba021a79U, 0xb789a712384443e5U, 0x3933932bb70b1828U,
  0xb6adb39ab73060f4U, 0xb6bacb463e21947aU, 0x3c0851df3707a5d4U, 0xbdbe8026b74fd979U,
  0xb7694db8b7cf948eU, 0x36da7fef3e7ae7aeU, 0x3ba266edb6321a18U, 0x35e259a43d099111U,
  0x37a6119e3d92b914U, 0xb5c38480b6fb1f5aU, 0x378aeecc3e3a3084U, 0x37894e673dd9e595U,
  0x3e1d9d8fbe456446U, 0x3e021de1b3b89258U, 0xbe0070bf3e50b302U, 0x3cfc047bb68e6028U,
  0x368872d6bd433cd7U, 0xbd7b9d4e3dd39389U, 0xb5b476383703826cU, 0x3d885528b8fc9507U,
  0x3e139fd53da94ba6U, 0x3d83287fbe30cb6aU, 0x3e6329d13719c16eU, 0xb73ba2b237b6fe55U,
  0xbe1a0668be281f13U, 0xb63644cabd3e3a8aU, 0xbe46870c3ea1fb2eU, 0x3e58c4063792e561U,
  0xb724b8783732c328U, 0xb7827f573d5e3b2bU, 0x3e1bafcb37a5e0ecU, 0xbde68fa437caf9ccU,
  0xb8224015366d4cd6U, 0xb6c09a8a36a19137U, 0x3c0fbd26b78236baU, 0xb6cb3508b7c785a2U,
  0x3658647c3bb84222U, 0x3789dadcb75a7e75U, 0xb783d3e038fa62e0U, 0xb5cbe1403e414f5fU,
  0x3e2bebdd391d14d6U, 0xb738a28737fea172U, 0x378b496838566b91U, 0x37d7143eb7d05653U,
  0x3580ccd03d8b6b63U, 0x3e224087b78462baU, 0xb71966fa37e6bdcaU, 0x3de45c40380042c3U,
  0xbd698bb8be4d8c8dU, 0xbe4c711eb77609c8U, 0x388f0c2f368c913aU, 0x36b86048b72fb289U,
  0x3d8ce0eb38a63c93U, 0x37aa11cd3dcc2b8dU, 0x3763f950b711db8cU, 0x3e542602371c0854U,
  0xb80ef27fb67ccc5eU, 0xb629f404b82294e0U, 0xbde62077b729efb2U, 0xbd22d87ab7069acfU,
  0xb78c25dc3659ac40U, 0xb7466b10b80dbe20U, 0xbe046bf5b71a0ebeU, 0xb69ac05239b1f948U,
  0xbd855b5c3c28a11bU, 0xb6ebaefcb798609eU, 0x360c6b483e5b5adeU, 0x36665cc8be3bed80U,
  0x3d62e3bf3c6ba494U, 0xb5e5454737fd9451U, 0xb770e0873e553625U, 0x38c97142b7be3842U,
  0xb6f7bb4b3e59a61dU, 0x3d5a2aa2bb641f88U, 0x3735a7f8b70494fbU, 0x3b9040fcbe1168f8U,
  0x3b02579dbe3ba6deU, 0xbe29fd1b3826a361U, 0x39596a533689b602U, 0x37baea1937263598U,
  0xbe3d219737d20112U, 0x37cd6d253dc04610U, 0xb5702098b9d6f483U, 0x39fe41cab5efdde0U,
  0x379f0480373501c1U, 0xbbe03c94b9b84724U, 0xbcc2d3c7376d0eedU, 0x3dc7043736d7bc3bU,
  0x36e578b936f97151U, 0xb75fd3ecb8ae9794U, 0xbd5b388536eadc92U, 0x34a6a3c037238b2cU,
  0xb50339ecbd4f1a0eU, 0xb7a7c810b7212aa4U, 0xb67ed7c4b9ba5b37U, 0x3783fa253d00f5b7U,
  0x3df0f5c63932d6b7U, 0x37e965e138060413U, 0x38b878c23de94d36U, 0x3dbff948b701ce07U,
  0xb64bc86e3e07b8deU, 0x3e336c6a3dd117e7U, 0xb6c8f00e36e47114U, 0x3d90f0553e1366c8U,
  0x379e65dabe2bd8edU, 0xbd37fea8b7700ebcU, 0x3d91425f3729f320U, 0xb668a4aab76570bdU,
  0xbde417d3366e94acU, 0x37a71d4abe4be99bU, 0xb560399bb6604bbcU, 0x3e110ccb3782d873U,
  0x3789838ab62e6f22U, 0x397aa9f2bcf4d4f0U, 0x3e4b38c537a7778aU, 0x3aa2ad06b5f1bc30U,
  0xb6a1a3aeb61ac492U, 0x36ad524eb77d3654U, 0x378522b83770449cU, 0x3636fd74b6e8b314U,
  0xb6c038b037a543c7U, 0x3481106437498337U, 0x3696c89e3800e972U, 0x376036d7379962e4U,
  0x3686d4f8370a160bU, 0x377d96a7b69a32feU, 0x36256822b545c4c8U, 0xb6d7b33a373ad1b1U,
  0xb6bcb0a6b640f05cU, 0xb823ec0b3727d65eU, 0xb6b1e891b71749d9U, 0xb76e95e0b7636de5U,
  0xb71128d8378a6fe8U, 0xb72c397f3706419aU, 0x371b6586380e5dc2U, 0xb75422b6354424c8U,
  0x3799d00437052f32U, 0x361ac282b61ad476U, 0xb67bf4a834bd17e0U, 0xb71c7052b78ec80bU,
  0x36bf1f1e37aee9afU, 0xb75778e836a35e6aU, 0x35f05b64b7af9757U, 0xb6eca878373e03d7U,
  0x3807232d37a21eb1U, 0xb7bfc312366433f2U, 0x3743d142b6d63f58U, 0x3561e43037a7e109U,
  0x371f945db7b56e86U, 0x374aa929b6b34e18U, 0xb756428ab74f8266U, 0x3724fb62b724ca30U,
  0xb6bf9f3eb7059774U, 0x3750e9a8b7b9a230U, 0xb66ce8e8b61e318fU, 0xb7a71fcfb6ce6a96U,
  0x37508dc6b6d1e48dU, 0x3719a27237c37298U, 0xb7899a7936cf5905U, 0x372e7b5a374d948eU,
  0x37099f4035d523faU, 0xb7ac9c82b7049228U, 0xb6c0308c35ac1e58U, 0xb78209fe37ecaca8U,
  0x35a5b88037b7e401U, 0xb78eb81535bde480U, 0x370a448937de87a8U, 0x36bd0498b81b1102U,
  0x3741cb8e373dde30U, 0x37106927b707c86eU, 0x37149e56373d076cU, 0xb704a7cfb67d1333U,
  0x3734e4083700b0acU, 0x36e6ee08b92ba853U, 0x3e59376eb735e948U, 0xb7715b6db909b125U,
  0x3b0f2e6d38abfcecU, 0xb7f55248369cafe4U, 0x3774d6ea3dc622e8U, 0xb799bf47bd97f557U,
  0x3d07b6563db76cf6U, 0xbe1f3db2b48905b0U, 0x393737883895042dU, 0x3d098e9fb589f8a0U,
  0x377fb69bbe226c6bU, 0x3d21275bb81bcd18U, 0x37d13ce0b7054c0eU, 0xbdc742d4bdeb2d88U,
  0x3db3e03fbddb6f26U, 0x3e38b8ff3db805f5U, 0x3e05c68837c58666U, 0xb784e860b612a888U,
  0xbd87ca7d39b565aaU, 0x3712c0b438d6a9f4U, 0xb58af6f8bc44cf41U, 0xbd6672f0b743785fU,
  0x37473d1b345a0a20U, 0x38a46c853d933446U, 0xb4a69960375da100U, 0x3808cd913663ec30U,
  0xb794f98e36c8291cU, 0x36f39f7c391f9ad0U, 0xbd9c9a8136e092dcU, 0xb73795163e90e3ecU,
  0x3c66fcef3e299fd5U, 0xb7914aac37133aaeU, 0xb797fb34be234f07U, 0x37173f9a36ef196eU,
  0x3e46c342b949a9d4U, 0x3d316650b7ca34d4U, 0xb952ee083d800d82U, 0xbd833a26b6231956U,
  0x36470af83d4da623U, 0x3e4b583ab7e24da0U, 0xb626f654370ce334U, 0x3e147eecbaa022e0U,
  0x3db3c831be5044eaU, 0xbded0f3ebcb4ac96U, 0x3c3420e9b6947c4cU, 0xb56bc2d837751f32U,
  0x3c9297b8b9c8a999U, 0xb591e1b8b8f24054U, 0xb58dc68e3df3249fU, 0x3dcb25e135d31c58U,
  0x36eef60eb775155eU, 0xbe020588b7248ad4U, 0x3d83849537bef952U, 0x3e258d1ab6079190U,
  0xb6ebe6fa3788972aU, 0x372a15aa3865400eU, 0x3da6163eb7546293U, 0x35bcdb60381db614U,
  0x3e47545cbdd71fd1U, 0xb7272b083775e2aaU, 0x375067e6bab4671dU, 0xb6ef0adabd1f6059U,
  0x3e63338db8f22052U, 0x383d4b0b3ad0f8d0U, 0xb916e5853e049e71U, 0xbde675e5366d5458U,
  0xb7d296c0be2eb41fU, 0x3cefed3bb940f588U, 0xb7816446b795492aU, 0xb8168e9c3d603976U,
  0xbd8014583c04ad8fU, 0x3ded32373654f3f2U, 0x3def0142b7226d8aU, 0xb74c0de535e43714U,
  0xbd98abafbd0050dbU, 0xb46397403e15b01dU, 0xb7eacf4037bd4f2eU, 0x3e58782a364f1e13U,
  0xb78283733716a29aU, 0xb92fac553d6a0ce0U, 0xbc8002dcb6a8a626U, 0x3e2c9644b7852c5cU,
  0x36d34a8cb75c1822U, 0x3729193db945bfc6U, 0x3cd4220eb4e07a90U, 0x37037125b657b5f0U,
  0xbe1f1c26b8177b5bU, 0xb6d1087736980f28U, 0x3708d4c33bbc9c9fU, 0x364152f4b61be887U,
  0x3df1a4633679ea24U, 0xb91448de3d4ddef2U, 0x3801b1d93dbdd1d3U, 0x3e2053beb6c93c89U,
  0xb652e0583e7411f4U, 0xbe38a747bdeaf669U, 0x36ec29f9b71b54a0U, 0xb6c4381ebd47658aU,
  0x37fbf2f03de68509U, 0xbe40cea73d8fcb3cU, 0xb78fa629b6f6f90eU, 0x37dda8693689f980U,
  0xb875d59bb5f18c8cU, 0x377a7a0a3e43b2ceU, 0x370e1d66b80de443U, 0x3dccb062b7bd9f05U,
  0xb6b5846eb5967238U, 0xbe1757f0bd01f83dU, 0xbe2c654eb61a588cU, 0x3c76b85936ffa364U,
  0x3714e92db7b44e90U, 0xb70f9db4b7f26adfU, 0x37b4989fb60fd8a1U, 0xb76b8485b7a8a5c7U,
  0xb66d21223683af41U, 0xb767d335b68a034cU, 0x34690780b7b34843U, 0x374a0fec374ae1e3U,
  0xb68fb049b77bc87fU, 0x379a6553b82783e9U, 0xb72edeba34490500U, 0x374b0a4536f9acf1U,
  0xb751419db7054761U, 0xb720bcccb6cb271cU, 0xb7cbc802b63ad1f9U, 0x37aeff8035807148U,
  0x360d210cb72b8ab6U, 0x372f3d68b71d5376U, 0xb76132f735a3d108U, 0xb742ca8ab5f5f1daU,
  0xb79fbb693822c031U, 0xb77d790237924e16U, 0xb779530b378d55f9U, 0xb797f206b6aeeafcU,
  0xb6d76b04379f2bc0U, 0x3784d0a0b7c8b1d0U, 0xb7cc2bdcb6b7c44aU, 0x3685e932b6829c74U,
  0x35a6804036454170U, 0x36ea116cb8b1594bU, 0x3c0422bb371a6310U, 0x37357248370c5429U,
  0x390638523c9b90f5U, 0xb71cd9d9373a8d83U, 0xb775d787bc51e239U, 0x36fdbd06b9085cacU,
  0x3e39db1039abafafU, 0x3660ed62385a9104U, 0x3884e579be0a4b99U, 0x3e316ab7367330dcU,
  0x350e1e723da9fc3bU, 0xbe14c438b824cf06U, 0xb6dada96369e7e8cU, 0x38c8a6393ce0e622U,
  0x3bed76cd3b044a86U, 0x3e3324d23643d498U, 0xbe10d0593829da3fU, 0xb7dfbd02b7562f64U,
  0x3c44da763a12cf75U, 0xb6d45fd83b480400U, 0x3757c6d4b58e3060U, 0xbdc40c9c36467252U,
  0x373d1512b710e1bdU, 0xb4440f8cbb8bcbc6U, 0x3d1349f2b6a3f86eU, 0xb6d1fa40b6095a9cU,
  0x35c53818b8083de6U, 0xb6e756b4bdaf3fd2U, 0xbd4d1d7135e6b6e4U, 0xb7016e35b8402384U,
  0x3e3415e1b8cd05f2U, 0xb772fdecb723a4e7U, 0xb6365b32be27484aU, 0xb78ce5193d3cabf9U,
  0x3d72e62d3daa79d4U, 0xb9a1ff2abde49af9U, 0xb6b7dd973e1bc40bU, 0x3d8b678636edf82cU,
  0x373300dc3d8c4303U, 0xbd94c376b86e7482U, 0x359bade8b7b5fd43U, 0xb813b7f0bcc232f3U,
  0xbe0ea1d33e0d9925U, 0x3c6d425e376ff3ecU, 0xbe5bacd7364009caU, 0x370728ec371418ecU,
  0xbcfd636f3af2b067U, 0x36a67219bcd5b66cU, 0x3d89f90abcd989d6U, 0xbdbc7dfa37482f69U,
  0x363df65cb738dd1eU, 0xb68b13a536d26d53U, 0x3e33bb93b7730932U, 0x38cc39f03720670cU,
  0xb71e1e42b69ffd22U, 0xb6617b24b9fb304eU, 0x3a82a8b037bff75cU, 0x37c2cd4ab82dd16fU,
  0x3e09e8543e566645U, 0xb7387b0037bdc76aU, 0x3698852abdf574b5U, 0x363b4151be41a546U,
  0x3d675e843de3269dU, 0xbe4bf29ebc2518caU, 0x3cdc21dfbd54d75bU, 0x3dbfc91236ceadc6U,
  0x36c86006be4ac14eU, 0x3db39237bdd4b8c5U, 0xb6b7ed08b753b9f7U, 0x3cb8add237d4dafcU,
  0xbdf7d2fc3e5b3aa5U, 0x3e60867d3dea6640U, 0xbd3b7962b74bb4d6U, 0x35d5076eb728f26cU,
  0xbdf9015a3e1980b6U, 0x36a864c8bda7e283U, 0xb5d78d98b8858f7aU, 0x3e3f36203638fe86U,
  0xb6301d163629ed45U, 0xbd8a3cc23da69a52U, 0x3e135730b5db2830U, 0xb7209d88b5f6f308U,
  0x368b6331b7d09211U, 0xb6d80c71b7086e9bU, 0xb83bac97b7474696U, 0x371a4e2d3556ee68U,
  0xb4759f90b4d27b88U, 0x37f07e9ab757a587U, 0x35f2f158b8b3493bU, 0xb6464c2cb341ddb4U,
  0x34a1b0e9360fc6b4U, 0xb531644a34e26eaeU, 0xb303962033353258U, 0x32c9bb28b72f1804U,
  0xb736c011b8ea195aU, 0x3320ef28b6021059U, 0xb611340c370b38a6U, 0x348d616033e4757cU,
  0x358f79923478a688U, 0xb8bb4d2fb5b0d822U, 0xb949f068370bb328U, 0xb6259148b6b77f24U,
  0xb3303550b696c37eU, 0x37d24f9db0cc8300U, 0xb60d74ea356c2a80U, 0xb92e14c3364d8ce0U,
  0xb79141b4b72982a2U, 0xb30cbe3036a4821eU, 0x335d34c0b6cfa884U, 0x307603d0b77c94c4U,
  0xb7ab8aec36a99690U, 0xb6c05e73b9699371U, 0xbe270bbb358dc1a0U, 0x37ac9764b83377ceU,
  0xbdb823963e279d7bU, 0x36277161b6801453U, 0x36a18c133e043c95U, 0x378177c23e332b02U,
  0x351fab483e8182deU, 0xbe837584bbef6f18U, 0x3e29cf53bdcf9c04U, 0xbdf9a3f636c6f0a4U,
  0x367cf3fcbe49de6fU, 0x3da23879b7b181b6U, 0x371a9f89b7343464U, 0xbd95de063dc36f4cU,
  0x3d94f6e33b182245U, 0x3e31923c3b4250adU, 0x3e62eefeb5f38f28U, 0x3691e414b6f976a6U,
  0xb79f65bc3e8349d0U, 0x36b59acbbe0ff43bU, 0x37636e29b9c9a38aU, 0x3e4c99f83776afbeU,
  0x372d88db3503f630U, 0xb7d7f2b33e0f6770U, 0xbe0502b836b3172cU, 0x3d8ebb9d379a4f8aU,
  0x3756acc035e27c58U, 0x36847f0236338db4U, 0xbd1d9efab7b73efcU, 0x3774f2bdb80768eeU,
  0xbdb4a46cba2b2c1aU, 0xb796af7836e8d070U, 0xb7bffd0bbe139b0fU, 0x35a79bf83c0a120cU,
  0xbd6a452d364611e5U, 0x3d3662a5bcf7c7e7U, 0xb67354a0badfe6cfU, 0x3ae0a82fb80a72d4U,
  0xb70b08b7bd806cbdU, 0x3d89c0da3c36ff8dU, 0x36d17eb9b689d4bcU, 0xb9e6bfe33d9f1266U,
  0xbd4cdd5a3e5925c9U, 0xbce33a05b888cb15U, 0xbd31f85ab66dee40U, 0xb6d63bdbb6d43ddeU,
  0x3ca8dd6bb694e2a8U, 0xb701ca6fbb71f328U, 0x36de863d37bc4039U, 0x3df9c4393767dd50U,
  0x37365c23376cf9b7U, 0x35b6d1a4bd11cac3U, 0xbe478460b6de54c2U, 0x3d7da6c9b7aa98caU,
  0xb5efaab0b50a6f38U, 0x37424a10b7ce40f9U, 0xbe34f2b1b81e5217U, 0xb6a9c39f36a39b56U,
  0xb78ab91db88bab7bU, 0xb602d8a8361ac09eU, 0x3720102c3ddeb400U, 0x37d76d59bdabcfa0U,
  0x3cf7b0ec374e7fa5U, 0xb623b150b6b5c956U, 0xb45bf36cbc94d84eU, 0xbd3d30f2b7beb6c6U,
  0x3680e492bc8793aeU, 0xbdc05f7cb8df2862U, 0x3712635237943a81U, 0xb6ae3593b72a629eU,
  0xb7007e2cbb670bdbU, 0xbd53b139b6a0dd39U, 0x3d9a4a3836a352f6U, 0xb52b9bd037ef3018U,
  0x36912f28b608edf8U, 0xb7bb3038be2f0eaaU, 0xb63ed10f37de8b9dU, 0x3e017d9db74aa956U,
  0x372e6d823778de61U, 0xb415a660b734760aU, 0x3d88f4c036708b4dU, 0x3e4399cdb5e6c2a0U,
  0xb6e18bb03778767eU, 0x36feaa4ab85e4b86U, 0xbe0dab34b6eb739dU, 0x378dc3e6b7e982adU,
  0x3717687c395c7627U, 0xb74ca2f23774641aU, 0xb75464b83e367e9bU, 0xb7d0021a3cb7b7d2U,
  0xbdf96c5e3800cd58U, 0xb7899afbbe285567U, 0xb677fb183e22f425U, 0x3cab7b2cb77b38fcU,
  0x35dc05fc3dee0453U, 0x3e02c41a38ec39e5U, 0x369824d6b5d3fd10U, 0x3dacef653849af2eU,
  0x3796c18c3bfcdacfU, 0xbd9d292c36e01708U, 0x3e2f8f52b685d1deU, 0x37b3761e3793a55aU,
  0x37b44d1c3691d6c0U, 0xb742b86c3c471d91U, 0x375a6d5db7a09284U, 0xbe108a5f37cda8ffU,
  0xb7ab7413380b3ff4U, 0xb812dc5f385429f8U, 0xbe13e697b58b89e0U, 0x3dafb69537982327U,
  0x36bf338a379f7313U, 0x37386d8938156514U, 0x3e3fa202b76fd44aU, 0xb757fb3b3df5d0daU,
  0x3d829d763cd002e5U, 0x383ddfdd37c08441U, 0xb74951ca3e587fe9U, 0xb79b607ab890308aU,
  0x3c879efcb781ef02U, 0xb8a0f53dbe8d935aU, 0x3707ab81bd52ed6cU, 0x3e151515b66c0a08U,
  0xb6f4da14bc2fddc2U, 0x3d1932dfbcfe3991U, 0x37a4ecb2b65e7010U, 0x3de2bc143838210eU,
  0x3a8bd36abd23921aU, 0x3e52c06b36ab1902U, 0x3e600238b599ff8cU, 0x36ff3d08b7c25c10U,
  0xbdc494d4b5e37e58U, 0xb6cd8c583d843f00U, 0xb69ee1b634bb185aU, 0x3d865e0f37aec2fcU,
  0x3773106636b6e328U, 0xbdf7d70934c3a010U, 0x3e37e58637042a1cU, 0xbe5f823a3707c343U,
  0x36591b5f36adeb60U, 0x3745b80eb9bd9953U, 0xbc7bb6aeb7d2a4d0U, 0xb61d33d2b88d5b48U,
  0x3e3af77b39034883U, 0xb7a3555eb72480a2U, 0x377a416b3e0d4855U, 0x3707effc3e0acd01U,
  0x3dff1a503a068e30U, 0xbe099ab8bd88e995U, 0x38ef10e33d81bf24U, 0x3d9b698d37253ce5U,
  0xb6d00da43e5009d8U, 0x373d2a8ebe0900e0U, 0x373b4429377bc6f6U, 0xbd9cb01a3e28909eU,
  0xbdece4a4be5a0e85U, 0x3db31d4e3d6a96e7U, 0x3e0bd29c376ad0caU, 0x37791cc436efc78aU,
  0x3e0fe02c3e4a69fbU, 0xb75d1a09bdde9862U, 0x3d1e8200bc8ce576U, 0xbe20eb35b724a717U,
  0x3731f1c737be758dU, 0xb79d628cbd2e4d91U, 0x3caf4ed236a208dbU, 0x3d85115c3762843fU,
  0x36fdd640b78c3099U, 0x36ee27b2361139c5U, 0xb8e2ce61b7ad1eddU, 0x368e9c9cb84bbef0U,
  0x381e6098b95da67cU, 0x37606d66369c7a4eU, 0x37674e1c3da10991U, 0x360d4dfe395bcf3cU,
  0x38eda5a538d71a22U, 0xb741a978382821b6U, 0x394ce64f39ad6de3U, 0x390ca067372d476dU,
  0x3707dd8db8dfa0e6U, 0xbc86d2e637f95754U, 0xb62c63e8b5fc1158U, 0x3974387ab8dfd39cU,
  0x39b2ae5bb94e3fddU, 0xbab8b462b86bdc43U, 0xb8183c62b6c1f2daU, 0x3738115937119743U,
  0xb9a4f53b3a0ad65cU, 0x3728505e3919bae7U, 0x3775b7ea340f4e58U, 0xbd9445cf35ea96c9U,
  0xb4e7fcd03757e0b7U, 0xb9cda03838d5d3e8U, 0x381e54583715b39dU, 0x392210a735f80c28U,
  0x3602fb1cb5b21f10U, 0xb722d1d6390d7e2cU, 0xbd84672b37ead565U, 0x375ffa3738730e6cU,
  0xbe206e6ebe134674U, 0xb841a108b69ba22dU, 0xb73557a83c1691dcU, 0xb7a1a5a83a22ae16U,
  0x3e2959f7be684668U, 0x39297a543ca7969aU, 0xb87eb7323ca81285U, 0x3e1e3fbbb6dcee9bU,
  0xb66baad03c59c457U, 0xbb1729f73d9324a7U, 0xb7749ffeb7582ca7U, 0x3dbad7d9b8e119e2U,
  0x3da240fa3d976179U, 0x3dc6fd16bcecd62cU, 0xbd364de1375d3764U, 0xb7f2f5dcb60e7a8eU,
  0xbe7db73bba2b5001U, 0x37cbe984bdf9c7b5U, 0xb77964fc3caaec8bU, 0xbe5d5a25b6091718U,
  0xb742eec33738f0b5U, 0x35b74ae3364970deU, 0xbd4eccd036e8e200U, 0x3dbde6a036991b90U,
  0x378aec1d36383510U, 0x3791b440b6b236ebU, 0x375a724b37969268U, 0x36a4e524b7059284U,
  0xb7bb9ee53753471eU, 0xb54386d8b7a1810eU, 0xb703d55eb60035c6U, 0xb72f854fb6cfc222U,
  0x363cc9ce375f0ea4U, 0x366fb1c8b64de6bdU, 0x34cd4bc835a4223aU, 0xb721ffb23597f50cU,
  0x38169654b6652d07U, 0xb509b302b7b2a7d4U, 0xb7520febb6cbeddcU, 0x37090f4eb6134074U,
  0xb70bfd8eb5bb5192U, 0x34961720b665df1eU, 0x3597cbb8b755eda1U, 0x363d0664b757f0caU,
  0x37970aaa37a5fa44U, 0xb6884807361d7728U, 0x37178587b80067f8U, 0xb79a39f7b78bd2c6U,
  0x370f551635741f70U, 0x3721ebd9b78b1c70U, 0xb685982d3802aaccU, 0xb78dc9f2b7d8acc3U,
  0xb4f3bb60b67118e4U, 0xb6ded963b6ed4986U, 0xbd64737c36f0540bU, 0xb5c65a9c353c3466U,
  0xbc91b7eab6e0a055U, 0xb6b56700b5f37068U, 0xb77cacdf3891f594U, 0xb68c622437aee6baU,
  0x3e11878a38d92322U, 0x370e27c0b6ef0e85U, 0xb68933eb3d7dc1bbU, 0x3d593f77366d2b2aU,
  0xb31a8c003d0d253fU, 0x384d381bb7a8d0d3U, 0xb71ba0c435b305deU, 0x3c4fc3c43db8dcebU,
  0x37ffdab4bd84afc2U, 0x3e40ce4db7fd9653U, 0x3ca9a366b76aa94fU, 0x3714550e37546f52U,
  0x366418cfb6036a06U, 0x371faa1fbd9329dfU, 0x36032bd4b719488cU, 0xbd537db4b7586752U,
  0x3726100c3609dea2U, 0xb69338dbb533396cU, 0x3dd20453b800025eU, 0xbd8aff8ab6e266aaU,
  0xb6cc337a370b1cf6U, 0x37b577f0b6b8cb58U, 0x3608abd7b6396396U, 0xb788cb2cb83b180bU,
  0x3722b8a4368f0256U, 0x379b9a07b762fd45U, 0x3780adebb62cc182U, 0xb72595c835211638U,
  0xb6e4f45a373db8f9U, 0x3600eaebb7a0994eU, 0xb6d4da8eb6385031U, 0xb7a6c5db3828fc39U,
  0xb6b6792936964a68U, 0x365e871c37055931U, 0x37103631b785f14dU, 0x36ca0c1b36dde9d4U,
  0xb7a06bda363b3a69U, 0xb5c579a53797ebaeU, 0x36211a66b72904dbU, 0xb7130db6b714cc0eU,
  0xb78b539db6737bccU, 0xb702ac203696f830U, 0x377f986d36dd8c96U, 0x364b11f2b76eb60aU,
  0xb762ac8835e0f208U, 0x360440b6b6eb809aU, 0x36d688d3b7e54a8fU, 0x368b5012b76298b9U,
  0x375006d5370a6df0U, 0x376989b5378cfdf9U, 0xbde954163699681fU, 0x37ab849f38a6d2eaU,
  0x3dd38689b7c7e895U, 0xb6e2a3e9b7823addU, 0xb785723bbd919709U, 0xb782022e3e008d9fU,
  0x3dbd1fd1b96a0147U, 0xb74e99bd376b62f3U, 0x37a055583e410c98U, 0xb816e80db5ed88f0U,
  0x347a6de0bd271334U, 0x3d9f31793844f909U, 0xb7e9bbf9b6d1f5c4U, 0xb894e174bd3fee47U,
  0xb824f164bdb60df2U, 0xbd63d706378d3eeaU, 0x3d068124b77e20e0U, 0xb72aff963762979eU,
  0x3d5a1048b9075cb2U, 0x37917d0bbde0c0e1U, 0x36be4952b7a61f51U, 0x3d37230536f1d160U,
  0xb70ca65c37b7d4cdU, 0xb884c21b3583acc0U, 0x3d8f634bb7f0726eU, 0x3e268256b7f4dba3U,
  0xb7376756379acb70U, 0x3487c91837b3db71U, 0xb73ac978b6ab3dc8U, 0xb7ac3ecb370a2a12U,
  0x36c21c2b3758d0a8U, 0xb6b0e848371d8c24U, 0xb766ab4d37608e1eU, 0x36e00cfa370d23b2U,
  0xb7202cdeb6d625dbU, 0x361217f0b839579eU, 0xb7e628d7371c4baaU, 0x37597e94b736eca0U,
  0x3680d5d637640489U, 0xb6cd7600b6e2afc2U, 0xb81ce163b58a39a8U, 0xb6d512f637c9439dU,
  0x37506bcab70f69baU, 0x37c13e3cb747f7deU, 0x36976898b5df8164U, 0x36c014a63630c80dU,
  0x37602b1638215779U, 0xb78f3b11b5a42504U, 0xb77e1a7f3702e125U, 0x36ea6792b7b2da0aU,
  0xb50c21c0372f167eU, 0xb6fbec9eb707d912U, 0x36c978a8366cd5b4U, 0xb72b65f434a6aab0U,
  0x369283e83762ce58U, 0xb5eb145039c9bb8dU, 0xbde6c0a0360259f1U, 0xb6fc61d7be399516U,
  0x3dc882e0bdac4f18U, 0x35c6d52eb77a9db4U, 0x364e4c983d07a812U, 0xb7dc8f123d901447U,
  0xbe56f1a9bdcbad9aU, 0x38f3afbb3db73559U, 0x390fb90b3e202142U, 0x38afd67a3724f7c0U,
  0xb6b228eebc4d67cfU, 0xbde054473e3d468aU, 0x363a1d5135f29ea0U, 0x3c4bca45bdc369e2U,
