
/**
  ******************************************************************************
  * @file    usc_network_data.c
  * @author  AST Embedded Analytics Research Platform
  * @date    Wed Mar 23 19:38:48 2022
  * @brief   AI Tool Automatic Code Generator for Embedded NN computing
  ******************************************************************************
  * @attention
  *
  * Copyright (c) 2021 STMicroelectronics.
  * All rights reserved.
  *
  * This software is licensed under terms that can be found in the LICENSE file
  * in the root directory of this software component.
  * If no LICENSE file comes with this software, it is provided AS-IS.
  ******************************************************************************
  */
#include "usc_network_data.h"
#include "ai_platform_interface.h"

AI_API_DECLARE_BEGIN

AI_ALIGNED(32)
const ai_u64 s_usc_network_usc_network_weights_array_u64[ 20866 ] = {
  0xbd72c8783e047fabU, 0x3e4706743cac30c0U, 0xbce13f61bd5e59e7U, 0x3ca9ff61bcbefb2dU,
  0x3a8e20f23e6f49e3U, 0x3d1885493dabe193U, 0x3e5e6733bd5fa4cbU, 0x3d3247f5bd867687U,
  0x3d54fc06bce28754U, 0x3d96fbb23ea746c9U, 0xbc7e09dd3df83fabU, 0x3eb687e43c3fa1a6U,
  0xbdb38def3d101a58U, 0x3e2b5c873db08a72U, 0xbe1b6bf2bc01335aU, 0x3e1c85a03da2c7f8U,
  0x3deb828f3e44f793U, 0xbd0f81c6be161221U, 0x3e30fdee3e0b780cU, 0xbd7d9358bbbce371U,
  0x3e1557e4bcaf9341U, 0xbc5974c03d2f0056U, 0xbdff13793ceaf1a2U, 0x3e0d01963e2b6bcdU,
  0xbd07bea13cb725f1U, 0x3cc714003cce353cU, 0xbd991dfdbd9b6e92U, 0x3da8f3953cf30998U,
  0x3cf5023a3e875711U, 0x3e5018903e419c0aU, 0x3d8b92f8bcc2873bU, 0xbd07e15f3cfe2132U,
  0xbda28d783e872c6fU, 0xbe1e66693e2cc11eU, 0x3d7e7c8c3d7a8aa2U, 0x3e47b6b63dcb0d9dU,
  0x3dd94e6d3d22bfd2U, 0xbe3a295c3e8d6361U, 0xbe658faabd6bea59U, 0xbe3b2662bd6d52a5U,
  0x3d0131e9bcde528fU, 0xbd9043bb3beaeb8fU, 0xbdda069a3da2f95eU, 0xbdd9fe5abdea6e2dU,
  0xbe16ee33bde04ae7U, 0x3d08e6febd09ecbfU, 0x3d2078cc3d236427U, 0xbd3e6c733cf4e0f4U,
  0xbe251007be080db8U, 0xbe656739be279b7bU, 0xbe6748f0bda3c725U, 0xbea07752b9fcf2ceU,
  0xbd36853dbd6b5b79U, 0x3dd4a0c3be12a720U, 0x3e1a57233d18f1c1U, 0xbe058472bd72da3dU,
  0xbd516d2ebcd175f8U, 0x3cb8d2013d20085dU, 0x3c88047bbd821f72U, 0xbb6847cfbe22de12U,
  0x3d6dca353d2bd67bU, 0x3dcf79363e9c1bebU, 0xbe096a2f3e91723dU, 0x3d53cea23d098fa0U,
  0x3d9bef92be78e2d2U, 0xbda8017a3d81306fU, 0xbe7fb2653d817fd5U, 0xbe1e04813d9cfd6dU,
  0xbd749bf1be051643U, 0x3e0376a6be8d9c62U, 0xbd70a1363ce10f64U, 0xbed603ed3cf2847eU,
  0xbcd285933dd10e7eU, 0xbd96791abe1e3ceaU, 0xbdc11ea8beb52f18U, 0x3d9f23493d02e1cfU,
  0x3e413db53e3da2b0U, 0xbdb5d7903dac935aU, 0x3de018a9bdb3b2b6U, 0x3dbd907f3e645db3U,
  0x3dd8d37bbccee68fU, 0x3e1c2eb63da91e99U, 0x3d1a73013df87dd6U, 0x3e7d7935be55ee1fU,
  0x3dd0aaf5bd85c3d1U, 0x3d1c40c63d1fe9cdU, 0x3e7d225d3ca6b9e4U, 0xbdce0f08bb1923c6U,
  0xbe580d28be248c46U, 0xbe9fac7fbd45dcebU, 0xbd0dae063d5f6198U, 0x3c5b41aabd512da1U,
  0x3d8ae2ee3cf311f2U, 0x3db689e3bd2c036eU, 0xbcc2f5fc3e0af82fU, 0xbdfdd533bdee3342U,
  0xbdc557bdbe29cfa0U, 0x3c7197cbbe99123fU, 0xbe0e7320bd53e17aU, 0xbdbccb2b3da1fcb0U,
  0xbd66af72be57dd10U, 0x3e54b5a73b3af877U, 0x3dc62595be020a85U, 0x3dcbdfc4bdd03b07U,
  0xbd09023d3e158ecaU, 0xbe07ca20be3b31caU, 0x3d2d47ce3d83e968U, 0x3c95fceebe12992aU,
  0xbb199859bc217650U, 0xbdbd1bdb3e03c190U, 0xbdfb9b14be39c45aU, 0x3dd11e4c3ce88becU,
  0x3bea26cbbd3c2e86U, 0xbdf67f153dcfa286U, 0x3e8eccb4bcc23cd1U, 0x3d73c973bdc0ef53U,
  0x3c55723ebe3db83aU, 0xbd1299463e98a8ebU, 0xbe0859af3def9afeU, 0x3e60bb7bbdbf6cf7U,
  0x3d1a7eadbca0f87fU, 0xbb00344abdd74d1fU, 0x3c0356a53e81148bU, 0xbe6da7033dabecbdU,
  0x3e1686d2bdb23977U, 0xbdffd492be8531faU, 0xbdfbdc173cc0172bU, 0xbdaf68c7be00c8c8U,
  0xbc18085cbd5fc083U, 0x3c3180ac3d9e35c0U, 0xbd81c8f1be4da17bU, 0x3d17ab61be3e1de4U,
  0x3cb4492cbdce8764U, 0xbcff6eb5bd808b12U, 0xbcaa97813d9249d6U, 0xbe28bd04bde3d48bU,
  0xbe0cf79abd2525dfU, 0x3dccd6ddbd2a8d50U, 0xbde58ff13df5bd5cU, 0x3bf73b42bcaf8bb4U,
  0x3e5491e43dbed1d4U, 0xbe1c3f80bd056d4bU, 0x3cf958d6bd81d281U, 0xbe35d26d3e263649U,
  0xbd14e285be0011c4U, 0x3e1b4b363e055cd7U, 0xbdac49dabd855bd6U, 0x3d9ef418bc8ef55bU,
  0xbe34319f3e85f2fcU, 0xbce82ca1bdddde00U, 0x3df1a7f43d92774cU, 0xbe0f78d63e583dddU,
  0xbe24754bbde95a60U, 0x3e75d5973d837721U, 0xbe340a6abd4e85b3U, 0x3d9b20693d9b5583U,
  0xbe528fae3e2e40c8U, 0xbdd3ba52bdf1ec29U, 0x3e0e7aacbd1b8480U, 0xbe72fbf4bdfc0a7fU,
  0x3dacafccbd89a166U, 0xbe2e59a93dcece12U, 0x3de883b7be33a652U, 0xbe3a7e88bdf34ea1U,
  0xbdbb49f8be4cb801U, 0xbcf8dd153cea147eU, 0xbe1658eebe2042d3U, 0x3d835635bdd46972U,
  0xbddc1f50bdaddd58U, 0xbdd9088cbe7b84dcU, 0x3d62dbc0bd8a193fU, 0xbe107fdbbe4fb637U,
  0x3dc3d373bd52cae3U, 0xbe69bcf6bb7d700cU, 0xbdf27814bdea0401U, 0xbd8f2417bd72daa3U,
  0x3d17e273bd426d23U, 0xbe3b20cdbd8f0da7U, 0xbe3cb12cbd787246U, 0xbe39d4cfbd83fae0U,
  0xbd7728c43d7a3389U, 0xbe0eb0eabe3b71e7U, 0xbe34ad02be431b4fU, 0xbda2febbbdddc155U,
  0xbe25571a3d3223f0U, 0xbd7e8779bd46eb46U, 0x3d2c68f2be24970fU, 0xbc433becbe0f1317U,
  0xbd7f633fbd730e21U, 0xbd7720b1be10fbdcU, 0xbd70505dbe6119c6U, 0xbe7b18e6bcaaac84U,
  0x3a93f6343cf8e628U, 0xbd9001a0be26d999U, 0x3dbb81ebbe2b1181U, 0x3ae58e803d1e9d6cU,
  0xbd9b1e3f3d8fc835U, 0xbe300c103d4aa885U, 0x3d926c2cbc8a0863U, 0x3e1f4a87bdabc1f8U,
  0xbf13b50dbec2f04dU, 0xbea78868be22a705U, 0xbe977822bea1337fU, 0xbe2e472dbebd17a3U,
  0xbf045559bf24993eU, 0xbe4a1fbdbe97d94bU, 0xbeda36d3befa7efcU, 0xbd016222bdbdd9fbU,
  0x3eb5396a3e975637U, 0x3f13acda3e4bf03dU, 0x3e482b853e380246U, 0x3f3e4dae3eac7eadU,
  0x3eb62ba13f222f47U, 0x3e0ca69d3f13a6ceU, 0x3ee6d3f13efd0b2dU, 0x3ed1bb533ee4548fU,
  0xbf476792bf5eebb6U, 0xbf0e4bc2bf121848U, 0xbf0cba90bee171efU, 0xbf436f75bf756b04U,
  0xbf4c3386bf56fcb4U, 0xbf079feabf054316U, 0xbf2830d5bf9c11caU, 0xbf137205bf2bd97eU,
  0xbe06b148bd8b9ad1U, 0x3a338104bd012c22U, 0xbcca30bfbd7bcf1dU, 0xbd23214abd4938d6U,
  0xbb612e3dbcd59439U, 0xbd82a90e3e022573U, 0x3d1ad475bcc099c8U, 0xbdfaf7ec3d24276fU,
  0x3d69bf573dbc5da3U, 0xbc6fb9153dcbecd1U, 0xbe3b9ec1bded3d59U, 0x3e281bbb3e2cc36eU,
  0xbdab99133e0c8b55U, 0x3ec1c0313d26b0f7U, 0x3e0bdfd03dc7241bU, 0xbe23d8423ca02de0U,
  0xbe890b6bbe817150U, 0x3d0dd58f3cec91f5U, 0x3e25e20d3da42fb0U, 0xbde71668be80f10dU,
  0x3ebebaafbe97653cU, 0x3d676e32bdc0c4a5U, 0x3e7f6fd73e50c765U, 0x3b9e422f3d37d628U,
  0xbd9ed4c8bcd51256U, 0x3d937029be6b2de9U, 0x3e06aee2bdeffcb0U, 0x3de6098e3e6caea4U,
  0xbe8183c43dac531dU, 0xbe5ac97f3e2170f5U, 0x3ebcbb3bbeab3b71U, 0x3d7d8c053e67fee2U,
  0x3e3ba3a5bdb94bcdU, 0xbcbf03f0bd755e1aU, 0x3c9c8ed1bd02bc6dU, 0xbc4ded5d3d6d4a80U,
  0x3c02f18abdf33789U, 0xbc3e23e5bd71b8beU, 0x3e6fd14d3e3d4590U, 0x3da80d8e3db79aacU,
  0xbe1ff568bc4acffaU, 0x3c18fff3bd650e6fU, 0x3cceae99be045090U, 0x3e2ee9ea3b04160fU,
  0x3afd3039bdc3d3a9U, 0xbdd281153d7f7709U, 0x3e0c659fbcb9bfa9U, 0xbdc864b0bd839e06U,
  0x3d58541ebd7c4fbdU, 0xbbffcfc3be30937dU, 0x3b5c16843df13107U, 0x3d4f40a5be371b6eU,
  0xbe4ad36d3e68a983U, 0x3d5cb57e3d790adeU, 0xbd7ce4dd3debbf78U, 0xbd09e2173da3e84bU,
  0xbe3b3db5be80ed70U, 0xbc97e5e9bd3e1392U, 0xbd02fc55bd2461d4U, 0xbdb28101be87eec4U,
  0x3e1f8322be2f4c83U, 0xbe195bf3bcf0a473U, 0x3d9c4fcebd194366U, 0x3dfd7075be56bb02U,
  0xbe139b91bdf13da8U, 0x3e23013bbe47a693U, 0x3d33504ebdf17e70U, 0x3dcc90f6bdf60387U,
  0xbcbbcfa33dd5ac0eU, 0xbe93e520bca33ce4U, 0x3e972e3fbeb2c645U, 0xbc300a183c106681U,
  0x3d8456ddbdb92b65U, 0x3d3845323d918dbdU, 0x3cab748bbe1c6856U, 0xbcd83a623c5ed9dbU,
  0xbe21ba98be4b8deeU, 0x3cc1cfda3d35b143U, 0x3e393d583d17aedcU, 0xbdb74cb5bd066b26U,
  0xbe1687b9bdc6c68dU, 0xbcf741173dc38e76U, 0xbc43cae2be6751beU, 0xbcff90223d1a4941U,
  0x3d1ae3d23d251394U, 0xbbcf7556bd6e4406U, 0xbd0a21bcbd6675edU, 0xbcb02749bddcd7c0U,
  0x3c2e1e2cbd07bd88U, 0xbdb9f25cbd449f04U, 0xbcac60d73d41a5d0U, 0x3d60a1b13c057425U,
  0xbe88edbf3e18e06eU, 0x3db9c2553dc7b160U, 0x3e35e7373d13b582U, 0x3d6161663dcc85e5U,
  0xbee542b8bed5c6e0U, 0x3e097c49bddfe2b6U, 0x3e4cd566bd649f86U, 0xbda3e538bead85aeU,
  0x3dfec904be02399eU, 0xbe306a183def07f0U, 0x3d872f593d3a9aacU, 0xbd0084a83e88a931U,
  0xbe05984fbe40b21fU, 0x3e5c857bbeb1a441U, 0x3d851414be2bfd42U, 0x3c98dad8bc2c9fd0U,
  0xbe0615fd3e651768U, 0xbdf0358f3e079ab8U, 0x3e2d0391bede7e36U, 0xbc22fa143d8a2c04U,
  0x3e84a648be848708U, 0xbdcdd727bdfc8ef2U, 0xbe071fa03e27b062U, 0xbe0f5a01be3afc85U,
  0xbe4ebb60be67e445U, 0xbd59103e3d0ceb95U, 0x3e1f61113ddcfcb2U, 0xbd404b92bbf099e4U,
  0xbd56f9c5bdffc857U, 0x3dc9fb71bda9f2d3U, 0xbce3ee71bd97817bU, 0x3d3a6f6cbc896689U,
  0x3cf6d4603c89b6feU, 0xbc5659353e1f42d1U, 0xbd619e963d54a65bU, 0x3ccf202bbca28560U,
  0xbddfba77bb1b33bdU, 0xbd1c3e78bd621e96U, 0xba9803bc3da150d9U, 0x3d1622023d79d07aU,
  0xbdb744883de5eb40U, 0x3e8e63173df01460U, 0xbad313d23ceaef1eU, 0xbd94aa2a3c715af6U,
  0xbe274233bd5c330dU, 0x3cd7da6c3db168cfU, 0x3c85192d3df53ac7U, 0x3d190ddfbe0f683fU,
  0x3e6ccb5ebe20b938U, 0xbe864feb3cca76dcU, 0x3defd5c0bcbdb1faU, 0x3d012d6b3cfd3211U,
  0xbe0c6eb0bda64564U, 0xbd64edc3be82013cU, 0xbc4fe48abceb5fa9U, 0x3b92fc99bce9b399U,
  0xbe20677c3e50491cU, 0xbde8863c3ca6cab6U, 0x3e366b40bebf2e45U, 0xbe37535d3da80146U,
  0xbd92a9f9bec98db8U, 0x3dd55cbcbe78d022U, 0x3e6cf9e3be200b10U, 0x3da3aee2be153af1U,
  0xbe818c44bdba2d7dU, 0x3cdecb643df1d638U, 0x3e9a43c43ca4ab4fU, 0xbd7152e63e50230cU,
  0xbdcbecc3bde6243cU, 0x3db753513daae814U, 0xbcfb0b10bd0796bdU, 0xbce67363bd8bae0bU,
  0x3d816b863dd785b5U, 0xbd5c8f37bd2e664aU, 0x3d3fd64e3e0f2b4aU, 0xbd0ae92fbdc5f440U,
  0xbcd9bb423c677863U, 0xbb7d6915bcf0f3e0U, 0xbdbd02e5bbee8043U, 0x3c25b0813d783269U,
  0xbe2382873ddb35d3U, 0xbd5287e7bc7d2e3dU, 0xbd97cb27bb71bc10U, 0xbc0360bcbdee09cbU,
  0xbe5759e3be9c74cbU, 0x3d0d8f32be61708cU, 0x3d69be1a3d886cd9U, 0xbbca22cbbe5a7715U,
  0x3e428c96bdb96935U, 0xbdfe8c5bbe3a993cU, 0x3da0e4443c816ab8U, 0xbc9af5e4bd0c5a26U,
  0xbead727fbdc697c8U, 0x3cfafb4dbec57c72U, 0x3e17f27cbd99f579U, 0x3e0b33ab3d4cea6bU,
  0x3d5373693e0882c1U, 0xbe75e28d3e42d196U, 0x3f040688bea6c77aU, 0xbca528703dd9fe76U,
  0xbd91112abe328f87U, 0x3e7a7979bdbb74abU, 0x3db4ae59bea6ec5fU, 0xbce3aef4bd89cf2cU,
  0xbe127447bd687792U, 0xbc9111833d40157dU, 0x3e8b4f403ebbbb96U, 0x3dc04dab3dfd1627U,
  0xbd6cc35bbd352598U, 0x3d90ead33cfa4874U, 0xbd84e101bdbdfa67U, 0xbdbbf1793c5d8867U,
  0xbc4cf764be00f188U, 0xbd449549bd7b50a4U, 0xbcf34b483d90adcbU, 0x3b4b7e66be6d38daU,
  0xbd9a9c783d2d3154U, 0xbd90bd1ebd1b43d1U, 0xbe16c3ad3d89c9bcU, 0xbce76fa23cafa3ddU,
  0xbe204ed23e62d093U, 0x3e0be49d3d941394U, 0xbdff24f63d1c08d6U, 0x3da3eb8fbe05c436U,
  0xbe914904be370ad9U, 0xbc572584bdb2f229U, 0x3de4fd1cbdc64a32U, 0xbde86d0dbe80d4a3U,
  0x3dd0337cbe89a1a8U, 0x3dca5397bdf43c3eU, 0xbd22d9553ded3c74U, 0x3d61aba7bd912f5bU,
  0x3cdc65efbda27b39U, 0x3e8fcd89be5c0e0fU, 0x3d67ac13be1a3086U, 0xbdc3da533c898177U,
  0xbe5ab1bc3ccef92bU, 0xbdec0abb3e5ae307U, 0x3ec30f03beca19ebU, 0xbd9f20f73d5c5a4fU,
  0xbdc0aababe7024d1U, 0x3e4bc6c9bd762d4cU, 0xbad26cd63eae5092U, 0x3d76386fbe8ee6bfU,
  0xbe83b5123d9ccbceU, 0xba4dbb5b3e9758cbU, 0x3d7ba2b5bc8ca1cbU, 0x3dfdde113e622c03U,
  0x3c3ecfbabe519f9dU, 0x3d87e33abde87d63U, 0xbd43e923be107e42U, 0x3b9fe20abd89c3d0U,
  0xbc0bfc00be41dc1cU, 0xbd8cc6f43db79c01U, 0x3d13009fbdb0e119U, 0xbd99cdafbe3614c9U,
  0xbc25489c3dce8b3cU, 0xbd0be36abddf426fU, 0xbe097e79bb487ed3U, 0xbe0663e5bcb1dd06U,
  0xbdb9f7cd3e784448U, 0x3dd135f5bdd6cf50U, 0x3db53dd6bbc2ed20U, 0xbe369f713e0391bcU,
  0xbe80dc78bc745b62U, 0x3d56d5413b7b1282U, 0xbda08a0b3c6a6423U, 0xbd7f79f03dcfcf54U,
  0x3ebeb8dfbe50526aU, 0xbdf762a0bcda75f8U, 0x3de0714d3db09137U, 0x3c6e9bd7bce7dcdbU,
  0xbc05a5a0bd62b4ffU, 0x3df5ffc6bcb758b9U, 0x3e192969be573c79U, 0x3e03fb653da23ab9U,
  0xbe22aec4bdae8dbeU, 0x3e142a253df8ca3aU, 0x3edfe2b0befb0039U, 0x3e01d3463e4ec40dU,
  0x3e68e335be9d909dU, 0x3e1545e0be36dce5U, 0x3db7c3ccbdaa866bU, 0xbd853d173da89504U,
  0xbe8f89fdbd89f6c2U, 0x3bc31dd13e858469U, 0x3e5c8ba73e254f2eU, 0xbdd312543e598df9U,
  0x3cd18db0bd8ce224U, 0xbd6878f6bcf90dfaU, 0xbd7f372fbe207e66U, 0x3d3726c1bcfe9070U,
  0x3cacf3063c523845U, 0xbcd5fefc3dd6fc49U, 0xbce227e53de67348U, 0xbda1cc22be2060b4U,
  0x3d738d223ded636eU, 0xbe05c077bd105784U, 0x3d3dd6003e054b71U, 0xbcc3f9c8bdfbcbefU,
  0x3a2951c93e1c38cfU, 0x3eab5d353d3b0334U, 0x3c9edb763c621ed8U, 0x3a9be5edbc963ab6U,
  0xbeaf3388bea5c0f1U, 0x3e020bccbd3d8b03U, 0x3e3370fbbe2aeb3aU, 0xbd52a923be4da9fbU,
  0x3e44efcebeb338fdU, 0x3e19492dbde4bcb4U, 0x3d06c5df3e808b8bU, 0xbcf9e992bba2e2b7U,
  0xbe14b161be42d64cU, 0x3e57cad1be6cac66U, 0xbddd8f243c4ff5d6U, 0x3daf05ef3dcfc8a1U,
  0xbe5e5d8c3e5a7656U, 0xbdf8be793e2f3e82U, 0x3eb61e12bebb83e3U, 0x3deb0ed73d8fd704U,
  0x3e1921b2be6217fdU, 0x3c8d7c0abdfec80cU, 0x3da45e9bbe0f7f0aU, 0xbd8e896cbe8949fdU,
  0xbe4c179abdf2305cU, 0xbd2d2f853da543f3U, 0x3eca3dc63e1b482eU, 0xbe41d96bbcaef9b5U,
  0xbbd3c5633d06b553U, 0xbce2c1c33d206104U, 0x3ccd61e8bb54f87cU, 0x3d4e68c83d38bce6U,
  0x3d3c21233dd5a2a3U, 0xbd3b80efbdf5acb8U, 0xbe6cd2883dc7dcb6U, 0x3d9602673e52cbf4U,
  0xbe0152dd3c978d25U, 0xbd9093efbb5edc71U, 0x3d8921b63dad68c2U, 0x3d66e268bda0ac7dU,
  0xbab0b50ebd972f2eU, 0xbe4b04d43d6b5142U, 0xbe80b115bd90d647U, 0x3d65d4953d816869U,
  0xbc8b4b7ebd96894aU, 0x3b5f883dbd996361U, 0xbcb3aa433d8588f4U, 0x3e07b6edbdba0e0aU,
  0xbd4f94253c2bdabbU, 0xbdcbe11c3dd2cb6fU, 0xbe11d53d3b48ffcbU, 0x3d0717bdbdbabdf8U,
  0xbe0996b1be294312U, 0x3c19944fbda1b47cU, 0xbc9a5d8d3d3710afU, 0x3dfe2df5bdc9314dU,
  0xbe0016e8bbdeb69dU, 0xbe45aece3c0ec58dU, 0x3d554ac0be0af1a4U, 0xbc57fb153c882b13U,
  0xbd7b2f83be1bb948U, 0xbd09f86fbe28663aU, 0xbe28a7a43c7dfab0U, 0xbd84a1f6be6f3fd1U,
  0xbe08c205be23a672U, 0xbd6b46843cada954U, 0xbe9b446ebbd1adbeU, 0x3d9e0b6ebcfcf506U,
  0x3cf176f5be18d0bfU, 0xba3392283bdeba23U, 0x3d9763103b9a4149U, 0x3e276dfe3dd27cc7U,
  0x3cedc77a3db7380aU, 0xbd4acdda3d936a43U, 0xbe0292e23c71ac15U, 0x3e1ccfb83d145ea0U,
  0x3b753e07be8515cdU, 0xbd868c813d009045U, 0x3d1d6218bd99c2feU, 0x3d1b5587bdccf6d0U,
  0xbc7c3819bdb29f02U, 0xbe2cbcd03c7d2031U, 0xbe8dfdd03c402699U, 0xbcb17097be444f56U,
  0xbb8ca3e9be305ddfU, 0xbdae10093db81cbfU, 0xbe368112be1a2735U, 0xbd56fcf9be1aa8c1U,
  0xbd9ca9fdbdea185fU, 0xbae3f3fcbe0c171cU, 0xbdf15425bd04ba59U, 0xbd4493e43de34110U,
  0xbe4e3995be9b2999U, 0x3b8e8113be792eb8U, 0xbd8240ecbda9e00bU, 0x3dddb09ebea2b12aU,
  0xbe42b1acbe7f3362U, 0xbcfd6ea73d940bdfU, 0xbd364aa6be349976U, 0xbc9b000f3c891353U,
  0xbe085f52bd976877U, 0x3dd1a606bdd7ee9dU, 0xbdecb795bd984605U, 0xbdc1f44ebe13413eU,
  0xbdd40086be0ffbffU, 0xbd9133973d6116e7U, 0xbe58e0e3be1625fbU, 0xbe1ca757bd7207acU,
  0xbb99564c3c020dcfU, 0x3d4ef160bdf4aeb1U, 0x3d8eadd2bd444161U, 0x3defd1d7bdac0d88U,
  0xbe03b0103dc77a1aU, 0xbe20278dbe173a19U, 0xbe4b8f0b3d252292U, 0x3d7784423d33187bU,
  0xbdd3c14cbe69111eU, 0xbd3dcca93c7b2eccU, 0x3d7d2c4f3e0ac147U, 0x3b5ea7f5bdb68687U,
  0x3c85e48d3d33ac75U, 0xbe10d186bddef304U, 0xbe15fd07be039faaU, 0x3e4ff1683d8f861eU,
  0xbe2b303abe27c814U, 0xbe38187ebd9cb90aU, 0xbe5d27eebdf0d9d0U, 0x3d80b05fbddb5cd2U,
  0xbdfac574be5e8f49U, 0xbe6bf5a4bde42b88U, 0xbe4efef1bdbcb7b3U, 0x3d95ade3be14ef23U,
  0xbe918852bdfb3e31U, 0xbdbd13f8be4d1ecfU, 0xbdb8318fbdbe103eU, 0xbd375b9ebda78447U,
  0xbe9b0530bc8f4547U, 0xbd7915763d4edfe7U, 0xbdd0f9adbb391c74U, 0xbe24aaef3e218ad7U,
  0xbe3274b0be385ceeU, 0x3cf7369abdffb1e0U, 0xbd63fffc3e1ede54U, 0xbe2a9f18bd8af9afU,
  0xbdb9e5a1be34753eU, 0xbe2f1d4ebcc84a6bU, 0xbdf3f6a3be00d673U, 0xbddae2c03d98094fU,
  0x3cfc4cdbbe6fa2d5U, 0x3a61045b3c736220U, 0xbd735e173dadb448U, 0x3bbebfc53d5e24fcU,
  0x3d723e6cbb51713eU, 0xbe03f3d3bcc1df12U, 0xbe1f8affbe22630eU, 0xba3b5758bdf8fcc3U,
  0xbe233a1ebd7be9caU, 0xbbccd04bbe02ee4fU, 0xbdc4246f3da107fcU, 0x3d1db9dabddb276fU,
  0x3c52eb5cbce855c2U, 0xbe69db2cbd92e61dU, 0xbe273e0bbe1d00bdU, 0x3e36203bbdfc8978U,
  0xbc4aec3abe34cc76U, 0xbdbf97873dc48a73U, 0x3db707233d2d887eU, 0xbd8f0f383d3939aaU,
  0xbe6f4b703d3f1bfcU, 0x3d90cd573ba5273cU, 0x3cb2ddb0bc945f1eU, 0x3d955e753d3007f8U,
  0xbdfa7222be2dce15U, 0xbc1c520abdac57e8U, 0xbdef96afbe6a7f94U, 0xbd9b9b3cbd762049U,
  0xbe96408cbe09ab9cU, 0xbe0ab0153bb02ac7U, 0xbda50240bcc99611U, 0xbc6cabcb3db0cfb7U,
  0xbe30726cbd8fbc06U, 0xbe0804cc3d96f850U, 0xbc08c825be84bc4bU, 0xbdc90740bdcbb0ceU,
  0xbe48b186be17e057U, 0xbe302ae5be572a56U, 0xbea861c0be6b5223U, 0xbd888277be2df430U,
  0xbc352f93b8c522b1U, 0xbd6d3f643e49ac22U, 0xbd22c99bbb2e433fU, 0x3dc30b78bd88bb1dU,
  0xbd956340bc4d850bU, 0xbdc5d8bfbc6ecf94U, 0xbe08f1a93e18158bU, 0x3d877ffb3d958232U,
  0xbd9d8e29be39a38dU, 0x3ce129be3dfc84dbU, 0x3cd5f83ebd188786U, 0xbd8c84adbd3fea5fU,
  0xbc6711703d893309U, 0xbec36c92bcc4a104U, 0xbcae6d67bdee6ca6U, 0x3d8dc4033d24c42bU,
  0x3d1908acbdd7a99cU, 0x3d708a77bd0d2016U, 0xbd768a4c3dca1ccfU, 0x3decb10bbda60c57U,
  0xbde72e92be090114U, 0x3dcdcbb3bd9b6c32U, 0xbd9b05de3d8d9938U, 0xbd3693b1bd64187cU,
  0x3bf909903c6f5d88U, 0xbdb87ccbbdf00c7cU, 0xbe2552e0be186cebU, 0xbd234951bb8fbe7fU,
  0xbe55be97bd956687U, 0xbe73938a3b9fc2faU, 0xbcf00e053c92aeccU, 0x3c16cbbb3dd8254eU,
  0xbe287a513cd8d1e1U, 0x3cd392debe02a2a1U, 0xbe290c1f3d3d1813U, 0x3cff8c63be5a9a02U,
  0xbe6322febe59e17dU, 0x3c305372bde28c48U, 0xbea2beb6be23ac81U, 0xbda679be3c9a715fU,
  0x3d9d4ce0bcb0293bU, 0xbd957e3dbceddee0U, 0x3c5864adbcc390b3U, 0xbc64e33ebb7edb65U,
  0xbd2936ffbdbd0575U, 0xbde7a488bdfaef82U, 0xbe2488c93dc2bf80U, 0x3d809d853cf34888U,
  0xbe55e1a3bd17639eU, 0xbd952fe4bd8aab9dU, 0xbd8d33263ded11c5U, 0x3dd5fe1cbe387b35U,
  0xbcb743b3bdcf68f5U, 0xbeae3b6bbe1d26a6U, 0xbe31ed42be32ee35U, 0x3d9d1361bdbd1a00U,
  0xbdb424bdbd1bd602U, 0x3c4b869cbd3fff79U, 0xbe4a534bbdf262c9U, 0xbdc8a1bebcfab119U,
  0xbe31a51cbdf8f614U, 0xbd971115bcc56b9cU, 0xbd980a943c9df2f4U, 0xbe1f1e6bbcef768eU,
  0xbdea55dcbe578d96U, 0x3c580264be273157U, 0xbc5d6c963da2715bU, 0xbd13bd72bdf0a20eU,
  0xbe429f4cbe2bebdcU, 0xbe4cf30c3df36c64U, 0xbd95764abd9ada0cU, 0x3c745afdbbe22c77U,
  0xbe1e146dbe46d31cU, 0x3db871afbe5b3b51U, 0x3dab30fabde7ab23U, 0xbd034ecfbe137a9cU,
  0xbd94e0a23cc86366U, 0xbde6746abdee1a1bU, 0xbea59a15be766fd4U, 0xbe2da8423d5435a8U,
  0x3d89f6f8bdfb1109U, 0xbdc762d03d2f7551U, 0x3d6682cbbd396364U, 0x3e25e4b3bcfef5aaU,
  0x3c9f9cc6be0285afU, 0xbdad6283bdf9587eU, 0xbe07a058bc31d7eeU, 0x3e01e1b03d6e0d04U,
  0xbe0b6319be029ef4U, 0x3d82be533d7d9e7eU, 0x3cbe4b503d9ca666U, 0xbd83cddebd0672caU,
  0xbe2f706ebd79858dU, 0xbe152bbcbc1d4c36U, 0xbdf5a7edbe06e204U, 0xbca194bd3d4bbce9U,
  0xbd0c58073cf80c24U, 0xbcea72dd3e1f35f0U, 0xbe4c42973d65fd81U, 0xbd30bd79bdeb7315U,
  0xbe3db98dbe046f61U, 0xbd5d58c7bb982e1eU, 0xbe7446c7be4c66f6U, 0xbae9b8f0be0f273eU,
  0x3d79b32abce4d37fU, 0xbdaa8c9f3ca815f3U, 0xbe0f1e0d3d864f59U, 0xbdd99518bbca9ce4U,
  0xbe356c8cbd90c825U, 0xbe01b81abd49ec36U, 0xbdeaf2e5be307d2aU, 0xbd53695cbd5aea48U,
  0xbe39f1b1bdf241feU, 0x3c981afdbe5f9830U, 0xbe1429ffbd8cbc72U, 0x3d9f0418be3a34e1U,
  0xbe9e843dbd9c2e90U, 0xbd58eab1bdf74acbU, 0xbc14316dbcb7c63dU, 0xbd6b063b3b83db2cU,
  0x3dae9603bde2988bU, 0x3c8caf97bdbdb4b9U, 0x3b17b93b3c9ea002U, 0xbcf57e3ebd528c76U,
  0xbd9315b53c443b4dU, 0xbcb8bfd73cb19d94U, 0xbe952ec2bd352a4fU, 0x3da3cbfd3e1e5b5bU,
  0xbdea9aa63b5af368U, 0x3d0d4ad2bd001692U, 0xbd200ca23ce37381U, 0xbb29fc05be2ab16fU,
  0xbdae1dfebe28d7b2U, 0xbe01c6b3bd8269a8U, 0xbdf7b718be6c2f8dU, 0x3c10441a3c5a6ee6U,
  0xbe0d7947be0f54edU, 0xbda9c028be112c8bU, 0x3c05a8f3bc1f7acdU, 0xbd6bcc16bda4d5cbU,
  0xbe3b88bcbd8d3654U, 0xbd81252a3cdae6b5U, 0xbdfb7c76bd780609U, 0x3d8db1adbdefa242U,
  0xbdaa165ebd8264baU, 0xbdccc24cbdc0d14dU, 0xbcbc80d6be2438a1U, 0xbe466523bd9d172fU,
  0xbd7ad672bde17033U, 0xbc6e4779bd4c2f01U, 0xbe4767ffbd2b548aU, 0xbdd0646d3c96e646U,
  0xbd97568cbdedcafdU, 0xbd37bea5be04d69eU, 0xbe1240a5bd6d49d8U, 0x39983626be32a584U,
  0xbdfb3c74bd275b3eU, 0xbdc07e6f3dda90f0U, 0xbe13fdc4be4687fcU, 0x3d260c3d3d2c6cfaU,
  0x3c8ea6673cb43c62U, 0xbcaea0f7bbff95deU, 0x3d0fdd54bd1fcfb8U, 0x3bb1e664bdb07a65U,
  0xbd23941abd7d526eU, 0xbdb52cdbbd6d875fU, 0xbdc40835bc4f0d15U, 0xbd8253953c6c4a79U,
  0xbbaf279dbc684481U, 0x3c896d9e3c964e13U, 0xbd94ff31bd9e17c2U, 0xbd81b4cf3d51da92U,
  0xbaee7d14bdc9f44cU, 0xbbe80fc33d9f4ff9U, 0xbce817063d397f94U, 0x3d995c72bd1e4d8bU,
  0x3cf0fea33d8b58caU, 0xbdab86dcbcf22decU, 0xbd9373d23c44f45eU, 0x3d49e22d3d53d668U,
  0xbb50ec87bdaa85e8U, 0xbc92754b3d330e7dU, 0xbcce9c333ccdd760U, 0xbbaa1e233d40b831U,
  0xbdc1f28abd4889c4U, 0xbc76f099bd9d6dc5U, 0xbdd03be8ba8564a0U, 0x3d0a881a3ba9637bU,
  0xbdc29a83bd64ef8cU, 0xbd006ac63d782986U, 0xbd8915263da1ca42U, 0x3ca000fa3c1389b8U,
  0x3d2f8c8fbc248111U, 0xbd1447bebceb9164U, 0xbdc265c53d4e9d0aU, 0xbda4ee173d9e6082U,
  0xbdb600513c891e85U, 0x3e00527a3cfe771cU, 0x3bdabf8b3d16a4b6U, 0xbd5ca341bda2f34fU,
  0xbd394468bd4cfff8U, 0xbd578fd23c1cc10cU, 0xbd2cc6dd3ce1289dU, 0xbd0079b6bdb8d786U,
  0xbdcda63fbc634af5U, 0x3d549ca43d4e752cU, 0x3d5e9afdbd99c4edU, 0xbd4644633cc8c019U,
  0xbd6603d23d7d1cd2U, 0xbd8976debd7d153bU, 0xbdac7495bd2a16a4U, 0xbdb316233c9072c1U,
  0xbc828523bd957253U, 0xbd820258bd99ea05U, 0x3d32e4d53d49590aU, 0x3a46575fbc5ec572U,
  0x3d89224c3da396efU, 0x3c79f4dbbd8c2f00U, 0x3d860a79bd942470U, 0x3b988016bd5b318aU,
  0x3db5a36d3d092f90U, 0x3d3a57e5bd94bd3eU, 0xbd3a97493cb46963U, 0x3c3f73bebc051a74U,
  0x3d8f5032bd360ba8U, 0xbdba7a9c3d5fe1aaU, 0xbcf5f57ebc7a03e8U, 0xbd94691d3ce09877U,
  0xbd14993a3b6e5fb2U, 0x3d96a2d0bc174becU, 0xbdb6ff13bc242d26U, 0xbcfadb1f3d827443U,
  0xbd0bee273dbe5e21U, 0x3d2e6bacbd915466U, 0x3c6dc2c9bd8b4cc7U, 0xbc4298ac3c80366bU,
  0xbda139ab3c4b1556U, 0x3c3899813d9221abU, 0xbdcdb5ef3d86d7c4U, 0xbcd0ccc83be8d0e4U,
  0x3d8d9d343c84cf01U, 0x3cd14d6d39d0e986U, 0x3cf2833fbd303043U, 0xbdb2eef6bc8f2032U,
  0x3c97d104bd156146U, 0x3d6ebcd9bdc4dfd0U, 0xbdabd357bd4500ccU, 0x3bba8e633d924b1eU,
  0x3d8bfdbbbdb678a5U, 0x3cf42ef33d96c734U, 0xbd2cfbcdbc6391c3U, 0xbbce027f3d63a5f8U,
  0x3d96005d3c48e2c5U, 0xbdbd8f1bbda268b3U, 0x3ba0a3793d264f79U, 0xbc96be44bd168349U,
  0xbc8f46bd3d4d7691U, 0x3b437bc9bd1bd6b9U, 0x3d86dda9bc115220U, 0xbddf2ed6bc469256U,
  0xbdadd691bd143c23U, 0x3da4d9f9bc1cdd7dU, 0x3c49e475bd21a9b8U, 0x3ce798abbd670d81U,
  0xbd8e35363d8a0f45U, 0xbd946607bd917a5bU, 0xbd736913bce55f64U, 0x3cf0d21e3d9d3e4cU,
  0xbc133fdebda63ccbU, 0x3c8b99f53d58656dU, 0xbc237bf53d17bb5cU, 0x3c267037bbc8336eU,
  0xbd4818003e12e6e2U, 0xbd3c71e43d46cb23U, 0x3d84d3553d320cc1U, 0x3bd968b13d2b64f8U,
  0xbc149ef6bd518f58U, 0xbcd189b83d97bdb0U, 0xbcac8cfa3d950d10U, 0xbdcb2b8abdc5ebabU,
  0x3c95b3683ca3a69cU, 0x3d38431dbce1554aU, 0xbc2f50d1bd5bf80fU, 0x3cfbad7cbb573c2eU,
  0x3d921885bcf261c6U, 0x3cc021dbbbdc3020U, 0xbbcadf77bcfdb5dcU, 0xbd98c093bd8afa99U,
  0x3b5a5836bdc4f15dU, 0xbb64898b3d62d4f6U, 0x3cccb701bd85713fU, 0x3cb8a5a63b0d622eU,
  0xbd80e75abcc45ca1U, 0x3d7f708a3d8189dcU, 0xbd25e5073d52f818U, 0xbcfc5bcabcc68daaU,
  0xbdb6b686bc100bb7U, 0x3d8bdef6bd01675aU, 0xbc424f6dbd914a99U, 0xbd5a297f3ca9a32cU,
  0xbb311ea53a000b0fU, 0xbd1ecce43d0f2396U, 0x3d7b63f4bda2de61U, 0xbdb597b83ce6a8fbU,
  0xbc5ac2f8bd388dc0U, 0x3d9b7b4bbd146b49U, 0xbdd84a20bcead5ffU, 0x3b4640a63d487572U,
  0x3da507b5bdb7517fU, 0x3d8eab78bcc73a0fU, 0xbcb3c6c5bc877bcfU, 0x3d890d03bda3af68U,
  0x3df18d8b3c7d8644U, 0xbc4ec5143da88e67U, 0xbd3eef4d3d1237e9U, 0x3b668b3c3ceace28U,
  0xbd351c313d2cc296U, 0xbceed178bd509ce0U, 0xbdb9916e3cf23ec1U, 0xbd94557fbd9ac30fU,
  0x3d2c7a6dbd8d15edU, 0x3d7e8077bdc1d9ceU, 0x3d976ac0bd6d6252U, 0xbc2ce90bbd276d76U,
  0x3d3938bebd6f4fb6U, 0xbd8b432ebd5a8433U, 0xbd543849bd2e5765U, 0xbd9ab560bca55280U,
  0x3c1d82473d824df8U, 0x3d2cec55bd9826c0U, 0xbdd934e6bd06de03U, 0xbd1bec06bda9be40U,
  0x3d88bdffbcd69140U, 0xbd7173563da416a9U, 0xbcd0c7843d9373f5U, 0xbce26950bda061f3U,
  0xbcc8a75bbc9fdc73U, 0xbd836e833d7d620cU, 0x3c94579c3cceaedfU, 0xbc1179f43d81baffU,
  0x3bb47b5ebbc7a009U, 0xbd608428bbf00f9aU, 0xbadebf51bb9371aeU, 0xbd3df68d3d62d71bU,
  0xbda556373c38758eU, 0x3d33919339703990U, 0x3da1e382bd8530eeU, 0x3d2286e6bc186c76U,
  0x3c67363abd9ac78dU, 0xbda22f713cc5526eU, 0x3cb40c7e3d0381c0U, 0xbd9a622abdadafc3U,
  0xbd4bd4c53d982c5bU, 0xbd9f1e8c3d4cc5d1U, 0x3d1b2f50bd98ed94U, 0xbd8822373dc59e59U,
  0x3ce6449d3d19af48U, 0x3da3f77bbd64f198U, 0xbc173532bca463b1U, 0x3b6918833d7009d1U,
  0xbda74ca73c99292fU, 0xbd8177973c6a5dc1U, 0x3c5628edbd9ad87eU, 0x3d9eed58bd93b2fdU,
  0xbcae944c3c1a41c1U, 0x3cd42f43bd53b142U, 0x3d7aa9c9bcf9f85fU, 0xbda660f1bd36da48U,
  0x3d3082a63c226224U, 0x3c9fc4fa3d46a4d3U, 0x3d1553c8bd3adf37U, 0x3ce9c9c1bd8862c5U,
  0x3d8de84dbb961e51U, 0xbd2ceb683cc7d6fcU, 0xbd8b13dd3c71e29dU, 0x3d9cc885bd7d9296U,
  0x3c1177453d2e02a4U, 0x3d436537bd3fda1eU, 0xbb4ad7a0bcba544dU, 0xbdcf0953bd6180f7U,
  0x3cf8271a3d01afd3U, 0xbce70dd13d53c0bbU, 0x3cc2ddec3a1a5061U, 0x3d9c49e1bd8a7bbaU,
  0xbd4162d43cf6485aU, 0x3d09c314bc06bbabU, 0xbd82658a3cec84f2U, 0x3be0576abd10521fU,
  0xbd0589723d372f72U, 0x3da788b9bbb1abc6U, 0xbd8c4a8bbc096186U, 0x3da80ad7bcc100a7U,
  0x3dc17884bc84e7adU, 0xbda4802cbc169b21U, 0xbce5e34c3d2ddbc2U, 0xbbb3b6dc3d89cc18U,
  0xbc8531913d4507aeU, 0x3d616e92bdaa8fd7U, 0x3d333b643d9e156bU, 0x3d0935243c0cebfdU,
  0x3d7edf0e3bbc55c1U, 0x3d1ddaeebd8c3a0cU, 0xbc3cfbfd3c318f06U, 0xbd0fa6f73ceedfaeU,
  0x3d1696b83d55ad8dU, 0xbcaf93fabdc0e34aU, 0xbc05a2883cadb79eU, 0x3d1528e3bd555f2bU,
  0x3bc12a7cbd9ae3e5U, 0xbd890afabd852e3aU, 0xbd0a6db0bc474b16U, 0x3d54c718bca7fab6U,
  0xbd00a549bdd3fda5U, 0xbcdf99e03cba9741U, 0x3c4aad933d23da3dU, 0xbd6a93483d6fb0a9U,
  0xbd918555bd47f39cU, 0xbdc8143d3d505bcaU, 0x3d54bdf2bd9e2036U, 0x3d849d313d4357c8U,
  0xbd6f976cbdaa7621U, 0x3d71ecc83cd4fe00U, 0xbd4b5a8b3d8e1607U, 0x3d2ddbfabda88416U,
  0xbce778d83d9bf20cU, 0xbd39f7a7bd8ea493U, 0xbd0e927f3cc68e1fU, 0xbcf84124bd424719U,
  0xbd040e333c4c67a1U, 0xbd2c02713d624e56U, 0x3c008d36bcded4c4U, 0x3d01a52d3c0ec50aU,
  0x3d7c0a64bd007cecU, 0xbd7c5f4abda3878eU, 0x3d266863bd9a5aeeU, 0xbcf6db743dcfd29cU,
  0x3d40f96b3d4dd33bU, 0x3de4bb153cd6ae91U, 0xbd9ce8d83d60c9ffU, 0xbdb9f0143d535b7fU,
  0xbcb8a497bdc38376U, 0x3d853ab5bd2d6206U, 0x3d5ae631bdb1cd61U, 0xbc7681e2bd55f4a8U,
  0x3d801209bbd0c40dU, 0xbd81c682bc7228e8U, 0xbd80700a3d6b6a5eU, 0x3c251b0b3c502769U,
  0x3d9e2ac9bdc5264fU, 0x3bdeaaa6bd771bb8U, 0xbdd52f14bc917f84U, 0xbdac09dc3cc0a0c7U,
  0xbba1394f3cc75040U, 0xbdb429da3d2cdacdU, 0x3b1ca953bd12c7b5U, 0x3c4b1f243d26bf2dU,
  0xbbd46a50bca98fddU, 0xbdd21fe83d25f226U, 0xbc899525bdd64c7bU, 0x3d32175ebd99bf05U,
  0x3cf97113bdbb09daU, 0xbd0fab62bce7b305U, 0xbdacb1ec3c327105U, 0x3d010918bcfa8e3fU,
  0x3da055c8bd374601U, 0xbdc961f33ce4065bU, 0x3d194910bd999dd6U, 0xbd924233bccdbfe4U,
  0xbd2a70ffbc40650aU, 0x3ce9107a3d8a662fU, 0x3d5110d23ba7b9aaU, 0x3d9cf6efbd686e1dU,
  0xbbf04e473d96f31eU, 0x3ce54acebd849201U, 0x3d84e4cc3d518599U, 0xbc8994fd3d91936eU,
  0x3d80a5663b0a55b0U, 0xbd55d3b5bd26fe3bU, 0x3d645fb23d68a05bU, 0x3cd50075bdca04fcU,
  0x3da2dfcebc6fb757U, 0x3d63550cbcb85adcU, 0x3da73c2b3dbde0b6U, 0x3cebf13f3ce2625fU,
  0x3ca5b312bd5f2a80U, 0x3ae06aa7bde5ad99U, 0x3d2d0de73d9837c6U, 0xbc7a9eebbdba5bdfU,
  0xbce04a1f3d4806e0U, 0xbe6e2f203d49b113U, 0x3e314c293e6bc438U, 0xbd254fa8be042dc5U,
  0x3e9eac77be6360b9U, 0xbe94bdf1bdbdc820U, 0xbe2ecba6bd6f18e0U, 0x3e30373abe3ad5a7U,
  0x3dc3f6163ed88537U, 0x3d84859c3ca9649cU, 0xbea38a253bc5c20dU, 0x3e1345ea3e7fb8eeU,
  0xbf15ca293e2d0b99U, 0xbd9beeafbdc8fd1dU, 0xbdd57642bcf3a5c0U, 0xbd2e04a3bdb20d93U,
  0xbd6e78253dfdc6b2U, 0xbd3aec103ec71804U, 0x3dbf5bd93e4ed8e7U, 0x3e448819bdcc0378U,
  0x3e5c3af0be40f2dcU, 0xbd9478a03c20ba63U, 0xbe8adb8b3ea16f50U, 0x3e100d35bddcc991U,
  0xbcab0a99bbc70694U, 0x3dc1c9c73e3963f0U, 0xbdbffba53c88730dU, 0x3dcc88733cceb801U,
  0xbbf5dc2dbd87a104U, 0xbe301fb5bdd7804bU, 0xbeaf0a4ebd1108a8U, 0xbc9ad3a5bdaa9cc3U,
  0x3d5bbdf33c5e081fU, 0xbc4664fd3d6fe9aeU, 0xbb41d7253caa1736U, 0x3e3c2f38bd02ea9aU,
  0xbd8960703d984936U, 0xbc8f8c563b8a87c1U, 0x3d37cec43dd6a261U, 0xbd1cf61d3e279ba5U,
  0xbcf17c733cccc2a7U, 0x3b2506f63dad96dcU, 0x3e4c29ae3e25e5a1U, 0x3e185affbb9e0914U,
  0x3e954d8cbe24160aU, 0xbdad5dae3d63646aU, 0xbcf9285fbd410c45U, 0xbd984d8fbd888e0dU,
  0xbd9ebce53e97a331U, 0x3e553a3bbd9c04e5U, 0xbdf31ba63d13e2feU, 0x3e6bd0523e3b7307U,
  0xbdfc080d3e4492dfU, 0xbdb8ab0d3dbb30e8U, 0xbd9e4a90bca49960U, 0xbd12787b3e20afcaU,
  0x3dcd7aee3cc5b8b8U, 0xbc37d85f3e30a07dU, 0xbe3452b83e928933U, 0x3d823045be2e81f6U,
  0x3d1b13bebdaf5ecfU, 0x3cb2b3063cfd5fb6U, 0xbeb53e9b3e3b0ac2U, 0xbdc182a0be2283afU,
  0xbd2cfa56be1787dfU, 0x3d09ec183e2f5ea0U, 0xbe9dd0673d667fd2U, 0x3d047c37be351481U,
  0xbd998e9c3c0ca11eU, 0xbd8c3455be29464eU, 0xbe5aededbe084dd8U, 0xbe017f41bdc52840U,
  0x3c6646f8bbf6f0d4U, 0xbc3e34a8bd06922aU, 0x3d286e253dcd51d1U, 0x3dcb4c7dbdb7a731U,
  0x3c77e521bcfff05dU, 0xbd2d5cfb3cc01f0dU, 0x3d9dbf45bc42ccedU, 0x3d8f7f04bc8390b9U,
  0x3dc5cb823db5d666U, 0xbd169e533e6d7ff7U, 0x3e30bba63e278fcdU, 0x3d87f60c3d51ea03U,
  0x3ebebc44be0589a7U, 0xbda226ffbe20b1d3U, 0xbe2be9e0be301514U, 0xbcde0da4be56cee4U,
  0x3e9b79683eb76480U, 0x3d3911aabd26e393U, 0xbe6075b63e63334dU, 0x3da07c703e337e1bU,
  0xbe889d873dc9e72aU, 0xba602a94bd0e9984U, 0xbe644776bc7a2765U, 0x3d22d3e5bd74889cU,
  0x3df0a5a53d79b84bU, 0xbe367f2d3ec7ff99U, 0xbd8230cf3d84cae5U, 0x3d9d730dbd4c1ca4U,
  0x3d0cff01bea6f9f8U, 0xbdf6197fbe80a90bU, 0xbe5574573e834d64U, 0xbc32fea63e02a334U,
  0xbe9fd2c9be7ac316U, 0x3e309bf93e32ddedU, 0xbe10f409ba7237f4U, 0x3dfb014c3b83b749U,
  0xbc83d1d6bc9eaf8cU, 0xbe769650bc588b7aU, 0xbdb47a0cbdf44fafU, 0xbdf7bfdabd440342U,
  0xbc9e957abca84ff1U, 0xbd6049543cd376efU, 0x3ce710413db0c9dbU, 0xbce6220ebb59d1b7U,
  0xbd5a19983d787018U, 0xbdba82a5bd91712cU, 0x3ca190183da47af9U, 0xbdfff4e4bb1fab8eU,
  0xbd87c14cbb57e731U, 0xbe57d9eb3e2254a0U, 0xbddc74083daed5b6U, 0x3d0fa58d3d3bddd7U,
  0x3e847db0be17aa95U, 0xbe6ec854bdcf6474U, 0xbea96136be49489fU, 0xbc1bbdc6be8b94dcU,
  0xbd96ab7e3ddf151eU, 0xbe210866bca2b6aeU, 0xbe63ba6ebdc43606U, 0x3dac805bbd98918bU,
  0xbe97938bbd91500eU, 0xbb3a20943d8273c0U, 0xbe8bcd7bbdd256d3U, 0xbde3c7bbbd3c85caU,
  0xbe77532fbd58c7aeU, 0xbd6a92da3d87f074U, 0x3cb86ce93e14b989U, 0xbc9a421bbe2aaa3eU,
  0xbd2fe16fbe3b2014U, 0xbdbe7e35bdcd9c61U, 0xbe95af8c3dde4538U, 0x3e12110cbdc7a922U,
  0xbe89eafcbd61fe67U, 0xbd45802b3e13d815U, 0xbe281cac3d3e2fa9U, 0x3e08472d3d3f484cU,
  0xbe5782f43b88f281U, 0xbe25550abe1a29bfU, 0xbde455cabdc687edU, 0x3dcf5539bd490c3fU,
  0x3d2532143d8ac4a7U, 0xbd2219893e0be6d0U, 0xbdcc92733d4565ddU, 0xbcc01d20bc9cab09U,
  0x3d0be1c83bce1778U, 0xbab3ad90be00156eU, 0x3d7574713d90084bU, 0xbcdb12073cb0e97fU,
  0x3be9a586bd595820U, 0xbc7a194b3e1eff62U, 0x3dd1aaa6bcb2fad0U, 0x3dddf60abd7d3f15U,
  0x3ec32d3abe557ce6U, 0x3a0455183d5591fcU, 0xbde0b65cbd924272U, 0x3e0ead703d5069a9U,
  0xbd46c57c3e01a888U, 0x3b8ffda73e39f6aeU, 0xbde85da63beba954U, 0x3c9c1318bc882c2cU,
  0xbe15a39abda03640U, 0xbe1a20263d701b41U, 0xbe2123b4be88f259U, 0xbdd5f6d93e21398dU,
  0xbcdb26bbbe0cfe75U, 0x3cc2d2a93de9c852U, 0x3d446ec33d8320d1U, 0x3dd4f97ebe705ba4U,
  0x3d9ffbd4be12a56dU, 0xbdf9f091be137d08U, 0xbe3f1c2b3d789451U, 0x3d8ad8e4bdae8600U,
  0xbe50aaedbd40319aU, 0xbe59385f3dbb20a0U, 0xbe9cf8993e365b9fU, 0x3b9f70cfbc96cde1U,
  0xbe4fd3c13c8bb6bbU, 0xbe0509c9be1ace77U, 0xbe62ecfebe4801aeU, 0xbdc8b8c1bd3ee3b5U,
  0x3c92bebcbdaf1602U, 0xbd1436503e13cec1U, 0x3c91e3913e22f292U, 0x3c96413abdb3e22dU,
  0x3d48fd98bdd8a263U, 0xbcfa98c7bdb3bbc2U, 0x3c4dd6abbd3289feU, 0xbdb823403dfd4d1fU,
  0xbdd878ccbd3660abU, 0x3c2dc6fd3d0e723cU, 0x3da04be9bd90e0f3U, 0x3c99f45cbd87b80dU,
  0x3ec59d94bdddea8aU, 0xbe1679c5be3bbfa8U, 0xbe1a332f3bdad918U, 0xbc4175dcbdc5e6fdU,
  0x3d6cc9803e01a574U, 0xbd52b8353de4b1afU, 0xbe852d2fbd6f980dU, 0x3da562a73e66344bU,
  0xbe9dd40bbe0434a5U, 0xbd2e0b8cbe0f54b3U, 0xbd0f50fabe0339a1U, 0xbdb05a37be395457U,
  0xbd9c075f3dda7788U, 0xbea3ee9b3e861223U, 0xbdd8b0b33e373990U, 0x3ddb9236be6381e8U,
  0x3e2a97b0be0e7abbU, 0xbdab80c4be620ae0U, 0xbe82873a3dd235bcU, 0x3d8c525ebe65777cU,
  0xbde9f2c1bcd6e4caU, 0xbdec11a6bcdb6c72U, 0xbe198a6bbccb8ecfU, 0x3d8e02893d4621e2U,
  0xbd87c6cc3d96cf30U, 0xbca2ae6dbe5562a5U, 0x3b772fa93d7b0d99U, 0xbbce8d6dbcfd2164U,
  0xbb65eb3cbd03c5d2U, 0xbe39e42abd83936cU, 0x3cbf54733dc75d43U, 0x3d872af2bdaf21fbU,
  0x3d45e4693d47b9c5U, 0xbe0c87b6be4eb6f1U, 0xbd4665313de9354cU, 0xbe3e503bbcd5f43eU,
  0xbe359e293d501911U, 0x3d13e4c23e59a9b6U, 0x3e65b72b3da7b289U, 0x3db80c00bcc1a3c6U,
  0x3ece56f4bd85b5c6U, 0xbe10228c3c800ec6U, 0xbdd44b4cbcbe9703U, 0x3e543d85bdfa1023U,
  0x3e16cbae3cf7b954U, 0xbe00c1543e2678dbU, 0xbe71e2c53d88cfb0U, 0x3e043885be0284caU,
  0xbf2483a7bdc50783U, 0x3bb75fa7be41cc38U, 0xbe5135c9be0e564dU, 0x3b06a56ebd58d921U,
  0xbcd870af3e324549U, 0x3d8a22743dbfbd2fU, 0x3df103ff3e44e90aU, 0x3e5fb0a0bd5a0749U,
  0x3e4dd1f5bd70d0a2U, 0xbe367467bd8ab28dU, 0xbe79878c3e47efbcU, 0x3dee24c63e11486aU,
  0xbe7172fe3cac7db4U, 0xbde272a03eb02555U, 0xbe2f56eb3e2ad683U, 0x3e3e9588be35e9d5U,
  0xbe24a802be02ec5bU, 0xbe24e8dcbdb0b95eU, 0xbe6f1961beb9eb80U, 0xbd7a6c28bd865961U,
  0x3df617c13cb183abU, 0xbde98192bc8df95cU, 0xbcc973953e44b248U, 0xbbdf889ebdf62fe8U,
  0xbc5f86bcbda2847dU, 0xbce15607bc7981edU, 0xbd651d0e3d7c9df1U, 0xbd031a473da952a7U,
  0xbc91b9f8bd3c9fe1U, 0x3d8316923e036d1fU, 0x3de59ab23e7619cbU, 0x3c760dbdbd32a5e7U,
  0x3e9b27f33bcb4978U, 0xbe93e31ebd642316U, 0xbd44a756bdd195c3U, 0x3d9e1a3a3d4f2a4cU,
  0x3e1a0ac43e626099U, 0x3d93b5ed3d0497ddU, 0xbe0c11083d88dae6U, 0x3dfff9983e2891e6U,
  0xbeff04593d84c2c7U, 0xbe0905bf3e0cc172U, 0x3d17f8babe39dbf9U, 0x3e1a52943e5f75f5U,
  0xbe242e90bd0abdd6U, 0x3c6858b43c9e873aU, 0x3e250f47bc609f01U, 0x3d94f4b0bea1e6d6U,
  0x3e3a604dbdfd467cU, 0xbe1617093bad075cU, 0xbe865ebc3db4ea07U, 0x3e0d0e3dbc2efc97U,
  0xbda06d6bbdba96cdU, 0xbda75a8b3e195fa3U, 0xbe41889c3e126b4bU, 0x3e03df2d3da647b6U,
  0x3cbf911abd5b5009U, 0x3dceebebbe296f56U, 0xbedf642cbe656382U, 0xbc885c3fbe0541fdU,
  0x3d0acfcd3c637ab1U, 0x39fc49c7bd8a3900U, 0xbd3ccd50bd018888U, 0xbd8b0e543d9f8514U,
  0xbdb0a73fbda2a861U, 0x3cb692123d9227f5U, 0x3d17ee2f3cf9106dU, 0x3d7af964bcadcaf3U,
  0xbd670427be01f1ebU, 0xbc86d4d73ae559e0U, 0xbc0fb25a3a84787dU, 0x3d9c698d3cd49e1eU,
  0x3ca606e33d7c8ef3U, 0xbcbfcc173b9ca36aU, 0xbdc0ec903d31dcc2U, 0x3d3e5703bda92ce8U,
  0x3d924df53c05af48U, 0x3d2f26ba3b318f3dU, 0xbd8c66a0bd798e8cU, 0xbd63600dbcd3fc1eU,
  0x3de7d5103c4821e0U, 0xbd876062bde2b457U, 0xba430c153d2d60b7U, 0x3d87742ebd26777aU,
  0xbd1d5c733d5c39b1U, 0x3aaa61c7bdb3de26U, 0xbd91d58cbda7e923U, 0xbda5ffcabd56e8efU,
  0x3ce84b533d81c634U, 0xbd6472af3c115d04U, 0x3d763fdabb8062adU, 0x3d7ca91dbaa839c4U,
  0xbc7d7c183d97b43aU, 0xbd4fba943d09a838U, 0xbda56121bcdb0958U, 0xbd7ce2f63dbee8a5U,
  0x3d698e0dbdaef7fbU, 0x3d00dc233a3c009aU, 0x3d22c92dbc7f63dfU, 0xbc99ebe0bd8890d6U,
  0xbd4ec5e63caa3ba6U, 0xbd55d72abd8581a3U, 0x3da30697bd805c9dU, 0xbdca2309bdeb3ffcU,
  0xbd61cd24bd0134dfU, 0xbd8ab4cb3cb4f7e0U, 0xbc56ed02bd07c776U, 0x3b36ac453c93cd6aU,
  0x3a78c415bc9259b9U, 0xbcd29bc03c9deba0U, 0xbd4511533ac08dcaU, 0xbda88d043d6c6e75U,
  0xbde066adbdbef53bU, 0x3d9815783c92b9f3U, 0xbd8e29bcbdcfcfa9U, 0xbd48d011bba99b27U,
  0x3dd3ff94bda5883aU, 0x3c0339c0bd8b4bd9U, 0xbc81653abdae19eaU, 0xbd3d183db9beb02dU,
  0x3d4399253c0892a8U, 0xbc99f2433d53b6e5U, 0xb9b427c1bcc02ab9U, 0xbd3ecbbabc87bfeaU,
  0xbcfe45753dddbc59U, 0xbd2fdc93bd8d6636U, 0xbd4b7adb3cc0816cU, 0x3d7224e7bd088cfeU,
  0x3bf4abb2bdb7852bU, 0xbdcb03b0bd6799e2U, 0x3dba35303d30f2d1U, 0xbd8c4e78bc631ee2U,
  0x3db9d45b3d3b1066U, 0x3d07f7173bbc09adU, 0x3d6a4917bd7af799U, 0xbd4ddfc03d3beec9U,
  0x3d00c1c63da5f1ccU, 0x3dced5803b77e66eU, 0x3d084cb73d2bca7aU, 0x3d3a60a5bd6371afU,
  0x3d6cfe6a3c1bba1dU, 0x3b8bc5a33b96b946U, 0x3bb95bff3c24568dU, 0xbdb486a83b99a338U,
  0xbd59ae78bce7784cU, 0x3d6b0bd8bd33db28U, 0x3caa2f54bd796dbfU, 0xbb3acfdbbc03b53cU,
  0xbd091f7fbe1d4c89U, 0xbd492045bcc78092U, 0xbd8f9fd33d838877U, 0x3c334c123d802d79U,
  0xbd4716fb3db7f78bU, 0xbd564646bc3c3383U, 0xbd8d61483d8120bbU, 0xbb51d7513d8136afU,
  0x3d9b7955bd5b5226U, 0xbd767c963c837d66U, 0x3b4526e8bd84801cU, 0x3d6525e0bd473c93U,
  0xbd67c5f3bd2c5734U, 0x3dc615b1bd5bbf4aU, 0xbd9a3237bd9cfe6eU, 0x3cfd01bebd768320U,
  0x3d4172adbc8cfb0bU, 0xbd2d9c00bcec68e7U, 0x3d9034513d08410cU, 0x3d89853fbd9930e3U,
  0x3d518b0abd688909U, 0x3c5c347e3c1e8344U, 0x3cc846fe3d9020bcU, 0x3ca900543ca2e266U,
  0xbcf2beb33d8a694fU, 0x3d9a7ff03ce019c8U, 0x3ce0bc74bda576e1U, 0xbb27dc6e3b0b6210U,
  0x3de2b2d0bd2299e1U, 0xbc780841bd88fd69U, 0xbd2892633c591d93U, 0xbda8a2473daabcdaU,
  0xbbe8f80abd9ab426U, 0x3c9b98b13d731762U, 0x3d66c7c9bb20eacaU, 0xbdac655cbd0ed6dcU,
  0xbd7d870a3d76045fU, 0x3d4a74043d09fab8U, 0xbdf38a0f3ca55bcdU, 0xbd63f7473c847fadU,
  0xbcf9a95b3ced7eddU, 0xbdad61b63d3846c2U, 0xbd1fbba9bc572907U, 0x3cf283c1bd141c00U,
  0xbdcab28d3d072f25U, 0xbdb41d723b9efbebU, 0x3d7e6139bdb7f72fU, 0xb9fdcf9a3ceb7c26U,
  0x3d863308bc8e1889U, 0xbdb3679abccb7b9aU, 0x3db024b2bc424373U, 0xbdb0987a3d2e237bU,
  0xbc510a0b3d8187b2U, 0xbd9d9e8fbd3c4e7cU, 0xbba813843d4b3c76U, 0x3d2ddb2abd479df2U,
  0x3d3919923cba73a9U, 0xbc06ee87bd975424U, 0x3cefb23fbba0e389U, 0xbd9869ba3d34efc2U,
  0xbdce318f3d41e509U, 0x3d17e15f3cedd493U, 0xbde87ccb3d5d31ceU, 0xbbf6772c3d662f15U,
  0xbdb78038bcebdc19U, 0x3d4350c6bbce6693U, 0xbd1e0a573da69fa7U, 0xbc94c7a7bd18b272U,
  0xbd4f2f683d172b35U, 0x3da0de79bd685812U, 0x3d0a09743d65efc1U, 0xbd2131a5b82fd04eU,
  0xbd53c241bd6df863U, 0xbcd25481bd342547U, 0x3c9672d2bd1d89ffU, 0xbd08c368bd9d3841U,
  0x3cbd9c0ebd975b70U, 0x3bdabd27bcdf50a8U, 0xbd760fb0bd3b76f7U, 0xbdbb41fc3d953754U,
  0x3d7e0d633c633d71U, 0x3cdb10cbbdb6860fU, 0xbda03734bbbf0784U, 0xbcb67434bd06984aU,
  0x3d222ca6bc5424a5U, 0x3d5e003cbdb9444aU, 0xbde96b033d9d8bccU, 0x3d8c915ebd11bd50U,
  0x3da2663ebd6aa9edU, 0xbd82f04fbc83b599U, 0x3d8553debddaccd3U, 0x3d04b4ec3d8c080aU,
  0xbd2e1927bd41b8eeU, 0x3db3a6fdbd0d29ccU, 0xbca644c83d97869fU, 0xbc0d9bbfbd9d62d3U,
  0x3c7372e3bd0bc771U, 0x3d95e3553cd7ca44U, 0x3d3f44a0bc223cdeU, 0x3d98d7fa3d2c13e4U,
  0xba8036de3d10e8ceU, 0x3de41d68bb007c07U, 0x3d8e72383dc52ddeU, 0xbd9a3c563d7ff801U,
  0x3dc89422bc34ea68U, 0x3dacd9b6bcf60c8aU, 0x3da18b003d1dbb5fU, 0xbdb7ec773ba647fdU,
  0x3daa6f15bd401f08U, 0x3d9c23dabd037569U, 0x3dc507ddbda19a08U, 0xbd93d5913c345984U,
  0xbd364daebd9b592dU, 0x3d357770bb4dc536U, 0xbd0d7ea4bd7a2572U, 0xbc3cd6ad3d8b901bU,
  0xbda0539c3d18c6d5U, 0x3d8f29abbd881a89U, 0xbd1c61a9bda2ea49U, 0xbcde7383bd22ee12U,
  0xbd8cf6803d3261beU, 0xbde062f3bbfc08b8U, 0xbc0094a7bd31c019U, 0xbc16da94bc97f6feU,
  0xbd9d2b5fbb1e355fU, 0xbbeca3c5bd603f5cU, 0xbe0653503c68ddd9U, 0xbca0c365bdbd8833U,
  0x3cccde353d3b6081U, 0x3cc318b33c91043cU, 0x3adfceddbdb84805U, 0x3d9c2becbd406be4U,
  0xb811f44b3cdcabaaU, 0xbcc26777bc0266ddU, 0xbdae03893c6da362U, 0xbb682b523d5785bcU,
  0xbd87f1b03dbfff5dU, 0xbd276e553d945fb8U, 0x3b46cc20bdcb4d0aU, 0xbd0b3ce83d3a4e35U,
  0xbd6d8c083cbd53f3U, 0xbd46e27ebdbbc5d6U, 0x3a6fbbae3d3badfcU, 0x3d0e8460bd751d3cU,
  0x3cc1824e3bed088aU, 0x3c9ba1b3bda82297U, 0x3d8580a9bda1a052U, 0x3c7345eb3ddd4326U,
  0x3dc425c33dc5b3c2U, 0xbc3cb4553dabad0fU, 0xbd16ff8c3cb3c370U, 0xbd08e54dbdb037fbU,
  0xbd66afbfbcc059d9U, 0xbdbcfeaabd31c672U, 0x3d6c4070bc9e22c1U, 0xbd1bf8ae3a67b139U,
  0x3d47da2f3d8a1274U, 0x3c52259abcecd07fU, 0xbdb867d3bc589554U, 0x3d102cf3bd360dd8U,
  0xbdde224b3db89a0eU, 0xbde65551bd535c37U, 0x3d4f35eebdcdf414U, 0x3d3902963db7a62bU,
  0x3ba74df73d157391U, 0x3d215db73d51acbcU, 0x3c6d9447bd5a9299U, 0x3d3805a33b8ba8f7U,
  0xbd361e2ebd5d7697U, 0x3d05a3d0bc12433aU, 0x3d5a5d443d38c24bU, 0xbc4f2fbe3d991296U,
  0x3d955fd13cfaa18eU, 0xbd37e6bb3cc9cf3cU, 0x3ce8d0b5bd3259faU, 0xbd8cca383c55e5b5U,
  0xbcabcf22bd0cb74fU, 0xbdad0134bd9206f8U, 0xbce79e3abd380fa4U, 0xbcca4585bd78d756U,
  0xbdd5f636bd6318c1U, 0xbc8b30233d97b6fcU, 0xbd1956b13d4f6db5U, 0xbd74ded33da224d0U,
  0x3b49a10b3d1c5914U, 0xbc3f8b233da910bdU, 0x3daabd173c2be503U, 0x3d696c69bb902cc5U,
  0xbd211dc73cb3a360U, 0x3d44cd383abfb937U, 0xbca5ff1f3d64cc3eU, 0xbd399f163b3cc083U,
  0xbbf6a0dbbcc1b7a8U, 0x3d679bcb3d4885f5U, 0x3c81cf68bc313f46U, 0xbd5405b4bdbb05feU,
  0x3cbacf253d210e65U, 0xbd8bba4c3d4220ffU, 0x3d742de2bdd683eeU, 0xbd97d9963d874c78U,
  0xbd7bc3d03c4f9a25U, 0x3d4999bcbcef17e5U, 0x3c2e2578bd84fa9dU, 0x3c184d45bc5a79e6U,
  0xbba5d71a3d7ee094U, 0xbd5ae1a7bcc54323U, 0xbcfb52b2bd023b9cU, 0xbbe4fbbcbda1f383U,
  0x3d679ccfbdd0f591U, 0x3d99ff313d976d00U, 0xbc2f4fae3d348038U, 0xbc9101513d2e88d6U,
  0x3d262ff13d872083U, 0x3bad4201bcc9b71dU, 0x3c940db03db00e3eU, 0xbdc56b76bce4a1b4U,
  0xbdded71b3dc59dffU, 0xbda871933cb4ec62U, 0xbd10402cbdad7db6U, 0x3c882905bda76597U,
  0xbc73263b3dddc98aU, 0x3d9f70b1bbc03fc8U, 0xbde1422f3d8c629bU, 0x3cb58bfbbc992328U,
  0x3da864333b838e5fU, 0xbc68423abced03fdU, 0x3d8ac09d39295594U, 0x3b9083d8bc0bd8fbU,
  0x3dbaa48abd879821U, 0xbd25d76bbc18567dU, 0x3c413359bd9104b6U, 0x3d09e31b3dab7c53U,
  0x3d2d87a13d4486afU, 0xbe0b90773cd1910fU, 0xbd836376bc6d0445U, 0xbc4de9223cb6a878U,
  0xbdb35e003c8ee34aU, 0xbe30ba613c329726U, 0xbe1c7a0e3df8b5b5U, 0x3d38f810bdb84216U,
  0xbe3b7064bda247cdU, 0xbdb9e10ebd804663U, 0x3d6fdb5f3e0cca14U, 0x3dc53afcbe33f694U,
  0x3dcb07cd3dd4e3fbU, 0xbdbe5aae3c3706f8U, 0xbd83aa21bcc9da8cU, 0x3e5a23d0bbfa571fU,
  0xbd69ab173c5801b3U, 0x3d95bd143cb1eb99U, 0xbd2e6aa93c818132U, 0xbd09851a3c2f1572U,
  0xbe2ae366be3221c7U, 0xbe7a74113c9a6ed4U, 0xbe4fbfbc3d3a7d08U, 0x3de113e8bd8815c6U,
  0xbe48b767be625998U, 0x3dfdf521be2bad90U, 0xbe2c7115bd824010U, 0x3e57dfd9be41c85cU,
  0xbe3c30ddbe2fd70dU, 0xbdaa086c3dd71f55U, 0xbdea891fbe292321U, 0x3dbcb4443d6d86e8U,
  0xbda93e02be2b5eceU, 0xbe4c10713d89bf46U, 0xbe652230bdc37c47U, 0xbd1be337be467607U,
  0xbc8fca92bd3c12a9U, 0xbd8de8b73d182eb8U, 0xbeb5092cbda0cd2cU, 0x3d57c2d0be65bafeU,
  0x3da88ef6bd737043U, 0xbe13388b3dcde2e6U, 0x3e1555c6bca68a40U, 0xbe15e885bc5ad40bU,
  0xbd2c572e3e0247a1U, 0xbe1d5d0abdff54baU, 0xbe616f4f3e00a3e1U, 0xbbfa320f3d4eb616U,
  0xbd8433d6be04bce2U, 0xbce28720bd9c5213U, 0x3ddfa59b3e247611U, 0x3d5f1524be063efeU,
  0x3ceb43323c5344f5U, 0xbea7db75be3169a6U, 0xbe97c48c3be82fe1U, 0x3de636e3be2d437cU,
  0xbda044f8bc9eaf43U, 0x3c1254e5bd4653ffU, 0xbe62dbb2bd67b313U, 0xb9c96e2abdad25caU,
  0xbe4306f1bdcd9c01U, 0xbea62cb6bd648b50U, 0x3c94b762bdb54d5eU, 0x3ca897793c085e34U,
  0xbe778239be715a65U, 0x3df0f98dbe33d7a8U, 0xbe8376883dbb869fU, 0x3dd658cbbe5c008eU,
  0xbe832662be28bcf6U, 0xbdc4b61b3dbc164dU, 0x3d98b68fbd8f85e2U, 0x3df34c643dad3a90U,
  0xbdc105b0be4165fbU, 0xbd15848cbe10e2a0U, 0xbe20bd9b3c58cab0U, 0xbe1b06bdbd682be8U,
  0xbe0bc77c3d42c572U, 0xbc1e80c8bd6ea404U, 0xbcef8d2ebdfe8a90U, 0xbcce2b503e5a841eU,
  0x3cb92b68bd07b8eeU, 0x3e1202d7bd6fdbc2U, 0xbd03c5b2bd500abeU, 0xbd46cb1fbd6ce7c5U,
  0x3d430db63c1866a2U, 0xbdfe3d99be3070d1U, 0xbdb930003dbcd24fU, 0x3e0f325cbade0ab9U,
  0xbe1a26cbbe3bb9beU, 0xbdeef822bda2e812U, 0x3dc88b3d3e4b8147U, 0x3d901f80bcab9cfeU,
  0x3d9a5f88bbdcd476U, 0xbea250a7bc132c0aU, 0xbde52cb7bdc4dfd0U, 0x3db05585be054dd7U,
  0xbe69f3d3be0d923cU, 0xbda6a0453df4b3e4U, 0xbaf82a6d3ddb17d2U, 0x3cee3f67bd972535U,
  0xbe0181f8bdcf89f6U, 0xbe701951be265755U, 0xbe65f195bdc71d3dU, 0x3df53d7dbb641c74U,
  0xbe5d5552be1c804cU, 0x3e2bd380bdc1dc99U, 0xbd0c0f873da1ae96U, 0x3e0dc20ebeb23c1aU,
  0xbe808d41bda0cdafU, 0xbe5979593d500d5fU, 0x3d320de7bea63bf2U, 0xbd8b32a73d64641eU,
  0xbe470e87bdec9fcbU, 0xbdd18e84bd0f581aU, 0xbe3a4f053e25629bU, 0xbe1249cfbe77520eU,
  0xbe6a7d5fbe30c4b4U, 0xbe0b0013be17cc18U, 0xbe454864be1250eaU, 0xbc5045c63d576c8cU,
  0xbadbd2ccbd80a4b7U, 0x3d11bfc8bdd78d8eU, 0x3d829843ba49960dU, 0xbc2c1593bdc3d962U,
  0x3cfc073abdad787cU, 0xbd07085cbc659739U, 0xbd5235603df59217U, 0xbc9572543d951660U,
  0xbddc4b74bded5bcbU, 0xbe9990823d14b523U, 0xbca38d123df0dda7U, 0x3b7a8720bdc772a7U,
  0xbd9e08d8be079dfaU, 0xbe752f10be4a263fU, 0xbe2b7613bc5c4e31U, 0x3cd08682bdf6c545U,
  0x3dda732c3c6155feU, 0xbd1ce9bebde86a13U, 0x3ceab1173ce1e887U, 0xbe256d07bdf66760U,
  0xbe513166be6a7752U, 0xbe73cd31bd5c7128U, 0xbd424480bd994355U, 0x3c16e528bdc71991U,
  0xbe1796c2be25f0c6U, 0x3e2f53b2be439f67U, 0xbc2fdc67bd26ab24U, 0x3e008b0abe475fdcU,
  0xbdf606e1bdf9e478U, 0xbe04f1173c1dc61fU, 0xbce1ea1cbe9545abU, 0x3e041f713e13227fU,
  0xbcf9e0ecbe99dc3eU, 0xbca6a83d3db95b7fU, 0xbe19393a3e056f41U, 0xbded42523c5cd0faU,
  0xbe85d76abd566e8eU, 0xbdbccf82be115c63U, 0xbcacd298bd614a9aU, 0xbc939a6a3ba35164U,
  0x3e54d38bbd61f73fU, 0x3d8b8a3d3d77f476U, 0x3da350ef3c435b46U, 0x3e1c3cd03df4bccdU,
  0xbd9912003d67a732U, 0xbdf85ed63c83dce8U, 0xbe8733073e27e6edU, 0xbd7a19ff3d7991e6U,
  0xbd65433bbd3aef6bU, 0xbe28b48dbd649799U, 0xbced14203d90a7e8U, 0x3d0d3510bd2e9076U,
  0x3dd050bdbc8285b4U, 0xbe87e8c4be6f6947U, 0xbe91847dbe5d03daU, 0x3e31ba2abe3ed170U,
  0xbe52beee3d3df7eeU, 0xbe47a64c3c719a99U, 0xbd942d2e3d532ad9U, 0xbb94f12f3dc31fa0U,
  0xbe838e3dbe6368f4U, 0xbe46c8cbbe2271a1U, 0xbcbc38b6bd8321b4U, 0xbcaa83f9bd645910U,
  0xbe35f7a8bdea1975U, 0x3c14f0ff3c60da87U, 0xbe091d143dfb99c5U, 0x3df8788abe02f2b8U,
  0xbe28c0a7be1980fcU, 0xbe16533bbd9e39f8U, 0xbce5e622be37b323U, 0xbc2f7973bbc24ed0U,
  0xbd85aac5bd9363fcU, 0xbd4a97463d2abbd3U, 0xbd475cef3d98b79fU, 0xbdc8bd3dbd8d8ef1U,
  0xbdafdd99be0b76a1U, 0xbe390e2ebe1835ecU, 0xbe608882be42c27aU, 0xbe0a1ce63daa900fU,
  0x3dbe05a9bcd09828U, 0xbd0a6aea3def28c1U, 0x3c216a2bbd8a1591U, 0xbe08525cbccf79c2U,
  0x3d08e15f3c340900U, 0xbda6a95a3dd964ecU, 0xbe2e8d823d0af6f3U, 0xbc9ccafd3e126b8bU,
  0xbe306d8bbdd89de1U, 0xbdef998cb956f9b2U, 0x3d9902343e003152U, 0x3d8a8cd1be008b54U,
  0x3d29a57c3d62c372U, 0xbea297c5bd49b3a9U, 0xbe7d6160bdb76551U, 0x3dbafb42be2839d1U,
  0xbc89a7ccbe02fcc6U, 0xbe2533bebdf0cd77U, 0xbd0197c63ca94ef2U, 0xbe32f3abbdbcd06cU,
  0xbe404cf7bddadfeeU, 0xbd97c9e1bd4c7884U, 0xbe3bbbd3be7f6c36U, 0x3db7ad9bbe2b1b3eU,
  0xbe88d327be188bb2U, 0xbdcf908e3b51a265U, 0xbdb90531ba8a0fa4U, 0xbd901aa33bc376acU,
  0xbd1ee58ebdacb40fU, 0xbe0c942ebd934df1U, 0xbd28c69abe387726U, 0x3a1046aebd03bba9U,
  0x3d47de4c3c74cbc2U, 0xbd888ccfbdd8bda6U, 0xbdc0b9b7bd92269aU, 0xbe1373cbbde3d8c5U,
  0xbea368e2be4714a0U, 0x3d2779f7bc935c69U, 0xbe379974be03a2a5U, 0x3e253fd23d05da3cU,
  0xbd3b3f5ebdc2fe8fU, 0xbd5314b5bcb4eecbU, 0x3d5841da3dd087ebU, 0x3d85c9b3bd02b42eU,
  0xbde856803c39eec3U, 0xbe18d4bb3d8e5645U, 0xbe52be363d85c096U, 0x3d11a1dd3e1f1056U,
  0xbd697cb9be2ae16fU, 0x3c43254bbcb50ccdU, 0x3dc7cb113c799d7aU, 0xbc5ea075bdcf16f8U,
  0xbdd62ca03d703a11U, 0xbe92bffe3db453eaU, 0xbda2e845be2db543U, 0x3dab27d53d97b92fU,
  0xbe13dc3fbd41755dU, 0xbe587d98bd10ebeeU, 0xbe188692bd117fb1U, 0x3ccaea2b3de77a2aU,
  0xbe1291c2bd8624c6U, 0xbeab33ccbd204feeU, 0xbe49cf17bdd64bc7U, 0x3d3f5d5dbdc03731U,
  0xbd82a27abe5f2786U, 0x3d8c248abdd9ed82U, 0xbd58ab413e1ef5beU, 0x3e2d978abde0bbc9U,
  0xbe128bfbbd65a457U, 0xbd9584503d00eabbU, 0xbe11de68be752b4fU, 0xbcc0ec783da6fd94U,
  0xbdd0f2d4be05a158U, 0xbcff7f553da7be82U, 0xbe5003e33da721fdU, 0xbe299caebdadc2c6U,
  0xbdfeb41d3c47fc5dU, 0xbd660beebd5a40ddU, 0xbe0eba7abdc8cf34U, 0x3db72c1fbd6a5056U,
  0x3e0030d9bda306f3U, 0xbd5014b83d4d2ee9U, 0x3df1357d3ce7fc2cU, 0x3d93bdc2be2b0007U,
  0xbb687ab03da9e380U, 0xbe043387bc9cc32dU, 0xbe0327b33db8c8abU, 0x3dd2b882bcb6236fU,
  0xbe0b968a3d112122U, 0x3dfe8c07bd1d369eU, 0x3dbe331d3ddcd4ddU, 0x3bee3f05be26c6d4U,
  0xbccef6b63d166f4fU, 0xbeb6138ebbbce63eU, 0xbe181befbe41f5abU, 0x3d12906cbe45cf03U,
  0xbe926d40be262862U, 0x3e16aff5bd4e21f4U, 0x3d4da09c3d78123cU, 0x3dd1b321bdfb7ba2U,
  0xbdcdab803c9682adU, 0xbe2e7071bd445c4aU, 0xbd3c908fbe2f0ea1U, 0x3d5131013db1d69dU,
  0xbe5fbbc6be0586deU, 0x3dd2d1fbbe2f390cU, 0xbd849532bda0c6c8U, 0xbceb9fb3be71476fU,
  0xbe581b78bdd717efU, 0xbd9abcaa3e1f7ab2U, 0x3e113f52be3454b6U, 0xbcd216543d5651f2U,
  0xbdb97ef1bd96939cU, 0x3d7f3149be2b982fU, 0xbe236275bd80d994U, 0x3cd36e20bd466525U,
  0xbde700b9be74353dU, 0xbe25d9273de7e417U, 0xbc969655bd42ce24U, 0x3d9fb2debc2744dbU,
  0x3d2273ebbcee598aU, 0xbc23740dbd2582c1U, 0x3dfc39fd3ddb1829U, 0x3d226919bceba9d8U,
  0xbc3e41debcb70cf3U, 0xbac068e23d88975bU, 0xbe7c0217be15514fU, 0xbcaaff76bd19ad47U,
  0x3de24d94bd3cc0feU, 0x3ce421debd629e65U, 0xbcacfa06bd4e74d9U, 0xbe3ce7f5bce5b2beU,
  0x3bcf4b51bdde5c33U, 0x3cd3d9eabd659b4aU, 0x3debee96bddc6308U, 0xbe805f68bdc80e6eU,
  0x3d9d90a5bddf9146U, 0x3d44baa5be3a449dU, 0xbd6a14f0bdca66daU, 0xbdcac0533cae65dcU,
  0x3e1d51de3d4fbdbaU, 0x3e964b49bc9e6defU, 0x3d776e6b3e034a4fU, 0xbdacdaeabd5110a9U,
  0x3dc6b2ec3e01b6e8U, 0xbd2761b8bd3b0926U, 0x3d0d264ebe0426fbU, 0xbddd3f5bbbccfb66U,
  0xbd1e79d73b5bae5aU, 0x3e6ed3163b8d613bU, 0x3dea4b81bd1fafd2U, 0xbc46f30dbda48caaU,
  0x3cbcd53f3e92fe8dU, 0xbd8e7b4d3dc04e47U, 0x3dc5526fbd60c95dU, 0xbd9893933ea69f9cU,
  0x3e96531cbc7c1970U, 0x3db6fd313c88e993U, 0x3da684a03dd50f4bU, 0xbde125763dabf026U,
  0xbd6f8e4b3dcd3c4dU, 0x3d4d7b9abce9e063U, 0x3e0348413e083a77U, 0xbdc7a2f6bd080f1aU,
  0x3d1f23f5bc6d36deU, 0xbe0397c33e0f764dU, 0xbdeda4d9bdeca9f5U, 0xbc87708dbc512d5dU,
  0xbb80f6f2bd39525fU, 0x3d8caf833ce0432aU, 0xbe25ce5fbdf76e83U, 0xbe1a5b93be0264eeU,
  0x3b28d667bd291041U, 0x3e3b4890bcee7928U, 0x3d16c1863d6b9031U, 0xbe54bcbc3dcb793eU,
  0x3c1408423d5cb5b3U, 0x3c45429d3c1b1d5eU, 0x3bb6b7e0be080469U, 0xbc8b02213cfc374fU,
  0xbd6862013d19bb8fU, 0x3e8db17bbc87d94bU, 0x3e17b327bbbbdef7U, 0xbe66c88b3c338b4bU,
  0x3da7d2263e034255U, 0x3cc6f1e83dbecf4fU, 0xbd3dfd41bcf5d300U, 0x3b14799e3d821388U,
  0x3d02447a3b98f191U, 0x3e9a31a23d015037U, 0x3b2134d33dabf334U, 0xbd0a2ea63da4f9a6U,
  0x3e0a65ce3e8d29d3U, 0xbddeec003d9e5e8bU, 0x3e1baccb3d3ac69bU, 0xbe274da43de6c824U,
  0x3e40eb0cbd0a83b8U, 0x3e5e7d82bc989d27U, 0xbc0c40013dee4ce7U, 0x3cd18adfbdf5d926U,
  0xbc153376bd145231U, 0x3cf17611bd0f68adU, 0x3d372dff3c9827dbU, 0xbd7b5814bb8f3064U,
  0xbd6433453e2b59f0U, 0xbd916b473e14d205U, 0xbe57a06fbd8d2384U, 0xbdbfbfb43d0ab685U,
  0xbcb052bcbd581eeaU, 0x3d433c07bd71fc25U, 0xbdd596e4bdd6226dU, 0xbe28c61d3c6156f5U,
  0xbce534c93ceea056U, 0x3dabdb6bbd4ea8a2U, 0x3d48ad8ebe11e9e4U, 0xbe2092a03d8c2e92U,
  0x3de6905fbd74be7dU, 0x3e103a85bdfc7567U, 0x3c035e69be3fff80U, 0x3db9a635bcf9a7e7U,
  0x3de2201d3d13059dU, 0x3e9eb4b03d6744d0U, 0x3e02efb03dd5b9d2U, 0x3d2e8e693cc5a674U,
  0x3e942fe53caaed2bU, 0x3e0d591d3d5f58c4U, 0x3e1abac7bd88275cU, 0xbd3fd2053e0de530U,
  0x3e2f440c3e492996U, 0x3e952e693d5e49b1U, 0x3df8d4e33ddadf04U, 0x3d0071b23d8b974cU,
  0x3dbe26433ec6be46U, 0x3cd4d9de3d7f9c7dU, 0x3dbd4364be56c396U, 0x3d39d7333c8be2e7U,
  0x3e9ceceb3db2de04U, 0x3e665cb73d43bce5U, 0x3df270a43e08ac2aU, 0xbdded0b63d1eb0e5U,
  0x3d2ecc283ceb9b98U, 0x3cfef0843df2e254U, 0x3cb05bf83d17d534U, 0xbd957471bdb68908U,
  0x3d30a249bc84fc12U, 0xbd97e4353cb83356U, 0xbe0474dbbe04034bU, 0xbb5f269e3d161b16U,
  0xbdae5da8bba5484eU, 0x3de85d79bd537f14U, 0xbdd46e5cbd966419U, 0xbdc4ebe93d4183ffU,
  0xbdc16618bdb8322bU, 0x3e77e74e3cc9546dU, 0x3d78416d3ce3f752U, 0xbdefcc01bb084971U,
  0xbd159edcbdd86b2cU, 0x3d1aa92dbdc2fe92U, 0xbd404ef1bd88ef13U, 0xbd35da8cbcc091e4U,
  0x3cbce8713cd02ec5U, 0x3e62d722bc894fdaU, 0x3e643e5dbb923c71U, 0xbdc728623c9ec3d2U,
  0x3ddf72d83db75c18U, 0xbc744319bd42a327U, 0x3d270ac3be0b2bfaU, 0xbd8f37943d2f16cdU,
  0x3e14e7503d0e21ceU, 0x3e501eb4bb85807cU, 0x3e59b4c4bb919c9aU, 0xbd5d82693df94801U,
  0x3c58e8023e709639U, 0x3da7a2f0bcf4c33bU, 0x3e08d5e83d94687aU, 0x3d9769593cf225caU,
  0x3eb1965e3cbb6450U, 0x3e3d1637bd4ee4daU, 0x3e1866b93d710b75U, 0xbd9969b5bdb32216U,
  0xbc2bea5cbcef6ff0U, 0x3d83d0693a6ebd3eU, 0xbd660a2c3da3ddfaU, 0xbd17a8ba3d99a574U,
  0xbc733fa93c42132fU, 0xbd1bff633e028ab9U, 0xbe50752dbdaa8afcU, 0x3d46d9253d8d6fdaU,
  0xbd021e803cfbe771U, 0xbdf79ba43b05a299U, 0xbde6b7b3bda2b6e2U, 0xbe15c0acbd9e13c1U,
  0xbe039a0c3caa5bb7U, 0x3d9e0974bd0a343cU, 0x3cb3f22bbd9616feU, 0xbe3744123d44e619U,
  0xbdda035d3cb30841U, 0xbd0debb9bc0ab27aU, 0xbd6e7e75be2165a1U, 0x3c2907bcbd0cefd7U,
  0x3dc75133bc49ea89U, 0x3e2c694bbc6f1ca0U, 0x3e554e24bc493f60U, 0xbe0931163c9c748fU,
  0x3dcdd28e3d1c440cU, 0x3b0e41a5bc850ae6U, 0x3d1949b7bdda6061U, 0x3d1157d7bdac7cbcU,
  0x3d25eb303d989ab3U, 0x3e39cb523cad0f36U, 0x3da05150bdd8a63eU, 0xbd8b5b483dd04069U,
  0x3d8607c63e7b2dcbU, 0xbcecbc793e0e6cddU, 0x3e2e631b3c29a611U, 0xbcf8bf8f3ca05cabU,
  0x3e338635bb0d4e3aU, 0x3e181e363d81ef64U, 0x3df25ebabd74bfebU, 0xbdafe4a1be1bcf03U,
  0xbd812f91bdc6dda0U, 0x3d8b5b9b3cfb0f7fU, 0xbc56a1903d8ab0a1U, 0xbaf51c243d508a90U,
  0xbd6723203d968d1aU, 0xbdd0a19b3dc2db85U, 0xbe2891d2bd4d6e49U, 0x3cc977183db052aeU,
  0x3dd3c2f93dab7763U, 0xbdc7594f3d96a80bU, 0xbe17d4dcbe4640c2U, 0xbe32c055bd15249bU,
  0xbdc9939fbd6c24baU, 0x3d3cc205bd10ec16U, 0x3d98b6efbcd3c6bfU, 0xbdb99a743e340ed9U,
  0xbd60d9dcbd42189eU, 0x3d266713be0f1fcfU, 0xbd9fc187be2e5cdcU, 0x3ccba1063d7e44f6U,
  0x3dca55093d1eaf1dU, 0x3e662ed3bd8769beU, 0x3da1be2e3c80a5e2U, 0xbe0edf84babd257dU,
  0x3e2436e73dcaac3dU, 0x3b26ae833cd58a57U, 0x3dbe6f5b3c9463cfU, 0x3ca02c01bd66ec7bU,
  0x3d34d6843dbbb4abU, 0x3e7cdebd3db68b89U, 0x3e4da218ba513e49U, 0x3c8195763e347b2fU,
  0x3c93d1763e9a80e7U, 0x3d11f6e73dea69dbU, 0x3d8332f93cf1c5ffU, 0x3d27af863dc866b3U,
  0x3ea18ca73c6d78caU, 0x3df6a30fbcb300a2U, 0x3dc6fbb23d0f18a9U, 0xbd5bb3b4bdaacd62U,
  0x3d16cd093d811078U, 0x3c16fe3cbd00cef3U, 0x3d7a2fdd3c4a5a11U, 0xbd1baf10bd62a986U,
  0x3d14438abc1475e2U, 0xbe1fcc653d226db5U, 0xbdf13b9bbcf5cfb9U, 0xb99bb6e33dfd7b46U,
  0x3d8f6e993c0e431eU, 0x3d3535353c72f39bU, 0xbd957fb2be5c2acfU, 0xbc151451bd9646b2U,
  0xba216c3bbdeb1bb0U, 0x3e2bf8333c7b93afU, 0xbd020cbc3d440b10U, 0xbe268e203d83a22dU,
  0x3bf629683c61d2a0U, 0xbdb07c4abe252999U, 0xbd8751f8be32c30aU, 0xbc021320bdc0d3e8U,
  0xbd0fed7e3e32065cU, 0x3e405fd93dc0fac8U, 0x3cd914c93da930ceU, 0xbdb30792bd409d63U,
  0xbd2c68363dba51d7U, 0xbd394c7d3cb68fc7U, 0x3e0b1eafbd2e5af1U, 0x3d8f1605bdbcc975U,
  0x3e7ae6113e198780U, 0x3e86ef66bb1df068U, 0x3e89349f3d7e24f4U, 0x3c0e70ed3d12263bU,
  0xbc033ba43eae52baU, 0xbdd73853bb91fe17U, 0x3e0063233d5154e0U, 0x3db298e63dd48ba4U,
  0x3eaf5e773e3c12d1U, 0x3e8a8e94bdc140b0U, 0x3b41de8fbde3dc9aU, 0x3da75312bc881836U,
  0x3d063eaabd0a11adU, 0x3d29ad003d3dc65eU, 0x3bc0fefb3db45ca2U, 0xbcbb5c1c3e0f1bb7U,
  0x3d0d83823d12b517U, 0x3d29e2b7bd170ce0U, 0xbe62338cbd26d472U, 0xbcff5e843e177918U,
  0x3d8e37173d8f5549U, 0x3d49ee9e3d6f2629U, 0xbe4514d3bdb40c59U, 0xbd87d7453d28aa51U,
  0xbd03b09fbd40f2baU, 0xbcb68d22bd82662bU, 0x3cfaf020bcb001dfU, 0xbe2553e73d7d1332U,
  0x3e181c903d72e4d4U, 0x3d04db6fbe652cb9U, 0xbd444b163d914eadU, 0xbe01d077be0fbcd3U,
  0x3d2728873da7d3caU, 0x3e5f5fcebc882364U, 0x3dac83183e55a988U, 0xbd08c858bdbc374eU,
  0xbd2ff9763e29e003U, 0x3cfc1ffa3d2f0a6bU, 0x3d177d3dbd369cbcU, 0xbcc37bb9bda02a60U,
  0x3dc79abb3d33aaebU, 0x3e079dfe3b69955cU, 0x3e520458bca72faaU, 0xbc3c72bc3df251b1U,
  0xbd875fa33eb73d00U, 0x3cddd1a03d82e13bU, 0x3e6f099dbe00e100U, 0x3d106b8a3dc133e7U,
  0x3ea4879f3e68bb80U, 0x3e2a3e22bdabf805U, 0x3dccdd62bcb93fb4U, 0x3d29c05bbd2dd610U,
  0x3d971e20bcc0ab17U, 0x3d984e393d6d70c3U, 0x3ddb0afc3e01193eU, 0xbcab866c3d2d3990U,
  0xbc9788853d9281d6U, 0xbdebae573cb51596U, 0xbe282116bbf6c159U, 0x3cf4c1833da166dfU,
  0x3d74fdd53d9bb702U, 0xbd9b6abd3d172ff1U, 0xbd903c45be65a481U, 0xbe118e5e3b6313f4U,
  0xbd567813bdda3f0cU, 0xbc35e08abd2ba8aaU, 0xbcd10939bd9c7cfdU, 0xbe56a1863ce171b5U,
  0xbc18f57b3e14ade4U, 0xba5f54f43bc167e2U, 0xbd21693fbd84142aU, 0xbda4e6883e0841f9U,
  0x3dccd40abcb2bfe3U, 0x3e15bc39bcca2ec3U, 0x3dbe65d23c6aa84bU, 0x3cffab5ebe134cb0U,
  0x3d802f2b3e231e3eU, 0x3da59462bddbf4b5U, 0xbd100b33bd0441aaU, 0xbd9765df3cf7c10aU,
  0xbd3c88a13e1421ffU, 0x3e8aefd13d8c4809U, 0x3e27e814bcd912edU, 0xbd648e85bcd2b4a8U,
  0xbdbb61153df8c1bdU, 0xbb14d7d1bcee2b6cU, 0x3d3d7833bcf2e6bcU, 0x3d0e404f3d46150aU,
  0x3e46f9a83e1221a1U, 0x3d8efd8e3c053066U, 0x3e544fcebd3d4d77U, 0xbc3fd86d3e444829U,
  0x3dda0a0f3bd2e6f6U, 0x3b0ced223dc39061U, 0x3d06177c3d124b73U, 0xbdb1a567bc0c25deU,
  0xbc00f7fa3df4392bU, 0xbc7da5613cda9668U, 0xbdc5004b3c6a7f3eU, 0xbd78ca543cbbd4d2U,
  0xbd8a94adbd571828U, 0xbdb2b1953ca5ff99U, 0xbba8d9d8be540796U, 0xbd247fbabc36f048U,
  0x3c55cf8cba830359U, 0xbb235127bcb130b3U, 0x3dbc5c6a3d8e8066U, 0xbe8848263c0ca095U,
  0xbc13ac603e171070U, 0xbc4a855abdd6971bU, 0xbd052493be398d1eU, 0x3c6897ec3dd4d87cU,
  0x3e29a8133d65277fU, 0x3e68bc16be009294U, 0x3e1556593d9e59ebU, 0xbd67c938be14ed60U,
  0x3de0d37a3d0a5d1eU, 0x3d0689efbb854883U, 0x3d3470853cbcb12dU, 0xbd05045abd4d4426U,
  0xbc6c8a58bd16514bU, 0x3deb83513d4c5c58U, 0x3e7df4133e21ba13U, 0xbde49e673d7de86dU,
  0x3dea44f03e89f4a6U, 0x3deacd313d7f3833U, 0x3dc79cb3bbf7daacU, 0x3dbcca0abca467c1U,
  0x3e2979c13dea836fU, 0x3e37b5083d56438bU, 0x3e2229c23d0f3798U, 0x3c4dbc103de77c4bU,
  0xbdb06ab4bdcd64fbU, 0x3d22fa2e3d00f0bcU, 0x3d770ba23d4b0ca0U, 0xbcfbec94bcb126f7U,
  0x3d6932c43ca1af10U, 0xbc11572fbc9ab717U, 0xbd9e20a0bd8dc93dU, 0x3d4296613d857415U,
  0x3d79b0e23ce0c983U, 0x3ddbe582bd9425f5U, 0x3cbf8853be0ed429U, 0xbded4c913c61c3bfU,
  0x3cce98d1be07bb41U, 0xbdea03043c9b5818U, 0x3d3e672dbde3f2f2U, 0xbd93b5583ca162b8U,
  0x3b977c583e1ab62bU, 0xbd80f9983c5125d6U, 0x3d3f6115bce61946U, 0xbde4a728bc2443ecU,
  0xbcc808123d911c68U, 0x3e73b3cbbd8af19aU, 0x3e36700b3c6db18fU, 0xbd27d166bc1c294aU,
  0x3d88f5d93dc8cfc3U, 0x3e13d380bd9206fcU, 0xbcb1911ebdb9e075U, 0x3d0124623cb05e3dU,
  0x3dad082b3d93d07bU, 0x3e4423a13da18893U, 0x3e193e1a3e187d65U, 0x3c6e2ac43de88735U,
  0xbd89e6973e56fe7bU, 0x3cd1b8a1bd5c7d92U, 0x3da1ad0fbc3a9ad8U, 0x3d6fde8dbcc078baU,
  0x3e96145a3d8fe1acU, 0x3e522c133ccb395aU, 0x3e63c1f73d02aac6U, 0x3db477da3d6ec5c1U,
  0xbbdbf4edbd10e65bU, 0xbbb052dabcd93896U, 0x3d6705853d834dc2U, 0xbce6ccc93b8dfab7U,
  0x3e06b9193dfac1f8U, 0xbe13058e3c4b68caU, 0xbd7ff35e3c1b153dU, 0x3e2ac002bca65f52U,
  0x3d0f6a9cbc38d038U, 0x3d59d5f53d11222aU, 0x3cad980cbdc1895eU, 0xbde8a89abc8624f2U,
  0xbde3ee05bdbf76cdU, 0xbda1da72bd26780bU, 0x3ddf13e8be09dd85U, 0xbe1355d3bc5b414dU,
  0xbb93497b3c9e4cf2U, 0xbc5c15493d152f20U, 0x3d0b3f82bdabb8e7U, 0xbe24623d3db12ed5U,
  0x3d467f053e34b184U, 0x3e7c9e8d3bce25ebU, 0x3d9acb993de129e3U, 0xbd55d580bd1b9529U,
  0x3cbd8ac2bd8245abU, 0x3cb4847fbd497f01U, 0xbb8acdcdbe10496bU, 0xbe0c5ddf3ca24267U,
  0xbd14d0833e3c3539U, 0x3ea0f8193d5e5801U, 0x3e26bd19bd48c45fU, 0x3b9ecc0f3e5ca711U,
  0xbe0a69313e290a23U, 0x3dae329e3c099956U, 0x3e136992bda1845bU, 0x3c7f20e0bd8a3d93U,
  0x3e3ead653e7fafe1U, 0x3e3a6ca93d38f49cU, 0x3e2262dd3d4b3e8aU, 0xbca2d3ad3c9bbe27U,
  0x3ce66f16bdabdb6cU, 0x3d9e33bcbda37920U, 0x3d9f9be6bc9fb4d8U, 0x3d808145bd9d75d8U,
  0xbd58a573bd5c6bffU, 0xbc41cf333da4caa2U, 0xbe8dbc65bce40758U, 0x3c958d3f3d924b75U,
  0x3cf43b1c3d40086aU, 0xbdb62c5ebc87838dU, 0xbd534b6dbd78b2d0U, 0xbc9ab3313d922db9U,
  0x3c4f056cbde4e90cU, 0xbd4df6c5bd6ee647U, 0x3cb151cfbda70b6eU, 0xbe1a47e4bda9c812U,
  0xbb48c4003d0d824fU, 0xbde0d061bcb501e1U, 0xbd980e193b5a05daU, 0xbd1b506dbd212731U,
  0x3e347bbd3c757478U, 0x3e59db7fbd29ed96U, 0x3de8aacd3de77cb1U, 0x39561f8f3bd4d37dU,
  0xbe02501cbd7b66ecU, 0x3dbff85cbade8632U, 0x3e1b37d7bd3036b8U, 0x3dfbeb5bbdbdff92U,
  0x3e1f9d483e15fc2fU, 0x3e3ab8d13d62f327U, 0x3debe389bd12c061U, 0xbcdec5333d0fa6eaU,
  0xbc8e4c113e8d2dc4U, 0x3d3d63c23bafe2d6U, 0x3e66c9c7bdaf57beU, 0x3d80f21d3c2cba25U,
  0x3ea19b843d8b1e85U, 0x3e129b633d9f3d33U, 0x3e3440293c9b910bU, 0x3d1af8013debf87aU,
  0x3dd68d3dbb21d670U, 0xbc4cd7a63c7c8d58U, 0xbc93504bbd618621U, 0xbdf7a6f0bcc00719U,
  0x3bff65d63dab3838U, 0xbdf1daecbd83de28U, 0xbe29bb14bda6c1b6U, 0x3dd2587b3c189402U,
  0xbd6a85143dc6c063U, 0x3c2421a6bdbc7170U, 0xbe4179c5bd77c5c4U, 0xbe0583193da93f26U,
  0x3c0258a03ccb1222U, 0x3d96eb7cbdf90304U, 0xbda5b3ecbc48531cU, 0xbe8beb09be11be11U,
  0x3de65c663de18894U, 0xbda553f6bbbb98c0U, 0x3da585b5bda12a83U, 0xbc8012423d989fe5U,
  0x3e38f0ff3e14e633U, 0x3e414c98bdb13c4eU, 0x3cf42f1a3e11b053U, 0x3cb8c518bdf1cde7U,
  0x3c5443b63d8dd68dU, 0x3d61ea10bd85424cU, 0x3dcb5bc3bdc79124U, 0x3dd855d2bcf4e3a7U,
  0x3d8e0de33e23a639U, 0x3ea2a7743db2c446U, 0x3e641e633e23a532U, 0xbe0cad0e3cb48b26U,
  0x3c7f05673e73d355U, 0x3cd4c3a03d35d8b9U, 0x3de0562cbc9f5a80U, 0x3d277a843d72708dU,
  0x3e98cc423dabf132U, 0x3e360bea3de8aaf9U, 0x3e382fa23d9d4d0dU, 0xbc215b873d445a3dU,
  0x3dd11ef93c810f75U, 0xbc3d585c3dfcaa57U, 0x3d5eba253cdaab6eU, 0xbcb13f503ca5f8c6U,
  0x3d5340183cc5661cU, 0xbe105222bd9fb6e2U, 0xbdd2ce0bbe02cd3eU, 0x3d0c0bc73da603e6U,
  0xbe030bf9bda9b723U, 0xbc969008bcc1f774U, 0xbdffeeafbe4e5083U, 0xbd96958abe1c9443U,
  0x3cb827a1be0d6fddU, 0x3c835491be0ffaf0U, 0xbd347dafbcfbc698U, 0xbde84fce3d3aa6e5U,
  0xbc7228e73ceb4140U, 0x3d826960bd984bf1U, 0xbc7ab451bcef198dU, 0xbd681573be26426dU,
  0xbae62e9b3e116bc5U, 0x3e98b0ed3d40387dU, 0x3d2e30933d9c181aU, 0xbd96c73ebdffc81dU,
  0xbe0943be3d21cb21U, 0x3c6f06c9bd78ba9fU, 0x3d5f72993c9e53b0U, 0x3dbfaffebccb4dc8U,
  0x3e7261213e6a271dU, 0x3e74ab1f3d8aae1eU, 0x3e5b6cdd3da7d11aU, 0xbddac6313d25309fU,
  0xbc96b7703e59e21cU, 0xbdb5e2f8bd2afd30U, 0x3d9613103dd1a98dU, 0xbc3c5f7dbe37b31fU,
  0x3e6e1de53e237d16U, 0x3e9551c13ccaadeaU, 0x3d0668763df59603U, 0x3cddcfc0bd8e12e8U,
  0x3ce022303c1c65c0U, 0xbdb722f13d3b5f57U, 0xbcda79553de785c9U, 0xbd4cdb133c3e5001U,
  0xbd8c7c1e3d8c0267U, 0x3d45717cbd078f75U, 0xbe16346bbbdac060U, 0xbd27fcb43ca6a811U,
  0xbdd9acc03d93c346U, 0x3d171b2a3d5db9b7U, 0xbe65a909be6e9b94U, 0xbc0f93bdbd5f85e5U,
  0x3c872b9abd8b74d3U, 0xbdf7b583bd740324U, 0xbd4fe996bdcd5b60U, 0xbe37bf473da5399eU,
  0x3cd51035bd57778fU, 0xbd0f24b23954412dU, 0xbd5378f3bda53959U, 0xbc6bdf493dac7702U,
  0x3e25900c3c969744U, 0x3e4aa1bdbce1c68fU, 0x3e3b7ab13dda5132U, 0xbbb90044bca0706cU,
  0xbddd9f833d9c1da1U, 0x3d816d333d15c9aaU, 0x3d7860b63d580aa0U, 0x3daae85cbd86d80fU,
  0x3b4ae79c3d049951U, 0x3e45a9fabd7d46b2U, 0x3e658106bc0487caU, 0x3d52f4d23d6a736eU,
  0x3da34eee3e7458b8U, 0x3ade58623d400addU, 0x3d6e31f43cce1a4cU, 0x3d846572be3a21ebU,
  0x3eb40fd03e38c912U, 0x3d7a4ad23d848040U, 0x3e0bd8383d279519U, 0xbcdb60603df58203U,
  0xbe169beabdee1b55U, 0x3e406e373a942401U, 0x3d2701033c9f3606U, 0xbd0dab4abd0b4cbaU,
  0x3d1d8e10bd84fb1cU, 0xbe18b7c93dedd279U, 0xbcfa826bbdd87e8fU, 0x3e00862c3de5efc3U,
  0xbc8f0a90bd2d4b2eU, 0x3e155eb63dbcc2d2U, 0x3d7d1cc0bc260c72U, 0x3e41bf803cc31d79U,
  0xbd195c383e835d26U, 0x3d9354773e8b0d24U, 0x3e6d2e753e15873cU, 0x3d3c14bebc810cfaU,
  0xbe8b1a75bd179ce2U, 0xbce1efe0bd5b8721U, 0x3d92c886bd010fe0U, 0xbd56d4e7bdd1263bU,
  0x3eb5bdf3be583508U, 0x3da10dea3d6f1fd2U, 0x3e5107c13d9af618U, 0x3e1b2f3d3d7176deU,
  0xbe7bba33bea8c53cU, 0x3e22816bbcfdf16bU, 0xbdc04e6fbbb715a1U, 0x3de0e6f9bd888b7eU,
  0xbeddc442bdcc4461U, 0xbe8cb07d3e2dbb2dU, 0x3ecd7d17be893f8cU, 0x3d9ebcdd3e4cec77U,
  0xbd77a9f3bec07d41U, 0xbddc6780bb70bb77U, 0xbde708203e09bbaeU, 0x3ba52c22bddb161dU,
  0xbe906f41be2ea860U, 0xbce9076bbda7417aU, 0x3df5207ebe15dfb7U, 0x3cba3147bc9798dfU,
  0xbd6b3364be164ac5U, 0x3d5b23b0bd056748U, 0xbce68f6bbd8686daU, 0x3d5ca5b0bcbbafb1U,
  0x3d49ac7bbdcdb941U, 0xbe2c19053bf40d04U, 0xbc7f21433d5707afU, 0xbe02ac5f3dbe5116U,
  0x3ce6e052bd74137bU, 0x3d8ce3d0bda78efeU, 0xbd2287393e468776U, 0x3e4cf9efbd4faad9U,
  0xbda227663dd1f3f8U, 0x3d5d6bdebd3e6446U, 0x3e1221cc3dc5b59fU, 0x3c3bac773dd792ddU,
  0xbe3b496a3d9c6e98U, 0x3bff65213e32e568U, 0x3e0522173e503be3U, 0x3ddbc3b0bd4b67e0U,
  0x3e95f134bea43894U, 0xbe515a103d3e7699U, 0x3e8c169abde6e054U, 0x3dc6a2cf3cc243e8U,
  0xbe2f74c5be5d6b0dU, 0x3e751ba3bdd62c5dU, 0xbd71fe2cbcc3b9e0U, 0x3e319349be352ed6U,
  0xbe6871bebe41c868U, 0xbe2f2d25bc1d44d4U, 0x3e782091beafd226U, 0xbc9699333c0f40adU,
  0xbe122383be29c314U, 0xbd0592843cadc97dU, 0xbdb933fcbd4d85a5U, 0xbdacd97bbcc25455U,
  0xbec81a5cbe5606c3U, 0xbe52af4e3d8bc1b3U, 0x3e72fc98bd06941cU, 0x3d3841323e227532U,
  0xbc2e7e9bbd4268e3U, 0xbcedacee3d88d486U, 0x3d122707be2f9817U, 0x3be80b2f3ca916bfU,
  0x3dcee5253c5c26d8U, 0xbde32d8b3d1c33edU, 0xbd4a6c9d3dac3e9eU, 0xbdbebfbbbdd11db4U,
  0xbcdf82bebc3c1cdfU, 0x3bff02abbd90973dU, 0xbcb629af3e18e51bU, 0x3e0af244be0c1b21U,
  0xbd223eb73c439854U, 0xbd6c08643d7fc3afU, 0x3dd71cf6bdc88718U, 0x3e254ab13d30bcd0U,
  0xbe4bfc153d412629U, 0x3daf311f3e35aee4U, 0x3e1a56773daaadaaU, 0xbd8dee36bdfaa58aU,
  0x3eb54dd8bd217af5U, 0xbe74a8fabd1ab43fU, 0x3eb1d1923da7909bU, 0x3d2288d13d7985abU,
  0xbe398d7ebe080578U, 0x3ea1dfe0be107d91U, 0xbc979d91bd07e1ecU, 0x3da2574ebdc96afdU,
  0xbe8faf9d3dbad91dU, 0xbe22e2253e0d34a9U, 0x3e9a8b19be80c69dU, 0xbdd72f9b3da222f5U,
  0x3e3cbf22bea0915cU, 0x3c9d2215be8ffad3U, 0x3d16df293e3d0efeU, 0xbdd3d51dbe11549cU,
  0xbedd11453bb966dcU, 0xbe8c47e03e07f249U, 0x3e4069f63e591980U, 0x3d614dcbbdd02888U,
  0xbdec06c7be1fe6afU, 0x3dcf90abbc9f1c5cU, 0x3d8c28c9bd466b8bU, 0xbc025a6dbb768641U,
  0x3d72936ebe4547e0U, 0xbe0d80b93c81df3dU, 0xbd6862f63e4fd1a1U, 0xbe39f98dbd899c43U,
  0xbe1473173e32fb8fU, 0xbdae1d53be444111U, 0xbceea503bc8d0b87U, 0xbb078a6fbda59029U,
  0xbbfb91823cfdf937U, 0x3dc2e6d13d2451c4U, 0x3d44fdbebcfd2a17U, 0x3de16c44bd229075U,
  0xbe5c30483df13904U, 0xbdb16bea3abe5752U, 0x3db6dea93d7eec0eU, 0xbd65979dbdcd7680U,
  0x3e9f2451bea0552dU, 0xbe6f55c3be1295ceU, 0x3e10e5dabdcf077dU, 0x3c6c5b6bbddab882U,
  0xbec5a00ebe4b983dU, 0x3e6a4f42be487f45U, 0x3d7a6a93bdecbef7U, 0x3e5d3367be4d63f0U,
  0xbe9b36d43e847d83U, 0xbe1bcca1bcf0b9a8U, 0x3eb52de3bd7726d9U, 0xbcd4805e3d856d87U,
  0x3b4c1d0bbe6bc06eU, 0x3ddc58f3be1a4d4dU, 0x3d785f3d3d5d3703U, 0x3daee3ae3d4d7ebbU,
  0xbe8d1b14bbba8db3U, 0xbdffa443bd9cdf72U, 0x3e6091363e0cfffbU, 0xbcb254abbe4e7921U,
  0xbd5b5948be0d4785U, 0x3df5cc663d3ea548U, 0x3c844afe3da91b32U, 0xbdf851e1bd1fee3cU,
  0x3cbe80c03da7ca69U, 0xbd248488bd47a5b6U, 0xbc34d80d3db3900dU, 0xbdb3a8f6be0f6ab2U,
  0x3d8060b33d8d7705U, 0xbdafbb26be4c6dbfU, 0xbe159c4e3d798956U, 0xbd2f2b77bda71d78U,
  0xbe107fea3dc672bbU, 0xbdbbf72ebc99b5c7U, 0x3d4fedfc3d236d5fU, 0x3a630268bd96d1f2U,
  0xbe84f4d4be2fd270U, 0x3dd6a444bdf54f0cU, 0xbd95fe123e3d2267U, 0xbcf2b50abe94b9f7U,
  0x3d9a1aa6be09404eU, 0xbebd5ffebda5ace1U, 0x3dfee54bbdaaa14dU, 0xbd97200e3cc3edb7U,
  0xbe76c625be4bbdd7U, 0x3ced6b4ebe040cc6U, 0xbd678ae23dae836cU, 0x3e349164be7646f9U,
  0xbe8d40a13d9a904aU, 0xbed9309c3d83e939U, 0x3e976739be8eb77dU, 0x3cf1852f3d3f9fbaU,
  0x3c91696fbe5fb98fU, 0x3b5e7e18bc7be766U, 0xbd430788bd27d127U, 0xbbc229d43dc6809dU,
  0xbe6ff5aabcc3b1d3U, 0xbe74ce873d82e7f9U, 0x3e3e54f43e596ed6U, 0xbcf9fb603e0c5234U,
  0xbd207d75bc7d4695U, 0x3de66ce9bd47f5c4U, 0xbd32571d3c82b019U, 0xbd5a2a103ca84b76U,
  0xbafa3fea3e4d2b52U, 0xbe40e0623dacb2e0U, 0x3d1ba10e3e57df16U, 0xbd1d459abdc2db36U,
  0xbdd0ce243e354096U, 0xbe09126ebda9ed8fU, 0x3ca75b113ddd0ad7U, 0x3d5ff5c7be151283U,
  0x3d8488b73d5777c3U, 0x3d829cc23d061cacU, 0xbcdb771e3d974366U, 0x3d070a07bdd0ca27U,
  0xbeaa8ccfbe20fe2aU, 0x3dc5fc26bde4552dU, 0xbb873f003dce49f4U, 0x3d63197abe789f2eU,
  0x3ccfb93ebe88d44fU, 0xbe594df43d0d25cbU, 0x3e54beff3d08312fU, 0x3d098bedbd033820U,
  0xbd79fa8dbe2fee51U, 0x3d372c82bdad5597U, 0xbd2dda72bdcab20dU, 0xbd660ae4bd2cd125U,
  0xbea66cfe3d96f917U, 0xbe3143423d409290U, 0x3e37b2c5bea24b8dU, 0xbcfd3c353d934108U,
  0x3bd66fd1be956646U, 0x3db1d52abd9ff09aU, 0xbd05b7633e7137a0U, 0xbcfe09c3bd1ceb5bU,
  0xbef9ff24bd389b04U, 0xbe49d7323e067f88U, 0x3dc1301c3d2e65dcU, 0x3d9f6b3d3e23dfc6U,
  0xbcf1b80abdf5ebdbU, 0x3dd1ddcbbdb59d61U, 0x3d3a0fd0bc5f65d3U, 0xbdc1d490bd3971beU,
  0xbddbabee3d9fbf15U, 0xbdb847423d7c6fc4U, 0xbccb7b45bc5e3bbeU, 0xbe6087a5bd898418U,
  0xbd0cdb963ddae2eeU, 0x398d427fbd9a8e73U, 0xbdd908f13e50957aU, 0x39ec6165bb519201U,
  0x3de4ad9c3e2480d1U, 0x3e868e75bde145c2U, 0x3d68a95f3dc2b4a1U, 0x3ca47d25bc761233U,
  0xbe96cfbebe26a8dcU, 0x3d9131c33c34cc6aU, 0x3de7acec3c263691U, 0xbc7313783d682af1U,
  0x3ea311dcbd97c6a9U, 0xbe89e7d13b94b838U, 0x3ead98dc3c119077U, 0x3cfe7ade3dd97046U,
  0x3d40c345bd62537cU, 0xbca876653d082400U, 0x3e0ecb04bdb10c0bU, 0xbcc558a1bda08f84U,
  0xbe9a2b7ebd847f1cU, 0xbe4fb300bd2ad16cU, 0x3e1807debe8ae890U, 0x3d298f7a3c84b876U,
  0x3e9114e7be46f57bU, 0x3e271283bddac548U, 0xbe2ca036bd6b7bc7U, 0x3d3d6af8be480af8U,
  0xbed7e981bd1a99a7U, 0xbdec75243e98b5f6U, 0x3e80fa9b3e7f67d6U, 0x3dcee18e3da031f7U,
  0xbe5e11e7bdf4d82dU, 0x3e58167fbdc1c25cU, 0x3e31b15ebb21f787U, 0x3e357ce2bdaf5719U,
  0x3e02a0ee3e01cf30U, 0xbd6f182e3db569d6U, 0xbbc5a3db3cb6a6f9U, 0xbda8b86b3d2bbb46U,
  0xbdd012143df34f7dU, 0xbe11e6b2bdb0053aU, 0x3d1d03483e43a9feU, 0x3cb095a7bba501e8U,
  0x3d8b406b3e260a49U, 0x3de411cf3dd69c4eU, 0xbddd9dee3d52fd1fU, 0x3d86e5853b8f719cU,
  0xbe97a9f6be9c0985U, 0x3e23c4a2be6359e2U, 0x3e530d59bd061e56U, 0x3ced1fecbe6d834aU,
  0xbdcf186fbe486ea5U, 0xbd4c643bbb8e52a7U, 0x3e558750bd700cb4U, 0x3dc62a0b3df0b299U,
  0xbe80c25fbe83a37bU, 0x3db64fc7be6b1d9cU, 0xbdc52fbe3dc326a2U, 0x3dab5beebe54bbd9U,
  0xbea5317dbda94490U, 0xbe3273b3bd0fe7b0U, 0x3e744007bdc82c6cU, 0x3d0826c23cdfa269U,
  0x3e7060d6beccf964U, 0x3e411a9dbe83ad80U, 0x3d0d06f1bceeda84U, 0xbc78a812beb29e12U,
  0xbe6d71e6be234bbcU, 0xbdf0e7323d084773U, 0x3e90f4c63e005771U, 0xbd09d1a63d31ed81U,
  0x3d5f54ce3c5bc85fU, 0x3d9fd2a0bd8ebed3U, 0xbcc7fc55bdd4c2efU, 0x3d0570ac3d328d17U,
  0xbcdd2914bdce4483U, 0x3da7e461bdb553bcU, 0xbde1bcaebddc7624U, 0x3bc3fbf1bd04e6a0U,
  0xbd04369dbdbc72ffU, 0x3d8867983d36f5bdU, 0x3d7691493dd62df7U, 0xbd524d2dbe0e39b3U,
  0xbdfe6adcbcf0a0d8U, 0xbd8f88393db58435U, 0xbd4a66b63d1c15c0U, 0xbd89cd103dc717beU,
  0x3cce58a63d02b9d9U, 0x3d58aee4bd5e9ebbU, 0x3c18b8993de00a3dU, 0xbddbcb853d6d7617U,
  0x3d4ed4b63db0f444U, 0x3d3fe87bbccf6a62U, 0x3dd3974fbd3e73d3U, 0xbdb86198bcaf6b5bU,
  0x3cd08da43d535f01U, 0xbbd55861baad838dU, 0xbd975e6a3d8ee09aU, 0xbd9c0d603d0f2596U,
  0xbc31fe353d93fb79U, 0xbc2a79173d22c266U, 0xbb856b0e3d3c1dc6U, 0x3d2d06323cc355e8U,
  0x3dd314f8bd30914aU, 0xbdbc95183da59e96U, 0xbcadb3f23c0a5dc6U, 0x3c46006a3cab2adfU,
  0x3d546973bc574651U, 0x3d8ba29dbd375472U, 0xbdb6dd073d298d90U, 0xbd70778cbb8726d0U,
  0x3d83f0993dd19fedU, 0x3d751a82bda87b98U, 0xbd4ba6c9bd8b080dU, 0x3d43ef4f3d854de1U,
  0xbdba5b37bb913970U, 0xbdb763d7bd1b07d7U, 0xbc787f803b94bf00U, 0xbd010c0fbd97dc51U,
  0xbcee98d13d761951U, 0x3d3ea72dbdda05e0U, 0x3aef9e153d43d29dU, 0x3b82ee9f3d5ebc50U,
  0xbe24e6c83c8304b0U, 0xbdcc0ec0bd6658d2U, 0x3c8eeedd39e50a48U, 0x3c6a0283bd0ff7c4U,
  0x3c6e8b7a3c9341c6U, 0xbdb154dbbdc4b863U, 0x3ccfefccbd874334U, 0x3cd08e273d8f07bdU,
  0xbdc24b7e3bcc9e8cU, 0xbc5e7d0c3c80c199U, 0x3d5eb3c33d340cfdU, 0x3d33e7833b602353U,
  0x3d0819223cea2995U, 0xbd090505bcb168a5U, 0xbdb0203d3d12941eU, 0xbc5009d53d9a5c8fU,
  0x3d0c0d50bd75cea1U, 0x3cca70febccfe52dU, 0xbd126f583c11a56cU, 0xbdc8b29c3ceea539U,
  0xbd52ebe63da61021U, 0x3dafe0f1bd3c4af6U, 0x3d26de703d2cb8e2U, 0xbced0f3c3de38d76U,
  0x3cf138a03d209791U, 0x3d879a9fbc8c4314U, 0x3d8774213c1cff52U, 0xbd1256b4bd76bf5bU,
  0x3d9493e2bd9dfb21U, 0xbd133ef8bbc4e853U, 0x3a80d6fa3ccff1b4U, 0xbddc06d53d3cc5a0U,
  0x3da6199d3d36af65U, 0xbcdb44073d84271fU, 0xbde0384abd0b6b41U, 0xbc572cfcbd7a68ccU,
  0x3cd88f87bdca6ca6U, 0x3d9900debb94b4b7U, 0xbda70d9dbd56109eU, 0x3d8f6656bd62400dU,
  0x3cdad02dbdbb3aa8U, 0xbcf213ca3dd4af7bU, 0xbd28b6353c2270c4U, 0xbd506e3a3c0de3c5U,
  0x3d1d7f103d3a975dU, 0x3cd6e28bbd84d729U, 0x3d8482543d3b1c20U, 0x3c6ef86b3d3c9910U,
  0xbdedd3293d928118U, 0x3da5173ebd881a40U, 0x3d263cf0bac10b11U, 0xbdb5612f3c43efe6U,
  0x3dc0aa823cdc9bceU, 0x3ded0a6bbd935dfdU, 0x3cd1d3243d03ab1aU, 0xbdabd76dbd8e9b98U,
  0xbd6ed5f63c9981f8U, 0xbd780ff93cebbd99U, 0x3c8105f83cc3bdeaU, 0xbdccfd903be14bd9U,
  0x3de9a7553c78360cU, 0x3d6da73ebd400e9aU, 0x3d0f7336bd546bb9U, 0x3c687ad5bd91e5bdU,
  0xbd26ce7a3cda01a2U, 0x3dbbfbe93cf86697U, 0x3d9b2986bda37926U, 0xbd7018dc3d673219U,
  0xbd832581bdcb88f6U, 0xbcffc5ff3d48cf10U, 0xbd33b449bdb5f26dU, 0x3d11cab4bd4be07bU,
  0x3c91fa633c35a908U, 0xbc2cd533bd4235b9U, 0x3c83d1d03d3e359cU, 0x3c68db92bd8b5ca8U,
  0x3d238c7dbdb9d37aU, 0xbdb45eacbdc6c0f1U, 0x3ccf8df9bc5243cbU, 0xbd5034a43d26e666U,
  0xbdc402d13d694bb0U, 0xbd93d0173dc4ce6bU, 0x3c2cb6a7bdb5688bU, 0xbce1bab63d4b755fU,
  0xbc8cf85dbd5e3661U, 0x3d0a193f3d3e2fe0U, 0xbcaf2ccabca2fe6cU, 0xbd8bc3f83ca377faU,
  0x3dd6d5aa3cbcb5f9U, 0x3cd94b8b3da0d40fU, 0x3d9f1c01be04deb1U, 0xbd1bbbd23cf8a458U,
  0x3ddf9408bce18ee3U, 0x3d11985d3d048aaeU, 0xbd0121923c59dd1bU, 0x3ca7d6ac3be48645U,
  0x3dd74cc4bc429395U, 0x3d6a7dc8bc199ce8U, 0xbd5240bb3d6a42d5U, 0xbd8e7e3fbd0f21b1U,
  0x3d926a29bd858949U, 0x3d13a89abd8dd085U, 0xbc0acba43bcb8910U, 0x3d5e269e3c8c69f4U,
  0x3d85c376bd8f9b96U, 0x3d1e6b01bcd5c3c4U, 0x3d96cea13d5f398eU, 0x3d512cd8bd4f2793U,
  0x3d812aaabdc1cfc1U, 0x3c1095d4bc85e3ccU, 0xbd5ba1dd3c09e353U, 0x3c02376e3d335a51U,
  0xbd85746cbddf0bd0U, 0xbdab633bbd22f161U, 0xbd34b39dbc2c0f9aU, 0x3c8c0767bd4e12c6U,
  0xbda9ac5a3d7b9732U, 0xbbe1d4f33d8f2bfeU, 0x3d5525b0bbe3aba6U, 0xbdcf31f2bc82cd3fU,
  0x3ca57505bdce04e6U, 0x3cdaff7abdb4bbdfU, 0x3d64c004bd7bb9d8U, 0x3ce5e3153c25d6eeU,
  0xbd5fba8e3d2198d3U, 0x3d2594213d5081c1U, 0x3ca53242bda537e5U, 0x3d4b4160bc6b532dU,
  0xbb8f14fabb821466U, 0xbd057b39bd09cf27U, 0x3d174bbebe1ae346U, 0xbc1d9b37ba0e4d80U,
  0x3d87434f3b6205b2U, 0x3cca7d6a3cce84a5U, 0x3c66f568bd6b27f3U, 0xbc9443ed3d508d8dU,
  0x3da9e3373d273b72U, 0x3d738e7f3c8cc048U, 0x3bb581503d68b5feU, 0xbd5aab3fbd741300U,
  0xbcbc1dc23d0a30fcU, 0x3d51d1f8bdbed733U, 0xbcf4b702bb75546bU, 0xbc1969cfbcb3be25U,
  0x3dd1d60c3d82d10bU, 0x3dbde6813cf2c98bU, 0xbc6410983db4decaU, 0x3dc61c6e3c1ecd1bU,
  0xbd82a9cf3cd167beU, 0xbdcb03d6bd65e956U, 0xbddf41e5bdd3e546U, 0x3d2846003c962bd2U,
  0xbd783ac0bda73c07U, 0xbda0e3a83c8eae5dU, 0xbd4e5d70bdda131eU, 0x3d2299e23d9d2a65U,
  0x3d8dd5993ccce56fU, 0x3d5c9ccabd9eda54U, 0x3d146ace3d554cf3U, 0xbdba0c9a3ce39208U,
  0xbda552593baed41cU, 0xbc636216bdaa7ad3U, 0x3d6cb58abb875d11U, 0x3d08c4023cfb0f26U,
  0xbd7048eebd0f89b7U, 0x3d56a54abdb58eb9U, 0x3cd0dc113ce12a00U, 0x3dacbf2d3b40a7d4U,
  0x3d4d8b43bc912175U, 0x3d848fdd3ca5ebf1U, 0x3d91f5cfbde5ebc6U, 0x3c9918893d4357e8U,
  0x3d90faaa3d7d2c3cU, 0x3d3d6aa23d3b92e2U, 0x3db776093d1bfbcbU, 0xbd358126bd485e6eU,
  0xbd413bdd3d3c9677U, 0xbd264c2b3d6ef46dU, 0xbc2d0708bd7790e0U, 0xbd25f93dbdbfd8ddU,
  0xbd24fd1f3d582c36U, 0x3c9f6e6dbc456aebU, 0xbd7344c0bdd12ae3U, 0x3bfeee193d879c91U,
  0xbd50d6acbd4cd823U, 0x3d59d6aabdafe200U, 0x3b7750643db678ffU, 0x3c71e82b3db67568U,
  0xbdcd3497bd6dc7f4U, 0xbd6093383c665ee3U, 0x3d1838febcd13d02U, 0xbb3dd3bcbdebf25dU,
  0xbdb1a318bde83222U, 0xbdd0adc3bb728c21U, 0xbe059dabbdd5565fU, 0x3d6e4f91bd014356U,
  0xbd80e8673ca7aee2U, 0xbbf9ac99bd9c61b3U, 0x3d8dd418bd57af9bU, 0xbd5fd9063d03a6f0U,
  0xbce5bd5d3dc331f3U, 0x3d3059adbda7120fU, 0xbde02c70bdc81669U, 0xbd84eaebbd0dafe3U,
  0x3dae6648bce5696cU, 0x3d50a6b3bd7fd135U, 0x3d4cab1fbd8faea5U, 0xbde33cd63df57d9eU,
  0xbd2391d4bd7023ffU, 0xbb9ad9283d293c05U, 0xbdaf0f14bd06be3aU, 0xbd31ae5dbc2cd40bU,
  0x3d107aef3d0c8087U, 0xbdb2eb39bd5aec3fU, 0x3d8d6c25bc80d0b3U, 0xbdd05a8abdc17afcU,
  0xbd77eae33d883230U, 0x3de393cabe0f5f63U, 0xbd66fb643d22c11eU, 0xbddb404ebd8b037cU,
  0x3dbefa303ddba9c3U, 0x3cf26348bd4ea4f0U, 0x3dac16833c9aedd6U, 0xbd41c1c1bc36ffedU,
  0x3d8a34493c91f22cU, 0x3d878478bcc7378cU, 0x3d606fd53d855dfeU, 0x3d923ebcbc49b3cbU,
  0xbdeed3dcbd239e59U, 0x3d52dab53c050e89U, 0xbdd655d53d5f5955U, 0xbceedc84bdca11abU,
  0x3d879c74bd896a93U, 0xbd2dfc943cbbb572U, 0x3d253e94bdb59787U, 0x3d40d1403cd65530U,
  0xbc913a853d56395cU, 0xbd9a42b7bca69495U, 0xbd85ae1cbc4c591cU, 0x3cb02a3f3d095fa8U,
  0xbd978d703d3848daU, 0x3c1b83bfbd8cf198U, 0xbcaa5d0d3c9c5b21U, 0x3bd318a9bda5fa58U,
  0xbd106408bad6a6a5U, 0xbd188e85bd96bb23U, 0x3da326343b717a3cU, 0xbbd036b43da3f349U,
  0xbc32c8493cf923ecU, 0x3d12a7a5bd9d877cU, 0xbd1f6a7dbdb5105cU, 0x3d6d68ffbda98e13U,
  0xbd36b6813dd3b9f0U, 0xbd8a0fc0bdb9a226U, 0xbd9bf0a53d915a99U, 0xbe0b011dbd7fcdadU,
  0x3da5cf0f3d30088fU, 0xbd565e63bce98918U, 0x3d4e825f3d30873dU, 0x3da263c23dd66c6aU,
  0x3d30d5ce3dc50723U, 0x3d46e163bda12792U, 0x3d9052163c5233dfU, 0xbd0804a63d2b9a2fU,
  0x3dcdc3a83c059073U, 0x3d4fa17b3af5bc95U, 0xbd22a169bcb6c413U, 0xbd0619f1bc903cc3U,
  0xbd8438a53c0deb29U, 0xbc8356a5bcdeb3ceU, 0x3d994da8bdca0fbfU, 0xbe126878bc9a36eaU,
  0xbc25a5acbdfa39f3U, 0xbd964ecb3dc82233U, 0x3bb46355bdd06cf1U, 0xbd3d3543be0610f7U,
  0x3d0bc6bc3b911f6eU, 0x3d972e463df0e5bcU, 0x3d943bf2bdf87ad3U, 0x3c22d4ca3d77ab12U,
  0xbe432d613e88d265U, 0x3e6b55fc3dcd450bU, 0x3d1ae23c3d332d1bU, 0xbcebee28bc5db5a2U,
  0xbe24a154bde3c75cU, 0x3db3963e3e0f347aU, 0x3ebc59183dceb8dfU, 0xbe1f0763be8d8cd6U,
  0x3f1e62c7bece358bU, 0x3db92c703d526efeU, 0x3e4246a03de57396U, 0x3ad857203d437582U,
  0x3c3569e5bcb3bd98U, 0x3e49b058beb462c6U, 0xbd73c1343d179a62U, 0x3d69fe233e955d2cU,
  0xbe9004dcbd2385c6U, 0xbe3ee9403cf4049aU, 0x3ea19eb8be5f60b4U, 0x3e147a863e66bf5eU,
  0x3e00fabdbdbe2386U, 0x3d7bea05be021ff0U, 0x3c858cc53cda2672U, 0xbdbddee9bd8fa828U,
  0xbdb4f977be51ae44U, 0xbd2a0e483dccf827U, 0x3e9669ae3e76a83fU, 0x3dae9a973cdb5bc4U,
  0xbbcf4529bb822759U, 0x3ccef8f0bdea5fb7U, 0xbd6c2500bd82ee0dU, 0x3c1117143d9b87a1U,
  0x3ddebd29bc5be398U, 0xbce7bd44bc809393U, 0xbd295860bde27ad9U, 0xbbd80700bcf0543aU,
  0x3da413b2ba39a59fU, 0xbde26951bdd26c71U, 0xbe86fb29bb862658U, 0xbd3b28473d86e2d6U,
  0xbe05cb443e72e39aU, 0x3e5f53c4bd9cf53bU, 0x3d93288e3d86eb7aU, 0x3d1290373d304443U,
  0xbe0ee0f3be568888U, 0xbd7ff3d83dce73e0U, 0x3cab94593d408fd6U, 0xbd0335bbbdd4d445U,
  0x3eb5e03fbe77b975U, 0xbe0d4c88bd7e5849U, 0x3dacb879bd9a60f0U, 0x3e1bd881be2bfbd4U,
  0xbd84056d3c6152b9U, 0x39e2a8d8bd94c1cfU, 0x3d768b89be0e768bU, 0xbce39b083e3f6757U,
  0xbdd9c4bbbb29d8b2U, 0xbe8beb873d065aa7U, 0x3e25f245be5abd50U, 0x3cc7b5c43d06d6e8U,
  0x3e21862d3d90649fU, 0xbda8146d3cef3f07U, 0x3e488377b9bd2e27U, 0xbd354cb43e54f3d9U,
  0xbe1ee239bc03e9aaU, 0x3c490d173d4740a0U, 0x3f0157583dd36078U, 0x3bbe4f2e3e35d609U,
  0xbc505b98bdd32da9U, 0x3db0e2d53d89591dU, 0xbd938385bc9a7639U, 0xbd1321ecbc23e117U,
  0xbd16d5923d9f57d7U, 0xbd045129bd06047dU, 0xbd24ce273e255ff6U, 0x3d1d2437be0d6da9U,
  0x3e0344553b897432U, 0x3cb3fc39bd2545a6U, 0xbd2a968e3d05d6a0U, 0xbdcf5dea3c98ae25U,
  0xbe4810113e3b07a6U, 0x3e1b75553d81e699U, 0x3d07b934bda9f7e7U, 0x3d7968883d8d4ba3U,
  0xbeb4feddbea580a8U, 0x3e4027ec3def969eU, 0x3ea551c7bceb3fc6U, 0xbdbf4fabbeaeacc0U,
  0x3e878caebda89cc0U, 0xbc752ad53dc7e709U, 0x3e55be203e17fb78U, 0x3d58331a3e65e27dU,
  0xbca6c089bdc08308U, 0x3e633c8dbe93b00eU, 0x3cf99720bd57c81cU, 0xbddb07063d8fbd45U,
  0xbe31be553e2ec848U, 0xbe2003da3e315103U, 0x3e004a9cbed42dd1U, 0x3ccdd6d8bda47ae3U,
  0x3e2ab574bd3da825U, 0xbd098e9ebdac1346U, 0x3d877e583e9c6b43U, 0xbdbd1ee4be00bd83U,
  0xbe8ac9aebed2537dU, 0xbdc435f73bc6ef10U, 0x3e29185b3e1b8968U, 0x3e148e7abe00f335U,
  0xbde00726bdd98fb7U, 0x3e10fdcabe1064ecU, 0x3d38d7a8bd2d8589U, 0xbcbe97c3bda355e2U,
  0x3d123e85be01dd31U, 0x3cedcde13e752428U, 0xbd1f7eb8bc948abeU, 0x3da8f71abd8544b1U,
  0xbd97d4bf3dd53471U, 0x3acb40b9be0e5600U, 0x3ba735ff3d74f805U, 0xbddde85c3d2ffefaU,
  0xbe8b669f3e697460U, 0x3e9a5a393d9f6deaU, 0x3d1e8ebd3d7e1de3U, 0x3d4064e63e0830e9U,
  0xbe06abedbe15a714U, 0x3c5878ecbdf5315bU, 0x3daca0f93e5495aeU, 0xbe3c82b1be0ebc6aU,
  0x3eb67b8ebddbe495U, 0xbe89089e3cab97d1U, 0x3de05b6abcc502ceU, 0x3d9ac9d2bd4bc11aU,
  0xbd5e526abe49122fU, 0x3d4021043c83c755U, 0x3ce9bb13be381879U, 0x3dc24d963d9575a2U,
  0xbe5747913e6c7e01U, 0xbe077d2dbe38beb4U, 0x3e471704bed268cbU, 0xbe75f2ccbcc2b3f9U,
  0x3e9a5099be31fe24U, 0xbb8a7c383d2424f7U, 0x3dd9c576be8a075fU, 0xbd8f3906bcfcbb2aU,
  0xbe2cabdcbe79823dU, 0xbd6a83bebdc9a9c8U, 0xbc6e2f603b558d37U, 0xbd4837b7be802074U,
  0xbd916e97bd69ac14U, 0x3e2f27f0bd92483aU, 0x3df609b4bd996563U, 0xbd74aac03c157714U,
  0x3dc3ba303df019cbU, 0x3ce3ebb03dac23c1U, 0x3c996ae73d04daa5U, 0x3d0bce7ebc5e29d6U,
  0x3d7e882a3df68156U, 0x3dc81408be50316cU, 0xbddcdf063b2a3764U, 0x3cc7501dbdd68720U,
  0xbec7fd8e3e63a6e2U, 0x3d6313de3e286774U, 0xbd527dfb3c0648e5U, 0xbe121216bd297915U,
  0xbea43790bea97006U, 0x3e13b3cbbe252c98U, 0x3d7d352e3d3c018cU, 0xbe1d8be1bea12cdfU,
  0x3db4421abd992cbbU, 0xbe32f8babcfbd95eU, 0x3d9e6fc0bd9b6567U, 0xbd8e0fa3bdc26bedU,
  0xbe23b356bd645548U, 0xbdf68622be14f805U, 0xbe73d03fbdb0d30fU, 0x3bd04ad13d8f5431U,
  0xbe5fec5b3db7099eU, 0xbe239782bd8e1798U, 0x3e3a5147be8999f7U, 0xbd9b9312be67f542U,
  0xbd756b24bdbf8943U, 0x3c9484a1bd80ba16U, 0x3e2d5fa6beb34fafU, 0xbdb31a02bd9311a4U,
  0xbe4165d1bde165afU, 0xbc978c97bdbb7d67U, 0x3dd580cf3e599837U, 0x3be73ff0bc079f6eU,
  0xbc01f620bd6face0U, 0x3e5bf7c8bd63cc3dU, 0x3dd61b68bd8cc55cU, 0xbd817b3a3d9eeed1U,
  0xbd9498eabc8b61c0U, 0x3c3907b03d83dac1U, 0x3bec82053e12b3ccU, 0xbd475cb6bdfa4d25U,
  0x3d364f76bd7f9007U, 0xbd41a33cbe42dd12U, 0xbd3f23cb3de3242cU, 0x3d9dfe97bdcc236aU,
  0xbe5eb8e13e3ecda6U, 0x3e1f6e4b3d9bf797U, 0x3d1a015f3dc3b368U, 0x3dcb6befbca42276U,
  0xbed401f8bec90c6bU, 0x3dc174b6be833f4eU, 0x3c52d3933d614f7aU, 0xbdab63e0be93b38bU,
  0x3db61dadbdd830c2U, 0xbb8150a2bceaa980U, 0x3d18dacc3d7bc2a9U, 0xbc39967e3c3f1827U,
  0xbdc1e378bc79fc3dU, 0x3e25cc48be2d50b3U, 0x3d59937fbe795cfbU, 0xbc5e240bbe13f4a5U,
  0xbe15cdd43eb573afU, 0xbe712f6d3e4ed6e4U, 0x3e1d609bbeb87248U, 0xbd1743353db1b2ecU,
  0x3dbdb903be9adad6U, 0x3e63c0f8be421e39U, 0x3caacb753d38c71bU, 0x3d24f8a9be00a47fU,
  0xbe37bae0be17a8f1U, 0xbb97e1093e3a7d95U, 0x3e64c7d63d6fa7d8U, 0x3e29f3f13e331aa7U,
  0xbc75c628bd18f991U, 0x3d9ca73e3ce947c1U, 0x3d431aaa3db92318U, 0xbcb46f543ac27a9cU,
  0xbd2eb28ebdabb5a9U, 0x3cd6865fbca91beaU, 0x3c49eb713d552654U, 0xbd0d1fd8be0d1dd2U,
  0x3c11f9223e01d690U, 0x3d5e231abe63142fU, 0xbd88cd49bda06ee6U, 0xbd83b26a3c7d64a0U,
  0xbe5f2e1c3e869b3bU, 0x3e352bdf3c96becaU, 0x3de83cff3d8be43dU, 0x3d140e093c5a2ca9U,
  0xbe80aca6be9ee3b9U, 0x3e077b13be0f8b8bU, 0x3d18a20d3dcd9854U, 0xbca9496fbd862e07U,
  0x3f07ff533e83b327U, 0x3dbdd1afbde79d04U, 0x3d6f8e393e99e8b7U, 0x3d25c779bda2af71U,
  0xbdd29145be8fab46U, 0x3e171378be95b78fU, 0x3e491292be24dccfU, 0x3dcea51cbdfb1b67U,
  0xbda9df1f3e094139U, 0x3d8740de3daf9d11U, 0x3ed884c4be62d948U, 0x3e2123833d93bf5aU,
  0x3e06e64ebeb6af5aU, 0x3e992b10beb0b03fU, 0x3e74da0ebdf964fbU, 0xbd3d522dbd9fc188U,
  0xbe16864abd906d06U, 0x3c260af13eaef264U, 0x3eaaf63a3e80debcU, 0xbd7d0e273dd08612U,
  0xbb911626bc228a14U, 0xbd75ba2b3d0fa55cU, 0x3e2533edbdbe4e92U, 0xbe3215ba3adb5054U,
  0xbd08107f3ce3dc29U, 0xbacd8d98bd13f3b7U, 0xbd7ed2c3bd460701U, 0xbb9333d1bd488898U,
  0x3d735ce33e2c226dU, 0x3d3bedf2be038630U, 0x3d83684c3e3e311fU, 0xbcfee99b3d60f706U,
  0xbca2fb043e4089a7U, 0x3e918ddc3d9555dfU, 0xbda75ae53bbfa2fbU, 0x3c81a5a43cf42c6bU,
  0xbe90f128bea50051U, 0x3d5b0fe7bd0a8452U, 0x3d906a5c3daa7c2fU, 0xbe21028ebe6c538dU,
  0x3eb06ec9bdf33180U, 0x3e2ba783be678733U, 0x3dc10fca3e42c662U, 0xbdbd9ae2bb03caaaU,
  0xbe0fa092bec7d95cU, 0x3e2da5aabecf94e1U, 0x3e3ef9293d6b0fcdU, 0x3cf8930e3dccb20aU,
  0xbedeb06cbd1310f2U, 0xbe89b2ab3c24d924U, 0x3ead3591bebf7f60U, 0x3dde27943d0e5d5dU,
  0x3df046abbedef805U, 0x3e502ee9be96a590U, 0x3e600642be54fb97U, 0xbc40c1f8be850cb7U,
  0xbeb4eb6e3d75a5c0U, 0xbdf1b6fa3e37c27aU, 0x3f07ec073e80fadeU, 0x3d1960323e9cae14U,
  0x3dbebe743d428771U, 0xbdada329bd26fd0fU, 0xbc6443bcbd85dcd3U, 0xbdce18323c05e91dU,
  0xbc1a21e8bd4fd66eU, 0xbe27a1903d828dd5U, 0xbe6ec1e4bcf43acfU, 0xbe012f8abc97a756U,
  0xbda9451cbd2a43beU, 0xbd9b4a48bcaa4507U, 0xbdf3450f3d154adcU, 0x3df02a7ebe006eceU,
  0x3dbcfd16bc85f667U, 0xbdc4d7413cb25cf7U, 0xbe37b6e6be5b8bc3U, 0xbd17efa3bce3f3a4U,
  0xbd61dce23e2ef02cU, 0xbe20fc553e1554d8U, 0x3a7c2c183cb2192fU, 0x3dd392203d93f07fU,
  0xbdd91c75be1b8fe7U, 0x3de4d928bdc3df6aU, 0xbbb58705bd93ce0bU, 0xbd48dd3dbd8d1db9U,
  0xbd930dd5bc637993U, 0x3d88905b3d92af6bU, 0xbced09673d92e8ecU, 0x3d8189eabe2ef061U,
  0xbe56f8b0bc623700U, 0xbc801c653cf04e41U, 0x3e064640bd0dd9b6U, 0x3df059c5bbc0f00bU,
  0xbda1999ebdfe841bU, 0xbdbf88d73d176d0eU, 0xbdb8454e3d95c428U, 0x3d5399e9ba043946U,
  0x3c64f194bcfe731bU, 0xbe1a0429bdcbe2a2U, 0xbce92a533d4717a3U, 0x3d89d6223c9866b4U,
  0x3d5c79e3bc197faeU, 0xbdc3dc74bc35ac2eU, 0x3bd762b43ccb4ae7U, 0xbdbb10023dbd48a1U,
  0x3b5168fabda62374U, 0xbd3417dfbdc896d4U, 0xbe624b73bc012b91U, 0xbddf9fe63c62d180U,
  0xbca71fa63dcf77c9U, 0xbd18d8abbd283879U, 0x3c7fef663ddeb846U, 0x3d690ba9bd5fe0b5U,
  0x3da602b1bd6f6aa7U, 0x3d6ea78ebd54190aU, 0x3af379b4bdb8a42dU, 0x3d1ff20abdac33d4U,
  0x3e516f843ea73c04U, 0xbd0258d43dff69bbU, 0x3dbd22153b8647a6U, 0x3d8d0f303d564db5U,
  0x3d129bd1bd877464U, 0xbcac1832be2b8546U, 0xbc807d0ebe172928U, 0x3df035a4bdcc325aU,
  0xbc87c2dc3dbe76bfU, 0x3e5e1acc3e177871U, 0x3d4f780c3df01558U, 0x3e1ecd04bc91be18U,
  0xbdca79613d3dd2f9U, 0x3e03c8513cbaceeeU, 0x3ddef0303e141965U, 0xbd0b88cb3d5134c8U,
  0x3c513640bdbc391eU, 0x3c9411dc3da9414dU, 0x3cbe39403df4b861U, 0x3e582a08bdd2f2a3U,
  0x3d14efd9bdad3fd5U, 0x3cb592cdbd810211U, 0xbd1ca343bd017eefU, 0xbc5c84adbcc0291cU,
  0x3d7b3072bc7a84ebU, 0xbe42b1e3bd28ec7bU, 0xbc1757efbcaab58bU, 0xbafa65923c0bf651U,
  0xbbcc39dcbd9a5f82U, 0xbda20988be48fdd6U, 0xbe130f6abd97cc24U, 0xbe4959f63d9f7f14U,
  0xbda9167c3dc0ccadU, 0x3e13ce4fbc246ca7U, 0x3c3ad1cd3d9f02adU, 0x3da0d693be015716U,
  0x3e75912b3cad973fU, 0xbdc5521f3d796c13U, 0x3dfec04fbdd09e9dU, 0x3d374d2d3c42a9d5U,
  0x3e36e3fa3e611a33U, 0xbd1066ef3d7f9b38U, 0x3d875b083e05bcbeU, 0x3d9b2c3bbce76d8bU,
  0x3dd16d5e3c15e2f7U, 0x3d3a9fb93d9eb9d0U, 0x3e0649a53ca39ddbU, 0x3db11f7a3d2387a5U,
  0xbc38d3f9bd8430fcU, 0x3df38303bd8ad75eU, 0x3dcffe653d2f8ab6U, 0x3e0a9a8bbdbdcee7U,
  0xbe02aaa9bc117d03U, 0x3dcf88823cdf65caU, 0x3d4781543d2fabc6U, 0x3df305763e01a334U,
  0xbd06c220bbf2c18eU, 0x3d4c8513bdb74e1cU, 0x3c97cf1c3ddfd857U, 0x3d58cadd3d43201fU,
  0x3e01152f3c93bab0U, 0xbc926f2dbd25a6d1U, 0x3dd9462d3d28af6eU, 0x3cbf35393c666b6cU,
  0xbd76a785be04d469U, 0xbd4eb9f53931d387U, 0xbccb7eb0bdb726f7U, 0xbe00a19abd510e6bU,
  0xbd4a0e72be0677aaU, 0xbdba8253bdc55a9cU, 0xbe2d6101bc8c21f9U, 0xbda43bf2bdb8deecU,
  0xbdb0a901bcddbd24U, 0x3d74c0c2bcf66e4dU, 0xba58d124bc0eee04U, 0x3e335929bd303537U,
  0x3e1358033d67cae4U, 0xbcadb9c53dd2c0f7U, 0x3c0de6efbd6802b7U, 0x3de9a1fb3b7e3e03U,
  0xbe0ebc9a3a2b7ed6U, 0x3d0529edbda4aac6U, 0x3dfc27b2bd8ae1b0U, 0xbc518a46bd96a754U,
  0xbdd4005d3d0ae3dbU, 0x3dab7337bda389e5U, 0x3e3ff5e9bdf9db51U, 0x3d1f9e283e15d339U,
  0xbd8319ffbd5d4f7aU, 0x3e069562bdeb2d7dU, 0x3df682a9bca38ec5U, 0x3e5f6a88be4e844eU,
  0xbdc52401bd16c590U, 0xbd81aca13e3f1b0cU, 0x3d563203bcf90ea4U, 0x3dc3d6e03e92d4d3U,
  0xbcde57a4bd8e1ab9U, 0xbd291c3e3d732885U, 0x3e03fee33df0c339U, 0x3c66b21e3e1dc281U,
  0x3da5c9e43db92a43U, 0xbe11c05f3c59b440U, 0x3c2731d23dc02dabU, 0x3ddc658fbcef4186U,
  0x3d640bd8bd9466a3U, 0xbdd975cfbcfc6d2eU, 0xbb718342bdd0343aU, 0xbe39ac67bd2da3f4U,
  0xbda2cbfabdc5c8e1U, 0xbe47aebcbcf35293U, 0xbe7bb56e3ce8317eU, 0x3d1688b63c8388adU,
  0xbdfa287abdd011f5U, 0x3d0d5abf3d8ee5abU, 0xbdb868b03de88bd7U, 0x3dbec38bbdcdece8U,
  0x3e17fab53d14748fU, 0xbdf649333caaa9fcU, 0xbd429c18bda14d69U, 0xbd2812d2bd5e8acfU,
  0x3d6c61623e49644aU, 0xbd8eba42be13fec2U, 0xbcb0229e3c8a4481U, 0xbc83bc22be2c40d8U,
  0xbd7d109fbd9e8e0bU, 0xbd9c78f3bc988058U, 0x3cb7b90dbe18a851U, 0xbcb374eb3d474823U,
  0xbdf0535fbde2c1f1U, 0x3c7dbcc6bc777af1U, 0x3d7f7b373d9a8b6eU, 0xbb488b41be2d2790U,
  0xbb0e5b673b1c5ffeU, 0xbc6dd2f93e1d08c0U, 0x3c7ed934bd60ccc3U, 0x3db7abe03df986b9U,
  0x3d173774bb7cdb63U, 0x3d6b0756bcff7a4dU, 0xbbdac7b03e529f3dU, 0x3d9118c73e219d8fU,
  0xbd8247fb3ca84498U, 0xbda123643d10f278U, 0xbd7f2285bd6f3434U, 0x3dd52fe8bdacb694U,
  0xbd6afa53bdded448U, 0xbd1ded62b7807f15U, 0xbd8bfff9bc70f945U, 0xbd07c23d3d532ee1U,
  0xbd9ae3853d0eb693U, 0xbd7760c9bce862f2U, 0xbe43375a3d4fd577U, 0xbd5488233d30e858U,
  0xbd7c99453da25e1cU, 0xbd535da83e1809e7U, 0xbdc6a74e3e06811bU, 0x3cba36883ba8a91bU,
  0x3e6f36b4bda28b51U, 0xbd146b0c3d925285U, 0xbdddd1833b815f16U, 0x3ceb8ea5bdeaafc5U,
  0x3d2515553dc8bf73U, 0x3d3bb631bd9d27c1U, 0x3e2388023e1b5459U, 0x3ce54448bddf11dbU,
  0xbc36246abe4496aaU, 0x3c8ba0df3e095660U, 0x3c04c7c23bb8833cU, 0x3d37f6213bae7b4bU,
  0xbe78dd51be08ff89U, 0x3c720b693b011bd8U, 0x3db8ce7c3db0e10eU, 0x3dcae449be9d440cU,
  0xbe4f6ff33d502383U, 0x3e15ad323dd6e49aU, 0xbcf8b9a63d6626c3U, 0xbc1662633e1bf7b1U,
  0xbc1b8d553c529f1eU, 0x3d6055f23dabb682U, 0x3d25aa053dc25d72U, 0x3cfb42da3e227b1dU,
  0xbd9d57503e6353e9U, 0xbde937e93d30eeb2U, 0xbcb759e03d8ef740U, 0x3d3ab3403d99ba81U,
  0x3dd89a68bdb7fd04U, 0xbdd662fbbc9f9aeaU, 0xbaeffcfabd4d8cf6U, 0x3c3494743c34487bU,
  0x3d227c94bdb70a9bU, 0xbe41a93ebd697281U, 0xbe77b06b3ce587feU, 0xbe323081bcbbfaa7U,
  0xbd85dc753e6eb67aU, 0x3cd1f24a3cecd4c6U, 0x3d2adafd3de97000U, 0xbd393ba13d0d0e02U,
  0x3ea0bb06bc93f305U, 0x3bc5a9b23c08a8bdU, 0x3d2ab0693cf1fdc6U, 0x3dbb23373c7000efU,
  0xbd8ae7dc3e2ebf46U, 0xbdf26baebd060ed2U, 0xbcc759c7bd3c5f6eU, 0xbdb0d5573deeb43eU,
  0x3ba0651cbddeab4eU, 0x3d9094f7be0807d6U, 0xbcad43db3ca3c4faU, 0xbdb7f70dbe21e0b6U,
  0xbe133d253d44049dU, 0x3d806610bcdcf21bU, 0x3d4356d7bd95c32dU, 0x3e24e53bbd560727U,
  0xbe1f1e43babe7c84U, 0x3d09b50fbd8427afU, 0x3c3d1ecc3e117c15U, 0x3e2dc70b3e2ce0c4U,
  0x3d1b16513d796c2cU, 0x3d65741c3dc2429eU, 0xbdab52703e1c8ad2U, 0xbcdf7c38bd6124f0U,
  0x3cb07f44be007d8fU, 0xbe5997813dd33233U, 0xbe1d5e52bc79434bU, 0x3da232fbbd15c6b2U,
  0xbd9de1753d01c94cU, 0xbd5b93f03d982ed4U, 0x3e050e4a3d0875b6U, 0xbd135575bc85838fU,
  0xbda5934dbd960930U, 0xbdf3ff793be053e5U, 0xbe2c96643def9d9aU, 0xbd80edd53c7cd986U,
  0xbd289faa3dcea912U, 0x3d62f531bba81736U, 0x3d63258c3d0b17efU, 0xbc21da21be144702U,
  0x3e4d9831bdeb252fU, 0x3df5e1573d8592deU, 0x3d4fb1ffbe3d97f8U, 0xbd5bf8153cf09e80U,
  0xbdda04f23db962c4U, 0xbd15cb54bdc4fc06U, 0xbdff7eda3d3f1e55U, 0xbd7736f9bd6164c1U,
  0xbe02c51fbd14f453U, 0x3df0c023be26d15fU, 0xbd9da2e1bd771218U, 0xbc9aa0e3bc346cd7U,
  0xbe68af3dbc361c10U, 0x3c0223a9bddb840dU, 0x3d74ad993dbf2ffaU, 0x3e099bb8be629965U,
  0xbe3e24373bc850fbU, 0xbe338eb63de1d2deU, 0x3d55a4703ccb0690U, 0x3dac11673e5ed172U,
  0xbd26d1dbbc7f6353U, 0x3dc75af93d96c08dU, 0xbce38b2c3da41590U, 0x3dd882173db7bc10U,
  0x3d82bca6bc0b9306U, 0xbdf4bc38bc461551U, 0xbbd3f14cbdde0f86U, 0xbd22c0973b866864U,
  0xbd8909d43c8b8894U, 0xbcab3b55bc9795d4U, 0xbdaff83ebe292f73U, 0xbc9789953d398432U,
  0xbd521042be589921U, 0x3cc610f0bda0cd3aU, 0xbd705536bdb7279aU, 0xbdc94bda3c43fc17U,
  0xbd13df91bddffdd5U, 0x3db620b4bc7fb3c2U, 0xbd4d4950bc9f4d8cU, 0x3ca6e20bbd542273U,
  0x3d7455b9be39ee91U, 0xbcbde3213e0e5c1fU, 0x3cea7667be468707U, 0x3d75a43f3da66c41U,
  0xbdb119643e1ec5f6U, 0x3bcdf00cbe232c9eU, 0x3d4ff8a2be363278U, 0xbe2043003e0edaf4U,
  0xbe09d2cc3e607b39U, 0xbde7310bbd814164U, 0x3d5a1edebe178087U, 0x3d007b453e1aa63bU,
  0x3e30a8383cc04ee8U, 0x3b7fe983bd2f2cf1U, 0x3c210068bdad8462U, 0x3b23d42bbc688f0bU,
  0xbdc1ec963e0d6a2dU, 0x3d0c2b0c3e0a928dU, 0x3e0d3c743d720365U, 0xbd3fc5383da61576U,
  0xbe8119e03db2f756U, 0xbe0f516e3dd1f76dU, 0xbd8719c8be3eccb2U, 0xbe13c81ebde3acd7U,
  0x3dfd51013db38373U, 0xbd8d4537be540447U, 0xbdf1ff1dbdd372f8U, 0xbe0ed9c1bdbba152U,
  0x3d0aa7b13cc41c1cU, 0xbe4896ad3b3ffa73U, 0xbe3213b2bdbb36aaU, 0xbd61047bbd8bf97eU,
  0xbdf952a6be881d3eU, 0x3c024507be443b73U, 0xbde148d2bd0e44b8U, 0xbe4f54e8be339026U,
  0xbe0f3233be842be9U, 0x3e2dc50cbe34b9b5U, 0x3e044605bdc13be4U, 0xbbe5cb72bc9a889dU,
  0xbddef83cbe231a3dU, 0xbe538aab3d05fa78U, 0x3c849c2d3b95383dU, 0x3db1c5393d82ae41U,
  0xbbc58186bd9c0af9U, 0x3ddd8cda3df33268U, 0x3d34ccdebda33baaU, 0x3c92d07dbd8c0311U,
  0x3ccbc6d13dae2321U, 0xbd60654a3cdb6e88U, 0x3c4d973dbe485fd2U, 0x3e0269483df2ad70U,
  0x3d66ed9cbd2f1da4U, 0x3e1f900c3e007b7aU, 0x3d72d9ce3cda8c83U, 0xbd830f7a3d80e1d8U,
  0xbcb954863d40065cU, 0x3d1dd56d3ca4bd86U, 0x3ddb8bfc3e26ff15U, 0xbcee2b33bc7464e8U,
  0xbcec40563b03c225U, 0x3c55d2f9bd279a19U, 0xbdb5a7cb3e15d519U, 0xbe77f1333ce3b668U,
  0xbc4aaa5bba9f77aaU, 0x3d5e0fb3be2e270fU, 0xbe0a7d21bdc63d37U, 0xbe2bd584be212a47U,
  0xbc5eb16cbccd6000U, 0xbd76507abdbfe239U, 0xbdf5487ebe2e1b2dU, 0x3df011f73da233a4U,
  0x3cee0ecabe0c2ac1U, 0xbdaddf9abdaf66d0U, 0xbdfe322abd9b17eeU, 0x3c1ce3fcbc4f21a0U,
  0xbe8712fdbe8c18d5U, 0x3d2b9f83be034836U, 0xbdb21549bcdf1e3dU, 0x3e087a51bea8a906U,
  0xbe0a12d5bd59f297U, 0xbda4dfce3e223880U, 0xbd24f108bd4d0823U, 0x3d687ee03df6d07dU,
  0x3e03aa0d3eb279aaU, 0x3d31816b3e0bd848U, 0x3d0d2b1f3e23ad72U, 0x3d09232d3e72f37bU,
  0x3e0db1ee3db9d0a1U, 0xbe307dd73d9eb268U, 0x3c2e754abe4dec79U, 0xbd0114dd3dc26051U,
  0x3e616acb3e8519c8U, 0xbd875d243e78ef2eU, 0x3d97d3e03e0cbcafU, 0x3c99a4e73d709d66U,
  0x3dfdb5b4bd9ec386U, 0x3db2a57ebd40000cU, 0xbd8a90db3eadaabaU, 0xbd141e63bd5fd57dU,
  0xbcd2967ebbbda2beU, 0xbd5501473c7a4739U, 0x3d177fe0be3ccac9U, 0xbe9922b13dc29922U,
  0x3e3f6b103da1b808U, 0x3dc9e50cbd872c1aU, 0xbe00b2213cca71ffU, 0xbe61a4a7bcafd643U,
  0x3d82e3a83d841bb8U, 0xbda743b13c5acf4fU, 0xbe516023be16fd87U, 0x3b23012f3d307df9U,
  0xbd923027be37c33eU, 0xbca56e23be22970cU, 0xbd174bddbd63c055U, 0xbe64b58dbe0a25d9U,
  0xbddf85d4be3c6490U, 0x3ddeb172bdf97a7aU, 0x3c5ad36abd9027aaU, 0x3dae0973bd932c80U,
  0xbded957c3c5f0bf5U, 0xbd6c3e833e0453c6U, 0x3da6491ebd2cc55bU, 0x3d6d3a283e058bbaU,
  0x3ce70590bdbc28deU, 0x3dc127ebbdc84a22U, 0x3e26efdbbdad337cU, 0x3cf7729d3dc410f2U,
  0xbb3c68293c695dabU, 0xbe19dd5a3e1ec1a0U, 0x3e3cc827bdbd2f39U, 0x3db998863e6417f0U,
  0xbc76556a3cae561aU, 0xbc4b9ef93dad5a15U, 0xbcb046033d3246d7U, 0x3cb4a7553dfc6588U,
  0x3e132e023c85b443U, 0x3dc682d03bde4f24U, 0xbd6c76e13e763c98U, 0xbdc659473de8d3c6U,
  0x3e15cc523e23b1e9U, 0xbdcf5fa43bf72effU, 0xbdbd08e83e13704eU, 0x3c882cf2bcc365a1U,
  0x3e7ceacf3d956a85U, 0x3db8bb44bc95179dU, 0xbe36d747bd7ec1cdU, 0x3d88ea843b9057f3U,
  0x3d74c8bd3d0a03c0U, 0xbde1c8bfbc8c27ccU, 0x3c19d673be4d328dU, 0x3d52503f3ddacf1aU,
  0xbe1bc4cbbe291fd6U, 0xbbc259243d1c622fU, 0xbd04d3293d3447beU, 0xbc886d933dc33383U,
  0xbe31893dbe14ee0aU, 0x3dc9dfc5bdd398f6U, 0x3cf7280e3d7cdf49U, 0x3dee5bb03d164e97U,
  0x39e0169c3ccc6026U, 0x3c4c3f693d1aa558U, 0x3e48d512bd525fabU, 0x3c67f4b63e054805U,
  0xbe3344b03d452d37U, 0x3d80096cbd23d44cU, 0x3e301ef8bd88daf6U, 0x3cae51543e04db24U,
  0xbd1eac273df6f34fU, 0xbd9b61fe3d5f2fb4U, 0x3d7ad998bd70f89aU, 0x3dbdb11e3da502efU,
  0xbce319ab3d863423U, 0x3e1bc57d3df99be6U, 0x3db5c5ba3d4c2c75U, 0x3c84727b3deac6f4U,
  0x3cbf6adf3d095907U, 0x3df7eceb3e3fd805U, 0xbce285ee3d0311dbU, 0xbc8c5fcc3e964d39U,
  0x3da2e38c3e8b77feU, 0xbddc2aa13cae5da8U, 0xbd8a3d023e452738U, 0xbe8ccb153d8b5876U,
  0x3e41ce173d71df4dU, 0x3c5992443e0db461U, 0xbdef45c23cde346bU, 0x3de8fbdf3e218af3U,
  0x3ce56b053ca63bd9U, 0x3dafd6773d3a8a61U, 0xbd9419e93cc3e691U, 0xbb687399bcef52c3U,
  0xbe43537fbe2917daU, 0x3d37c7583c817467U, 0xbd098e5ebd31dcfcU, 0xbd5ba6223c7a811fU,
  0xbdd1babfbdedf898U, 0xbc496517bc2d430aU, 0x3d4948aabd33e6cfU, 0x3da60debbdf4aad7U,
  0xbe01bc93bd6f5145U, 0xbdaf4c793e3cd9fcU, 0x3e5ccdc33d3bb272U, 0x3d565e76bd77a4ecU,
  0x3e1e9bd63e3193eaU, 0x3cd581d9bdcc3459U, 0x3d9679bf3d09c996U, 0x3d4226163d5ac082U,
  0x3d3cf119bd401686U, 0xbd3035863d8d741bU, 0x3d01300abe92059fU, 0xbcdb608a3df8c1b0U,
  0x3e41030b3dd3685eU, 0x3b9292a43e01300fU, 0x3d08d1993db87182U, 0x3b91c28e3e17bb98U,
  0x3d39384dbd3445c6U, 0x3e811c41bd634f3eU, 0x3e32d7d73dda5cfaU, 0x3ddf19a93d705e89U,
  0xbc3cb6e53c57e12fU, 0xbe3ed84cbb230b8bU, 0xbcc92e89bc955929U, 0xbdf9ad3f3daa3f84U,
  0x3d8dc3033deebc34U, 0x3cdbc9f03d88cbc8U, 0x3d4e008bbdf674cbU, 0xbe05b4293cd5f8adU,
  0xbe0f6a133d7e91dcU, 0xbd57dc41bd789b6bU, 0xbdb81813bde7ed6aU, 0xbd8d44db3d0de246U,
  0xbd3a4932bdebfff6U, 0x3b277aa53d430608U, 0xbe3be9353cc9593eU, 0xbbd2697dbdcd1df6U,
  0x3cf03100be0ce789U, 0x3c7a65c93d43675bU, 0x3db5ceb1bc374fedU, 0x3bc429173d8853cdU,
  0x3c993a6b3ba4e212U, 0x3a025c6c3e17659cU, 0x3d7f4ec5bd180185U, 0xbb2880ce3e6fe3e5U,
  0x3c5fe5723e91e3b0U, 0xbd931047bbc8e691U, 0xbd748865bdd69c48U, 0x3bd740753e3f2acaU,
  0x3d7b4f2e3d98620cU, 0x3ded77b6bd3c23eeU, 0x3cc6f350bd8167d8U, 0xbcdfc45e3d1b6d88U,
  0x3b440c563d7f07edU, 0x3d9faf77bb33b3b2U, 0xbbe3cda93c3bb1afU, 0x3e1115883e1a5edbU,
  0xbd05bb55bd33253dU, 0x3e91c33f3c8bf80cU, 0x3e49a8f23e7167c8U, 0xbbf938953d61dd7aU,
  0xbb3c48183d68562bU, 0xbe1b181dbd5c0526U, 0xbdf28b4fbdb32ec0U, 0x3e09e4433dc6a851U,
  0x3e0deae43d21d602U, 0xbdd66ef1bdef39e1U, 0xbdc9b285be8a8816U, 0xbd8f8614bdfefd1bU,
  0x3de146313d19ffb0U, 0x3d58f1b9bd657390U, 0x3cd5f356bd313a83U, 0xbd3d507ebcc39bb5U,
  0x3b70b098be0421aeU, 0x3becf95dbe0eedffU, 0xbbd73f8d3df9ac3bU, 0xbdbbc2fbbd7e2e34U,
  0xbcc01a753d08879eU, 0x3d39068b3dcbf636U, 0xbb0d7d8dbe04dad3U, 0xbc0edaa23c8cae76U,
  0x3d5a172ebc98fcd4U, 0xbe2709153dbea7bcU, 0x3e246e303d7801a5U, 0x3d7ba5653dd87baaU,
  0xbe01f5013b4ff87bU, 0x3db6bdafbd75a073U, 0xbcec3ab93c41fc42U, 0x3d78b4643d6d0456U,
  0xbdd7e110bc907cb6U, 0xbd5828d83dcd245eU, 0x3d2d41ccbea54667U, 0x3c2f7d363dd706c4U,
  0xbc81e14f3e08ae80U, 0x3bdbef423d071ba7U, 0x3db3f26fbcd74916U, 0x3d85999ebc2fe0dbU,
  0xbd62a4543d714f95U, 0x3dfcbc5cbd932732U, 0x3dd2269c3e9fe2ffU, 0xbe4471993dba2ea7U,
  0x3d16fcfa3e0618dcU, 0xbe8050d73db04953U, 0xbe3451963d40488eU, 0xbdc277573e0e7383U,
  0x3e7b8c62bcec012dU, 0x3d22261bbe0012f2U, 0xbe895155bdaae32bU, 0x3da7e3cdbe74983eU,
  0xbc12a7193cebfa02U, 0x3e2aa2a73cefc401U, 0x3e463ff43d5fa093U, 0xbdb79df93c86a6d3U,
  0xbd7a345f3dc6846fU, 0xbe3623163e2a6bbeU, 0xbe0a4a373c905a02U, 0x3c9aeda43e1b68b9U,
  0xbe7d3116bd66dbffU, 0x3d6b4ae9be057a3bU, 0xbc687f583d134a37U, 0x3e3e94f0bc0179c9U,
  0x3dce70e13dee36c6U, 0x3d8499033dad80a4U, 0x3e2cc9d7bc47fc53U, 0xbd10f096bd0251b3U,
  0xbe3b5c873e291c9aU, 0xbd5d3ddabc4082adU, 0x3e47ed3c3e241c58U, 0x3db1259a3e494141U,
  0x3e98b16ebd777bf4U, 0x3e273b4a3dfadd20U, 0x3d5bcef9bd902f5bU, 0x3cdc40dc3d85a604U,
  0xbe12e49ebcb8f1caU, 0x3c806769bddf58bcU, 0x3d5daffe3d99a0d8U, 0x3d8dba1abdb3f960U,
  0xbe939baf3d2f5bb2U, 0xbe383a903b7ebd3eU, 0x3ea23a443d6539dfU, 0xbd723b223e54618aU,
  0xbded4c77bb20e5f4U, 0xbe0c5f96bc1aff71U, 0xbd295bf03c1bd82dU, 0xbd71dc03bd8e66eaU,
  0x3b2966183d9dd313U, 0xbe6eaa9abc684e4bU, 0x3da77297bdc2061aU, 0x3d64756fbe4553fdU,
  0xbd513591bdf3515aU, 0x3e1e87c8bd0ca252U, 0x3e0512333d4c912dU, 0xbd1f7a0b3dc0deeaU,
  0xbd8e0ead3dee1e63U, 0xbe675f363ccc5cfcU, 0xbda309ac3e479000U, 0xbcbfbf363e7b03a8U,
  0xbe2e6933bcf2887dU, 0x3dac8110bd9adda6U, 0x3cef27e53df98c97U, 0x3e2210b2be7fb406U,
  0x3e2c4018bdb793b9U, 0x3e11955e3d81d447U, 0x3e2cbe72bc8bb764U, 0x3c9f64f83df918e6U,
  0x3c34b5c73e6ca1ffU, 0x3cdb36613dfe302dU, 0x3d5b2970bd2b578eU, 0xbd45da23bc38bf63U,
  0x3ee3972b3cef1c92U, 0x3df69ba2bc308e44U, 0x3e7111c0be22e7d5U, 0x3d97fe1a3d071aa0U,
  0xbb31e946bc9c2d0eU, 0x3d1cf801bd9d8843U, 0xbe0e8a983d9c871eU, 0x3cf13365bdd73d3cU,
  0xbd9a719dbe22140dU, 0x3e4e8c71bdd1e157U, 0x3dad8bca3d8ca4d4U, 0xbddb1e2ebd6f8a71U,
  0x3d2ecb0dbe56cbbeU, 0xbdbcd1573e2587f9U, 0xbd4acae53e16ff3fU, 0x3ca7600c3dd7fd55U,
  0x3d0b4e54bd83e41fU, 0xbdebdaca3d834173U, 0x3d8ffe15bddaa802U, 0xbc3c318bbdbde7f0U,
  0xbe018001bdc68d83U, 0xbcc172be3cc57836U, 0x3d1de9a03d25b314U, 0x3c163169baaed84eU,
  0xbbac05943d1e4c21U, 0xbd843fbc3da401edU, 0xbe0a699f3dc2ca9bU, 0xbc9651763d018611U,
  0xbdfab8833d841b7bU, 0x3e23eea4baadbd8cU, 0x3e694bee3ded2113U, 0x3df9ebcfbe463b36U,
  0x3d93157b3db155aaU, 0xbd1391593e00c2b3U, 0x3d0b91de3cd60b48U, 0x3dbea2db3df54b1fU,
  0xbd4b7e923e7696d0U, 0x3d641ea33e68da3bU, 0xbc414e843dc48a67U, 0x3de0153f3d3f48c0U,
  0x3e3bda6f3e0d1ce5U, 0x3d46cfb93df50105U, 0x3e51ec14bd63b4bbU, 0x3d936502bd0475eaU,
  0xbe406845bdb58803U, 0xbd08de333c0d192aU, 0xbc287e86be141918U, 0x3d755ed1be055a20U,
  0xbe93e1ac3d01ac93U, 0x3e02a7c7bd1d4e2eU, 0x3d3c7e8ebe082b05U, 0xbe13ca54bd08dfc2U,
  0x3d688891be19a1a7U, 0x3d19adcebe7b3d34U, 0x3de6cbd93dffbdfeU, 0xbde89337bdaf386fU,
  0x3df3eae9be0e5d38U, 0xbe493a1dbbe08b07U, 0x3dce12433e1ad94fU, 0x3c7dfaedbd5262bdU,
  0xbdb98c84be3a7fb2U, 0x3a03f5733cf70132U, 0x3cc61e073b3f7c25U, 0xbd2be723bd08c297U,
  0x3e13e5973c81fc69U, 0xbe0b5f6dbd1dfc71U, 0xbe053f523e61e513U, 0x3a9e3d56bccbbfffU,
  0xbe3fb16b3c9f7932U, 0xbd4bfc8abe0cbb22U, 0x3c8914ba3d599824U, 0x3cbd97f9be5a1605U,
  0x3e19e2a9be04e63bU, 0x3e0781723d635b8fU, 0x3dfabe853dce8863U, 0x3e11d67cbba6ce1dU,
  0xbe7cd7643d2ebdcfU, 0xbd43ee05bdb74846U, 0xbd172838bde408f5U, 0xbdcbd5dbbe59553bU,
  0x3d332b83be35ed81U, 0x3d2f75cdbe209bfcU, 0x3dea817cbe632954U, 0x3d7a04bd3b184de3U,
  0xbe84ff50be28b10cU, 0x3de46f84bd3bd6a5U, 0xbe0287c4be15ccaeU, 0x3d0937f2bdd8c480U,
  0xbeafa26dbd78075dU, 0xbdba5f15be05f99aU, 0x3ea78373be67f434U, 0xbe4d43023e19e91cU,
  0xbb03a6cc3cf1603eU, 0xbc22d9d23de1940eU, 0xbdaf83fd3c8bfa3aU, 0x3d6b0f5c3dcd849aU,
  0x3d16469f3dfd1d38U, 0xbd93dcae3c8f68bbU, 0x3ce2b68ebcd5df97U, 0xbd30fd303d491043U,
  0xbce9cc0fbe25e8a1U, 0x3dd8e634bd6c02c1U, 0x3d878bb73dd9af59U, 0xbcf43babbdd62436U,
  0x3ac9fdd23de6d4e5U, 0xbe567fc93e1dae3cU, 0xbd8d89b93d30486eU, 0x3c6dd2333e638108U,
