
/**
  ******************************************************************************
  * @file    network_data.c
  * @author  AST Embedded Analytics Research Platform
  * @date    Thu Oct 20 15:19:27 2022
  * @brief   AI Tool Automatic Code Generator for Embedded NN computing
  ******************************************************************************
  * @attention
  *
  * Copyright (c) 2021 STMicroelectronics.
  * All rights reserved.
  *
  * This software is licensed under terms that can be found in the LICENSE file
  * in the root directory of this software component.
  * If no LICENSE file comes with this software, it is provided AS-IS.
  ******************************************************************************
  */
#include "network_data.h"
#include "ai_platform_interface.h"

AI_API_DECLARE_BEGIN

AI_ALIGNED(32)
const ai_u64 s_network_network_weights_array_u64[ 4577 ] = {
  0xb71889adb76c85ecU, 0xb51b8fc037e105aeU, 0x36c6331eb7032f3cU, 0x36cde780b759e06bU,
  0x35ee6b30348cf040U, 0xb74d9856379f8d4aU, 0xb7cbcea63443f540U, 0xb76efd0eb7386ff3U,
  0xb75a08d4b6aa7b60U, 0xb64cea083601f510U, 0xb7dcb419b75f449eU, 0xb661cc0c37637b97U,
  0xb6a361a0b3976000U, 0x3741f5bd36ade188U, 0x36dce174b76372e6U, 0xb742cb7ab5446220U,
  0x35d00ad4b5021d10U, 0x374ccf3a3743a682U, 0x36e0c6cd363d7188U, 0x353afb2037709fbeU,
  0xb4dc958a377168f7U, 0x369cf38137bddef1U, 0xb59cc870b66f8e3dU, 0x37056c42370b7799U,
  0xb63c57ec3787535eU, 0x3783845cb67aa3c4U, 0xb73d121c373faa77U, 0x36ba3b5ab7a05929U,
  0x35f26cd8b6e8baf2U, 0xb760ddd237fee6e6U, 0x366a7e54b7c7163aU, 0x36ffd24c375bdbfbU,
  0x365d3b5836a2b55dU, 0xb6b87eea371dd8b4U, 0x37086df7b723e4ceU, 0xb7b5ce9737981048U,
  0x3470fcc0b70b9ab3U, 0xb8153fc736944c28U, 0xb73837fa3738bc26U, 0xb787cf2bb31f4b80U,
  0x379ebdb2b793aec4U, 0xb71b187534793530U, 0xb740d67fb70c2d4aU, 0xb70b9b8637518236U,
  0xb76ea31c37b823beU, 0xb7626d78b79bde16U, 0xb822bf72b7c13cbcU, 0x370068403737cfacU,
  0xb6070421b66f16c0U, 0x378132c8379e4b64U, 0x36bb3aeeb57f9050U, 0xb716d4b9b6a83c80U,
  0x35bd9ccfb7511aa4U, 0x36f65dc0b60521feU, 0x368bd55c37a129d1U, 0x3697d47c360bb9faU,
  0x36dffd25b7d2fa2dU, 0xb648273cb42d54d0U, 0x371d8918377814b5U, 0xb6fc7f3933d08ac0U,
  0x37667427b72145b4U, 0xb74bac8537c820f2U, 0x36044114b61040b6U, 0xb7d70aba35e797c8U,
  0x37234c97b733599aU, 0x378603d937392b0eU, 0x37648a8cb79e1c97U, 0x37502994b75a4836U,
  0x37040c3bb53ae150U, 0x373b3607b746c4d2U, 0xb511bca0371e631aU, 0x361a2560363bded6U,
  0x3699091736fe042fU, 0xb79de08d36558384U, 0xb62a89c837037d2dU, 0x377e5264b5cd8850U,
  0xb8005dc43708126aU, 0xb70fa3a4b6453a98U, 0x375d3c32373caf79U, 0x360b9c24b6a6b5c2U,
  0x356c8728b6260f1eU, 0xb7c4d9a7b67ae6d2U, 0x36924baa37311148U, 0xb6991c69366d6684U,
  0xb361b900369cd457U, 0xb78aeb6db699c473U, 0xb6e99ec0b6e8703aU, 0x3788ab32372f3cceU,
  0xb69aace2b66db980U, 0x3789c8deb52d39a8U, 0xb6ac2cb4b71526d9U, 0x372f114d3578d7d0U,
  0xb81997d337d6e3daU, 0x36a25e86b5dc2a60U, 0xb6693f07b6cad5a8U, 0xb76b1289b4e37f20U,
  0xb65582f5b70a23ecU, 0xb4e2bda0b6b10653U, 0xb7913bc536ffdfeaU, 0xb50282c037333ac2U,
  0x37d15ed837a4de02U, 0xb48a6020b4ca5ae8U, 0x379ac39cb7111992U, 0xb6351a4db7d54b46U,
  0x3637e208b593daa8U, 0x3741cf6db6b93bbcU, 0x3620384437898008U, 0xb54ee3c0b7074a25U,
  0x379b5216b7006dbcU, 0x37377b973676db75U, 0x3802094c367240c2U, 0xb758a57437256362U,
  0xb71232a2b6d7136cU, 0xb692ff4a370ac412U, 0x3759f5f937c58852U, 0x36d6e2a1377d2d71U,
  0xb73f056a36c81238U, 0x37efd83636d028f2U, 0xb80e0f0c3757e60cU, 0xb6d484f6370e0f52U,
  0xb74a17ef375e55c8U, 0xb7416c5db7de356cU, 0x3452f520b74b8eaeU, 0x36df3924b3c5af80U,
  0x36df6facb72d00ceU, 0xb5c0689037b68aa0U, 0x363716a0b80efa78U, 0xb617c537b754a8b8U,
  0xb74c2a29b66eaceaU, 0xb68aa9763642e050U, 0xb59574a8b6906e28U, 0xb7699df836821342U,
  0x374b1ea737493017U, 0x37b17639b797999bU, 0xb6af047f375ed2ffU, 0xb5ad2782b6641a5cU,
  0x36303e6eb6805bb8U, 0xb76d9bf0347ece60U, 0xb4b52ec836d932eaU, 0xb7116ff936910910U,
  0x3756b982b4d27048U, 0x36ad5db0375063f9U, 0x3701a436b508b850U, 0x36bfc60c3564b590U,
  0x36dbbc4836e5c92cU, 0x36d6468d37840022U, 0xb6e2ca3e36f64408U, 0x369959053643c63cU,
  0xb62989e8372a9f91U, 0xb643502ab4e20dd4U, 0x35b68d48b7ae18a9U, 0xb7115c6cb68c08d3U,
  0xb6cc6be0b757a8b9U, 0x369191df37a35ebeU, 0x3731055b374ddceaU, 0xb6d015f6b6a63679U,
  0xb6ea9dbfb69f85e4U, 0x376f6faf36b4a2efU, 0xb529086336da5b04U, 0xb6e05ed2b63e316cU,
  0x374d2b83377d3025U, 0x36eb4456b51fd9d0U, 0x3818d950373eda7eU, 0xb62a2904b7846443U,
  0xb57ad588b6034fc0U, 0xb71c254f370c938eU, 0xb7b5a4d6375ac937U, 0xb75c158636fe8e8aU,
  0xb782f287b5710268U, 0x349f14d0b6fc4de7U, 0xb721f3f6b78d540aU, 0x366818c6b709aebfU,
  0x3785140334612240U, 0xb7105b46b65b723aU, 0x378a708837569524U, 0xb71077e0b759f944U,
  0x37e4831137035dfdU, 0xb764940335bfd9f6U, 0xb715d521b7c5c41bU, 0xb6faa51fb72056f6U,
  0x3678af25b73dc3a6U, 0x3744b0acb71955caU, 0xb721a3b336ca9814U, 0x353f8c90365c4180U,
  0xb7da39a036468788U, 0x374e7be5b6ca65feU, 0x37814b99b6ed1136U, 0x377c181236a9915eU,
  0xb65f6398b7844fefU, 0xb731fc44b5365978U, 0xb679cb24b6b9e360U, 0x36d4b5e2375a2eb1U,
  0x38337f6a36a20754U, 0x37adc854369b39c8U, 0x373143f2b7822342U, 0x379ec98cb7d4018fU,
  0xb7a477f4b6699718U, 0xb59ebde8b748a8b1U, 0x36dd656436e4e7e0U, 0x378cafbfb64658a8U,
  0xb78f568c3697402dU, 0xb7a3c5f6352946e8U, 0x364934b0b739add0U, 0xb6e0e2b0b793aaebU,
  0xb5eb443037498134U, 0x3786a48637acdcb8U, 0x37cbd2213787b9eeU, 0x372ea008b73c3d23U,
  0x35f9b800b765db49U, 0xb7b9c8a0b77692faU, 0xb78c3e8cb74950d4U, 0xb724fd0fb5d5f712U,
  0xb74cc298b65817dcU, 0x370b89aab78d7444U, 0xb7cd079db78846eeU, 0x36b3df47b71181eaU,
  0xb7ec06a3b74843e3U, 0xb7bb50b2b712823cU, 0x3741aba13667d9c8U, 0xb7d0e13e3738a2a1U,
  0xb7141e123729dc54U, 0xb5a0198c37495db8U, 0xb559702037c8a6faU, 0xb7218f60b7a7abc0U,
  0x37c415043709cf95U, 0x367924f5b22e2700U, 0xb69023c63745bf8eU, 0xb7ce41d7b6adbe80U,
  0xb639429c355904a0U, 0x342b15c0375515bdU, 0x367e4b98372b7138U, 0xb76ca4ac375c1bd0U,
  0xb7972686b6b42ea4U, 0x32cc7dc0b6ab3682U, 0xb6c35b4437666191U, 0xb4c58520b694d472U,
  0x36c98b98b5143b40U, 0x3710d0723704fe2bU, 0x370d363636b5f9efU, 0x374e341037cbd5deU,
  0x36287af837b5346cU, 0xb5b11a7037cc6420U, 0xb5ed2eb0b7468e98U, 0x3780abacb752e831U,
  0xb75c085a36b16570U, 0x369fcc4ab791e7e8U, 0xb79f67fab70b6a84U, 0xb69585d4b7379a28U,
  0xb65199f8b77d0b14U, 0xb5a39dc8b69b3025U, 0xb5a28c98b68a25d3U, 0x379f8c32378a9885U,
  0xb66f487fb79caebaU, 0x3601a0e4b5023ac0U, 0xb727a8853721c2d6U, 0xb61c818ab7662f6aU,
  0xb45816d0b6418956U, 0xb7ba7256b6b8dc90U, 0x3507d6a0b56095d4U, 0x382269e93709dd20U,
  0x3614856eb6c4c86bU, 0x36003518b64adb40U, 0x34fe8d00b6a6bd7aU, 0x36ac6f2137b5c9c2U,
  0x372395dbb69b277cU, 0x347632c0b40de420U, 0x36da4f18b78b46a8U, 0xb6ffdbceb6b25088U,
  0xb73023793783df74U, 0xb6a1c2d432830100U, 0xb6808d68b60b2e48U, 0xb5a2344c373dc426U,
  0x37e47fd1b782570eU, 0x36739715b6dbfa16U, 0xb6cb5a9c37ae373dU, 0x3751851cb3dcf100U,
  0x36d6b787b74d6ebdU, 0xb255f200b76cad21U, 0x362a0ce0b4dc7580U, 0x35cc8574b7408b0dU,
  0xb78823a8b6fdd700U, 0xb762bc2935193600U, 0xb6d8cac8b6dbbadeU, 0xb758001ab80d5a17U,
  0x37469b3037579401U, 0xb72207c735d519f5U, 0xb747bfb137595d89U, 0x36c830f237a4e7e8U,
  0xb779018cb69c1c27U, 0xb72e45f6b6992217U, 0xb79c381cb75518ccU, 0x356ddfe0b43e7260U,
  0x3701e6a136de5514U, 0xb616621a37be0720U, 0xb73e6a38374da173U, 0xb816ef5137bbd6e5U,
  0x365d8e4ab75ceffeU, 0xb66ba512b70c73f5U, 0x362e7680361b4214U, 0xb737d466b7864c56U,
  0x378a2901b74d5b9eU, 0x3335aa00b763e6caU, 0xb7b525d8b7a27c7eU, 0xb7e0110b370ac0eaU,
  0xb7082485b79c6b14U, 0xb747e3b23680aaa3U, 0xb5822300376bd994U, 0x37bb02c8b708ad99U,
  0xb73423513793398fU, 0x374a9ef0b6dc1c1cU, 0xb777d13cb733e8fcU, 0xb75a9246b50987a8U,
  0xb70fbc1737c41de8U, 0x36310ce2372e3632U, 0xb72d6323b6c23fa7U, 0xb5cc36c83756e97aU,
  0x3680eb87b6a02c8eU, 0xb51e8334378d82bcU, 0xb640e8be348f3a50U, 0x370b7529367f402cU,
  0xb726760eb6f2c79bU, 0xb75320f0b69697d8U, 0x3706acdfb75735eeU, 0xb4b6c7a036198674U,
  0x36d4471a36d625afU, 0xb78da1f2b455ef00U, 0xb78c74f035db8fe0U, 0x370f8605b5c7a9b8U,
  0x36cc3036b64af530U, 0xb65c1900378230c7U, 0xb77fb080b773fd71U, 0x379709d1379a76a8U,
  0xb7c30ca235c60560U, 0xb6ffdfce37761aecU, 0xb6864d37359c1f9cU, 0x37e849f4b7715765U,
  0xb67df7c435b6ce20U, 0x370264c33777d808U, 0xb7b1ac4237072a72U, 0x3783c74bb6a57138U,
  0x3710f29ab751cb30U, 0x35051520b70fa47eU, 0x34afa540370872cfU, 0x375578a5b73d76d6U,
  0xb781fd9eb6c3acf0U, 0xb594a1ae36adec08U, 0x378ed563b6886d1aU, 0xb7633854b6dcb918U,
  0x3613c13437a6c6a3U, 0xb753365ab510fdccU, 0xb78f0775b6db4caeU, 0x36e8eb44374ccc53U,
  0x36bbfc75b7822a5bU, 0xb5b5a4a8b504ef60U, 0x37b83df6b6b75c94U, 0xb684055a360cef9eU,
  0x37a3baca358a15a8U, 0xb798e620b737cb68U, 0xb71e05c4b6c9ec36U, 0x370f423ab8004a53U,
  0xb7710f51365f0880U, 0x37877f20b78edd6eU, 0xb70080cf349f2d80U, 0xb670a8a6b727a4faU,
  0xb75be0aab667c0a8U, 0x370e33f2b7adb910U, 0xb7d16a74378dd966U, 0xb78a1d74378d7c27U,
  0xb6ec0e3a378c2e2cU, 0x37137914371238ccU, 0xb79fd92c371d076dU, 0xb69d180c36c76795U,
  0x36d56cac37148642U, 0xb6edd352b750c6b3U, 0xb7c68772b6485f24U, 0xb5d0d90036ba4ab0U,
  0x372af404b580d8b8U, 0x36cf83a636881276U, 0xb7d72e26b7bc0539U, 0x36b67428b759e5acU,
  0xb76260e6b773ebe1U, 0xb76ddb9937bcbdf4U, 0xb727741436f96a82U, 0x3786b052b7928318U,
  0x37ea2b3d3659e8a2U, 0x372f629bb66665a8U, 0x37a21c323603a7ecU, 0xb6a22dccb74d4127U,
  0x36f5992937601946U, 0xb551b56cb6024314U, 0x375f4accb6018626U, 0xb6a55caa374f43e9U,
  0x3704eb98b7019036U, 0x3700fca335aaaa30U, 0x374bdd82373d214dU, 0x3733553c373a5abeU,
  0xb78c0eb1b7b49b52U, 0xb6f72c1eb7a74bf7U, 0xb7939950b60f0967U, 0x36869d52372c1e7dU,
  0xb63ab57837468dffU, 0xb778071cb70a0878U, 0x36524fa4b73c7296U, 0xb7120596b82d8d65U,
  0xb7a66188b7a79782U, 0xb7694896b76fab51U, 0x379b77b8b78a6cccU, 0x3673d5d6379cdc99U,
  0x376bd3c4368162e2U, 0xb5567708b50bef80U, 0xb62cc87eb7c261a5U, 0xb6dbb25e3739d07cU,
  0xb666ace0b62cd8c0U, 0xb5a88c70b5c91014U, 0xb6d618c2374ef464U, 0x37cc61ac380f3671U,
  0xb73bd98eb78d1546U, 0xb788ee323728036eU, 0xb6c3a97438351957U, 0xb64da3b8b69ae882U,
  0x369ae176377478c3U, 0xb5422768b6883f09U, 0xb7103e75378c4c6aU, 0xb70e35eeb7555dd4U,
  0x37cd9582b674cd22U, 0xb6370e1834e46cccU, 0xb69eefae35d5fe80U, 0xb7889a8b3698665cU,
  0x3760a082b57d2140U, 0x37b3c278b7bf4c67U, 0xb6f448aab7830ffcU, 0xb74acae0b7028310U,
  0x379a6a4335840db0U, 0x379d97a8b6b30611U, 0xb70c6db9b64dd8e4U, 0x37880504b6d7c35eU,
  0xb6c3e238b66544fbU, 0x36ec329f3706a28cU, 0xb7259714b7199cafU, 0xb5ae8a663702ac7fU,
  0x38009e5137d7cbb1U, 0x379f59ed375df544U, 0x369bdcf2b723c2c3U, 0xb79dc1783619f4a4U,
  0x37b7bf08b78f300eU, 0x36408f2036af7d56U, 0x36b2278a37e051f5U, 0xb7762c5637e724b0U,
  0x37510ab037de4d9cU, 0x3601953ab761d87eU, 0xb5ae0480b4017ec0U, 0x36f1ededb6b0b292U,
  0xb699f558b72ab604U, 0xb6e4b58a36de483eU, 0x369d72c3b631af21U, 0x3732c65f354b0cd0U,
  0x36c4e818b7160414U, 0x36e6e793b56a8b88U, 0xb784e0a0b5175d30U, 0x367cac34b6e6c60dU,
  0xb7419e84370589c1U, 0x379a6d6537275db5U, 0xb794d6d03588a3f4U, 0x372b003736147cbcU,
  0xb7ef0d3c36841c7cU, 0x37171f5c380b5a3cU, 0x363c3303b73dc6d0U, 0xb7e47d6337e51bb3U,
  0xb7441a32b78d73e0U, 0x368e0e10b66330f5U, 0xb74fefaeb7833b8dU, 0x37266d3eb6c12f6dU,
  0x371d8584b653f8d5U, 0x371971b236430568U, 0x37037301376d50beU, 0x360a203036985c1aU,
  0x3718ddfab6238465U, 0xb5935d08b7071845U, 0xb63faa8437849831U, 0xb717cf443613983eU,
  0xb70184d2b7a3db93U, 0x372640f637190ffaU, 0xb6d3339e378225cbU, 0x36ada9fcb74edf28U,
  0xb7014e3ab59d3fe8U, 0xb716f6f437930d75U, 0x37693e35370fb00bU, 0xb6065300b625db70U,
  0xb64f3ddeb78a623bU, 0xb7b954bcb6a36f0bU, 0xb67d5684b792833eU, 0x37c229f3b819b116U,
  0xb6fc0ceeb6a35550U, 0x37057f7037af8b61U, 0xb711532a36b4fcb3U, 0xb6b31414b7060aedU,
  0xb76db644365d0019U, 0x3628c698b510be80U, 0x3629c5583759e016U, 0xb694b6f035bb0fc8U,
  0xb6c37cc83800b4f7U, 0xb791df6bb46eefc0U, 0x347c4b20b6cc4b2eU, 0xb7122aed371618e5U,
  0xb63c768236d038f0U, 0x37997f3b36d62036U, 0xb754d986b7b2d56cU, 0x3699d359b5bdf328U,
  0x37103a2c361a5b34U, 0x36a56e023732e8dbU, 0x36fc95a1b76bc410U, 0x375f5f37366df700U,
  0xb78b6e8836d2ed10U, 0x375fa1cfb727b28eU, 0xb6e1ef9e379b091fU, 0xb5a8ce88b78d062eU,
  0x35f748843743c802U, 0xb745ff76b7904d05U, 0x3719bea237d996beU, 0x37a7f044b70177bcU,
  0x377f1242b6e171e2U, 0x37d70e40363ecf47U, 0xb703c7a037858e5aU, 0xb706fbed379409f8U,
  0x36d9f90136da262bU, 0xb73f60e83723958dU, 0xb6e747c0b7bc3517U, 0x3722b638b783db50U,
  0xb793ecccb666d2cdU, 0x379e60a838021d07U, 0x36c9d3b7b60373c0U, 0x3724a7bab6ec02baU,
  0xb75f1126b5490a00U, 0xb6cb6614b5b6cb78U, 0xb7b45e71b647ed95U, 0x344f98403785c030U,
  0x378d410db720c0aeU, 0xb71ca105b767747eU, 0x37847cf237f96ad5U, 0x36e0aa1fb74f9700U,
  0xb510476037da4aa6U, 0xb7800aa0b7654636U, 0xb7e79508372a1c2bU, 0x36028e8bb70b48a5U,
  0xb606dde0361a4eb2U, 0x36e2d54a374f1cdcU, 0xb7e105aab7be3009U, 0xb785c1b1b7154bc6U,
  0xb72943cfb70e95ddU, 0xb774d186378a95e4U, 0x37390c1ab753f51aU, 0x362b181e376e7113U,
  0xb51f3230b6e47ad9U, 0xb73a4d3836c24d04U, 0xb79a6270b77a8c65U, 0x368f35c6373c91f6U,
  0x34769b0035b77c10U, 0x371423feb76830c2U, 0x37df4833340862c0U, 0x37873f6fb7bcc35dU,
  0x380d34e4b793a4fcU, 0xb776f8b4373620e8U, 0xb6957d0ab53978c0U, 0xb712f4d736c47d08U,
  0x3718662f36e3eb27U, 0x3709e492b655a6e7U, 0xb7711255b50271b0U, 0xb6c1f014b7670cd0U,
  0xb77afb14b6e1622cU, 0xb5996dc0b692ef32U, 0xb72db7bab681dc77U, 0x383898dcb7086d1bU,
  0x3792aa00b6b23312U, 0xb7522be8b6e652baU, 0xb555924db6c0bb88U, 0xb70b4266b7181e1bU,
  0x359ce33b3781d25cU, 0xb7428ba4b7bbcf95U, 0xb79cbef1b7b4467aU, 0xb7dc2da4366821b4U,
  0xb6d7a34335b1ccc8U, 0xb788cca93659daf4U, 0x35a55ab6b67f47ecU, 0xb70970b33726ecf7U,
  0x3765b35eb73cca56U, 0x34960eb03723f4d0U, 0x36792041360d0ef8U, 0x375399be3773a15cU,
  0x37185746b78a107aU, 0x377734203719927eU, 0xb770755236f70c0eU, 0xb5fdaf8036f126aeU,
  0xb72b11deb7578d9bU, 0xb7aa4e31b74c759eU, 0x36c6c048368cafe8U, 0xb7658f9c3701bbf3U,
  0xb788e7e9b48de460U, 0xb78aa2f535dc8c90U, 0x36c2d8cab7940a64U, 0x38136580b77820e8U,
  0x373f93dab7489e32U, 0x3701ff67b75684c5U, 0x34653600b72f3a4dU, 0x3752e1e7b4c9464cU,
  0x3682405236decf26U, 0x37195cbeb69899abU, 0xb6f38f2bb73455f7U, 0x36952704b6ea07c4U,
  0x370b3dc9378f0a7bU, 0xb7b3bf15b72a9353U, 0x3739842eb70bea1aU, 0xb6a36a68b723ae14U,
  0xb71b5532b738af9aU, 0x34be5940b653a158U, 0x36df5eb836e64f27U, 0x382c8515378ef176U,
  0x37b4ae7a36aecb82U, 0x375a445ab7cadfecU, 0x3761b091b735d15cU, 0xb79efeea37fd72f0U,
  0x370f557c37a56502U, 0x36b34560b77d5300U, 0x375b256036e6a7d6U, 0x372ffe1537639748U,
  0xb78a7ab5370d6eefU, 0xb604bf5237266fe6U, 0x35fe0310b2b1c600U, 0x374f8ce831fc1400U,
  0x364524a4b6b99064U, 0x373eceb4b6e5a5ddU, 0xb73725bb36bba1ffU, 0x37c9256037803dbdU,
  0xb4df765cb6a2159fU, 0xb5863988b69b6830U, 0xb7965378b65ef38eU, 0x368a74cd37ca91c2U,
  0x370a8870372e0e06U, 0xb7072f86366e7147U, 0x37199cc8377f7ea5U, 0xb7d38c0eb522d4e8U,
  0x36f62ce336a73f75U, 0x37a37c9c378f0421U, 0x37ec52883756c548U, 0x372ea3dcb6ef4104U,
  0xb61d8cb83693c31aU, 0x36c080f336afd892U, 0xb663aed83766ab02U, 0xb75aa36e371882b8U,
  0xb66a98e6b6c6974aU, 0x3796a4bcb53fc8faU, 0xb62326a23793ca2eU, 0x37a9a490b73b52e6U,
  0x375449feb726f46dU, 0xb7b4b91d371d247fU, 0x379e1b0a375f102eU, 0x3576b9b8367d9bf4U,
  0xb755763036bc6088U, 0xb76d2b4eb7509c1eU, 0xb55b22e4b51dd6abU, 0x35f3bc88b74a9588U,
  0xb710dcae35bcc99cU, 0xb799b1f43539f338U, 0xb728a7d4b6c82efaU, 0xb7b1d883b77a9301U,
  0x379dcd6db71dbac8U, 0xb7c74afab6954cb0U, 0xb655754eb6bd751cU, 0xb7323a6cb6e62c2cU,
  0xb7c7d495373cb83eU, 0x3675e02037ebe3d4U, 0x371cf2e535ca3f04U, 0x36b999fa375a072aU,
  0xb6b382d0367448bbU, 0x368c988434c9ebe0U, 0x35c6ff0cb7c0ef78U, 0x379c0c9637d504aeU,
  0x3781f913b7d5e012U, 0xb71660d8b740c620U, 0xb7049600371f6c5cU, 0xb691913cb7d2e4eeU,
  0x3784d8ff355160c0U, 0x3605266c37a82f0cU, 0x35391836370da235U, 0x3694d160b74bf79bU,
  0x3748606c374d254fU, 0xb782979ab7255dbcU, 0xb74ea8cbb76642f3U, 0xb70fc250b6f88a88U,
  0x367baca4b68a0f88U, 0xb6c83218b702aa54U, 0xb79d220c377081faU, 0xb640e75cb799d11dU,
  0xb672ca393534f9a8U, 0xb6eac472b764d623U, 0xb6af0ba6b7cbbbd7U, 0xb6c96bfb36ee39a3U,
  0x3644c1f9b6b26cf2U, 0x372233123755e9d8U, 0xb70c9eee374b47ccU, 0x3751d5beb6117da0U,
  0x379177363814160eU, 0xb77dfd79b6a255c4U, 0xb6857260b7700c18U, 0x36379118b6b0bd96U,
  0x374607b3b74e44f9U, 0x356e5c24b6d7c36cU, 0xb56b2d90b67ac666U, 0xb6154598b70749b8U,
  0xb63bded0b50b2918U, 0xb680ae62b7a16e70U, 0x372300ae379c9852U, 0xb7612b56b58a37e0U,
  0x3636e29cb7bd098dU, 0xb4c5c6c035f824f0U, 0xb6132a94374d3b37U, 0x3749eaa3b7b2751fU,
  0xb77426ee35af5ba4U, 0x3761c984b74a688aU, 0xb62a3a7c35e4cd08U, 0x377e1faa3748035dU,
  0x3642c4b4b70aca5bU, 0xb6c69b2636d33d89U, 0xb7dfeaa936a2d8beU, 0x374f57d6b7cb6364U,
  0x37dc21c4b7851c1eU, 0xb55311f0b782fc4fU, 0xb6a4351e36cd5076U, 0xb711fcfcb78f8451U,
  0xb6633fdc368ff9b7U, 0xb727975eb5a29fb0U, 0xb798f0cc3710adc3U, 0xb722eb6db78733d1U,
  0xb59acae437319fe1U, 0x37436076373ab926U, 0x37857e8b36869306U, 0x37605829b846fd11U,
  0xb741ca38b69a4384U, 0x37a0ac2fb66bc34eU, 0xb641df1eb5f4bf0fU, 0xb6674900343fe0a0U,
  0x37256b41b5801700U, 0xb55c6d0036b88a92U, 0xb792bf42b7d68e77U, 0x381f9a423683a858U,
  0x372f8a70b6bde4daU, 0x3721e185b695fc7eU, 0xb789e79336931124U, 0xb5ad4c1036ea81bcU,
  0xb7608cefb6c8bacfU, 0xb660b734b7973c2aU, 0xb600084c36b2f564U, 0x37806e9cb777c532U,
  0x37123124b7811354U, 0xb6b9ad48b674a7d8U, 0x35344f20b78ee84fU, 0x3751283136cc0baeU,
  0x372796e237b55496U, 0x36cf6bf236152ac4U, 0x378d53b83781b837U, 0xb7346f0e35782a80U,
  0x37050a85b72fa0a2U, 0xb7dd907236d848c2U, 0xb365a14036f972d0U, 0x37ea2fa8b6cce116U,
  0xb719f00db545eb20U, 0xb781263837587d40U, 0x352f73a035be48dbU, 0xb75575feb6db9097U,
  0x38794832b924d59fU, 0x387b5651388b7c93U, 0x384a2a7e38842b75U, 0xba05c698b7af130eU,
  0x3e111f4b3912e509U, 0xb910f8d53d75fd95U, 0xb883e590b812019bU, 0xbce167edb8b61325U,
  0xb8c4663bb90e3e7aU, 0xb83116a8379d7356U, 0xb97a6590b902c4cdU, 0x3d791403bc8d46c1U,
  0x3d1c89003cf80394U, 0x3c7b1e2f3bb4698aU, 0x3c99bea93c9fcbd6U, 0x3cb3cb1a38cecdaaU,
  0xb90cd914b7de1b68U, 0x378cff2538799798U, 0xb805f3523980e2e8U, 0x3cb066b23d04b17bU,
  0x3cd298c73d778661U, 0xb8760b37b96a21bfU, 0x374c21d9b850064aU, 0xb9112f2a37ef438eU,
  0xb828de1637db8082U, 0xb9010b4d37a327c5U, 0x38d50aeab949412fU, 0xb904f748b800f78eU,
  0x38871629b8521f09U, 0xb947d433b8579a0dU, 0xb937496fb8fd7731U, 0xbd183c6639f56961U,
  0xb9956126b9837720U, 0x3b60c9eab7cbf676U, 0x384d46e8b72b7f77U, 0xb83e7e53b8fcdf08U,
  0xb91d5f073d9170e6U, 0xb73ddb1734f2b5c0U, 0x3bf011803c48bcdcU, 0x37486be93cbd3d80U,
  0x396561aeb885c628U, 0xb8b91f5c37a68ce8U, 0x388489e3380f64d8U, 0xb857920cb7594728U,
  0x37157c1e37ff9813U, 0xb7bef6823846cb4bU, 0x39b746d3b91e7a00U, 0xb7b7b8e0bcab4bf2U,
  0xb8be036b3816ad59U, 0x3c2883e1b7614d16U, 0x373b50b2399a6d0fU, 0xb8a2a6a539316863U,
  0x3989a440b8bfbd68U, 0x38c0a71f3830e23dU, 0xb707c81838b1dd40U, 0xb72d72a1b74b8978U,
  0x376dc2a638e87e7eU, 0x386af62438b4e294U, 0x399998a738763608U, 0xb6b51936b8a1708fU,
  0xb95507eb3826d4f4U, 0x38f346413d2ce20eU, 0xb87f3eb037c35bbcU, 0xb81e911cb82f86a2U,
  0x3709ebd4b48f84d8U, 0x3714fdfa377e9335U, 0xb5720238b57cf4d0U, 0x374c10563794b0c4U,
  0x3588e1f83646ec70U, 0xb722ac41376fa75eU, 0x36467e0037165307U, 0xb7181186b70a7350U,
  0xb7bb2fcb35252340U, 0x376419fdb7108fe3U, 0x36ee599a378dbcf4U, 0x379061d937875420U,
  0x3475804037c59490U, 0x36975e86371e8264U, 0xb66b41c83658680cU, 0xb69af710b73381c4U,
  0xb6506bfc37a9b37dU, 0xb65eedba372ba5b5U, 0x369fd07cb799ac4cU, 0x3764816a379c441fU,
  0xb7848e9837551175U, 0xb7ccdc7335c2e16cU, 0xb744d38235210e68U, 0xb75ec091b74f820dU,
  0xb7e324763511ecb0U, 0x379d43753672b07dU, 0x3762d81db75d0bf9U, 0x36d0438b372816efU,
  0xb685c99e35c3f0c8U, 0x35d64ea03774291bU, 0x377fc450b570fbf0U, 0x3707c002b78916ccU,
  0x370e91da3796fc60U, 0x37d447b33709ef6cU, 0xb603e708b7179c75U, 0x379d1c70379193caU,
  0xb6a53c7035d48078U, 0x3712f998b701165aU, 0x376bae06b798312aU, 0x3740949c3380b800U,
  0x37e5c4933585b348U, 0xb812618633afc2c0U, 0xb6a94687b78c4118U, 0x36865349368d3398U,
  0xb5c86060b5d285c0U, 0x37e868bc35e354a8U, 0x37251152b695e896U, 0xb7e509ceb65a3a10U,
  0xb71a82ed36a66958U, 0x36c8d462b5bfe3ccU, 0x36aa38ec373e2628U, 0x36c2631c36896998U,
  0xb6ea8fccb782a5a5U, 0xb6ac72f2b71574edU, 0x371d453e362c1bc6U, 0xb6d2ab21376930bfU,
  0xb6e62f1c367560a7U, 0x362d8638b76640b3U, 0x37871d293793998aU, 0x36b9b9f2b542c558U,
  0xb783f57a378f1c7eU, 0xb725d89034bd90b0U, 0x379cadbb378d03c0U, 0xb695bf92b56fc070U,
  0xb67d0f5db7b29732U, 0xb7bc154cb79b3525U, 0x366e19ecb6dc42ccU, 0xb56cc080366b13c4U,
  0xb697d462b72874c0U, 0xb667fe2b3640b38cU, 0xb6a76fb0378fd180U, 0x355a65a03606316eU,
  0xb7269a003710a8bcU, 0x33473800371b8607U, 0xb5feb3f0b730f629U, 0x36d2f8f6b6ba19d4U,
  0x37e15018b5221cd0U, 0xb65854d2b6993e00U, 0x3649d56035b19700U, 0xb6f9cb81378f355aU,
  0xb727416036e5a830U, 0xb764406eb7a4696cU, 0x37d388b3370400f6U, 0xb7b7cb56368e942aU,
  0xb8219a8b362a2db2U, 0xb607a63ab71c96a0U, 0x375e0c9cb68ddd6cU, 0x371265feb6deaf7fU,
  0x34f7594036e45b0dU, 0xb7c99720372ce11aU, 0x35f52d1e3716c101U, 0x379a723c36b7fb6aU,
  0x380100e03702017bU, 0xb76084ad36d69b7aU, 0xb777dfb2b54631e0U, 0x372d20e4b71fa01eU,
  0x3505f17436d0f78eU, 0x3719c2aeb567bfe0U, 0x36dd112937ad5c7dU, 0xb6678dbeb787e7d4U,
  0xb5a6f98037399708U, 0xb6ca79f4b773a666U, 0xb59edc48377f082bU, 0xb75fac36b78a3c04U,
  0x36c37f23b70a8c46U, 0xb6987118b7ae03c3U, 0xb4658200361b5fe8U, 0xb6852dca370a40e1U,
  0xb75d72493748323aU, 0x3789e21e3741f3b0U, 0x371d1c94b7558649U, 0x3749fef635aa23f0U,
  0xb750745cb78b66e4U, 0xb74c59c4b7572a79U, 0x36f18f7a3655c909U, 0xb74ee015372a0887U,
  0x3760c134b563aa70U, 0xb6b91254b78fb166U, 0xb4d62900b5237c68U, 0xb60e2ac0371c2785U,
  0xb696b45ab7c24104U, 0xb77e3e42378d122eU, 0x3767d58fb656e452U, 0xb68e5fef3795d8b8U,
  0x36d7d83236fb34caU, 0xb7b05d74b7235938U, 0xb693bcbe36eccd0bU, 0x36ee620633181d00U,
  0x37d31a3bb73bb369U, 0xb5f85028b60c807dU, 0x367b6938b74b7c0cU, 0x36ff3e22b767b445U,
  0x3791915536a1abe0U, 0x3793d43037397c0eU, 0xb79ee440359eb044U, 0x374bb2e03716657cU,
  0xb7df78c136f522fcU, 0xb776c6fbb75cad1dU, 0xb69fb8a4371e199eU, 0x379d8fa235ea814dU,
  0x3709ab29b6755108U, 0xb72bc66a37308930U, 0x374ef58236cac99aU, 0xb6c900b2b41272c0U,
  0xb72a5121b5549c40U, 0xb5fae188361364ecU, 0x366081a036a247a1U, 0x37d16e9d36c29a14U,
  0x3668d51037090025U, 0xb6735884b3758870U, 0x370edee8367c1884U, 0xb618f178b72a820cU,
  0x33e9c740b7da8e2cU, 0xb62b2b90b7801f7eU, 0x36042702b7a3e4d0U, 0x371bca00b795631cU,
  0xb6e2b426377255a2U, 0x373d2cce37409832U, 0x34c7b620b6731006U, 0xb733d47b37e8b849U,
  0xb749b8d637d01eacU, 0x3736a366b7902752U, 0x36dc8d83b61c6b8bU, 0x35a7d1e0b704d038U,
  0xb5d0ca703797d786U, 0x370eb240373af505U, 0x37386f643791e674U, 0x36641b3937414090U,
  0x36e2aefdb75719b2U, 0xb4fd9df836ed3d55U, 0x36cc37f0b704dcacU, 0xb750f34b37fcc5fdU,
  0xb491358034d90a80U, 0xb6f155b336988fdeU, 0xb74a2a2536336382U, 0x379256b534382830U,
  0xb64f8b83b5e49f50U, 0xb7aee95636b98772U, 0x370e48a03730070aU, 0xb6f0f254b7bf0c15U,
  0xb7a978f237942b9cU, 0x368100bbb794e883U, 0x36c974ee35d2c0f8U, 0xb6f76987b61c24b8U,
  0xb735d5ceb6cf0153U, 0xb7b0227235ca45c8U, 0xb30dfd00b6b64632U, 0x368e04d0363497abU,
  0x36d74ed2b7b07fffU, 0x370a2e53b7456a72U, 0xb6b94b4c3681d50eU, 0x3735da62b6936ca4U,
  0xb7c299b4b7392470U, 0x3747608db789556aU, 0x365124ee36e0eaefU, 0x380ff808350ebd40U,
  0xb6c18ff7b7065f5bU, 0x34517d78b742c9c6U, 0x35407a9f36c6c68fU, 0xb736da9c37398801U,
  0x375e9aa336ea8f7eU, 0xb6fb08b237694cd4U, 0xb697a99ab485d588U, 0x374d0213b773ea96U,
  0x363afdcab6b9ab48U, 0xb790847537d878f4U, 0xb74dd2fd36b6cf93U, 0x371f3191b77e7c0bU,
  0xb7809e2e36822cd7U, 0x35e402ec3546d7a4U, 0x37875e90b5076a5cU, 0x35a6c528377c970aU,
  0x373978683713a61aU, 0x372bb3ddb6864653U, 0x3796b7b2b712a3beU, 0x35c43b26b71afe70U,
  0xb70da724b7015f3fU, 0xb5c6529036db20c4U, 0xb7b8bdbcb69f870dU, 0xb79055dbb5f64968U,
  0xb75f3c50b7fd7697U, 0xb78064803759ee5cU, 0xb7d01c263765eb2cU, 0x37526095b6899d58U,
  0xb6c319b334ee3d50U, 0xb7512be5362867ceU, 0x373eec4ab721daa6U, 0xb7035ada36dd76afU,
  0xb6de6a6336001b00U, 0x37c4f15a36e2ce84U, 0x37252aaab74edc1bU, 0x37803a58b7a73321U,
  0xb702f77337a25680U, 0xb69e3db0b7719a04U, 0xb7ec1bc8378d523cU, 0x36fae59ab4a93738U,
  0xb64c87fd37181a64U, 0x37e291083731a7d7U, 0xb7d301e1b63b35a0U, 0xb6a2492ab759625aU,
  0x378465433744d398U, 0x32b2d200b477e980U, 0x34f7d5a03707eb8eU, 0x3754cc78b688f3b2U,
  0x3691d6f336cb0de8U, 0x370fb515371fc569U, 0xb7288b60b6a16280U, 0xb7c7e7c2372e0a20U,
  0x37458162b67c2a7aU, 0x372406c4b67859e8U, 0xb7ac9266b63a5fd8U, 0xb6cf0c6eb745f57dU,
  0xb721dd7835954fb6U, 0xb79df73db7389cc0U, 0x375646733818b203U, 0x3426e3b0b7d78796U,
  0xb75e30283701cc0dU, 0x36bcee7eb78e9b26U, 0x350e8366b580b678U, 0x3795d80db7797137U,
  0x372d6950b6dcd717U, 0xb78635b2b6bdbf8fU, 0xb74065f5b6bd5d26U, 0x37965dc936fe0612U,
  0xb6a33b19369a8f22U, 0x365eeb28376d26d5U, 0x35b76ef4b756212cU, 0x3762bd81373abf5dU,
  0x3709513eb782944bU, 0x33f7e93036820656U, 0xb7090292b80ae454U, 0x37a228e6b74ef4acU,
  0x33dc068037731174U, 0xb602e4b836c4a160U, 0x375413f6b783152fU, 0xb6228b90b7d12d77U,
  0xb5cb276837222f18U, 0x3741fc8c36447d74U, 0x36e09cb7b7514d3dU, 0x35790f1036765270U,
  0xb797f99036f6540eU, 0x36eb5c47b7205fd6U, 0x36cab6f6b70f5e44U, 0x369cdc89b66ac8feU,
  0xb78836e43795964cU, 0x378244cfb74bc0c0U, 0xb756796eb7740391U, 0x3389c5a03680b68aU,
  0x36bd0d8637211e62U, 0x368ff1d2b72b8001U, 0x3696616437ae4d91U, 0x37314cc0b6b58a54U,
  0x369925f23792c10aU, 0x36dd9a5bb73fc605U, 0xb6a0991eb4e446d0U, 0x3500fe40b692396cU,
  0xb7ec1b9c378d28beU, 0x36f8cbb4b71707c6U, 0x36af0c4636a0de8cU, 0x37a82555375a2b8aU,
  0x3677433bb7625688U, 0xb64207b83719a14bU, 0xb5f0a5203684355eU, 0xb699009e36c81fbbU,
  0xb5f5711c37bfd6eaU, 0x378c75a1b783d2b5U, 0x36d35fb236b9d587U, 0x364e3f0036190eb8U,
  0xb6883bc237d759eeU, 0xb8097b5eb51f4550U, 0x36db123db72867f1U, 0x369cf564b4ba1aa4U,
  0xb74d917836d7db0eU, 0x3799ff2f36c4d176U, 0xb7141b4e37677502U, 0x382550acb7dffadbU,
  0x374738b33793d0c7U, 0x36eb7bcf35785662U, 0xb5dff45c382248a2U, 0xb69b9bf1b79e825cU,
  0xb600fa0c376ec15eU, 0xb65ceba8b7d82df0U, 0x3775e88737aa8448U, 0xb62cd658b8092cd5U,
  0x37bcb57a35e67910U, 0xb7ab738638627a90U, 0xb7e1b97437ce06f0U, 0xb8df96e6b7a09aceU,
  0xb6a657823809fe36U, 0x375df209b510aac0U, 0x39295794b7d63b58U, 0x388e6080b7db0c1dU,
  0xb6eaeb76b831e6bcU, 0xb8d0a3e136a2b95eU, 0xb842f7703622511dU, 0x3929065db7fd8869U,
  0x37439849b8402329U, 0xb6277cf0b4874760U, 0xb7b8a143b8a0bb3aU, 0xb80bfdb8b704b43aU,
  0xb78f3369b7e88a2dU, 0xb68ad11438d074e2U, 0xb81bbb44b50fc0c0U, 0xb60748683704fa72U,
  0x378a81d93796a8aaU, 0x379b6ea0b6849878U, 0x37c39b86388dcaa6U, 0xb7f9a7acb7b1215eU,
  0xb817a055b73bcf88U, 0x38dc9673b7d0df47U, 0x39b457153775ecb1U, 0x3e3147333db79a4fU,
  0x38729d3c395e93a1U, 0xb8098c7fb6d67cbeU, 0xb6a62bbcb685dc66U, 0x3705aa7cb7052fd6U,
  0xb72bb406384ed104U, 0x36253f90b81e3779U, 0x37b7e234b7185d4eU, 0x3729711636e5db8eU,
  0xb71f8f34b83d63e6U, 0x37e70053b84ef10fU, 0xb6f056f03785b038U, 0x371660a4b7cb02b2U,
  0xb5d1d91036b2c272U, 0xb7af6de9b75b5bc9U, 0x39194f0a3721fb44U, 0x375b40ac397137d4U,
  0x38b39b94b702258bU, 0x378abcfb36d0f3c2U, 0xb817b948b7eb14ebU, 0x37d4b1ae38818390U,
  0x37ba586c3920fd05U, 0xb7d59de0373c0b11U, 0x37778180b7b9a3d1U, 0xb7cdfb01b5f6b4c0U,
  0x36bc4aa037cd792bU, 0x381c991d39140a12U, 0x366cb54437ebf64cU, 0x37675b91b7bdf1acU,
  0x38fda08b37996907U, 0xb80e5bff3803f1b4U, 0xb66185d0b7b4e026U, 0x36a9554637107c8cU,
  0xb78f405eb67508b8U, 0xb699e86b37042464U, 0xb6c6712036e2db37U, 0xb6565b34b712485cU,
  0xb58841b037099b85U, 0x36dc5b7fb7a4071bU, 0xb63c4c7436908558U, 0xb730a512b69eff20U,
  0x375111a2b6e23960U, 0x371a2b9db794cdaeU, 0x37a02136b611ac34U, 0xb6cec3dab4276b48U,
  0xb70cefa9b7b5f188U, 0x37da7a7ab5ddd358U, 0xb799d4fcb6dd5c74U, 0xb72f842c3778c797U,
  0x36d579ecb7afb3e6U, 0x35accdf0b70bbdd6U, 0x36d94028b6582370U, 0x36d1487c3739a26aU,
  0xb66cba8ab74bb8faU, 0x34ea5fc0b65a22f2U, 0x378c3f7cb6535785U, 0x3818d1a5b66d1532U,
  0x374b30c7b772241eU, 0x37a4cf3fb58988c8U, 0xb7cb5136369dcaf0U, 0x35d8e320b7ca27d6U,
  0x357fac503718a1c7U, 0x37db1e6336c5cd71U, 0xb788defa371ddc28U, 0x374253d6b69e919aU,
  0xb68762c5371829a9U, 0x3742f26eb6a3bb7dU, 0x37963fe7b5f4ce9cU, 0x374648343784361cU,
  0xb793692837b1960dU, 0x36d52857b65c6bedU, 0x378c9289b6ff5ac6U, 0xb74f2968b7576653U,
  0x3697d48e37ae5ecfU, 0xb7122178b7b29d94U, 0xb76c7068b74daf8aU, 0xb6b0c2a5b6eb1976U,
  0x37ad55773676a246U, 0x3687a6ae3649f366U, 0xb6e111a2376e5096U, 0xb70ecbafb6cc3b6dU,
  0xb7999a3c36e8c542U, 0xb690e7b4b7958ebeU, 0xb623ab343783fd8aU, 0x3641a411b6a402c0U,
  0xb71f531d34e1ebecU, 0xb66a6b39b6c56382U, 0x37a5445cb78c15e0U, 0xb40f174036a8e6c0U,
  0xb6f41fce3775a986U, 0x37342de3377e6542U, 0xb75ae94cb6815592U, 0xb63cb5fcb801f253U,
  0xb49862c036cd1dccU, 0x365f4543b61ac116U, 0x37101800363da76eU, 0xb7e55c3b36716342U,
  0x36c57daeb6ff33c5U, 0x3739cbdc36ef6454U, 0x3742ec5f379ec0caU, 0x37a19d3e373809cbU,
  0xb630f3f037416378U, 0xb7f3acbf37348606U, 0x37369567b75117a6U, 0xb58bb4d0b75aeffdU,
  0x3630e11eb60b6060U, 0x36253bf7b6f82586U, 0xb6db5cf436c287fbU, 0xb6de71d6b74f475eU,
  0xb6fa770e37107f59U, 0xb6b34a12b6f0091fU, 0x36e6fd1bb75fbd92U, 0xb77ca960370d7340U,
  0xb48da5d037954116U, 0x363b3bd8b7d95c3fU, 0xb7bc3245370db9d4U, 0xb6b509b0b75b76f2U,
  0xb756bf47b79da255U, 0xb75ea6c4b77eff5cU, 0xb7dc3d89b72fcd8dU, 0x370e4252351ee120U,
  0xb722fbdab5ec2bd0U, 0x3599a2fbb7e3f0eeU, 0x35831790b72b6cf0U, 0xb652dfc0b7e0f5a5U,
  0xb62b4004b70a2903U, 0x36ad6f0ab7466efdU, 0xb80e7f20b5d76c38U, 0xb5e8b99cb5389ee0U,
  0xb6b97298b75665a4U, 0x37c156653749818cU, 0x36052edc37877867U, 0x37296726b78b06fcU,
  0x376fc51535fe7950U, 0xb7d3797836737662U, 0x3647eb5e36e7a15eU, 0x37337bd4b56a3cc8U,
  0x37694944b69d3039U, 0xb7218944b69b7738U, 0xb714cdf1b7de8226U, 0x36fd2a3cb59d14e0U,
  0xb7ab717237980eb1U, 0x37433acdb6a5c906U, 0x371ed7d9b62cda14U, 0x3661bb48b7114007U,
  0xb700528cb55d9314U, 0xb760f9ebb6443fa4U, 0xb4abf468b6e4da1eU, 0x36967748b77ebc18U,
  0xb67e0a5eb7b7f1dfU, 0xb701f66a377f7aefU, 0x37affa80b64b10c8U, 0x376c4248b7623f52U,
  0x37e0e7c9b7cfb41aU, 0xb792c980374f3170U, 0x365fef8036049938U, 0x36ae268ab58342a0U,
  0x37472eb137766d98U, 0x37ce088fb6d79f62U, 0xb712f2de3714fd42U, 0x3702197cb6316866U,
  0xb5c88e483792d28cU, 0x3495f040b7346feaU, 0xb625f3d8b65469daU, 0x33296b80b74b8b2aU,
  0xb745dc66372ab77aU, 0x36d1b7fb371869ecU, 0xb705b8f836bad6f8U, 0x36921aea380f643fU,
  0xb79f0a28b6ba9b5cU, 0xb8359a6137e3d4a6U, 0xb7420339b6d3c928U, 0xb739b66ab719c676U,
  0x3773cffab52a7d40U, 0x375ab777b7ddcbabU, 0xb60ede2836dc35d3U, 0x376b2102376bcbc9U,
  0xb7d9d3f837561a1aU, 0x377526b7b66c0bb4U, 0x36250f9b371aa5a3U, 0xb71e2d7e3820e173U,
  0xb7e0dfc0b6a8e43cU, 0x37295d8f327b3a00U, 0x37414d2cb58ada30U, 0x372c0f72b757275eU,
  0x35bc10ee367aca3cU, 0x37cbb68b363f1f24U, 0x36e4243fb65503fcU, 0xb6f03f0a37ce1b95U,
  0x3769d10736729ff0U, 0xb52834e0b75a10b8U, 0xb765c76337207808U, 0x37367ab5b72ba6ffU,
  0x3797e258b7a51b6bU, 0x35b4b538b677ad46U, 0x373a3a3236ef44daU, 0x3709c7fdb73e2246U,
  0xb78225cb358ba62cU, 0xb769276c364948e2U, 0x36c8d9b4b6f0a6aaU, 0xb555c87c378818feU,
  0x372c071f37e68340U, 0x37299596b77efaefU, 0x3759e236373d0ee1U, 0xb7585e283630c5ccU,
  0x35d0e73036c4ac8cU, 0xb60e294cb5f6a5e0U, 0xb6da20b13727cb24U, 0xb649c002b73ec7cbU,
  0x3631083a3554a190U, 0xb6e9e31db6eadc76U, 0xb6990264b74f26daU, 0xb602ff96354a2a48U,
  0xb7b64400b787e15eU, 0xb74e3dd036e2e77cU, 0xb7321408b671cf4bU, 0x37cd395ab70c776bU,
  0x37708917b7120615U, 0x37ced121b598c1f2U, 0xb78f8436378392c8U, 0xb670c3b7b64316a6U,
  0x36aefdd6b6e008e4U, 0x36381b50378ef870U, 0x3760a5de36718464U, 0x37292da6b7a388bbU,
  0x3650339037576580U, 0x37049898b78f44f5U, 0x36cc8f8a365aa248U, 0xb5943a8836ed6398U,
  0x3571696836ff0b66U, 0xb6ae078ab7424835U, 0xb7c4041cb5d6e2ecU, 0x36f9149a37282446U,
  0xb70bab07b7349e06U, 0xb732ba92af0ec000U, 0x37e5cd1ab820ed92U, 0x37be5aceb7102cfaU,
  0x37613a5136b05322U, 0xb6ac7e82b67c9560U, 0xb7fc9ab2b69fca53U, 0xb6b3c5863792b648U,
  0x377ddefeb5d72f98U, 0x3735fb22b7a48fffU, 0x37538f32b794d371U, 0xb71be280379e714aU,
  0x3652a658368de44cU, 0x376b8becb6808564U, 0x348b9b20b711af3aU, 0xb6c8b27637304339U,
  0x379dda9bb5210830U, 0xb79d9828b71a2ae5U, 0xb789ea4db752d2aaU, 0xb619dc9ab79159b9U,
  0x372983d6b69be6a4U, 0x37c6b8b5b7516c61U, 0x350f4c58b70cc84fU, 0xb6eccf5137362f8fU,
  0xb78437a4371bd538U, 0x3619ecfb335c8920U, 0xb7e2629a373ce408U, 0xb5b55a40b29f5580U,
  0xb5b613a83755cbd2U, 0x369810c0b62d53b5U, 0xb52fd3e837c5b756U, 0x363376e935c0e988U,
  0x36ec92fe378e5a90U, 0xb6e8ea1237364326U, 0xb4b3dac0b767c171U, 0x37716ced3786258eU,
  0xb7dd9824b6828d07U, 0x36dbc394b77a71c9U, 0x3759168cb7432ce9U, 0x37cebb4b35fc6e2cU,
  0x378aa82cb6fd8a5dU, 0x37010562b786e268U, 0x37bb22b5b7d81018U, 0x36c54a5f376fb52fU,
  0x3691d70e3710c8d8U, 0xb713c2ce368a6625U, 0x369beb2837319d79U, 0x3741c20034af3a40U,
  0x373b8f71b70d99deU, 0xb5c5db943707b92aU, 0x3705c663b6a709e0U, 0xb71e0870b632f798U,
  0xb663c08cb56745d0U, 0x372e66db36dc377bU, 0x3730b62eb6dcdcdcU, 0xb70172fa3704ed52U,
  0xb5b76050b46159bcU, 0x371ecd7b36e90f99U, 0x3787821e3654063dU, 0xb75063fa37ee6e8bU,
  0xb6f8676e3798e710U, 0x379ed9e8b6cfc478U, 0xb4c12c40b66bb25cU, 0x3590469037959f6cU,
  0xb658f6b0b764395aU, 0x3672943436a17024U, 0xb5bfb0883681e3b8U, 0x37bb18de3793ebc8U,
  0xb717ae6736e22d4aU, 0xb6333142373fd8acU, 0xb493601037885d08U, 0x3685192ab775120cU,
  0xb6adf5be3481cf00U, 0xb7af85cab754e20dU, 0xb7368016b75df727U, 0x3773df49367be610U,
  0x37071a69b7199635U, 0x374189aa37a3b6e7U, 0xb7cbfa7336edd5cbU, 0x367cffaa36165fa0U,
  0x36936a5a364e6c6eU, 0x375e869e377c41c0U, 0x378122ca375e8a64U, 0xb7e53a28379f817aU,
  0x360c0580362065daU, 0xb687e4e6b6ad86edU, 0x374e4ff3b737d678U, 0xb769ce93377898eeU,
  0x36d4149833a24500U, 0x37906c22373d8428U, 0xb7748ca437d8d70aU, 0xb752bae6b72ffdb0U,
  0x370d3db1b729dc7eU, 0x3717e351b4c33d18U, 0xb6bbee88b7505a92U, 0x37597e3e3643ddffU,
  0x372d38a3b3904ca0U, 0x368c17c6373f4c64U, 0x374d14cab68fa76aU, 0xb7259206b5dcc1d8U,
  0xb67e0264b7cf6ab9U, 0x378de3e2b5aeccb4U, 0x36b4cc78b73c673bU, 0xb777e03237a4a15dU,
  0xb58691a736236b96U, 0xb79d898d37446e64U, 0x37ee210ab79dda09U, 0xb799e4ca3746ef64U,
  0x36eb882cb4b98920U, 0xb76848e0b6ebd0daU, 0xb7308b3bb4d96d60U, 0xb6921952b708d2a8U,
  0xb695c477371ec96aU, 0x35a977cc370ea358U, 0x36c835f8b712a012U, 0xb79dcc583684ce26U,
  0xb625473a356c0d40U, 0xb6f6a758b7425c1eU, 0x36053260b7271f9fU, 0x36f453bab779b775U,
  0xb617ff4637568bd4U, 0x36e008b136ed5b5fU, 0x37cba88937897695U, 0xb7956bf1b6e1cf52U,
  0xb5e46ff8b7248cb7U, 0xb4fd2d20b71d3cf9U, 0xb6e5d46d376162faU, 0x366b99c2b7678c1cU,
  0x36cff9b9b705d067U, 0xb68d09d435ed5f1cU, 0xb78af09db76f04abU, 0x36d2f7573757190aU,
  0xb725727d37533b2eU, 0x373b6b31b73fe995U, 0xb733a2c036f4a8b6U, 0x37239fe23764876dU,
  0xb7bcc26fb601e4ecU, 0x36203914b72096acU, 0xb75a233bb7766449U, 0xb7dd95483544e730U,
  0x368f33b63772fd8eU, 0xb77c9f5b36c926b8U, 0xb60491b4b73ba8b5U, 0xb6c706aa369841c8U,
  0xb7370821b6f46c4eU, 0x36c2a1bab7517960U, 0x37114daeb6c41206U, 0x37b31e6a35f36d60U,
  0x36d5b73237158b5dU, 0xb785ed423738387eU, 0xb7b02c6437cb898eU, 0xb71d39c2b6e8073cU,
  0xb6cafd89b6326ae8U, 0xb71441a0369bf932U, 0xb73054f4b78bbee0U, 0xb7c1d56d36a3dc78U,
  0x3779635ab74e9d2fU, 0xb79389d036d67bdeU, 0x35fe2210b69ebc18U, 0xb692abb037248998U,
  0x378e44b1b696fb18U, 0xb7b95b3bb6db09eeU, 0x37860815371eb19dU, 0xb7ae2d9bb77dfadcU,
  0xb751ab2eb6126ffcU, 0xb6f7d488b6588fb6U, 0x35aa8b28b7a660d6U, 0x353a1d783736a60eU,
  0xb6e7c46a374f54eeU, 0x35c29148360ea33fU, 0x368e558137235050U, 0xb7228b31b74ac6eaU,
  0xb5027b16b78570e9U, 0xb668de18b736c4d2U, 0xb479ade03743c1fcU, 0xb7a06d4f375cb52fU,
  0x3752ac0937930904U, 0xb749571b370b6ed4U, 0x37549816b6595235U, 0x372046ad359080d8U,
  0xb415ce00b72b3273U, 0x3756aa9c345f53c0U, 0x359556e8b6bdb646U, 0x36aa014ab6f764aaU,
  0xb707e374b730481aU, 0xb7de63f436cc5d92U, 0x36bf441937716407U, 0xb54419f8b6b80798U,
  0xb6f1b99c373c09ebU, 0x3805fd9bb7615d81U, 0xb6b53b88b6520fe4U, 0x361c46dc3748f8c2U,
  0x376224c5b70af142U, 0x3737e0ea3736fccdU, 0x34dd4440b602da33U, 0xb7710c8ab73d1263U,
  0xb6e3376e3746072dU, 0x370f1bb13731ddf5U, 0x361e828eb70e4f8aU, 0x36b76226b7216a22U,
  0x377787c6370a558fU, 0x3750d338b7b781daU, 0xb70339ae35865f42U, 0xb794268836b9ab76U,
  0x36090ce3379f3f50U, 0x36ce08ff36bf1e36U, 0xb704ce4237bfe1b9U, 0xb75da21e35a7005cU,
  0x378f1bc2b6b74348U, 0xb518a8a03697f048U, 0xb74b784637a7f15dU, 0x366e760c36c3a78cU,
  0x36ac55d9372799ceU, 0x36a3a959b607dd84U, 0xb7d801e8b679212eU, 0x37b1f3fe375b6ed2U,
  0xb7535667b6f2c127U, 0xb73a40fc364d865eU, 0x36bf610037510208U, 0x3655ffc53703a1e4U,
  0xb51c4b40b7e9a488U, 0xb60fc274374416ecU, 0x36dcce46b541cc60U, 0x379f41aeb74fe317U,
  0x37f452f636c8e236U, 0xb70ed244b6e150f8U, 0xb69741beb763597dU, 0x371d749036f36072U,
  0x373cae3cb731f7faU, 0x3720c5c13821808aU, 0xb6e76c843736232cU, 0xb6c9d08237ca7fc3U,
  0x3819eb19b67530f4U, 0xb756f5d1b6ec64f2U, 0xb6286e7136ced936U, 0x374e94143758bb13U,
  0x3624da7b3724345fU, 0xb301e6003767cfabU, 0xb740b7f8379a2435U, 0x37181ad437686c93U,
  0xb79f2cea373a1627U, 0xb76ef727b6ea6e68U, 0x371aaec834c6cf80U, 0x358832483752bc26U,
  0x372667bf37827691U, 0x368182e03732358aU, 0x378104fab6305f50U, 0x345e20e0b72a334aU,
  0x377c0b00b70db2e0U, 0xb5a129aeb72e3654U, 0x36323d843712c8cfU, 0x378a281bb75bf091U,
  0x36ceba63b7a4bcf4U, 0xb60b9c4235d2c3f8U, 0x3833ff38b6f368baU, 0xb64b03d8b7e9fc06U,
  0xb795c4e8b68e22c4U, 0xb545c1d8b71acefdU, 0xb6f1d1bc376bd417U, 0x37ab84343707dd8cU,
  0xb5d428a0374df325U, 0xb4f16228362bf1caU, 0xb667ba10b7a391fbU, 0x368f8429374f64b3U,
  0xb41a0860378b8941U, 0xb66c962835ddb588U, 0xb6e47b80b7395436U, 0x37708f52b792f010U,
  0xb68e6d18b5825764U, 0xb6c511803754ac56U, 0x36e404e8b786c62aU, 0x37d26bd1363650f0U,
  0xb609649436958e1eU, 0xb79996b9371d6b44U, 0x329ad80036f64af6U, 0xb6d44db5b64cf9bcU,
  0x36a7767e34e9f180U, 0xb59bdb5537eb0d2dU, 0xb728614736d9a56eU, 0xb80d6000371d4a42U,
  0xb7787f2a36b4022aU, 0x374e2a91b70cf182U, 0xb692d1c835942d70U, 0x3744b9d1b62f14a8U,
  0xb72621643628b2b7U, 0xb790643037240eacU, 0x378f3252376b69d0U, 0xb6a5b74138048ff7U,
  0xb77ef5173786d677U, 0x37a6897636c29a98U, 0xb78a7739b6f150edU, 0x36f14478368ffd60U,
  0xb7098ab2b74c4c8aU, 0xb71e7e84b730e693U, 0xb72e7f9136ed8b30U, 0x377fc109b70cec9eU,
  0xb4da0730b69bf047U, 0x374ed646b688a7c4U, 0xb6b54269b67d7c34U, 0x37565d3e35bc8058U,
  0x374274cc381338eaU, 0x371ab9523507ee90U, 0x37829aee378781f3U, 0xb599d6b03706fbdfU,
  0x36331352b6bd94d2U, 0xb74a67ba37602688U, 0x374a2563366f7bcaU, 0xb7132f88b6900269U,
  0x36a90e7c37559fd3U, 0x3706269fb6a44b31U, 0x37bf71bbb707c875U, 0xb656b2c0b73da639U,
  0x361bdfd234640bc0U, 0xb7c1e8f837461240U, 0xb7aad392364c00b4U, 0x3788ded7b62c7f07U,
  0x377795c633fbf700U, 0x36391c70b52e24cdU, 0x368c588a37b24bcbU, 0x360caf2837b2f8feU,
  0xb612ccd436f9c37eU, 0xb6eb980236edfedbU, 0xb70d178c36fbef03U, 0xb6e3e0a0b71cd7acU,
  0x3642ec30b6dbbab6U, 0x36012b30b70ff9f8U, 0x35a1ee0037eba940U, 0x36d87278374e90d2U,
  0xb68a1fc53787ea39U, 0x37ae0429376f2261U, 0xb6fcaca2b680cdfcU, 0x3626f0483792acb1U,
  0xb6c01dac372025daU, 0x34f52cd0b811a4dbU, 0x365705deb7aa8b35U, 0xb6a7574a378096bcU,
  0x3744b637374c6974U, 0xb4ad75003754a07aU, 0x3798de0034986220U, 0x374f4e47b54c5830U,
  0x371a9f5735a46dd4U, 0x347d020036de741eU, 0xb6a02a7a3648fe28U, 0x36149238380094beU,
  0xb6b91cbcb68a307aU, 0x375b378035694ae0U, 0xb7b1c6e9b82e24c1U, 0xb803575337128fbcU,
  0xb67766da37c746acU, 0x36ce670c36a46d7fU, 0xb7a8512f35cc77b8U, 0xb6341100b7379808U,
  0x3496df20b7823830U, 0xb6d8a99c3601d9c0U, 0xb5210a6035039170U, 0x379e64beb63dca08U,
  0xb6fc38b6b7878828U, 0xb7337ec636f1f1fdU, 0x37e6af493794c008U, 0x379c5d3b34e8ec60U,
  0xb75aa268b6dd4c80U, 0xb75c6d3c37c04379U, 0x364034aeb688dd7aU, 0x37914de63704583aU,
  0x3781adc337ad2694U, 0x37db1f4e36c52fc0U, 0x36afaa34378d0b5cU, 0x37fe3eceb7612c0cU,
  0x36913232b7ab5e43U, 0x370b39a5379ef44dU, 0xb728628e362fb976U, 0x3797e20636dbdff1U,
  0xb7cd0bf4355499c0U, 0xb79d8c2035dedce0U, 0x370784dbb69fabe2U, 0xb61ea534b789fe34U,
  0x364e0e0e358dc12cU, 0xb7795b08b6bc2a8eU, 0xb611d6f7371ed39cU, 0x35375e6037322c45U,
  0xb6875a6e3697e6c4U, 0xb7c0ea28b724df4fU, 0xb5246742b5d1d6e8U, 0xb7b773ef374b4166U,
  0xb6350fcab6bb7936U, 0xb578480836576a92U, 0x36e4c863b607ebf0U, 0x371c708037519247U,
  0x372a41fcb70957d1U, 0x35a06ca4353795c4U, 0xb65bb850b6d55c72U, 0xb6c77396b6a09752U,
  0xb467614036812676U, 0xb6dc808eb7a9ef81U, 0x36a24402371a5db5U, 0xb4237f5037519a2aU,
  0x37387c76b55761d0U, 0x37c6a85237046505U, 0xb6fa1b8837d5a978U, 0xb7353b50b70643e3U,
  0x36c9f0c5371f4fdaU, 0xb70cb8a3b74c4e26U, 0xb772745236da841bU, 0xb7316bf937db5a18U,
  0x376be39833c06c00U, 0x376f94d0b5ff0908U, 0xb65d1c54365868feU, 0x375eca78367af530U,
  0xb7c4e977b7414028U, 0xb734b89e3596cb28U, 0xb70e8107b79599adU, 0xb781bfe3b6d14146U,
  0xb7e46e70b5a75040U, 0xb774686537530c12U, 0xb5dad290b59997e8U, 0x37196c84b37b1980U,
  0xb7e82bceb6ffdcfbU, 0x37305d6537849d32U, 0x34bd33803712fd7fU, 0x3748770836c87e6dU,
  0x378e876f37829088U, 0xb763cb82b6667632U, 0xb7c9cc51b786329aU, 0x37d3b1d7b7603878U,
  0x37242c72376db0a9U, 0xb7715f2cb76c3f14U, 0x3762e9d7378530c6U, 0xb6bc338237125790U,
  0x370b6de436d1f1d5U, 0xb6ee1973b6d53b90U, 0xb483a30036978dd6U, 0x378633dfb79a8a1aU,
  0x36e5b29e371d602cU, 0x376be300350d4c78U, 0xb60252983587b065U, 0x35b42176370edb5fU,
  0xb6ecc8dab74cbc19U, 0xb74143e035958fe8U, 0x36f4298c33ce7a00U, 0xb5c19b1ab70fd45aU,
  0xb7380bfdb6dfd8faU, 0xb765e6613728d9acU, 0xb737762e36a20b72U, 0x37985455b785b099U,
  0xb71d0f57367161f4U, 0x374ad95d37416f20U, 0x36500d66b696d38eU, 0xb735f9c53757f5b5U,
  0xb796cab3b7bd11deU, 0x36ecb91c371a98b0U, 0x36b68b5cb757f370U, 0xb73f7416b7743294U,
  0xb7e37fe4b7632258U, 0xb7626655374a2340U, 0xb7aee571b7973a3fU, 0x36a84c4cb7990a46U,
  0xb7991898364f2a40U, 0xb720da1236b3a454U, 0xb5c2aaf0b74d4792U, 0x3774184a360e29a0U,
  0x361724c7b769e780U, 0x37ce3c3735e88698U, 0x377acbb1b776fb3aU, 0xb72699feb6ff5c9aU,
  0x37eadedc35dfe51cU, 0xb50b736c37166dc4U, 0xb670dddcb7513ab5U, 0xb71f5900373d13a1U,
  0xb79d2642b568a8a0U, 0xb562dabcb6dff01cU, 0xb72fdf5e3762c104U, 0xb7478734b70c3467U,
  0xb707ec54b71ad927U, 0x34c84c0037bc79f0U, 0xb7099c8fb606849eU, 0x3737ba3fb79e7af8U,
  0x3747cc88b77d8740U, 0x364b96a837b3bbf6U, 0x3762fdba35afc54cU, 0xb782c43fb79d5859U,
  0x36b8b77437a1527fU, 0x37b31b6634837468U, 0xb58cde4cb6830b1aU, 0xb73233b6b79f8c78U,
  0x36ef1c75b777955aU, 0x36622304370597faU, 0xb79c7efe37819fceU, 0x3645b28837da3c02U,
  0xb70208dcb725be5bU, 0x37bab4b4b5fb6608U, 0xb645c92bb700692cU, 0xb63f1832379037e6U,
  0x36b8cdee378db94cU, 0xb721db28b748ed49U, 0x37337866b60593b0U, 0xb541d0583792f57cU,
  0x370fe687b5f26b01U, 0x3767a3e636193660U, 0xb79d7be2b6c11af9U, 0xb7946ef6b6250a5cU,
  0x3688e024372c35c9U, 0x3712984bb74093c0U, 0xb714870ab72bbc1dU, 0x36f14746b7835ae6U,
  0xb5ee5cf6370ee0b4U, 0xb6c0368435d0bb10U, 0x379ab762b795e9baU, 0xb758e2cfb657a534U,
  0x3677c52d37083c69U, 0xb7216617b69febc0U, 0xb77a881036bbc004U, 0x370561e2b726f46cU,
  0xb7925c10b6eeba36U, 0x37228de1b660f028U, 0x3745c77db73845f5U, 0xb7ebe9e733466e00U,
  0x382e85ee3753e28cU, 0x375cf72eb5646dc0U, 0xb6cb106237570f09U, 0x3655ebec36de7afbU,
  0xb7717f383692e074U, 0x36f3a9943638cf34U, 0x3780e48fb72828fcU, 0x37748de336d9436eU,
  0xb58dafddb7ad2aecU, 0x36ffd82337376d26U, 0xb58b7cac3815d14cU, 0xb647f941b6464218U,
  0x37ac0723b6458becU, 0xb7287df236c9d958U, 0xb7965cc9b4f35028U, 0xb7659239b580d508U,
  0xb6d9750ab76ec54dU, 0xb649bc0e340beb80U, 0x35333ec8b6b39eaaU, 0xb757d91435fde210U,
  0x364eae9037288af5U, 0x36dd67a6366d4961U, 0xb7d1aaa8375bfa6eU, 0x3327ba0037566e5cU,
  0x3758b590366c6806U, 0xb70e969a35641238U, 0xb75a5bf736b16b04U, 0xb6d2da0f36589f80U,
  0xb543779837432a64U, 0xb71cefd8b77299f1U, 0xb7038f99b7033662U, 0x376d3e493690fb98U,
  0xb614ffa236140480U, 0x37c7a109b71ea4a8U, 0xb738f38ab65702b8U, 0x378302f637873ccfU,
  0x3787dabcb7e98b54U, 0x34580b80b61e1c9cU, 0x3619a184366f48ccU, 0x378924d937b80754U,
  0x37d23188b6f6a26eU, 0xb5303bc037070bc4U, 0xb6ad0a4136033902U, 0x36979d4e352a0800U,
  0xb7387df6b792d8d8U, 0x3796502a3714eba0U, 0xb763273e37d64fc0U, 0xb6b9a992b6aaf350U,
  0xb79759feb7862801U, 0xb71b14c037684226U, 0xb7397160b76afa0dU, 0x3625cbae373c30a2U,
  0xb66e82c8369eaa70U, 0xb610ee88b8182590U, 0x37046a66b682a017U, 0xb7835a24b6ddd588U,
  0x36f1873cb7986784U, 0x361f45a9b6dbf330U, 0xb6cdbfd934af7360U, 0xb778f390b607c6f0U,
  0xb7366f1d375bb372U, 0x381e02de37813ae6U, 0x37d84b3836f76e6eU, 0xb7285b67b5c759bcU,
  0x365b7d9bb6f326baU, 0xb7864112b7d68a49U, 0x3721758db7dd3218U, 0x36b9f89435a3d180U,
  0x36c5c962b6198bb8U, 0x382016a135f86360U, 0x3733dc5c3736e2efU, 0xb69acb1c33de1b80U,
  0xb60a59b436a7a69eU, 0xb53cad88362d2ad9U, 0xb50e37a0b74a5582U, 0x36cec18eb69b2b30U,
  0xb6c34d2cb71062f1U, 0xb762cd1fb7cc6463U, 0x3755c79b376b472aU, 0xb4989f00b678c129U,
  0x36a126d0b706f158U, 0x35cedc503753f266U, 0x36839cd8b5aaa534U, 0xb7db961eb700cf04U,
  0x378c7caeb6c8f6a6U, 0xb6a6aba8b69bcf5cU, 0x36ead2cbb4f4a9c0U, 0x371c4b9636ae86ceU,
  0x367a081cb7502634U, 0x377d0259b7a05fc7U, 0x3662153f37133848U, 0x373b4aeab82c4226U,
  0xb73a4e5fb77e346aU, 0x3731f3ac3695239eU, 0xb64f9488b6d335acU, 0xb78e5bbeb7dd2b90U,
  0x37012c1ab817e5b1U, 0xb6b4a99836f800caU, 0x3781bd4eb6afe57aU, 0x375fc21bb60931ecU,
  0x36996b24b4e35674U, 0x3767c07fb567fde0U, 0xb698a112b701d002U, 0xb77971fbb6d8567cU,
  0x36a2739437509fdcU, 0xb5c2c49036d8e86cU, 0xb823fede36013924U, 0xb718e3c035399b60U,
  0xb7c4dc2eb744d1cbU, 0x3786038935bb27a0U, 0xb6f7154437d8e526U, 0x34e940c0b7d8bf59U,
  0x361d4b0c3821e25eU, 0x376dedacb5bdd0c8U, 0xb6aacb103755e783U, 0xb71241a3b60aa378U,
  0xb7e81103b765592cU, 0xb7276fc1b799b877U, 0x374de3f036997dddU, 0x35ab7e90b7e39c8fU,
  0x36c723ab36bd66f2U, 0x363f97a5b783cf4eU, 0xb665bca834dcafc0U, 0xb6d91d98b62bcc67U,
  0x37af55b7b7072ae4U, 0xb73c8f1ab74672d8U, 0xb78ca83537a9588aU, 0x375634d8b7039df3U,
  0x3223b400380608e2U, 0x36e8c6cab5460500U, 0x371e0df1b731173dU, 0xb72fb4ff37813130U,
  0x3523e3e0b635db8cU, 0xb78eadb63618ffc8U, 0xb68e463eb5155850U, 0xb794c6d836c9a936U,
  0x370a6724b6081026U, 0xb747371736c78490U, 0xb747edba371a15faU, 0x3764cf8236236430U,
  0x37502492372d9ff9U, 0xb3f21620b74eb364U, 0xb75a1e82b6c50507U, 0x36a50d04b7a4f860U,
  0xb7619cd0b6448310U, 0xb743b7bdb75ac01cU, 0xb75d067636f48462U, 0x3794f87e36e3ffe2U,
  0xb594d8b4b7773234U, 0xb7bdebad35dc8dd0U, 0x35a4abd8378f358bU, 0xb673f8643756212eU,
  0x36a6749b37729c99U, 0x36b647a8b74affdbU, 0x37889593376a0b12U, 0xb735d124b7414b74U,
  0x37ccd278b67c808aU, 0x368c070437605dcaU, 0x3774e3bc36b6fa92U, 0x36f5cdcc3771c868U,
  0xb794017237c815c3U, 0x36060748b70235d6U, 0x36af2011b6e0a30fU, 0x377ce1fa3790b6d1U,
  0x35dcbde036df8528U, 0x3540b5a0b6447740U, 0x35f51fd03722ae82U, 0xb70831aeb7eca84cU,
  0x3657b990b7c6bcc6U, 0x3688c11ab72afe70U, 0xb3c1f82036dcdc59U, 0x361814deb7629ff4U,
  0xb66d89dcb759bcd1U, 0xb48e8660b629e4ccU, 0x3684034bb72a7d86U, 0x37af342c370c36a8U,
  0x355b2d1cb70c5154U, 0xb744b3f8b63a7124U, 0xb702aa263774d1b5U, 0xb43568c0b73a3c2aU,
  0xb794937538337a18U, 0x36edd87fb5654b60U, 0xb7271e1cb740f171U, 0x36639666b72c1d42U,
  0x35a280bab4a821c0U, 0x347bbe9036c394b4U, 0x36ceb379b72e7ce0U, 0xb593020c37765464U,
  0x34b64fe0b69ae170U, 0x36330268b66053f0U, 0xb73ea81a378ddf3cU, 0xb6446c943763bc15U,
  0x35fa5068b6bee63cU, 0xb75d9e9b37855112U, 0xb6a00e0d36c22da2U, 0x379f311cb7755324U,
  0x37329e4fb765d905U, 0xb718ba0c362ab422U, 0xb8109615373849edU, 0x37ed8592b7686b7cU,
  0xb76b3746b78396feU, 0xb784d866b774a103U, 0xb6d65c61373ae068U, 0x3604d2a8b7035ebbU,
  0xb6de101037830824U, 0x36516bceb778d676U, 0xb7718834376bcd29U, 0xb70a39b635a3a458U,
  0xb6bc07c237441b40U, 0xb74d0cc037760b5bU, 0xb7693ea036194e3eU, 0xb7a475aab7d83c14U,
  0xb5b409663821d76aU, 0xb6980795b7c88d82U, 0x374fdc73378a0bbeU, 0x356fda40b5c29988U,
  0x371654bdb7dd3fc2U, 0x36f274a1339581e8U, 0x376be856b7ca254cU, 0xb72de45435a8d8e0U,
  0x36b7b645b79b47daU, 0x3691636fb77025efU, 0xb75b8bc5370e32d4U, 0xb55b8a70b7582e0eU,
  0x3404a1d0379543b4U, 0x3798a7b9365feb74U, 0x364a9154b72ae9d0U, 0xb784e052b71a467cU,
  0xb6858db837789904U, 0x376995bb354185b8U, 0xb480ecc0b7750bfdU, 0xb73a3a55b78bd454U,
  0x37721482b6d3b99aU, 0x37d18f9b37046b12U, 0x32459f0037247782U, 0x37138810374c6ec1U,
  0x378fb47e370fc2d2U, 0xb73b5722b724043cU, 0xb6a0e6343561b192U, 0x377d1af3b5bb5348U,
  0x36a8cbc4b7a5840cU, 0x36786372b79b1979U, 0x35a91f5834a90440U, 0xb70cac8f36e64c37U,
  0xb5f465f0b770214cU, 0x3811afc5b40ed500U, 0xb786a938b5939c8cU, 0x36eb1f2a374c5003U,
  0xb5f1ffe8b77f406eU, 0x379ea0d4b62a6f88U, 0xb641cc04b4962c80U, 0x35bafa58360427c5U,
  0x371d2b3135a1f644U, 0xb77dd4ecb758ae9bU, 0x371241beb51c4ad0U, 0xb6aa360336311459U,
  0x37659712368941b0U, 0xb62068283643b008U, 0xb6921108b6986ed8U, 0xb5dce070b76d9991U,
  0xb5b94e383793ba4eU, 0xb78565503787f209U, 0xb7eca6af3728614fU, 0xb4394bc0378b1f8eU,
  0xb7290439b793462cU, 0x36f9467236d39efaU, 0x37248dfe3733d952U, 0x37e2631eb72b6243U,
  0xb701c27a373562e0U, 0xb786fd3db71d2d4aU, 0x36036d60b81248daU, 0x37501f0c37bb17a2U,
  0x35d08d9cb75b35fcU, 0xb6c510f7370145e6U, 0xb7924669b602a682U, 0x36ec671737955776U,
  0x37667a7f36f46fe1U, 0xb6fb48ee3723c547U, 0x37096040b5368e02U, 0x3780604b374b35f6U,
  0xb723a03e3588fdb8U, 0x375a23c037e7d22aU, 0xb200f200b7468ec7U, 0xb74684683729b3d5U,
  0x37d5e9aeb76bc1beU, 0xb77711d1b74bb556U, 0xb76e209bb7cff580U, 0xb6828ff5b6cae844U,
  0x34edaf2037e21ca6U, 0x35d7011cb3611f80U, 0xb69d1b52374f90e8U, 0x36bdd1a03740c543U,
  0x37b2591a359da76cU, 0x36aa74f836d0b514U, 0xb78891c3b6c070b0U, 0x369150d43831886bU,
  0x374eaee7379c006eU, 0x364a8bd4374b19ffU, 0x37c1ba9636215ec0U, 0xb6f93199343583e0U,
  0x37abe8a4b6bbd5efU, 0x37dac9a8b6aa17e5U, 0x374b2943368d6926U, 0x35e1ff60b72f67e8U,
  0x37546f96b6307512U, 0xb694da9cb7bc105aU, 0x35d65e30b78bd0c1U, 0x379a2a63b7d9f683U,
  0x3713a15036c7e0ceU, 0xb72be7c4b78e1f96U, 0x3589d070b6f5c06eU, 0xb7ae4bdeb71b24e9U,
  0x370d81c737956aeeU, 0xb72ca28ab5470480U, 0xb65d2f60380844c5U, 0x37d50465b5a5b258U,
  0x34f4cd50b70603a4U, 0xb7797906b77351f7U, 0x36096beeb7639648U, 0x35f9eae8b79b8c34U,
  0xb748e816b711ddb1U, 0x377ed299b67fb2eeU, 0xb6f05e2cb733f128U, 0xb731a784b78e8d19U,
  0x35d1c768b778e56cU, 0x3425d234b79218ceU, 0x355b4c0037b229b0U, 0xb5dd57e837024e91U,
  0x36ed47e2b6b0c6a5U, 0xb6be74303632109cU, 0x370c1d4736ca0a86U, 0x361647abb5d682fcU,
  0xb53db3e0b7b1c2a2U, 0x3747dab7b6155e8aU, 0x363244f0b74a3796U, 0x37847bc3b709ef21U,
  0xb6df49aa371815efU, 0xb7552d3937215ff5U, 0x373c4faab7a07bc0U, 0x3759194c37c992aeU,
  0xb5bfbf38b5be8308U, 0xb71a90e8b739d49eU, 0xb7c2f6eeb7af40b8U, 0x37b78e2e36e82597U,
  0xb7a16685b5927648U, 0x379da1bb372c6502U, 0x36004f88378dd11bU, 0x3693bcbab5cb9284U,
  0xb7285dc6b6d64ed6U, 0x370be85e36d84936U, 0x37978f98b5ebdefcU, 0xb711fa063700bbaaU,
  0xb72ded5a37b61b0fU, 0x37001bdc37050713U, 0xb690760db715164cU, 0x373b3ba2341b6a80U,
  0x36ed75a6369cf567U, 0x37d8aaae3688307dU, 0x36a3c14337689648U, 0x36b7772eb6f19811U,
  0xb69d684ab7e0f1f6U, 0xb717cdf736cf52caU, 0x35fb3a7a350adcd8U, 0xb7220c52b7350390U,
  0x369c0d72375ae97cU, 0xb5c16cd837585478U, 0x35865e90b7da7781U, 0x365f700436a757deU,
  0xb6794019b7e3708cU, 0xb70fa89236944fb2U, 0x37199bde364c6751U, 0xb7572ba2b7ae6bacU,
  0x36a0a285b632be02U, 0x35e972f8b7a1ff2dU, 0xb763b4e8b67bf003U, 0xb7112fae378212aeU,
  0xb7c7ab43b6b57bb8U, 0xb602ea4237a9da71U, 0xb762053a36fee15cU, 0x37e7ab9a352de500U,
  0x3723e37bb6f64bdcU, 0x348960103744da1fU, 0xb5e289d636ea87faU, 0xb67a471db76c6338U,
  0x35d7c1d037005c27U, 0xb6c9a946b4738960U, 0x376c56fdb3f3e328U, 0x3682fd1eb53e7ae0U,
  0x3555c65036a5d7d0U, 0xb7905c3cb68240dfU, 0x379f1675b7b7a3c2U, 0x37022d42373b49efU,
  0xb356c180b6eac7daU, 0xb7710cf936d13392U, 0xb748c37135dc3894U, 0x379095f0b75e11a3U,
  0xb58ab2c837bb53cdU, 0xb59b9e4434c07990U, 0x3755667e375ffd24U, 0x373552a8b7816c33U,
  0xb71b1648b5c17130U, 0xb77ae50936257890U, 0xb6eb611a3517031eU, 0x36523cca37bfed46U,
  0x37475ed4b74f84d6U, 0x36e6711cb772486eU, 0xb537d4d8b582c880U, 0xb6f6c3583546cc36U,
  0xb7843d4cb7e22376U, 0xb622e789b7985613U, 0xb5b84020b7335bb6U, 0xb7db8eab34624450U,
  0x36ec589436fda92aU, 0xb6d043943710c75aU, 0x36ac2713b78e508bU, 0xb795a427366582c4U,
  0x3790209237a9d9d0U, 0x3638e368378e471cU, 0xb717da853789369aU, 0xb70c4d72b70a9785U,
  0xb724dfeeb68e3e54U, 0xb74b760fb55284c8U, 0x369cd808b6dd4c76U, 0xb7c74e1fb7608ad4U,
  0xb6e7bc62b6844a7eU, 0x3786531c36419b78U, 0x3780925b37692db7U, 0xb459bfd0b79f3541U,
  0xb4c655603576d624U, 0x372cae9e37451a13U, 0x34dd924036d3e00aU, 0xb685698cb7b0beaaU,
  0x3746f433371f1cc2U, 0xb761f00cb7665d5fU, 0xb6bce8d4364b4ed8U, 0x37910ac0350c4c60U,
  0x37161385b759a212U, 0xb7c123e93733bc38U, 0x36bb2023b7031c32U, 0x37267dd0373f822eU,
  0xb539ed60b6794971U, 0xb67b3e0eb7183a40U, 0xb781128e361ff450U, 0xb723a685b69f5b5cU,
  0xb6f2f1ca37d3ef40U, 0x37a0e70637d4089eU, 0x375d3495b52fd8c0U, 0x370ed656b7075679U,
  0x3733da2eb2122b40U, 0x37d6a28c36946eeeU, 0x370c327737736e2fU, 0xb4f302a2b68494faU,
  0xb7d8cc51b7a7b012U, 0x371af4fcb7e3bd44U, 0x371af27436855300U, 0xb7893a1c368c6b7aU,
  0xb7bc65e13518c414U, 0x376f7bd137510490U, 0x378e1ca936d13e0aU, 0x36c52fc8b6e8c82cU,
  0xb6ba9cd836e9a8fcU, 0x365a5578b70a7f2eU, 0xb64a9db436010e70U, 0x37886f65b7ffdb64U,
  0x371b81dfb6978b8fU, 0xb77487a73708afbdU, 0xb7bd205bb6a4b481U, 0x34abd3a036e1b30dU,
  0x36e3a1f036d6cc54U, 0x3759eae0b76b6986U, 0xb7ef7585b4dcc1b8U, 0x3741a617b788d3fbU,
  0x369bfedd36dde8e0U, 0xb6ec3d80b6e68a3eU, 0xb4d019e03782d5fdU, 0x379c236637883603U,
  0xb702c690375b7a22U, 0x35bee42037246552U, 0x366231ac3780bf24U, 0xb577d00036629d28U,
  0x3720b262b70f78d6U, 0xb755f4c8b64d8134U, 0xb78d2477b3c3e480U, 0x3718a27eb78321a9U,
  0xb7bb1828370e9536U, 0x360d2a04369c70f0U, 0xb5a3c548b7002202U, 0xb6c3c2b3b7bef342U,
  0x3576c176b68727baU, 0xb725e4143746fdf6U, 0xb6432b67b4c16520U, 0x365cd3ae37a54a2fU,
  0xb781f0f9b78f2d55U, 0x36d2484ab707d5e2U, 0x3736207db706c0faU, 0x37a6d0ae36e7f054U,
  0xb522996c36f6e4b4U, 0x368e92ce35d7fea0U, 0x36f32622370cb211U, 0x3681cb6f37613378U,
  0x35b5fc10b76a2acdU, 0xb665318cb7829eeaU, 0x34b97998b77bd23cU, 0x3521b93036cb003fU,
  0x348dc0d8b6e69406U, 0x359c4fb037e751caU, 0x379704d8b6af07e0U, 0x36c589b437d4ee2aU,
  0xb5c134c8338cca00U, 0x36baea2ab6e4ea34U, 0x36c704c2b49d3450U, 0x370cb38436ca2e39U,
  0xb791d266b7037d71U, 0x35676c1037cc9e41U, 0x36008258b61a7de8U, 0xb644b334b4aca4aeU,
  0xb703bfb6b7d1a86cU, 0x36ff97f2b6df68c8U, 0xb72256ba378364d0U, 0xb751867eb6149034U,
  0x379910d235ac1f78U, 0xb7c08cf0b7573102U, 0x377e1f4ab76892c9U, 0xb6b4469b37d72704U,
  0xb74569c7b774b432U, 0x372201cc370e852fU, 0x35a226c0373a7ef1U, 0xb6e76500b8304265U,
  0xb7771cf8b59df000U, 0xb69884be374e08b4U, 0xb6e1d70037f0f77cU, 0x37bb0b9c378554feU,
  0x3753cf58b66e402cU, 0x34dab2f037737014U, 0xb71d3e11b7b5f6edU, 0x37964a16b6173422U,
  0xb7fab8a0b7e47826U, 0x35942644b695fd5aU, 0x3771dec8b775c302U, 0xb58ed290370fe284U,
  0xb7079b8634ce2040U, 0x367622d435e25220U, 0xb7af158db7818557U, 0x370705d1b722da41U,
  0x37685310b755f0beU, 0x36a1e6a4b705e41dU, 0x353239c0b52911e0U, 0xb7c4dcaa37a588e2U,
  0xb72f3822b5a94908U, 0x36a91445b736ae86U, 0x3766087d376b64c8U, 0x360bb5da35ad1729U,
  0x37c888dab708bb89U, 0xb73172b137e1e7d6U, 0x3682fc1d363b0878U, 0x370e095537923a13U,
  0xb6d651a7b71b8f5cU, 0x37122911378148baU, 0x36db4e52b74cdb92U, 0xb744f1aa35817678U,
  0xb73f79d9b74af6e0U, 0xb7d14c92b6fd20d5U, 0xb61a7cb03697f665U, 0x36864844368e2ff8U,
  0x37d2db68b7487e62U, 0x37341eea374542caU, 0xb56cf8a0b6e4056eU, 0x372678eeb2db4860U,
  0x359909ec378ae41cU, 0xb7573f04b7407cdaU, 0xb7dc1aa23797263aU, 0xb6841c7c3720bf84U,
  0x3680cbc736f8b0beU, 0x374f5634b7650e98U, 0xb66ef85bb5f5c871U, 0xb74607a037616ccaU,
  0xb6aba3c8b5ddb893U, 0x360e65a4371dd8acU, 0x36e10fc136b87104U, 0xb677c064b5f33c08U,
  0x37b3814837763cf4U, 0x375a2feab7d4b97eU, 0xb7699c54b78eb802U, 0xb6b488263753f93cU,
  0x367ac9ae37bd3f67U, 0x3780e279377f3d21U, 0xb758f51cb78770c3U, 0xb70c87f1b6abef08U,
  0xb6ad326037cfbc24U, 0xb65a1ae8b68b2eb6U, 0x3787bb0137a23932U, 0x34985610b64f8894U,
  0xb748aac1b58f36a0U, 0x3714082cb75b3cf8U, 0xb76dfcf1b6f291f4U, 0xb68b783ab6d2b660U,
  0xb5cbc184b82efd15U, 0x36968757b7651b31U, 0xb79166bd3574a6c0U, 0x361c1992b70bdd3eU,
  0x37340c83b696a5dbU, 0xb7e843ecb727f881U, 0xb6f5c439b59aaf70U, 0x36588826b5b3b610U,
  0xb7753ae1b75e4a80U, 0xb74fc20eb7287f58U, 0x374a6c60b62518a0U, 0x36c8625a35931d42U,
  0xb7030f24b70441d6U, 0xb7b20d3db773bc18U, 0x3790342037af98caU, 0x375aa6e2b6db0856U,
  0x35f6918cb66f45a4U, 0xb6d2b544365a0000U, 0x3781bf89b782f264U, 0xb6256f24b7cfb298U,
  0xb513e598b6c600ebU, 0x36dc2b6bb3f304a0U, 0xb60b7b95b4340118U, 0x36973d4d371836a0U,
  0x37164336b6a521eeU, 0xb59d0125368f57a2U, 0xb7257a4436b6c86aU, 0xb58f2550b593bd28U,
  0xb74c6ee3b74102dbU, 0x36d4b40c341a2040U, 0xb77a812fb7b413d0U, 0xb5394b68b6dda6ecU,
  0x3535b61c37574f74U, 0xb662a17e37720bceU, 0x36ebc43bb78712c7U, 0x38004048b75bd4d9U,
  0xb6d91b5737e03b2cU, 0x37b9285ab799d2f8U, 0x3760644637c0af2fU, 0x378374a8b7b04660U,
  0x379059f03798d81dU, 0x368f5240360567c0U, 0x37264289b767fdd4U, 0xb6f68facb37fab00U,
  0xb7c0b4e1b69d419aU, 0xb5d5fa24375acc14U, 0xb5cd1bd0b67127e0U, 0xb7621289b51b2730U,
  0xb7cbf5eeb7625b2eU, 0xb51650e0b70c8bc3U, 0xb690471cb72994dbU, 0xb6ecb05ab6f0f561U,
  0x379897d936c2fba4U, 0xb7263cf8360245a4U, 0xb7046e2337c725b5U, 0x374fe06437395668U,
  0x35d866b03632be8cU, 0xb79597b6b7381cb2U, 0xb78cead934693d20U, 0x375549fe3761516fU,
  0xb712111a374cf0b5U, 0xb650465c36dc7622U, 0x37159ceeb6d0c23eU, 0xb768b0d2b757fe64U,
  0xb7923abcb754151aU, 0xb73e9f0d36c05a22U, 0xb7b1672a36d724caU, 0xb744fb0337a5180aU,
  0x370df75c376d3ad7U, 0xb6e88fe8b6dea631U, 0xb658efd8b770e53aU, 0xb788a933363158abU,
  0x36d5c594b66e4dc1U, 0xb63d815db74b9250U, 0xb718566ab6e0ff8cU, 0x36931f82b5624c80U,
  0xb6e8e19cb640f561U, 0xb4c52640b6b31c46U, 0x3778c008b65be148U, 0x37c26c3a36e9080eU,
  0xb7275913373bce18U, 0x36b8d5663792518cU, 0x3703b2e836b0233cU, 0xb6662c303748ae9bU,
  0x35606e0cb5e96300U, 0xb640ca78b65c20e8U, 0x3791c326b7957191U, 0x376ce41c37853a4eU,
  0x36c5dff0b7750ce0U, 0xb6c333d2b6061340U, 0x37548357351ec150U, 0x36cb0aec36540d74U,
  0xb79dda86b78c48b6U, 0xb5017ae4b74faeaaU, 0xb5ae07d0b5a1ad30U, 0x36533872b733da48U,
  0x3678af00379dd786U, 0x3775df4037a48ba7U, 0x373e83de36b2aabeU, 0xb786db9e37aec679U,
  0xb76ce404b7938f76U, 0x3742b6a7357e3560U, 0x36872626b7a89996U, 0x35e4c254379dc068U,
  0xb6a860263706d7c8U, 0x373830ae376c206cU, 0x3685b80837af65d2U, 0xb640b392b7864770U,
  0x36e11af2b7997642U, 0xb6c750c234958fccU, 0xb6f6fd1834e42a3eU, 0x3615a1143770e063U,
  0x35d61938b73fb035U, 0x379e5477b7d260acU, 0x3706aec736c8bf91U, 0x3490a940b66da5bcU,
  0xb668f16032f6b400U, 0x377942453710cfd0U, 0x37866cb3b5db1690U, 0x36d7a417b7112118U,
  0xb58c356036c92b90U, 0x35869250b6037238U, 0x36b4feca36e86c22U, 0x37473ea837881c67U,
  0x37a36b6c372ea6a6U, 0xb68c157db6b2ed12U, 0x36e793ce34a784e0U, 0x36051640b48b3700U,
  0x36c2d7f1375740adU, 0x37bf62e0b7804822U, 0xb5ec1d8c36c79efaU, 0x369334a2b6101998U,
  0xb511edc0b598fe20U, 0xb6c2db8ab5fefbc4U, 0xb7ed673037a02509U, 0x373452a8b7d70b66U,
  0x3678695037072ec7U, 0x34c241c0b7c9ec72U, 0xb6cde39eb72d1683U, 0xb793c801355ae570U,
  0x36d41804368c3820U, 0xb6eae208b5c2c8b4U, 0x3646cfad3736d94eU, 0xb6a17f14b6c82884U,
  0x3607f9d0b784a9bbU, 0xb72d062ab51c06b4U, 0xb5236590b789567dU, 0xb619723437819780U,
  0x376c070b37e93827U, 0x3776754a37466397U, 0x35f6353ab67f55e4U, 0xb6778a9f38216fadU,
  0x37c0a821b52eae08U, 0xb786a91cb6cc8815U, 0xb70eeac237b50252U, 0xb7d80368b7572974U,
  0x355dba00b70a6b8fU, 0x3791c23e37072458U, 0x377bd320b721c19fU, 0xb65c49fcb50ad680U,
  0x341e6940b617ba60U, 0x370b9c16b6a4e982U, 0x370e1d3b363d5c64U, 0xb42fc480359ce8c0U,
  0xb7aab75bb72bb2dfU, 0xb77604e437560861U, 0x35f473e4b62fcf08U, 0xb736412136ad3b55U,
  0xb6fc4063b7cdaef2U, 0xb7ab0a4fb6e33e84U, 0x3550a380b7c96d16U, 0xb6bc9c0c3741011eU,
  0x367e4bc237bf95aaU, 0x362a7ce4b7676417U, 0x36dd707eb666535aU, 0x3725a303b78bd1acU,
  0x37909152b5e92078U, 0x370cb8ceb73b016aU, 0x37a247e13751201cU, 0xb7e60168b70ebe16U,
  0x36dadc5c3716763cU, 0xb6ff3aeab62e7174U, 0xb71ae6d6b7ce64bdU, 0xb6c8fd70b7409c61U,
  0x37872b0a3742c0b4U, 0xb709c702b711f618U, 0xb7b84a4b36c96adfU, 0x369a2c0f372458b1U,
  0xb65d6350375d0e88U, 0x36bf620ab5459010U, 0xb7919e8ab6f93450U, 0xb67d2a3c37a85064U,
  0x36854f43b6e2ff49U, 0xb76c17163784572cU, 0x36f61054b78608f2U, 0x3770f0e2b762a2dfU,
  0xb75bc07e36cf5324U, 0xb6e69b0cb58e7498U, 0xb69532aeb74bc650U, 0xb763bc07b7950d3cU,
  0xb714563b35b8d4b0U, 0x37284f04b65c5bc7U, 0xb6972538b722e040U, 0x370fd8f7b771da70U,
  0x379c95ef34e624e0U, 0xb5966cc0b7050610U, 0xb79820bdb75fe067U, 0x37a20141b63c7886U,
  0x3746c4de37b8d3eaU, 0x3714282fb60fa7a8U, 0xb73212db3720f4c2U, 0x359e62f0b7516892U,
  0x36dd329bb69e9c48U, 0x3796f942b797e405U, 0xb5b1299037b0eb26U, 0xb736f8d1b698768eU,
  0xb778d977b6503b4cU, 0xb70c4ef0b71078f9U, 0x36dc056f365332c0U, 0x37c142e936b87ab2U,
  0x3696eeccb6d25955U, 0xb7007a6bb70c5cf8U, 0x37ad956937b7d675U, 0x37d89d97b7498033U,
  0x36c3bb70b6d33ad2U, 0x3761c0cc360768eaU, 0xb6f33ffe36defd96U, 0xb739fe353782111fU,
  0x378a5082b6058bd6U, 0x378e443637914812U, 0x36b0245437918462U, 0x3719b9da374adbf4U,
  0xb79bf8c4b73c08b7U, 0x37676477b5111708U, 0xb69d2ef237182504U, 0x36a806a036708a08U,
  0xb785efb336a263b8U, 0x3743a6bf38032cd3U, 0xb638115836703913U, 0x37d68c41369c7234U,
  0x3731751eb780558eU, 0xb51399e0b827365aU, 0x36939cfa34d875c0U, 0x3621b40eb797e3a0U,
  0x37823a3fb7c66bd7U, 0x3709065e36badb5aU, 0xb7d3f3f1375f41ccU, 0x37a476e4370086b3U,
  0x374f4aafb7827e1fU, 0x3718f8b1368decb2U, 0x3687674c37f80154U, 0xb6a0d3c5b77e132cU,
  0xb626deb837805731U, 0xb462cf50b7455d03U, 0xb74e00e2b58c78b8U, 0x369b1b08b6a21ae8U,
  0x3759d0f83754c8a5U, 0x3770556837ea0ae2U, 0xb6486930b69a38eaU, 0x3702ad58b6a044a0U,
  0x36b6eec536b23919U, 0x345d55a0b76dd14aU, 0xb68ac1a237983749U, 0xb7170e68361cece3U,
  0x36aa97a3336fa100U, 0xb722ecb6b78f976fU, 0xb5a271eab6813d05U, 0x371c24ddb6cef8d2U,
  0xb7e2eb6236f011caU, 0x36a03db637486d4eU, 0xb6d8e2c037d51d56U, 0x35dc53f8b59da700U,
  0xb671c70136cc58bdU, 0xb6bdfe5c37de3f34U, 0x34e75828b75239b4U, 0xb63e9f30b7421c96U,
  0xb72da692372fbadbU, 0x375872b2378b107aU, 0x368820433630f8f0U, 0x37452f7cb74be176U,
  0x375e709c365479a7U, 0x3743b4ffb79ef1c4U, 0x3744833d37a2dd2eU, 0xb6dbb240374a8b51U,
  0xb7e3489cb69fb3c6U, 0x378645bd35843860U, 0x37ae90de365a68c0U, 0xb7a8fd0836fd8c1dU,
  0xb6ef712236073590U, 0x37d08e4c37ace104U, 0xb70901e7b79ce98cU, 0xb4d8860c371a65cfU,
  0xb6eada5fb6a07d05U, 0xb5966d8836174694U, 0x371479a8370308eeU, 0x35d7c02036f9ed95U,
  0xb5454380369ecab0U, 0x36f98155b785fad0U, 0x36caf292b7bc89c3U, 0x3772c23536ee20fcU,
  0xb6c925da36685f75U, 0xb788ed5ab78ab42aU, 0xb62e96cc37b97a2fU, 0xb7999f98360c0c20U,
  0x365b1044379f419eU, 0xb67846e4b599bb78U, 0xb70da00a377e3926U, 0x379cdfd2b7e56cbcU,
  0x36e29e2a370a015cU, 0xb709a795341c79c0U, 0xb40d67003819e386U, 0xb6657993b7b53dd0U,
  0x36b83a14b6279394U, 0xb7336ff637249406U, 0x3757f846b7c0e3a2U, 0xb6e57b3735139ce0U,
  0xb6b221dab6cfed8eU, 0x372b1c55376454a0U, 0xb7465aa7b7dbd096U, 0x3806cf02b776b0c1U,
  0xb41e9620368064fcU, 0xb60fea543718bbcaU, 0xb6b1df14b71ade96U, 0x3739b8b0b6e30b35U,
  0xb7c8e1d136b2f154U, 0x3611e9f4b7d9f3fcU, 0x372e2be9b6bff563U, 0xb6e4b11237380e4eU,
  0xb7737904b6f6e560U, 0x366c9afeb7bf312bU, 0xb6122984369635b8U, 0xb744d745b74a441eU,
  0x371b80bc36d4f2e8U, 0xb4feea8ab6b8af7cU, 0xb4cebd20b6f0e468U, 0x378587c6b773246cU,
  0xb7277ad9b79d3fc8U, 0xb654c854b6e71b16U, 0xb6749dd6b82fa1cfU, 0xb68e6767b5ccf450U,
  0x340df8c038185326U, 0x37927438378f762dU, 0x3714b9cc37d42f84U, 0x3782f81836e777b4U,
  0xb6c62f873752bfe2U, 0xb7118424b7605190U, 0xb57fb260373b44ddU, 0xb73b549736c167d0U,
  0xb62976a83698d31dU, 0x36816c07b6bddcbcU, 0xb7199b04b7b35f90U, 0x372a977536e96ad4U,
  0xb7a5a7c53793446aU, 0x362ed9d5b6520d48U, 0x3646649836878052U, 0x368d0cc4b7e8df8cU,
  0xb682e80fb69a6a6dU, 0xb72f236036d36f32U, 0x370e38243759c1e8U, 0x35b0e175375f2d92U,
  0xb6c632fdb5a14140U, 0x35dfff38b70114c2U, 0xb711d684b51a5170U, 0x37730d7e37373741U,
  0x378ceaa737433a02U, 0xb74d4b5935316168U, 0x36cd3f72378e3fa8U, 0x37888ee936fcfa8fU,
  0x368aacf2b730b22bU, 0xb66ebf94b6e12737U, 0xb748424233b34668U, 0xb78bfb8b364df5b8U,
  0x3664a5e6b69732bcU, 0xb7a7031db69e7db0U, 0x35819e88b69a0df9U, 0xb507db90372fbd57U,
  0xb7a8e7d2b7e7a5f8U, 0xb6fa93e73694aafbU, 0x3787579b36afc7d5U, 0x36866fd0b7550ff6U,
  0x373d1a833732ee06U, 0x36ac4852b68ef035U, 0x3726381d352d8410U, 0xb551b350372bc1d5U,
  0xb7111afcb7a59c91U, 0x3664d0a436010dc0U, 0xb54a9850b78085b9U, 0xb74441c8b7c35f15U,
  0xb783623e3674ef40U, 0xb73b75dc37747e15U, 0xb71f2397b74042e6U, 0x371d1357b648e62cU,
  0xb6fd06c236775996U, 0xb6c8cef2b7ca500eU, 0x37855af5b789849bU, 0x3732483037b1e780U,
  0x370efdc736f5a64eU, 0xb57adee037cf93b0U, 0x378ba43f358f8788U, 0x37188502b7c01df8U,
  0x371302c6b70fd224U, 0xb70b2ef2b6f9e9b8U, 0x3724db6b37ad6c81U, 0x35a18de8b7588e48U,
  0xb70eeb76b682da4eU, 0xb6828b88b5b8fe20U, 0xb62c03883556bd70U, 0x372b47eeb738532cU,
  0x3747a611b5842ebaU, 0x36d6fcac37b3dc6cU, 0x377e1c5237832691U, 0xb76d1749377af360U,
  0xb724f682b6fddc84U, 0x368d6e68b79dd49cU, 0xb6a45f86b73e8e6dU, 0x37653b68b7762a98U,
  0xb6afa50a37b40c95U, 0x37811f03359a60a8U, 0xb51baecc3738272cU, 0x34c29420b73ac664U,
  0x37965be9b7d19700U, 0x35ddfdee38006c79U, 0xb7c04730b73c5c8dU, 0x36ffc43436c0c44cU,
  0x374495a837e89d7eU, 0xb7c2e3b4b748f5f4U, 0xb7ff26beb6349228U, 0x3549df8db7a084fdU,
  0x370be090b7c79b7dU, 0xb7addc49b64ed0a6U, 0xb756184b373d8a3fU, 0x372e18d236d35a8dU,
  0xb7b6735236cfcd3aU, 0x36d1d506358ceff0U, 0x3690c467b7cc0897U, 0x36dd8406374bbae8U,
  0xb77c017236a35133U, 0xb700c894375aafacU, 0x37194fa0370eb958U, 0xb7600aeb32e46a00U,
  0x37514b62b413cda0U, 0x3650937bb6bbb574U, 0x37a9736137565cb1U, 0xb5dad4913719c4f7U,
  0xb51f4500362f1f50U, 0xb556272cb79257a1U, 0x3660aed13719289fU, 0x3736a9b9b7a1af38U,
  0xb5712180b7e35fd7U, 0xb6271e28b74d22fcU, 0xb73b8e4e37b3f93cU, 0x372559d5b6f9f20bU,
  0xb721716cb7128775U, 0x3662a9f4370cd5fcU, 0x36051ea0370b769fU, 0xb76e97dab6931d8cU,
  0x370c595eb6a2cca5U, 0xb5b2d8f6b75c3c12U, 0x37b406dcb6e366f3U, 0x376d84be3748c696U,
  0xb3e0f4c0367c746dU, 0x377390a8b7227066U, 0xb6af22e338029f80U, 0x3750410c37142c9dU,
  0xb64af9a8365329b8U, 0x3791881fb699de0eU, 0x378f6577b49d54b8U, 0x36bd54de3740ef04U,
  0x37c7afbe371fbfeeU, 0xb7d123b8373c6829U, 0xb6e54b94b71907a1U, 0xb77626a036f9b906U,
  0xb751f58cb6847544U, 0x36dfdf4c36a4836dU, 0x378d1b0bb70fa597U, 0x3731c228b75557f2U,
  0x3560f84036e92d16U, 0xb7761a3138062716U, 0xb48ef5bcb48f4c80U, 0x34deea2836874172U,
  0xb6edc98736c3f1acU, 0xb78e3828b7ad9ebfU, 0x350d7850b7781616U, 0x378c71163747e79eU,
  0xb5999b9837838039U, 0x37135e5eb5bd1a59U, 0xb74c6243b6e0311bU, 0xb3d38400380b10cfU,
  0xb653505cb7be5164U, 0xb6eed01e376f969dU, 0xb776abf0b7617bd2U, 0xb794cd7fb6d569f6U,
  0x35e649e0b6631be8U, 0xb631e228b6b5e2e3U, 0xb68f84bcb72c0ec9U, 0x370456d6b73d5200U,
  0x3688396c36d08d9dU, 0xb7460171370e39edU, 0x3743ef1036f01643U, 0xb790923fb6bfb6f2U,
  0x370fa26336f571c4U, 0xb720b6743700b6baU, 0x35b2a9feb53e3bf4U, 0xb60e500eb765f60eU,
  0xb70685c3379339dfU, 0x36600285b7226db0U, 0x3755033236aa39b8U, 0x37858b0db71c3096U,
  0x376fc01ab6a50a3cU, 0x3783cb0636d37d55U, 0x35073f20b69ea5b5U, 0xb679549eb6c9058aU,
  0xb74ee8c8b773e2e8U, 0xb6b8620eb5326030U, 0x36e158a9b649feb1U, 0xb73ae4e1370b827cU,
  0x37b713f6373989d7U, 0x3759e5ce375b4022U, 0x37867d1f359a182eU, 0xb700ce00342f4140U,
  0x372d4f0e35489100U, 0x36d28e13b59c3a48U, 0x379badeeb5ae631aU, 0xb7072184b67660c6U,
  0x33082640b6808dc2U, 0x36e239ab372a14e8U, 0xb730b0adb5d92974U, 0x36eb885fb70a5e9eU,
  0xb78285b9b75a5b86U, 0xb69c96ee3700a6f6U, 0x3785f64137216c30U, 0xb600819c36a5c4a2U,
  0x3792c55237c80ca1U, 0xb7542f6335eb6bf8U, 0xb62a8d7c37638accU, 0xb6e99024b7807e3cU,
  0x379175f3350eafb0U, 0x374e6f6037dc720eU, 0xb5fab2c836ae056cU, 0xb74eb39fb7498770U,
  0x37354c80b7e3762cU, 0xb789a024b6a00ed4U, 0xb791ddb435f53c60U, 0x35ad0798b7b1ce6cU,
  0x36598018377c0256U, 0x36a0a814373877c2U, 0x3608701cb7012a69U, 0x34c353603796615eU,
  0x378d9514341f6bf0U, 0x367e4b333797b849U, 0x354d1d20b725037fU, 0x3659c71c373ae4faU,
  0x36eb5d9f3458f240U, 0x36c753d23731dd4cU, 0x379b7262b6b8f3bcU, 0x365d15ec374f485cU,
  0x36c742a4b75850f4U, 0x37c7eb7037622f21U, 0xb6f162643532d868U, 0x36eb6e2637b179c8U,
  0x36bb997636dce86dU, 0xb7d52cfab763db67U, 0xb6e04425378f74c7U, 0x37a23debb6bac4c6U,
  0x364b68fa3690f3b0U, 0xb6910a3837c7e4beU, 0x34b25380b5ad30d4U, 0xb7ac5992b5639e50U,
  0x36d89f71b6d73ba4U, 0x3766edcab69a678bU, 0x374a44c03692c684U, 0x36b583f03799a4fcU,
  0xb7276bebb616889fU, 0x3699acceb7dbebaeU, 0x368fa612b7b31248U, 0xb58263e037a2037cU,
  0x3754a2d436a6b45aU, 0x378b4e1c3785a31dU, 0xb77f152137533ad7U, 0x370df15b3669dc3aU,
  0xb793291537412261U, 0x3722447932e1c000U, 0xb74abf82b74404a0U, 0x380ff035b644389fU,
  0xb69965243740e2caU, 0xb7d11ed036c4f079U, 0xb6c4c8e4b7920dfaU, 0xb78febc836d2ab20U,
  0xb7645cccb6a6744aU, 0x374c5608b7bff5d1U, 0xb6c6d5f4b74a63e6U, 0xb741150837cdd411U,
  0xb790be4fb615a43cU, 0xb822045e3694d5feU, 0x375ea42e3722860eU, 0x372e6e92b71586cdU,
  0xb7446f9837aa2ae8U, 0x3748c88237ae65b3U, 0x36a647a436f1d672U, 0xb79c67c7b76fcc58U,
  0xb74a4d32b414e600U, 0x367f10a2b5aad5a0U, 0xb77ad9b0b7008845U, 0x379065f6b7a844c2U,
  0x37988772b5a13f60U, 0xb7f4280ab721723aU, 0xb745af3ab746c5b1U, 0x35a2318cb5853728U,
  0x36ebd8aa36912a08U, 0xb68fbb573758c67aU, 0xb77c47d8b781a843U, 0x3785379a34580de0U,
  0x374d3755b7d1d213U, 0x358204ba34013278U, 0xb72328f83786faaaU, 0x370006ffb69d06a5U,
  0x36307da8352118a0U, 0xb4416400377a1321U, 0x37cbe9b0b68d6876U, 0x3655abd83521f050U,
  0xb71668b7b7129d52U, 0xb6322df03750f23aU, 0x371f4656b77e2428U, 0x3686b1bab6b66332U,
  0x36cd4dcb371a0194U, 0x373dd35836b0b4f0U, 0xb753739ab61230a1U, 0x369fe514361498c8U,
  0xb5e3de48b6abce64U, 0xb69b2b12b757fea7U, 0xb735e29b3707450bU, 0x30d9780036d54f82U,
  0x37d5cdc3b4d9f440U, 0x374e2ec4b71da38cU, 0xb783c3bfb5c0188cU, 0xb71a8f53b739d0e2U,
  0xb7bdf21bb69835d7U, 0x373e7d7937543b9eU, 0x367c8c3e3736af98U, 0xb743a70c35f0ab98U,
  0x362800d83735832fU, 0xb775835e377a6cc0U, 0xb794d3783755ea81U, 0xb787716b36e586a4U,
  0x37e0f194378e95d5U, 0xb5fa4fb0377db2d6U, 0xb7080d19365086afU, 0xb7b8b24db6004bfaU,
  0xb54c3440b73adb04U, 0x363de44ab7a1c0b4U, 0x36e6093d363a3209U, 0xb5be3bfcb6d36ee6U,
  0x37ab05163758339eU, 0xb71baf50b76afeecU, 0x37a593ec363ba863U, 0x3669ceb8b6dfed0aU,
  0x34e1ee1034a94580U, 0xb6e9a71eb7c55879U, 0xb812cde03786c3e9U, 0xb70623e53772427aU,
  0xb6f1f817b3585a00U, 0xb7e8593036aaaaaaU, 0x36d430d6b79e64f3U, 0x369734ea375fdabdU,
  0xb766696e36a00fb0U, 0xb6f50389b6c325baU, 0xb784dbedb68837afU, 0xb6e4440eb5211860U,
  0xb66db7843782f718U, 0xb7367b35362b75d4U, 0x37300afeb5c4fffcU, 0x375dff88375f7924U,
  0xbd17c1c73e4f84acU, 0x3dd5dfdc3e6606c5U, 0x3eb650f23ee5fab0U, 0xbd50902ebd958fc0U,
  0xbd9e54b1be26b31aU, 0xbc06fbaa3e7377ccU, 0x3e3f2b9dbdad4431U, 0x3e556bb93e5ae289U,
  0x3e55be873e3b9a93U, 0x3e7c3c9bbbe88135U, 0xbb0271713e96738cU, 0x3e760451bd62e37bU,
  0xbe21c6463e18158fU, 0xbd3c159abccdc264U, 0x3e85fbeb3e37e1f2U, 0xbdf459b53da41e18U,
  0x3deaf3303e846fffU, 0xbdcb8532be5f7b12U, 0xbd6dbd42bd5887e4U, 0xbdeb6fd23eae2400U,
  0x3d86b8be3e709ac6U, 0x3e9bf48c3ea80f3dU, 0xbddbc277bde0c9a4U, 0x3e850174bdbfcc56U,
  0xbdd3516a3e6cff86U, 0xb6afe9b8374ba4fdU, 0x37964f3ab6cd1be0U, 0x357310e0b300be80U,
  0xb6fdcc22b4df51d0U, 0x36d6f5803783c32cU, 0x3747a7773736430aU, 0xb5fdde28382b55b4U,
  0xb748f34a36fdd442U, 0xb7ab1699355c3e44U, 0x357f6f9cb65662feU, 0x378167c6b7a4c7b0U,
  0x36db93c3b6e9d046U, 0xb6b54658382dbd57U, 0xb706bfb2b73f36aeU, 0xb75a390437067f49U,
  0x36960294b79daf8eU, 0xb6ce4e64b7964d88U, 0x3488b7d836883d74U, 0xb7eaf54cb80fcda0U,
  0xb325f78034e20c5aU, 0x3555ba40b6315c2aU, 0xb74e678437eb3463U, 0xb6abd3c5b794012fU,
  0xb5a03f20b6e85ac7U, 0xb74eea68b68207bcU, 0xb8234a4c36d06b12U, 0x3797ca603792ac64U,
  0xb6496fb4b70d8905U, 0xb7e380a1b76c05d1U, 0x366e8685b7042b75U, 0x37cf6f68360d1d50U,
  0x37505607b6d683bcU, 0x369ca512b6c0ea68U, 0xb78ffe67378f41f9U, 0x352d7590b62421faU,
  0xb6bd80e63681b156U, 0x3749d15e37287c5cU, 0x37ca8760b8386c24U, 0x34a98520b32da580U,
  0xb70dd512b76545ddU, 0x36826c0c37be900fU, 0xb7a6df293784707eU, 0x37e9d9aab7d1a53eU,
  0xb78379d833e8c160U, 0x339628803794d84aU, 0x36dc3c11b7821668U, 0xb6152be4b692f336U,
  0x370f5b8fb7684677U, 0x3698d906b618c540U, 0x369ad1ba35aa7839U, 0x36ff58c1b615e951U,
  0x32aac600b5e2bd40U, 0x3756d817b760e805U, 0x36154e623794365eU, 0xb6a6f446b79337e6U,
  0x377d4c70370af77cU, 0xb710df8e3732c51dU, 0xb6c01934b70c67a8U, 0xb64773043781c930U,
  0x3706c260b7837eb0U, 0x3787641ab726778aU, 0x36d18a35376ed97eU, 0x376a65ac35f292e0U,
  0x3788e2ca365e89f0U, 0x3696e34eb75701c8U, 0xb5f3c94cb76fbd7eU, 0xb7417dc6355fe160U,
  0xb7ee9eebb72c1115U, 0x37c43182b747f86dU, 0x3799d78a3752830cU, 0xb6cf187eb4834948U,
  0x374773bbb6878a26U, 0xb7078c29b6f17be0U, 0xb7037cf0b76f16b8U, 0xb57516d0b6787b5eU,
  0xb578a3e4b7913416U, 0xb71bec1cb7ea7700U, 0x370b4d513804c281U, 0x369df5d8b63d4c70U,
  0xb7e14586b6f35e06U, 0xb749678137c64270U, 0xb81111b4b76f5a80U, 0x3730061335b48798U,
  0xb6d156e234b8be80U, 0xb8233b9f38f971efU, 0xb7e7d91eb7ae530aU, 0x3697ac37378e767cU,
  0x36584bb83805f41fU, 0x37cd881c36d17f08U, 0xb68bf1b8b6f03b0fU, 0x35a04bc0b6d6d41bU,
  0x35d49a08b5c99480U, 0x3604999837d330e9U, 0x3665058e3371f200U, 0xb5bc8600b712e282U,
  0x36b3cb5436d5ebaeU, 0xb7abef59b6019ec8U, 0x37a5799bb557165eU, 0xb624e116368756fdU,
  0x36a4d4aab714d85eU, 0xb64a4c04b782eaa0U, 0xb78cbb0cb795274aU, 0x38005466b69c7eb8U,
  0xb77520b4b78d52f2U, 0xb73c47b6b6c07accU, 0x370bb1c437a3f076U, 0xb74839a43eb36a27U,
  0xb721826237f59593U, 0xb6aa3127375900a7U, 0xb7b3c583b948a6a4U, 0x3788bd2eb6a62e3cU,
  0xb7866cbd37047239U, 0xb6ef8ae437aa2424U, 0x37517e983604507aU, 0xb72140bcb7c9ce86U,
  0xb6832d3737b128ffU, 0xb67d8a2436d52086U, 0x3721904a3609e05cU, 0x37398270b4eb62d0U,
  0xb6d1f2b235a17dbcU, 0xb78a60e0b7fe7ba8U, 0xb7645ac737a7e4c6U, 0x34233cb03713180cU,
  0x3815caa1b704cd73U, 0x37c3b7d7b72fd2d4U, 0xb7b95758b6c11793U, 0x37589506b684c81fU,
  0xb73a9640b6939220U, 0x36a92b75b624e070U, 0xb7e176de348b47c0U, 0x360f94aeb71b664dU,
  0xb6e6f3a83742c80aU, 0xb77e1fb037a19402U, 0xb7295e68372df383U, 0x35527b60b6bc9c88U,
  0x368b445e378bce90U, 0x3520fd90b784065dU, 0x37b0a4f4369267aeU, 0xb760581bb704a107U,
  0xb77aefea3683f955U, 0xb73e07e236b3e668U, 0xb6841d1436844884U, 0xb71b5287373a6512U,
  0x3704c21cb7414fa8U, 0xb55d4510b72caa57U, 0x37500d48b68c35d2U, 0xb7894ad5b73e34a9U,
  0x3791ba6437291b3bU, 0xb6ce5bb4b7a22385U, 0x358fdc08375a837aU, 0x3805446a367592d0U,
  0x378b2e5136b540a0U, 0xb6642d08b7442538U, 0x35db5758371d7de2U, 0xb7497f58b71e04a0U,
  0x365103f0373eaf0dU, 0x37dd3e4c3802d8ddU, 0xb61547823714af55U, 0xb55af2b4371eeb5cU,
  0xb5eac9b8b8f1313fU, 0xb5ae9a78b70466ceU, 0xb75f748ab632eb00U, 0xb7d1d095b49feb48U,
  0x370ecfbbb6e43ee4U, 0x37747df537abc4a4U, 0x35d924e4364f9294U, 0x36e1be4cb4aa9428U,
  0xb735a97fb7ad0930U, 0x3803f8af371a0b18U, 0x36af4c8437f77fc9U, 0x376834f0b728de1aU,
  0x36f31a33b79f0572U, 0x3631a17c366c1013U, 0x378424e5b76da275U, 0xb3fa8780371ccc7eU,
  0x35e93ed037825a73U, 0xb78b8410b7509ef6U, 0x368628f3b7377c27U, 0xb4c31d8833cb69c0U,
  0x3707f2fe36262bc0U, 0xb559994038042db4U, 0xb7f7360e367d8c60U, 0xb71fab9d373b03daU,
  0x37d4aa5037a6e220U, 0xb69b5892b938d199U, 0x36d0bb28b56ec6c0U, 0x378b3a3c375b5edcU,
  0xb76feab8b7849512U, 0xb6eed41437bf32d4U, 0x379628f837960efaU, 0xb607561ab730cbf0U,
  0xb7084363b6c18bcaU, 0x36ab37a6377f7db6U, 0xb695981a37900c63U, 0x3765420737e283c6U,
  0x374b91fe3814c9aaU, 0x377021bc344701a0U, 0xb7d4cfb63730e78aU, 0x36558d6d355fffd0U,
  0xb7f9338ab79a34e9U, 0xb7a79a9c369afc2eU, 0xb70b7098b6f7c296U, 0x36918130b7c6208fU,
  0x37600518b728fa4aU, 0x3542e8b0370f1b5aU, 0xb6cb7dcbb7060ac5U, 0x37cb3fab36107460U,
  0x379373b5b695ef36U, 0x36e900acb6fdac24U, 0xb674618cb76fb532U, 0x37c9897f37c2b132U,
  0xb75fa59a37a61676U, 0x363e1d2a377c6a12U, 0x3680823cb6d686c6U, 0xb77b19f1b5da4990U,
  0x37c76eaab6f84e14U, 0xb702dea53706adb4U, 0xb7333349b6f9c402U, 0x37922b4db6ae13f0U,
  0xb75c5ab637004347U, 0x3744206037b2f4d9U, 0x37b65246378940c6U, 0x37751a5935eeb090U,
  0xb741a1c938096842U, 0xb7163dd5b75b3320U, 0x36e4469cb76cab77U, 0xb66d7cf3b6e2744aU,
  0x378f20ca37b7147cU, 0x379251a73735ec44U, 0xb6879860b76f6bbaU, 0x375c7bcc3687580cU,
  0xb801c525b826a995U, 0xb741bf9ab7006cecU, 0xb7b2c2c6b7c65e1cU, 0xb72924903878512dU,
  0x37c095f23720c251U, 0xb76effc2b74d4878U, 0xb71a46ebb657c7c4U, 0xb6ce0b54b81bd2deU,
  0x3723edadb709fb60U, 0xb6990600b78fbefcU, 0xb7af0c843768e3aaU, 0xb7c37754b6bef40bU,
  0xb6df9da6357ed5c0U, 0x372bd0c037e4c320U, 0x3747a0c93793db3fU, 0x3774646835e21fa6U,
  0xb6adee7cb77a5004U, 0x372f06f2b6961a30U, 0x37924234374c16daU, 0x3759a195374e469aU,
  0x3601d068b7c8de60U, 0xb5fedcf636ec9a1cU, 0xb605d050b7be77b1U, 0xb71018123691d490U,
  0x36bac35b37458809U, 0xb71c36efb88282f4U, 0x37577b03b7299f41U, 0x36a89a31b6f10447U,
  0xb754b712391a988bU, 0xb6a22cf8b6021d3cU, 0xb75c0cd1371f45ceU, 0xb6b214ee364b6cf8U,
  0x3753af0ab5fdab50U, 0x377ee1d2b5c7c182U, 0xb59cebe037876535U, 0x361b0f4eb7c9f1b7U,
  0x3785e0b2377d9b22U, 0x372b4d84377c249bU, 0x36991dbab792d668U, 0x36acd0deb72234b6U,
  0x37c3826237583cc2U, 0x366aa19437db6150U, 0x3779c2c637c62139U, 0x35ec5a70b72fd35aU,
  0x370e9bde379fae40U, 0xb729964c36cf0541U, 0x34636bc0369ce602U, 0x377a78fab7429c2fU,
  0xb69fde54b790ef74U, 0x3641ad6835808538U, 0xb78a6cdcb88c9fafU, 0xb6f0e4eab699b490U,
  0x35dcb1c035e56f58U, 0x33bb70003721043eU, 0xb6e1908637170af3U, 0xb789d4b8b7d92e72U,
  0xb66858c337754982U, 0x371e9b423813cb28U, 0x366ac68e3786537aU, 0x37b2916cb7144e8aU,
  0xb794ff4c377f11f9U, 0x360040eb38276efbU, 0xb5e67bd637ab0151U, 0x32eda900b77487edU,
  0x361d58b036b50374U, 0xb58a1f90b7f91075U, 0x3626c0d0b7a7e811U, 0xb62c970a36f3803aU,
  0x36870d4437995a9eU, 0xb81ae317b664e0ceU, 0x371bd82336c06280U, 0xb5d79d6836e60bedU,
  0x3788601a3689e394U, 0x36b5ae123779074eU, 0xb740ed32375d6011U, 0xb6b80b3eb7c8f21aU,
  0xb7fdc38e36039c2cU, 0xb6b0ea84b5f66ff6U, 0xb7741776b80c1647U, 0xb7878dc0b760ed25U,
  0xb80e3aa038154c58U, 0x37b4c1aa376d326cU, 0x361d35c837943778U, 0x3745802837a4988dU,
  0xb704b179b781a111U, 0x379993a4341e1f80U, 0xb3c405603472de40U, 0x378737ea369d593eU,
  0xb7129de5b4d06a28U, 0x379d20e1b7a571e4U, 0x37ab546c3650eb10U, 0x375988f4b62e9f54U,
  0x37b22e9f37438235U, 0x37ae43a23797be54U, 0x3711a790b7167a7eU, 0xb798dd9cb5b7e178U,
  0x364c71e4350b8910U, 0xb78a29d2b7b919a8U, 0xb70bec5fb5d49fdcU, 0x35d6d694b7ea0989U,
  0xb711336e3798f256U, 0x37445bd034804550U, 0xb70a28d6342f0ce0U, 0xb75d75963716d806U,
  0xb79bc3af35b77c66U, 0xb6fc66ba37a097b8U, 0xb77826c436d2d054U, 0xb70c73efb7133136U,
  0xb6087af0360919e0U, 0xb6f047d0b7a7eed0U, 0x374755fc351bb738U, 0xb64c12343723d576U,
  0x36a60a22b7094ce3U, 0xb777fb00b607c9fcU, 0x378fad9337c53cd3U, 0xb6cdea4a368e0e42U,
  0xb70fca34b70f81caU, 0x378c398437c4456cU, 0xb7ab486fb695e248U, 0xb6f95da8b7109475U,
  0xb7000e0037e5c81cU, 0xb590adf8b7c3db77U, 0x37403f86364da33eU, 0x35ca924037939c61U,
  0x38306e993628ebc0U, 0x373416b2b6b73cacU, 0x367dc4f037344728U, 0x3709a760b67d04ecU,
  0x361269683396b840U, 0xb78d3383b7b6f7c8U, 0xb76c9f9a36969877U, 0x37797d7035386370U,
  0xb75bbc2bb7b7b850U, 0xb7711ef9355307a0U, 0xb6394e4cb763dda2U, 0x3400e240b5afac28U,
  0xb7861369b6727436U, 0xb6d460be365cb1e0U, 0xb6ea1570369cadf5U, 0xb76c7f193789141cU,
  0xb6e9e5123610a21aU, 0xb75167cf37cdf23fU, 0xb70e2feeb562cf10U, 0xb7cb9b59b618d238U,
  0x36ed49ecb79d59a6U, 0xb7f01974b7470f0cU, 0x37972360369f40c0U, 0xb7b5f0abb7048e25U,
  0x37ce82aeb5dc4088U, 0xb57c65c0368d1c2eU, 0x37b16829b72ffb76U, 0xb70cdca236e7672cU,
  0x363988e836d46430U, 0xb631104436e742b6U, 0x3784db58b74591b9U, 0x375e9ea9361542b7U,
  0xb7e36a14368ea20eU, 0x3602acb4b69345e2U, 0xb7e79d74b6007d16U, 0x37a45417b7289f8aU,
  0x36c01158b768ff56U, 0xb6452b70368ff7dcU, 0x3674a783b77395caU, 0xb6ccd7f1b64b5f80U,
  0xb710a3dfb711b12fU, 0xb7d3029337aaf21dU, 0xb73d2d3f3790e24fU, 0x3658f2f836f4bcf2U,
  0x3764621037a4ebe5U, 0xb773ff4b37bccdbaU, 0xb776cf54353cbf00U, 0x3634a170374bf37dU,
  0x36fd065a369d697eU, 0xb6ff586bb6fb3363U, 0xb737939437916156U, 0xb757b49bb7a39dadU,
  0x36d6c62436dc37a8U, 0x37d53f5936a077caU, 0x36e625aab6a8215fU, 0x34ceb10035c1e8b4U,
  0x372243ee3647620eU, 0xb6c68ff0377700d6U, 0xb673eaf8b741476bU, 0x367a923437b9e862U,
  0xb6995ad9b64e5f88U, 0x37f73bfa37d06250U, 0x37d8e7deb743fbd1U, 0x370620b9b79b22fdU,
  0x37fd0b01b70268daU, 0xb7854758b785ef06U, 0x3660014cb76043c2U, 0x36ffc908b59b7d78U,
  0xb70b3f8e361f10beU, 0xb75dbdfab7abef6eU, 0x36bbd709b7011dffU, 0xb7d7e9be37611307U,
  0x3684e53c3726117bU, 0x3795b5343778d279U, 0xb77e702fb5f86180U, 0x36d79804b74dfd6bU,
  0x3735d055374ba517U, 0xb79f0768b7e5e374U, 0xb61c97c0b5c1cc90U, 0x3757f9ecb6935cbeU,
  0x37eb18c7b595fa30U, 0x37880d1f37727badU, 0xb74e8df937399210U, 0xb757074e3590e680U,
  0xb7a29cd5360a7c16U, 0xb5f81254370f2aa8U, 0x36ba4d8cb6693c1cU, 0x368c752c35049bf0U,
  0x3678913cb617febaU, 0x35647030b6546b02U, 0xb69f5e36b6208920U, 0x36423e90b72a3d8cU,
  0xb687d1c2b78e94a8U, 0x358db398b6da0df0U, 0x37addeb6b6531370U, 0x37a6f7d9380da6feU,
  0xb6baf946b6d72530U, 0xb78434c4b7ed2d06U, 0x372c78ed373da0a0U, 0x36922436378771afU,
  0xb720839f37b55e5aU, 0x3804071bb72be582U, 0x34f12a0035a6cde8U, 0x368a17cdb71cb1deU,
  0xb6e67ddeb92bab61U, 0x33c2ee8034bd76c0U, 0xb621f344b564fef0U, 0x349db4dcb727401aU,
  0x35259760b7f75d19U, 0xb6ccc002b7f9c48cU, 0xb6860810b6258e28U, 0xb66b6ee2b646b5bcU,
  0x37680204b73b4bf3U, 0x3737f08c36e51cd8U, 0x369603c235fa7be8U, 0xb6c03decb60d9bb8U,
  0xb74b484737365b4aU, 0xb757db7e36ce0c24U, 0x374bd062b40accc0U, 0xb78d6ac336ae4ff2U,
  0xb76cecfeb55b1f20U, 0xb76d1d4fb7cc8e94U, 0xb7d9cc0037600b06U, 0x3776defc371b81caU,
  0x36de6e083782b5beU, 0x37b782f4b6336bd4U, 0x37dd5b00b6ca7c55U, 0x3792b13db6d4b530U,
  0x374e2a8bb764ad38U, 0xb709c345361623b8U, 0x37132f46b72920f8U, 0x37ca702034542d20U,
  0x36cf363fb73b6692U, 0x37686727373cc74aU, 0x37676cf237c3d967U, 0xb702b4b03758e83aU,
  0x377a5f19b7745fb4U, 0xb783ef6cb63dc848U, 0x374c27173753989cU, 0x37003d6bb6faeb08U,
  0xb59fbe20b70900c5U, 0xb63d96a4b7321540U, 0x3722030c3633cf68U, 0xb68bc5e9b590b390U,
  0xb773ae6e378cea00U, 0x365bca67b6c7aacfU, 0x34f78338b63d4160U, 0xb5fbfe64381462b2U,
  0x36bf53f7378e9c12U, 0xb70ab0da35f37ee0U, 0x366ea9c8b796dba2U, 0x37432084b6f0cb72U,
  0xb7581b06b7353143U, 0xb76375743745e1baU, 0xb6fff77d3701784aU, 0x3709dbba378e104fU,
  0xb714abebb734dacdU, 0x37835e12b8012a3bU, 0x3782018ab7509daaU, 0x36a71a5437828127U,
  0x37082d3bb6d54cd8U, 0x37017db4b7617856U, 0x37224b22b7019acaU, 0xb6a60c92381a6633U,
  0x3734bc63377afa7eU, 0xb787852ab610e950U, 0xb75bbc06b78f0cb6U, 0x382a2062b6dfd7a6U,
  0x365f5438b74ca002U, 0x37c009abb77dccbdU, 0xb6c6fca83763efb6U, 0xb7096ef3369dc0f5U,
  0x37cfe0e7b6f56248U, 0xb6931a3c3756f1b4U, 0xb78cfa33b5885c5cU, 0x377b826cb768e596U,
  0x3788482437064956U, 0x357deb98b5538e10U, 0x3733e02bb79c657eU, 0xb6fdf814b680112eU,
  0x37f415b4b6d4ecbfU, 0x363e0c98361ccb18U, 0x3754ae3d37593bc7U, 0xb7af591ab7b578d4U,
  0x36c8a9a4b76e1e08U, 0xb78372803616576cU, 0x3777e30736bb6f6fU, 0xb643b638380f42bdU,
  0xb74660703719b9f1U, 0xb70212e8b5301ba0U, 0x370de34cb7197e32U, 0xb79722e0b5fe9dc0U,
  0x3677b39937342abfU, 0xb5ee020036c70dc6U, 0x378fe3b2b5e1e054U, 0x378ffdac361f0908U,
  0xb512f53037571743U, 0x3791ca893784aac2U, 0xb77da6bd379c35b2U, 0x36b1a502b72bcd56U,
  0xb69a0751b789fb5eU, 0x3733ecaeb791845bU, 0x3783f25437b5732cU, 0x36b541ae37485b16U,
  0xb7983b76371a377cU, 0x37b9c9d0378d3428U, 0xb6ab54e2b6e6c90cU, 0xb78c050eb68ee214U,
  0xb6a46e6e34c3cba0U, 0x37be8e06b5dd41c0U, 0xb7d5e6f337a11fffU, 0xb7631c26b710885aU,
  0xb7b238d43712f9f2U, 0xb8045a56374de840U, 0xb7856ee436d22a2cU, 0xb708ed3b37cc678bU,
  0xb5dc37dc370745fbU, 0xb750e14ab78686b7U, 0x374df3dbb663958eU, 0x36818f2636a06797U,
  0x36d4e236b413b7f0U, 0xb7d3b4c4b6e6734eU, 0xb66c16d036e87ee1U, 0xb7120c84b71fe984U,
  0xb58fa04036bdf83bU, 0x36e42e8ab6a5fd29U, 0x372b93f0b726e298U, 0x372c934636d00901U,
  0xb72095acb7812df4U, 0xb754ecbab79fc4a0U, 0xb786d934b754cdb0U, 0x37401481b66d5386U,
  0xb754c432b7928f2aU, 0xb776ede5b70bc58bU, 0xb7d517a6b70036f0U, 0x36477210b741f797U,
  0xb5fac470b7f08000U, 0xb7065446b6b873eaU, 0xb69ce0acb5179b90U, 0x35884cf0371e7f5eU,
  0xb6b1ec14b7459384U, 0x35b2744cb6f340edU, 0xb7397db1375786d8U, 0xb7a5e094b6edfd41U,
  0xb712d4b836c1330eU, 0x375d15ff37619374U, 0x37289610b7afe9efU, 0x358cd1c0377dfd88U,
  0xb72bef9b37d02f6aU, 0x3698599d37666eb8U, 0xb65edd5c378ad4ccU, 0xb740edb2b8a9ee57U,
  0xb78db557b60e853cU, 0xb6f0de0c34b27ee0U, 0xb7cf77e6b97fd499U, 0xb73018223691440eU,
  0xb702ec0f35af27e8U, 0xb7907bf036329648U, 0xb7693750374cb40aU, 0xb7535b1f380f0b97U,
  0x368d332636eedc4dU, 0xb78a47e73642cc7cU, 0x375e21f136ba40bcU, 0x361bb0de37d222cfU,
  0x37731d4437111473U, 0xb6a868b0b66bbb48U, 0x3805341cb73e46a9U, 0x3746de28b6871fbeU,
  0x37f32000b6b0f3d0U, 0xb68605d4b6c38d2cU, 0x378ee1ad36d73910U, 0xb73951873628c237U,
  0x3521f35035499600U, 0x375cb73d37799ef9U, 0x36ab8652b747bfc0U, 0x36e0a8b83756791eU,
  0xb657fa98b6b2fad6U, 0xb74fc9f5b6f42b89U, 0xb6e7772e35bd332eU, 0xb7c7be10373f6d04U,
  0x3629d001b6e5fe96U, 0x3773e8fab693c2caU, 0xb74d1e003683c112U, 0x34c5990ab7132ef8U,
  0x374820cd366ee2acU, 0x37bee92131684a00U, 0x36ff9e4eb78d4a9bU, 0x370c02a4b7906db8U,
  0x37dd6be8b64c7b0eU, 0xb72ebc0f35dfec18U, 0xb700acbeb7987580U, 0x378c56753778c4fcU,
  0xb6cc787b377d3918U, 0x3656ec13375408a1U, 0xb770d254b765629aU, 0x37611f87b77e1b93U,
  0xb69d12feb7968f5eU, 0xb68d35e2b695d4feU, 0x3754e19cb748117cU, 0xb72f1cb536dc999dU,
  0xb590108836c08748U, 0x3680597ab70ad66dU, 0xb77d03fa3774253aU, 0xb69411ddb6f30892U,
  0xb76d90fa37a3d31eU, 0xb6bc212c36822fc2U, 0xb503953837855340U, 0x340afe60b7487079U,
  0x36b4d422b7ab79ebU, 0xb6391a1837998888U, 0xb751e412b773771cU, 0x35dd5a50b4014e20U,
  0x3731ae2435c7d2acU, 0xb70139d1365109caU, 0x371bcf88b531f1c0U, 0xb54c622037ac8a9cU,
  0xb74adb1935239a40U, 0xb6c7a95e37c7928aU, 0xb6358d37b68181eaU, 0x37770ad2379e41ceU,
  0x36d46f2437bcb063U, 0x379637f7b71d2dceU, 0x3746d7d9b6bd9b84U, 0x36a925f6b68e7aeaU,
  0xb6f56a81372a9ffaU, 0x36e9c9a5b6ea9994U, 0x3750af9a38314cebU, 0x36e8887f34fba378U,
  0x36dad202378ef551U, 0x36952ee3365ee200U, 0x37113f6234c3db00U, 0xb624e602378a959eU,
  0x3641374db79a1198U, 0xb794ef2db7303937U, 0x35a6f29836fcb11bU, 0x36d3be8cb70bb09cU,
  0xb5e0e28636fdfc0aU, 0xb78ba31a363e95d0U, 0xb738de2436a46903U, 0x380f0d62b74d768fU,
  0xb7861fcbb78488bfU, 0xb5b44760b7e53a58U, 0xb582c1dc362aef04U, 0xb7a8222ab7098305U,
  0x3628917836e42572U, 0xb6f0af12b6134a64U, 0xb60e4f7c35861ad6U, 0x368cfcc8b77783f5U,
  0x366719f437e5876dU, 0xb71425c8b78aea32U, 0xb7b8bf8c37ceb2c6U, 0xb71516a13801949dU,
  0x379caec2b7581e86U, 0x379e3fbb34e47620U, 0x3748322ab7de6120U, 0xb53ec090b55b4750U,
  0x36cdbca637bf980cU, 0xb7b5ad9eb6f5db98U, 0x360755f836903cbcU, 0xb74e16b3b76f2c00U,
  0x378c7918b6e14662U, 0xb6fc79a2b6c341f6U, 0x3707436236e50808U, 0xb7d53582b5ab6ad4U,
  0x36251c50b7df306aU, 0x36f47a74b6fc2d50U, 0xb543f1103655b43fU, 0xb7763aea37dcee4eU,
  0xb80ce9dab64668f0U, 0x344fbf1032bd7300U, 0xb6f0ce30b60dd7feU, 0x369e7317363006eeU,
  0x36f88f8037005da1U, 0x362cde1c37272f34U, 0x374139af3793f09bU, 0xb7278335b4ec2b80U,
  0x379b5482378683b7U, 0x3569709837474672U, 0x36daa7acb70a1e28U, 0x36ad36ee366d4128U,
  0xb700d38537edd862U, 0xb5e15b6037519d98U, 0x37428622b6cedda6U, 0xb7107f78379551baU,
  0x37e33c2c376d0266U, 0xb59dd808b7160042U, 0xb7a3c536374edb20U, 0xb7a165e7b76fb382U,
  0xb71ec6dcb777d79aU, 0xb646c408b56095b0U, 0xb5b1fc54366dcda6U, 0xb71eeeba377d3d3dU,
  0xb69e71a635c2f098U, 0xb5e68a00374bd613U, 0x377422d3b6b0ea92U, 0xb70e281fb7219a2eU,
  0x3701f507b6e6d3c0U, 0x37199e5d364de550U, 0xb6277e30b68a5df6U, 0xb7adc61cb6de2ad6U,
  0x37b4d78e36b8bb82U, 0x37b16be7b8e2a2d8U, 0x37e5211cb7227eb3U, 0x37b395eab7141fb8U,
  0xb5911f2038c68afeU, 0xb72c6d6a37bcfd1aU, 0xb6b91565b7e8378aU, 0x3782cc86b6b7af02U,
  0xb7876075b71daa40U, 0x3758a12ab7c53ffcU, 0x37f3bcca379b0230U, 0x368db4e4b74ca894U,
  0xb79e4ac1b69e63feU, 0xb603869f37808862U, 0xb799386ab7afa94fU, 0x37ba2b6db745a856U,
  0x374b46a535eae0a4U, 0xb5319460b76e6fb8U, 0x37b89683367e3838U, 0xb72369a6b86119b9U,
  0xb756246937aed52cU, 0x377cf4cc37f30a6bU, 0x37a687d9b74bd69bU, 0xb79627f3b791865aU,
  0xb6914f6db79503b9U, 0xb784d597b7b9e6e0U, 0x3730940f354828b0U, 0xb7829decb75678cdU,
  0x367a1faab786ef90U, 0x35946d22b7f2ccecU, 0xb760e3863797b8f0U, 0x37c3a951b62b5bccU,
  0xb7369526b7683a28U, 0x3682f29736a0b9e5U, 0xb5f66330b79fffdeU, 0x366336443768e545U,
  0xb79f331eb753a8aeU, 0xb70d7ec2b734dcd8U, 0xb6ec9c00378d0c90U, 0xb71910a4b7a47263U,
  0xb591342c37634bd8U, 0xb6970dceb70a1cbbU, 0xb81460a5373a11eaU, 0xb67295e237525187U,
  0x3593cb88b72a00eeU, 0xb7eba842b79a6382U, 0x37776b1837a46634U, 0xb7a665be3680fb2fU,
  0xb77e9b14b7986ea4U, 0x36adc23337dca830U, 0xb62b7c0037042550U, 0xb636de9037da258bU,
  0x36aaa3d236098124U, 0x34edcc0836cdbc58U, 0x3782352fb727688aU, 0xb72b3b9037cc5b80U,
  0x37d0e38237c22c49U, 0xb76c4e66b751ad36U, 0x3759a74fb70338deU, 0xb6f1a650b74613f1U,
  0xb7283295b5a20010U, 0xb71c1e3bb803798fU, 0x366bffe736f50367U, 0xb78174e9b7987282U,
  0xb7850d353797fdc9U, 0x37b37834b77758ecU, 0x36b493b6378c0e30U, 0xb55f2490b74d8feaU,
  0xb6ad7e8b375d5371U, 0x37438802b52c53f0U, 0x348b2e90b7d67ec9U, 0x3768fad937518acbU,
  0x36b2d99c377a0a3eU, 0xb6ad7dc6378bae1fU, 0x372a862636a12fc8U, 0x36f656a9b623c374U,
  0xb6cd50b4b70440d7U, 0x36e1bcdc378c6047U, 0x3793aded3676f97eU, 0xb77d41c9b6f4e6acU,
  0xb7893f6db7b7694aU, 0xb6ceba423727086cU, 0x36fa8576374aec27U, 0x370d553e37a28960U,
  0x37a61631b74503e0U, 0x37177f13b68156d8U, 0x36cfabebb5437e10U, 0xb763697736ce0728U,
  0x3732ed7a37914f05U, 0x36b0d62036b611dbU, 0x375cf2c5b6edabbaU, 0x37463aacb7af2966U,
  0x36e993b4356c0bd0U, 0x379339d4370f8156U, 0x36ccac21371adad6U, 0xb545de70370d52caU,
  0x375891a4b6e2e583U, 0x372aef77370dfd7aU, 0x36d21ca93680e766U, 0x363e467437430310U,
  0x37d530cd376a6b22U, 0xb573673036ecad96U, 0xb7ac2bb637292b6cU, 0x3773dafeb76afd70U,
  0x374d5136b705ebe8U, 0x352f5100b605edccU, 0x374c34b03769478cU, 0xb60028e8355354a0U,
  0xb79ce3c3b5be1efeU, 0x3799b1b3379aa5ccU, 0x36cc59f43716adfcU, 0x3781a767b70db95dU,
  0xb63b0304373a34a6U, 0x37555cb9379af364U, 0x36a44f2f372faaffU, 0xb6028a00371dc292U,
  0xb7571363356fea06U, 0xb6df7fb2b70e6bf5U, 0xb7bfe09e375d213aU, 0x35ded85c3673755aU,
  0x37961ceab6ff637cU, 0xb56a3350362af6e6U, 0x36e1e672b71241f0U, 0xb6a1c1d3b69ff732U,
  0x36296d62361334eaU, 0xb6971da5b7afcdd4U, 0xb5bdd44c374d09d4U, 0xb7d75a79b5819340U,
  0x36ab5df1b6b6fc27U, 0x361f065cb72cdf98U, 0xb6b673d337ba3ddeU, 0x37f90be6b7586930U,
  0xb673c7feb684cfccU, 0xb7182945b72192a8U, 0x32fd62003779be56U, 0x33b03fc0377600c7U,
  0xb74097f9b7af8602U, 0x36bf8dac3599fd15U, 0xb5fafe44b78861fdU, 0xb5581228b79a9aa0U,
  0xb76f47ae3759022aU, 0x380bff5036a8cf72U, 0xb7255b4ab6aa3d0fU, 0x359bc1c0b7d6ae9cU,
  0xb775b1e3b7c8faaeU, 0x35a6da00375dcc55U, 0xb35d12b0b70d4489U, 0x367d772037003343U,
  0x329cea00375ff90cU, 0x37b1029ab69e0ad7U, 0x3797b900378087ceU, 0xb6b013c234b80ec0U,
  0xb6a9d51cb7288b8aU, 0xb70d9e43373fa44bU, 0xb75e2f8e37b5f9e4U, 0xb6dd0330b6f98f1bU,
  0xb773be83b5846920U, 0x35b40228b610fd86U, 0xb665ee3eb61ba3c7U, 0x36e0f7fcb7aa8d79U,
  0x36ffaa20b7859326U, 0xb78a2714b75f2e81U, 0xb718e9a3b45fbe20U, 0xb615ea5b35823e98U,
  0xb7170e78370e01adU, 0xb68613cab7462e3cU, 0x36752b84b746480cU, 0x36a46aa8b6a65f98U,
  0xb6a41a10b49bf020U, 0x351e7060b7690eb2U, 0xb722b37836935211U, 0x379bff72b6d9e940U,
  0xb6f5544eb6c5e5e6U, 0x37f8b8a137665d7aU, 0x3706650837c3251aU, 0xb4d43c20b64fe674U,
  0xb7372ba4b7588044U, 0x367109b6b695616cU, 0x381e3d34372d0d12U, 0xb6c4c781b79fb7f2U,
  0x376e9499b7bca8b5U, 0xb79198acb7e31962U, 0xb691774933907300U, 0x36b927da37f1e937U,
  0xb6f576e9b688a802U, 0xb7239a24371bfcdfU, 0xb775fdf637bf35a4U, 0x36ac034e3635f888U,
  0x374000b735ce4598U, 0x368fd2c837d8358dU, 0x36d77f2c377a5c69U, 0xb76724dbb7ca3060U,
  0xb78c1baeb68e3203U, 0x377c6adeb7b777b4U, 0xb667f53db502f8f0U, 0x36264ac237a5cc78U,
  0x37453ebe37408fcdU, 0xb67bab7c3799faecU, 0xb770631db6a6f9daU, 0xb73b278fb7832187U,
  0xb6455004b57c0868U, 0xb7743a8d370cf858U, 0x374beb8ab70fb26aU, 0x371945c237866f1cU,
  0x3821f4e437c81aa0U, 0x3690630d37bb7d1dU, 0x379e7cecb6df90cbU, 0xb6bcce26b73c10d8U,
  0xb685745c35e28d60U, 0x340cd740377dd1e3U, 0xb6a560dc3715bf70U, 0xb6f69922b7c877efU,
  0xb526b1f0374ad81aU, 0x36efb8deb64c7368U, 0x35d9611c365f4338U, 0xb7537378b5389940U,
  0xb7129ea4b7e97c6fU, 0x3606560ab7067097U, 0x379d2be7368eebc4U, 0x358e0490b6befd8cU,
  0x374a972a3719bc83U, 0xb744c1a435f1d7a0U, 0x366d000637970544U, 0xb77367bc37a87d41U,
  0xb810bc13370aaf36U, 0xb7346a3bb64ca893U, 0xb725790eb6749066U, 0x36dbd32e358f1f48U,
  0xb7ae9409b7031221U, 0xb7ad88ceb6961fecU, 0x37b08ca2b5d2abe8U, 0xb79c5c44b7393c98U,
  0x370ab4fa36450dc6U, 0xb6029c20b727f58fU, 0x36aa1994b819e5a5U, 0xb7a0741e37cdfa7eU,
  0xb78017bdb61d1a48U, 0xb70d88c93697d288U, 0xb713b2e637985ffeU, 0xb7ad03f0b739d018U,
  0xb62fa42ab7fd7ceaU, 0x37464d58b64ccf7cU, 0x3749396336715103U, 0xb7132416b6537b9fU,
  0x3757010236ce44fcU, 0x36d0b476b7fcb40eU, 0xb79deba8375585d5U, 0x36328f1c36cd4718U,
  0xb388d330b79fa752U, 0xb6b77156b795d9b7U, 0xb727a8b8b776f1ccU, 0xb618b5c03553cf70U,
  0x37b4fc28379f9978U, 0x367e5488b777a62aU, 0xb7b651ddb80c3926U, 0xb5f2381837c463acU,
  0x3708471b37687e8aU, 0x37ab842fb5984628U, 0x378cfd8cb5c35b60U, 0xb57921b8381cd54eU,
  0xb6a9d8e836a86c3fU, 0xb79a1e7fb74e7af8U, 0x37cf7276b715b62eU, 0x36080bd0340047e0U,
  0xb665ba34b6ec2bb1U, 0xb707c2c43778e862U, 0x374fbb3236313ac4U, 0x36fd9254b71c83d9U,
  0x3681e8e1374bedd2U, 0xb72c30feb74c7144U, 0x373a136e35d7c710U, 0x36a94ba8b7717d02U,
  0x3625bdfc37ba8d7bU, 0x37d499f93719ff04U, 0xb60690b437a6c66aU, 0x37941392351d5330U,
  0x36c4f3c8b76c9624U, 0x36b32774b4381cc0U, 0xb7b759f8b6ee682cU, 0x36df18e038e50ea4U,
  0xb6c254d2b6f5a339U, 0xb80806e5b7130d42U, 0xb478677035dc80f8U, 0x3584a78c3460b180U,
  0x3534a5a436c543f0U, 0x350002a0b7b59b30U, 0xb78d7c81377ce1c4U, 0xb3406900b7a2901eU,
  0xb7d3ccc8b7a364eeU, 0xb711051eb70d1f45U, 0x363295c4b7061943U, 0x373d5a3cb7917230U,
  0xb70bb5f5b74780e6U, 0xb7d746ce34da0978U, 0x370d924c36a3125aU, 0x374edb5836daaf28U,
  0xb6d430bab6ca953aU, 0xb6e2b88eb75aaa86U, 0xb7b731d0379ed8edU, 0x3700345fb41f87a0U,
  0xb7e3f9fd374bbc83U, 0x35fa1718b6173820U, 0xb6a7da32b71fb0d0U, 0xb80b4cdfb7be02c6U,
  0xb6b7d2e036fe54daU, 0x37aedc643692a72bU, 0x370d2ac33723102cU, 0x344fa4c0b63dac24U,
  0xb68e5d863698edd0U, 0xb75040bc38183cfdU, 0xb4d2e300b74c7dceU, 0x37c947ebb7b4f4daU,
  0xb6ce7fdf3762e4deU, 0xb81ac3c0b729124aU, 0x37a8e0413514d9e5U, 0xb67eace436bb0178U,
  0xb69f2dde3711ce74U, 0xb719675836491976U, 0xb6b6066eb7ef4706U, 0xb73ae553370d10b5U,
  0xb7ae60c0b6c17b7cU, 0xb6886682b702f88eU, 0x37118903b5466f20U, 0x36b50c503528c0a0U,
  0x33bce7e0b7429220U, 0x372ec7aa371ab494U, 0xb76bb6433815aff9U, 0xb750e522b79368deU,
  0xb677371834bfd9c0U, 0x381c4f1e36089810U, 0x35912dccb757da2dU, 0xb6d4edd8b71d4645U,
  0x35494d60378c3056U, 0x37b835a4368ff650U, 0x374e6d363713f87eU, 0xb78c37d937572186U,
  0x36ba6d29b71b7410U, 0xb5d9f190b401a9c0U, 0x3639b190b77f2489U, 0x372165e6b51c0bb0U,
  0xb6a108ea361d96dcU, 0x3794bdfa35822b74U, 0x37216ea63803214fU, 0xb79e6c0137e9e558U,
  0x374cc034b7904dd6U, 0x37b43ebab766aa6aU, 0x362a1168b78322e2U, 0x367441cab670ccb0U,
  0x37e894d0b58e1342U, 0xb65e096d37e2b2bcU, 0xb7b9137a373bbfa5U, 0x3644d318b7ad5728U,
  0x364d3c14b78dc0d5U, 0xb6eaf574b75915a9U, 0x35d440c03e8113eaU, 0xb399ac40b5ab8368U,
  0xb6bff97e377caa5cU, 0x377c3b3b362cc456U, 0xb73e81e23724b9ccU, 0x367ad6f4b80598b0U,
  0xb764c983b7e27192U, 0x372920bfb5d2e084U, 0xb79a3fbeb80ef1a0U, 0xb5cf635837ae4a5cU,
  0xb61b8ab4368b1b4cU, 0xb826a66836868f93U, 0xb3164d00b7ca2082U, 0xb7337632351d9218U,
  0xb613e762b7846174U, 0x370e5191b7261377U, 0x37791e2e37447912U, 0x37b5bcb036902210U,
  0x379d7fd7b7ac846eU, 0xb758cc3eb60763d8U, 0x369bd830b6b414fcU, 0xb6d892ec369b0052U,
  0xb68e6a2a36c67ac0U, 0x37e6d3ac3742fda7U, 0xb71ce261b7452f8aU, 0xb759d21838bff8d6U,
  0xb6d9749c3730cc88U, 0x373b06dc37438c17U, 0xb635c2cbb724889cU, 0xb6bfd1bd36c5ca5aU,
  0x37971d71b70130b1U, 0x34a98fa036c27eaaU, 0xb601a77437301154U, 0x36e2363cb5193de0U,
  0xb710d531b78bf17aU, 0x36ad5d68b7427a3dU, 0xb80c3f393527f7b8U, 0x37e4da2e3698068cU,
  0xb6cbbd8cb6d3d204U, 0x36191f8736c9951bU, 0x3712414f36c1072bU, 0x3708f6b636896f0aU,
  0xb6afe1f8b6f7946aU, 0x37928a3eb6cbc208U, 0x378d34513739f8f4U, 0x36d9f9aa3619faf8U,
  0x378734813744e4ebU, 0x36fc4f8c37062f3dU, 0x37759d34370a318eU, 0xb5ac803eb7142465U,
  0xb74a97e4b5841978U, 0x35f71620b79404c1U, 0x36970eb73380efc0U, 0xb79c9c0635a89cb8U,
  0xb7b3ead0344857c0U, 0x37399ba2b6a395fcU, 0xb596fdf8b764ccb2U, 0x36777524b78686d8U,
  0xb707d10037d89b5bU, 0x3782da98b7de3422U, 0xb6c691ee371e4bb1U, 0x351894b0b79af544U,
  0x375ae2fab76ee1afU, 0xb6273f90b6939d22U, 0x3764e5bd373b0afdU, 0x37254c1fb653fe20U,
  0xb4f1d8c035e9f270U, 0x3704054b37537eb1U, 0x3771cfbd3863ab1eU, 0x37970c7c3694a9d9U,
  0x36fb914a36a8365bU, 0x365701f0379835d6U, 0x383c6daa3efcb229U, 0x368fb87d3798aebaU,
  0x37307bab37d4aecaU, 0x359b1b50b9851360U, 0x378d330238aaa59aU, 0x33b03d40360bc408U,
  0xb555a07836fc23f9U, 0x3736434ab73df3b4U, 0xb6f85bc3b750697eU, 0x37dba4f9b6b20159U,
  0xb7da43b6372c1b37U, 0x37937f06b5a1433cU, 0x3692411c35c43490U, 0xb758e1d836bc0ec4U,
  0xb58006e03625d1a8U, 0x379eddbb37dd3f5eU, 0xb76c464a379dfc50U, 0xb6c1124fb64aed84U,
  0xb4ead46037a479d5U, 0x3680826ab7864f98U, 0x37b80e253758f3abU, 0x381eacd737878b34U,
  0xb60c20b5b7c8b323U, 0xb7cfee6336de0371U, 0xb5a9eb8837f6df9eU, 0x377c5428377200ddU,
  0x375f6cf13721a0e1U, 0x37a5e79c3806ff37U, 0x382959cf36f83f0cU, 0xb77e0caab7b601b2U,
  0x36de24dcb78f037eU, 0x376bc8bab7504978U, 0xb63e08643750442aU, 0xb72790af358ed454U,
  0xb702895f37acf1ceU, 0x37a6a859b668dccfU, 0xb7b2b9d5b66f7cccU, 0xb6c085983713a52eU,
  0x37855c3237a05fcaU, 0xb786f38737b6f7a6U, 0x379564f4b789dc0cU, 0x36ccc69236b2e22cU,
  0x3764d1ae372bc3a1U, 0x368af8de372c6d1aU, 0xb6c55d983718ff8eU, 0xb4f287e0b66ed1a4U,
  0xb6e8f0adb5f06320U, 0xb67133dc373679d2U, 0x3705da2eb78e3c34U, 0x35149a403700bbc4U,
  0xb709748b3677d9b7U, 0xb801f871b7cd0a7aU, 0xb7185ff836f43b40U, 0x35fb6e74b639f0d8U,
  0x378361a4360cc608U, 0x3444d78035ee2a21U, 0xb5403660b75af740U, 0xb69cf3a6b6cda598U,
  0xb721d2663624fa54U, 0x37090be0b7186616U, 0x379dd0d6b5c3a950U, 0xb782bb9d379a1568U,
  0xb73777b4b6a77928U, 0x35d0b228b755400aU, 0x36a34368b745f3a2U, 0x341beb80360acb98U,
  0x3786a051b712dd3cU, 0x372cc69935aca440U, 0xb7e1ef3136cff568U, 0xbc2d1e33ba5c6d7bU,
  0x3bdba057bb3b0445U, 0xbd428c80be089e29U, 0x3ef6895f3ede5609U, 0x3e9dc36fbd58d1adU,
  0x3ea51b0c3ce3a78dU, 0x3e89f4783ebaf67aU, 0x3f01e251bda3fb7dU, 0x3eb9974f3e633389U,
  0xba3864503f03cd48U, 0xbd9d5a29bce5964fU, 0x3eab6a30bcda8722U, 0xba44dffb3f0c7379U,
  0xbdc2c689be47d351U, 0x3f0d37eabc99fb80U, 0x3ed25b053f1a3fe3U, 0xbae6341c3e8c5cc8U,
  0x3e8c0bc43ebbb2b6U, 0x3eaa003abe046b34U, 0xbc84e5c53e9e854aU, 0x3ee7e65c3e85c272U,
  0x3e3d77a8bbf7968dU, 0x3eb3a2113cce8351U, 0x3be2145fbe00cc2cU, 0xba27f9b63ec22c72U,
  0xbebe04d93f471c9fU, 0x3cddd4cb3f13830eU, 0xbec1fe12400b4320U, 0xbe7cede2bec8f4f5U,
  0xbea2890abdcb96b5U, 0xbdee1eafbe994700U, 0xbe17b2c7bf133a97U, 0xbf3a0d5dbbc9faf6U,
  0xbedf1f2fbe06e44bU, 0x3d39ecc6be92a6c7U, 0x3e100ca6be51ab9bU, 0xbd8441e03e80b6efU,
  0x3e9495bdbf44484bU, 0x3e98a03abe621526U, 0xbf275aabbe215f04U, 0xbeaf6d94bf756e8dU,
  0x3ea5238d3dc60836U, 0x3e107b5ebe226addU, 0xbe3b2603bc3988ecU, 0x3e76acf6be80141fU,
  0xbec3e0843d4f6168U, 0x3e5ce7193e74081fU, 0xbef9269ebf4aaad7U, 0x40123bd0be928a07U,
  0xbe1cc7e8bf0b1fa0U, 0x3ea24f8bbefc4d19U, 0x3f0852c1be9743b4U, 0x3dce013ebf2b93e8U,
  0xbf63ce45bf9b2067U, 0xbd2c4e083e3e0a68U, 0x3e414db83e9c0ee3U, 0xbe569b84bf596fffU,
  0xbf3eac0fbcfaf1f7U, 0xbed05590be5256dcU, 0x3f1dc475bf8eaf37U, 0x3e44539dbe534e6fU,
  0x3d82ede53e89818dU, 0x3e3ba447bff93331U, 0x3e38361a3e9fc779U, 0xbf091afb3ea3bc7cU,
  0xbe935104be43f406U, 0xbe4efca0bce5374fU, 0xbd9f2e74be95c200U, 0x3e412e5abeebddf2U,
  0x3d8dceb3becf0f9cU, 0x3c995aa3beab30a8U, 0x3e22a42d3dfc8265U, 0x3dcb88933f8d25cbU,
  0xbfbb3884be52e4baU, 0xbea4f3afbef58678U, 0xbe6ed26cbf34b7b5U, 0xbee284c0beeeb681U,
  0xbeb64808c02fbcb6U, 0x3f858b5a3f27ef7aU, 0x3a586cbabe237214U, 0x3e67c37abee71603U,
  0x3e28bec13f1fe9e7U, 0x3e29473cbe3279f9U, 0x3e6777d13e22a49bU, 0xc02876033f614ac8U,
  0xbe0bf6693e82e257U, 0x3eb860b3bd503315U, 0x3e5c10283fac517aU, 0x3e3d980c3e68c223U,
  0x3f39130dbe0e15b3U, 0x3f048c5f3f907ad8U, 0xbe9fc0ca3ec5ceb6U, 0x3ec584753ef5e79dU,
  0x3e4de2b6be71f958U, 0x3d66a63a3e694dc5U, 0x3eb806ce3eb94c0eU, 0x3ebcc4473db77e1eU,
  0x3eac6a18c03412d1U, 0xc0200b98beb0bdfdU, 0xbe6906f43f0ddb79U, 0xbdbe2b0ebe913ab7U,
  0x3e8e4377U,
};


ai_buffer g_network_data_map_activations[AI_NETWORK_DATA_ACTIVATIONS_COUNT] = {
  AI_BUFFER_INIT(AI_FLAG_NONE,  AI_BUFFER_FORMAT_U8,
    AI_BUFFER_SHAPE_INIT(AI_SHAPE_BCWH, 4, 1, 400, 1, 1),
    400, NULL, NULL),    /* heap_overlay_pool */
  };
ai_buffer g_network_data_map_weights[AI_NETWORK_DATA_WEIGHTS_COUNT] = {
  AI_BUFFER_INIT(AI_FLAG_NONE,  AI_BUFFER_FORMAT_U8,
    AI_BUFFER_SHAPE_INIT(AI_SHAPE_BCWH, 4, 1, 36612, 1, 1),
    36612, NULL, s_network_network_weights_array_u64),   /* network_weights_array */
  };


/*!
 * @brief Get network activations buffer initialized struct.
 * @ingroup network_data
 * @param[in] ptr a pointer to the activations array storage area
