
/**
  ******************************************************************************
  * @file    har_network_data.c
  * @author  AST Embedded Analytics Research Platform
  * @date    Wed Mar 23 19:38:45 2022
  * @brief   AI Tool Automatic Code Generator for Embedded NN computing
  ******************************************************************************
  * @attention
  *
  * Copyright (c) 2021 STMicroelectronics.
  * All rights reserved.
  *
  * This software is licensed under terms that can be found in the LICENSE file
  * in the root directory of this software component.
  * If no LICENSE file comes with this software, it is provided AS-IS.
  ******************************************************************************
  */
#include "har_network_data.h"
#include "ai_platform_interface.h"

AI_API_DECLARE_BEGIN

AI_ALIGNED(32)
const ai_u64 s_har_network_har_network_weights_array_u64[ 6949 ] = {
  0x3c137c303bfc16cbU, 0x3b0e872dbe8f5640U, 0xbe72887a3c28b636U, 0x3c0faceb3abacfc4U,
  0x3ab07744bdbe153dU, 0x3d543b14bc80989fU, 0xbce9e6c73b43404eU, 0x3c0d8e133e52c5b5U,
  0x3e9234e4bb2e030dU, 0x3c0299113c72850cU, 0x3c9065fc3e67343fU, 0x3d2d3a09bab5f011U,
  0xbc4069c9ba87cfa6U, 0x3aa7f613be2d5aafU, 0xbe9a38d2bc614762U, 0x3b8d9d2db9f77f3dU,
  0x3be2ac9ebe86afd7U, 0xbdf2f3af3c85aff2U, 0x3a93b9283b5bff4dU, 0xbbf6452d3d54eedaU,
  0x3e393196bb47dca2U, 0x3b1896d4bcd58c2fU, 0xbce3cfe93e888320U, 0x3e7b9d923b9ea4ecU,
  0x3c91cf42bcf15309U, 0xbc4f44743db884deU, 0xbdfb6b9c3bb0a2d9U, 0xbaf72a043c99a1e9U,
  0x3c8acf45be962b64U, 0xbe897ee73ccbde88U, 0x3c209cd13c1a1846U, 0x3b92d070be06482eU,
  0x3d1445dbbc3c9c28U, 0xbc91a5b23c2ee83bU, 0x3cba8c733e33f66fU, 0x3e865b11bc68f18cU,
  0xbb16b6dabcc0e4c9U, 0xbc21bb143da10346U, 0xbded27773c3fb5c2U, 0x3d08b6333c133c8cU,
  0x3d43b5f1be87a544U, 0xbe94b2a43cbc3817U, 0x3c81e8a53d37f848U, 0x3d2c8216be26dd4bU,
  0x3d1859423b660671U, 0xbb85dc343c85fb71U, 0x3999cc273e58e86aU, 0x3e96c535bbbafacdU,
  0xba980399bba0e0d9U, 0xbc065c713e81ce63U, 0x3db4a6b3b8bbc6baU, 0x3c98f7d0bbcdc49dU,
  0xbc90e6bcbddb9d78U, 0xbe91e5db3c5eab65U, 0x3ce961eebcf9f224U, 0xbd068400bea0487bU,
  0xbe3847673c71702bU, 0xbbcb269dbcf1b4e9U, 0xbcd542443c1db14fU, 0x3e3e9ca3bcbc4ce9U,
  0xbccf6144bc87f968U, 0x3920f80f3e89667dU, 0x3e7370dbbbe5104fU, 0xbaf5f0bfbac06d3eU,
  0xbbe2edff3df639d5U, 0xbd4d4335bc8150b4U, 0x3c05619e3c339a95U, 0x3d2086e0be5d7fa4U,
  0xbe9685a83ccd9519U, 0x3cd862683d10b7d5U, 0x3cfeea43be40f958U, 0xbc75fe3e3c5550a5U,
  0x3d119b693e23de90U, 0x3e6d4caeb905f7a7U, 0xbc44a44c3cadccaaU, 0x3b7597e13e82713cU,
  0x3e8084e03ccd19e4U, 0x3cbe62e93bb1e506U, 0xbc213a153e706c2bU, 0x3e360f62bc3c6639U,
  0xbdaba77cbd5fbb72U, 0xbd54302d3d8d3f8bU, 0xbc9004e1bd7069d3U, 0x3d212331bd0e0180U,
  0xbcbe81bebde74d43U, 0xbe31e1f93cf8eb40U, 0xbd7ae8423c8b0804U, 0x3cfae1acbe768dcfU,
  0xbe8abecbbd002f9aU, 0x3c82f5b53d0d859eU, 0x3c643b04be7fc431U, 0xbe632d323d7df840U,
  0x3d2c8fca3ce671bdU, 0x3d279531be24da8dU, 0xbdb43c61bd3e9349U, 0xbd226c4c3d03333aU,
  0x3c03776abb0c9576U, 0x3db945463cb9dedeU, 0x3cf7e2473abb5c57U, 0x3c5564d43e4afdd4U,
  0x3e85ec82bd20cec8U, 0xbc7ab2b0bc433231U, 0xbc84ee7d3e8a7de6U, 0x3e7ee19b3d8e40dcU,
  0x3d9db7bcbb4ace71U, 0x3cbbcf753e575983U, 0x3e19f7213d13ab2dU, 0xbd5f2d133ae3ad92U,
  0x3d6f8beabe54c210U, 0xbde9214d3def2560U, 0x3e01f6553d5d6c87U, 0x3d9b076f3c7ea89bU,
  0x3dd28cb1bd1aed20U, 0xbdc0d9c43c980f99U, 0x3bb031843e0c1024U, 0x3e471745bd0f1e84U,
  0x3d85679b3cac0b78U, 0xbca2fdee3e82c4c8U, 0x3e8d510e3c6fe085U, 0xbde3f5b1bd300c19U,
  0xbd3b17233e8a2d5eU, 0x3e5a10a3bd8c4c8cU, 0x3d8c5f5dbd0fca3eU, 0xbcbad1ca3e0a05d1U,
  0x3c458d113ddb2063U, 0xbbc9bafabd64c5f1U, 0xbddf7517bdb53730U, 0xbe2fa4e2bd0269f6U,
  0x3d1fcd6ebd97998dU, 0xbcc02e98be726467U, 0xbe6d12b63deb8fdfU, 0x3d17dad6baf88e48U,
  0x3ca33057be759186U, 0xbe777e48bdd9c032U, 0xbe1a03943c2b3191U, 0x3b5e0ce8be5573fdU,
  0xbe00a66ebceeefe3U, 0x3dc746f03d0caf6fU, 0x3d2f9698bc6d42f4U, 0x3dd106d63d5d97e0U,
  0xbd5801dd3d9c517cU, 0x3d85be573e1c80daU, 0x3e296daebc3fedd5U, 0x3dfabb863c9f830aU,
  0x3d7d2cf93cd5c005U, 0xbd782f48be6ebf8cU, 0x3d56722d3d45ffe3U, 0xbca76121bd9ae30aU,
  0xbacfabf83e84fe5aU, 0x3e87c847bbf22d96U, 0x3c62b2a33d8b5eaaU, 0x3dac46473d2bc164U,
  0xbd81205c3d21096eU, 0xbd6f346e3d7763e7U, 0x3c2363343c058203U, 0x3cb57e0bbd96ad9fU,
  0xbda5fc083c8bba19U, 0x3d8415f5be369269U, 0xbe99eb62bd6aac9cU, 0xbd288c593c0eabfdU,
  0x3c00e7c3bdb52a6aU, 0x3e1d81e93cc6b225U, 0x3c8040f43d9c46d3U, 0x3d45cbb53d039e7eU,
  0xbe2d622abd126cb8U, 0xbd8fc50dbcd94562U, 0xbdcf4477be0a42dcU, 0x3ddb9accbc06e0d9U,
  0x3c3f9446be095a4bU, 0xbdd6e6873eaf41fbU, 0x3e8c1a2a3dbcf54aU, 0x3e0f82c8bda0d0f1U,
  0xbd24b37f3d52db5dU, 0xbc84a6763dfe1dbbU, 0x3d1f303ebd97dcd7U, 0xbd14b56f3ce2a21dU,
  0xbd551d45bbd0b2a8U, 0xbd9dc6af3dd0895bU, 0x3e0abd1dbe8f7b28U, 0xbe941716be03b7aaU,
  0x3d327152bdc8fc3bU, 0xbdb842a5bdb87fefU, 0xbe85d9793d83c42bU, 0x3cc85a6dbe17227cU,
  0xbdadb9d3bd829606U, 0x3d35bc33bd690a60U, 0xbdd2e8e43d8f8b42U, 0x3e437f5fbe01a1c5U,
  0xbe3792e8bd6c3b9aU, 0x3d304cf53e2bd525U, 0x3d8f3aca3c56a7e5U, 0x3ea37fed3df1ce3dU,
  0x3cfd5e023d22cdb0U, 0x3d9345893ea689ccU, 0x3c62b24cbd9ce31fU, 0xbd0fe8643da6f7caU,
  0x3df20dd2bdca9116U, 0xbcccb9433d041be8U, 0x3cf6bbe43d83e40aU, 0x3bf8e17d3e4ad0fbU,
  0x3c34c980bcc846a8U, 0xbcb41509bddc247aU, 0xbdf10972be7e5877U, 0xbe7ede7cbbe88458U,
  0xbcc9cba1bd9e20abU, 0xbc91ac93bd3f523aU, 0x3db5e250bc3eb0a9U, 0x3bbdbeec3d2e0007U,
  0x3cf8466ebd649a25U, 0xbe3c806bbca1b36eU, 0xbd1ee46fbd8c0641U, 0xbe040c593c9903bdU,
  0x3ea77761bd32a7cdU, 0xbd1a1b5ebba9b1c8U, 0x3d9fe38f3e766749U, 0xbd4aa4f03d2e11c2U,
  0xbd622cf4bd38906aU, 0x34d95278bc1906a6U, 0x3e4cfdddbd53eaa7U, 0xbd472bd5bcc8dcc1U,
  0x3d052f943e230cd2U, 0xbe4bc1f4bdca3f22U, 0xbcab5e8b3d0d1babU, 0xbbd09ca8becffbbaU,
  0xbde6e6283d98cb55U, 0x3e06f66bbdecce6eU, 0xbd2163823e76dfd1U, 0x3e68cfbc3c9b4614U,
  0x3c3bc3013cb7cde4U, 0x3d993571bd884f3dU, 0xbd953f3f3a92f0b8U, 0x3cb041283d3d9d94U,
  0x3c92f9933e160d21U, 0x3e2f37aabce57596U, 0xbbf8a8623cd249b4U, 0x3c26619d3c31ab57U,
  0xbe227d443d3ef9c1U, 0x3db11d543d040d1cU, 0x399c9f2abd6b92f5U, 0x3e7153403dbc50c1U,
  0x3d4714513cf71280U, 0x3d28a2fb3e052a5fU, 0xbe95ca25bd890217U, 0xbddfd69b3d59a695U,
  0x3c98e29dbec9859cU, 0xbd130fbcbd1cd0caU, 0xbd9e95263d4926ebU, 0x3d3e23903e58e567U,
  0x3daa103cbdc5afbbU, 0xbdade3a1bc4d7914U, 0xbd04f045bd6f8816U, 0xbc5b71c13d60265cU,
  0x3e33ba273e019175U, 0x3c84ac483d9d5646U, 0x3c914ba5bd9ce40dU, 0xbe83e56dbdcd79ebU,
  0xbb7936513c30a96eU, 0xbcdf594ebe8e5ac4U, 0xbe4dabf03d132a88U, 0x3dd23081bdd3b423U,
  0xbcf4d01a3e09cfadU, 0x3e5d92423db759eaU, 0x3cccfe78bdb05129U, 0xbe3282173daa36a4U,
  0x3de6aceabe1298ccU, 0xbe279c95bcdf1662U, 0x3df56ddf3e329f0eU, 0xbbd8a542bcc6fc20U,
  0x3d84532e3dfae79cU, 0x3d0c987f3ca9e2c0U, 0x3d84f4513dcc9323U, 0x3d5a38473c87d94aU,
  0xbd883502be05499aU, 0xbd5fc4d1bd7b358dU, 0xbdfc00cd3dd58663U, 0x3e16637bbab2b9c7U,
  0x3d11d2dabd9871ffU, 0x3cd086d1bde5f058U, 0xbb5afab73e2ce8ecU, 0x3e5b8e713d59c777U,
  0x3d84d0f53d972a0dU, 0xbe086e573ce1d41cU, 0xbe521acfbdb95b94U, 0xbd52bd8cbe68c1b6U,
  0xbdd0f5d0be6a8cceU, 0xbe4efc293de20584U, 0x3db0877f3cc0c954U, 0x3e0b7f36bddd35ecU,
  0xbbed584fbd153166U, 0x3d1b0fa03e49d977U, 0x3de46eab3e1805bdU, 0x3dd932ae3d838747U,
  0xbcbe24753df22e7aU, 0x3c21db79bd49bed5U, 0xbe0b7024bdbe393fU, 0xbdfd9f57bde4f924U,
  0xbe857a84be142ebfU, 0x3d7ad268bda3d62bU, 0x3d39c9cebe1ef65dU, 0x3d1ea5943e80886eU,
  0x3e49481e3e1c9124U, 0x3e1747b73d90cef2U, 0xbdee21dd3c8dc1d4U, 0xbd86fee9bcbb71cfU,
  0xbd9e3ab6bd9d08b3U, 0xbd93602abd62236fU, 0xbd5e7553bdd71bcbU, 0x3d44f6243e3444ffU,
  0x3e8e98e9bdbc6dacU, 0x3c9f8db43e2c60f1U, 0x3ddedcdd3e2cd340U, 0x3da133453bc33367U,
  0xbda0d0c6bd91e44bU, 0xbe551b2d3cf67eacU, 0x3d768733be06fcc8U, 0xbc6af71dbddc718cU,
  0x3de03d12bcc2636bU, 0xbe4974a73d54a567U, 0x3dce7ed33e2f2ecaU, 0x3da19369be77d00cU,
  0xbd9450053c9ba089U, 0xbe1d235f3bb896a3U, 0xbd786063bd96a09dU, 0xbdd50a04bdfaae09U,
  0xbe41bbd1be063198U, 0xbe4595e1bd23f486U, 0xbb9d3eb3be65d100U, 0xbc96ff79bde4c699U,
  0x3dc16f003dbe9734U, 0x3e1056793dc3ade8U, 0x3d2f15aa3e1b77d4U, 0x3dc1ca2b3cd1b3d3U,
  0xbe71afd43b9de9d8U, 0xbda5195bbde189ceU, 0xbe15cb45be48051aU, 0xbdb5fdb6be4c636eU,
  0x3b1a8592bdb78869U, 0x3d3e2c123cee77eeU, 0x3e3f45f43e39e29cU, 0x3e3e0c3f3e727078U,
  0x3da5749a3c8c5a9aU, 0xbd861c003d66173aU, 0x3d00fe8ebdb5fc00U, 0xbd99a51f3ced283bU,
  0x3dc233f93daa6362U, 0x3d558b2ebd628abbU, 0x3dd80da73d8683f1U, 0x3de5f4e63dbf8739U,
  0x3ddb92cf3dceca05U, 0x3da7220d3dba42e3U, 0x3dd2eb86bd9ba2a3U, 0xbe47607cbd56a4a2U,
  0xbe1bc5a3bdcb53b2U, 0xbe611e98be496f94U, 0xbd8eb8cebd8f874dU, 0x3dd67c65be2c7ed9U,
  0x3c4872f03d0e700fU, 0x3d3883df3e31df23U, 0x3df8efee3d09a126U, 0x3a582e2cbde53b89U,
  0x3db6e3e1be3c2839U, 0xbe0234603d17d029U, 0xbda467a33d9364c3U, 0x3da84f27bbed528fU,
  0x3e126cd1bd430d91U, 0xbd172a0bbe00baeeU, 0xbe6e8ec43dd4b2cfU, 0x3d8b8fcdbc00480bU,
  0x3d908517be527ecfU, 0xbe614cb53bcba01bU, 0xbdd16b663dfac363U, 0x3d40adfb3ccef8d7U,
  0x3e056bc8be08f151U, 0xbd59298cbce46897U, 0x3cb4f4363e8019a0U, 0x3e1f6d4ebd16f6a6U,
  0xbd860492bce1b8ceU, 0xba4d85ea3df3f53aU, 0xbda637f8bc74f0dbU, 0x3c0abd033cde5263U,
  0xbde5e3b6bea6dfa1U, 0xbde0731b3d1560eaU, 0x3e431626bcd28675U, 0x3d199fa8bd527637U,
  0xbd89d9da3e691eebU, 0x3dc1d18cbd4c0ae5U, 0xbe0843e6bb08c07cU, 0x3d445401be087b3bU,
  0xbdc1d2bdbcfaf13bU, 0x3e121ed03e972bf8U, 0x3e3616e0bde01641U, 0x3c4e9d8a3ddb8ea2U,
  0x3d6245913dc2451dU, 0xbd6f2f5b3dc53787U, 0xbcdcff5e3d547885U, 0xbdc05b87be5c4e23U,
  0x3e29d072bd54205dU, 0x3c42f6a83e759e59U, 0x3ddc31a23e528bdbU, 0x3df40131bdcfb2e1U,
  0xbda8de333d98a5afU, 0x3d85981a3c861dbaU, 0xbcda94963d61baaaU, 0x3cbb678cbdc6d5a4U,
  0xbe7a1624bdd46383U, 0xbe7c6145bc90226dU, 0xbc715a54be0ee48fU, 0x3b4437cbbe58a811U,
  0xbe9e7cbcbc72f429U, 0xbd8b2c7b3ca739fdU, 0x3d3cebe0be802532U, 0xbcbf968bbc88890dU,
  0x3d27c28a3ad67578U, 0x3ccc6fa63d2111ebU, 0x3c2577ce3d64913bU, 0xbb5e436fbd18d5ecU,
  0xbd0a76863b96cdd0U, 0xbd0faecdbd8aea9eU, 0xba53762f3e14ef16U, 0x3e16179b3cd29303U,
  0x3e0901113daf12bfU, 0x3dfd374b3db82bb0U, 0xbd75b4f13e803231U, 0x3e1b51fb3e033600U,
  0x3dc1c8b3bde83e5eU, 0xbdd5d63e3e4a3e00U, 0x3df73c9ebc33b69dU, 0xbdf9ec24be0fae2eU,
  0xbd15e1de3dd520ddU, 0x3dc94170be1551ceU, 0xbd9b64c03e1443ffU, 0x3e156db33dfefd4bU,
  0xbcf52ab0bdbd07dfU, 0xbd7671443d5ed9e2U, 0x3dff8d583bbfe0c7U, 0xbc94b0b8bd10fa60U,
  0x3d574f603d4efdd7U, 0x3de0b322bdd6f637U, 0x3cd73dc63dd06fb3U, 0xbb577da13e05f3bbU,
  0xbd383f243d040d31U, 0x3debe582be5d6f85U, 0xbe427475bdd2a593U, 0x3e4f3b1b3e1f69baU,
  0x3d7df366bd7156e1U, 0xbc20cbdf3dd0210aU, 0xbe2beaa5be3b8f19U, 0xbe38cbb93dacb8ddU,
  0x3df2a549be877d32U, 0xbe44d3b3bdfe90e1U, 0xbe40f83cbccaa180U, 0xbde2c0f9be4e3e47U,
  0xbb64e79f3cdc32f0U, 0x3e18fb6ebd84fb75U, 0xbbbe723e3e458f71U, 0x3d268d243d103688U,
  0x3e294e313dd5759eU, 0x3d256975be577f75U, 0xbd1ff65b3e62f4ffU, 0x3d0638a839e4abbcU,
  0xbdbd2d843e06cc90U, 0x3e3ce36f3c91ababU, 0xbcae8e9bbd898accU, 0x3dae3c7c3e36e930U,
  0x3d9e5ae5bde4a6bbU, 0xbe3f73503dd2c89aU, 0x3deaa2bbbc921d58U, 0xbd0677c93d8c6a40U,
  0x3ceec8de3e257b87U, 0x3e0c609abe5767e9U, 0xbe8b2856bd7cacf4U, 0x3e2279153d0c36ceU,
  0x3d4ce26a3d600fc8U, 0x3df9bc6a3dd7625eU, 0x3c2b8b8b3c0a27c7U, 0xbdd9f3b9bd59c371U,
  0xbdb198303deb7a78U, 0x3de5702dbce68934U, 0x3dc1a6e9bc50517aU, 0xbc65fc78bd3099cbU,
  0xbd16967e3ccef8c8U, 0xbcc1e3913d3d6fdfU, 0x3e2bc4ec3ca56357U, 0xbde7a269bd629b43U,
  0xbcb80b233e3435f2U, 0x3d178d19beaa3edaU, 0xbe8b2225bd5550cbU, 0xbb9ceda2be2a1985U,
  0xbe8b2fdcbdec3770U, 0x3d7ce48e3dfb1ce6U, 0x3d2114fabd1b3a72U, 0x3dbae6883e40904dU,
  0x3e413de13b06925cU, 0xbde8865f3caa546eU, 0x3a9afca63d121f7dU, 0x3c2e1828be54df24U,
  0xbd4dc2d33d7a8987U, 0xbd53b05a3db322b0U, 0x3e00d47f3dbb25a9U, 0x3db4acc1bdaedfd9U,
  0x3dfb0bc53da88443U, 0xbdb97f67bc5f3b59U, 0xbd8cd6093e83caf6U, 0x3d481f4dbde62dd0U,
  0xbdbf2c313d977ce8U, 0x3d92c65e3e596aafU, 0x3c6b44f6bd425192U, 0xbd7c0ddd3d4d83a1U,
  0x3a7d38f93dee3b2cU, 0x3e7c1a01bca713a4U, 0xbc7a7ae8bd118dfaU, 0x3d8e22693e1b4ed3U,
  0xbe043332bd97b560U, 0x3d0aa82b3dcaa64bU, 0x3e810702bd723caaU, 0x3db2dcf0bc94ee9cU,
  0x3be24f7e3dea029cU, 0xbdea69ea3d37d096U, 0xbc93b6a73dd11bd5U, 0x3e3a771cbe0db61eU,
  0xbdc8688dbdc29dd2U, 0xbe16e9673e75ab47U, 0x3e80e764bcdf8ba5U, 0x3d5c798cbe8a0b49U,
  0xbe6d6c4b3dec3696U, 0x3dc6f8513c6770c1U, 0x3d515b0a3dc1653cU, 0x3e3b3efdbd5598b7U,
  0xbe1b9d9bbde54b3fU, 0xbe4f92f53d1b0ab2U, 0xbdb6250cbd08d176U, 0xbdd49454bd30a515U,
  0xbdf11882bce239faU, 0x3dd7ddc1bd5383ffU, 0xbc29b393bda00775U, 0xbd60f7d53daa6995U,
  0x3e3e37bcbdd4015aU, 0xbdaf0240be286de6U, 0xbd8090bd3e32ad3cU, 0xbc69e48dbd643b96U,
  0xbe30d4afbddb89c6U, 0xbde74471bd04f5feU, 0xbe11e754bdf06127U, 0x3c61079c3d99fd0bU,
  0x3e15c124be2ef25eU, 0xbcfe48193d3835e0U, 0xbe4521133c35ef9eU, 0xbdad883bbcbff5beU,
  0xbdec9f24be66a2beU, 0xbe24e240bd972d1cU, 0xbd3cd0a23d304b4cU, 0x3e27ef983be63d84U,
  0x3d3b71d63e119845U, 0xbb87bf2bbe24df75U, 0xbe497561be21b25fU, 0xbda7414cbd4023a5U,
  0xbd47594c3e80d851U, 0x3e745d4e3e03494eU, 0x3e72dfb03cd97e1dU, 0x3d320fc3bd30caf8U,
  0xbd40fce73e3fd386U, 0x3d08cd0bbc35f8eeU, 0x3dfe26ec3bb7c92eU, 0xbe0f5f0a3dc8783eU,
  0x3e3ed8c0bd9c0c71U, 0xbdab6388be112fa9U, 0x3e062dff3e0bc490U, 0x3dcf4b9bbdb7ca3dU,
  0xbc9506f13dbd904aU, 0x3c0478d13c16ca50U, 0xbdcdf2df3cbcf475U, 0x3dd22752bc463869U,
  0xbe085f23be28f94bU, 0xbd4329303d0e172dU, 0xbd3333b43d3d2656U, 0x3e72c712bdff9e4fU,
  0xbbd1b4fdbdc98e05U, 0x3d034f783dc0ea62U, 0xbe0b596f3d994665U, 0x3ce37ea9bdc51153U,
  0xbe194bb7bdd625b7U, 0xbc0d6146bde4c8c9U, 0xbd6fdc8fbcbd8228U, 0x3e175d9b3cb40747U,
  0x3e2213a83da170beU, 0xbddff7323e4b29faU, 0x3d84720bbd11c643U, 0xbe09f376bdef4f3aU,
  0xbd95b89ebd2e3c32U, 0xbc0109d83cf1cb7eU, 0x3d8a6759be128cd0U, 0xbdd63b31bce1efb2U,
  0xbd5043c8bc06baf0U, 0xbc0434f9bd1ce232U, 0x3d12cc133936e62aU, 0xbc28c4c53db0e49bU,
  0x3d5bb1d43e511e8eU, 0x3ecc98de3c00c3d4U, 0x3ddfc6b7bba5851cU, 0xbd01354c3ec26f6fU,
  0x3cd7436b3dfb622bU, 0x3d781e843d8548e1U, 0xbd4aeab5be44e7bbU, 0xbdbdd2aabc0d3486U,
  0x3d3758c4bd8fff1fU, 0x3e10bd9c3dc10036U, 0x3d34d9073d2d65bbU, 0xbdd4f2bbbce638cbU,
  0xbdb01ef1be09cbc1U, 0xbea94ffebd24533aU, 0x3e02082dbde8849fU, 0xbdde0e6ebe3ea622U,
  0x3d0c1213bdcc8ff9U, 0x3ddc74ee3eb6d5e4U, 0xbd5750553d3a7617U, 0xbdccfa773e517a0bU,
  0x3c4ceb32be738f2eU, 0x3dff3f37be0b91bbU, 0xbe26f413bd98a9b9U, 0xbd8e55193d578267U,
  0x3d1d8412bba1ba32U, 0xbc3ed482bdf2f2eaU, 0xbc68e2a0bcd03a30U, 0xbd8e6734bda50ae3U,
  0x3e1a966e3dc0d3ecU, 0x3e2589b2be259a40U, 0xbe2317d53e5e520eU, 0x3c3025883e2731d2U,
  0x3cab5779bdcc634bU, 0x3d9eb949be3efd38U, 0xbdff0381bd4a32e8U, 0xbdda9aeb3d3d585fU,
  0xbdd582d83c81e94dU, 0x3e0dce0dbd6b369bU, 0xbcb997a5be760b5aU, 0x3dcdf02a3e3252c0U,
  0x3cc7f61a3d63e25eU, 0xbcc4b1553e580ad7U, 0x3e047ee83b483d70U, 0x3e075b023d7470e7U,
  0x3d6b5bcf3cacb95dU, 0x3bef8f58bdeeb696U, 0xbdf08861bde80105U, 0xbde404893ccc8871U,
  0x3d4522743cf0c063U, 0x3e30430c3c9b66bbU, 0xbd48d6bc3e320cbbU, 0xbc4d0a203e27d013U,
  0xbe612a4f3d1bc558U, 0xbdd4704f3dcc4886U, 0x3c0831ba3d96c19cU, 0x3e2024b0bdfcc6abU,
  0xbc9324d53c085726U, 0x3da1efc33dd1528eU, 0x3da2e6c73da67f24U, 0x3e189dc13d20cfe6U,
  0x3cfe98aabdb3ddf7U, 0xbd47cd443e2eb516U, 0xbdb7b975bdd33bf9U, 0xbd4d2e2b3ecae6fdU,
  0x3eafe194be24d9e3U, 0xbdb688a8be464a30U, 0xbdae6fd9be02cb7eU, 0xbdf44b92be05c4b8U,
  0x3d625a7e3e567d8eU, 0x3da25eb9bce8b15fU, 0xbdecc2c33d9e035dU, 0x3c804ae7be067046U,
  0xbe2be527bd8b8b52U, 0xb942e556be4ec0e4U, 0xbe04e6183c931f36U, 0x3de694f63d0e1ea4U,
  0xbd4598263daf651bU, 0x3dadb2e23ced4a83U, 0x3dc88dcebe40da5aU, 0xbe2e564d3d9e8afcU,
  0xbbff393fbd9b0d29U, 0xbd007b24bd2ed650U, 0x3d87e17c3c29b7ecU, 0xbdd4475abdd867c1U,
  0xbd4828053b66cf61U, 0x3dfe3b52bdbdb295U, 0x3c8a3e583d575952U, 0x3cf0841a3dc6786eU,
  0xbc9a80683d3c6481U, 0x3d3277e2bb9fa284U, 0x3c2810473d4282b6U, 0xbd2d82cd3dc23772U,
  0xbdc1c489be87906dU, 0xbd494d393d102eceU, 0x3e3b32f4bd97d0d3U, 0x3dfdffc83d640ca7U,
  0xbe2d4b023e1a5a9fU, 0x3cfaea36bd03f8c6U, 0xbda895b3bd2e2934U, 0x3d8e4def3ce5d45bU,
  0xbdc6f0e43d3c2626U, 0xbdd1b15f3e15dbbcU, 0xbe232d45bd8a1706U, 0x3e6de5d4be42cbe4U,
  0xbdee79b1bd89a9b1U, 0x3ebc007a3a49e1f9U, 0xbe0de44c3daf95fbU, 0xbd2d67ed3e092b55U,
  0xbe2095c0bda44a62U, 0x3e2ead313d1850d6U, 0x3e383d2a3e18e239U, 0x3d0fcc47bcf65370U,
  0xbdae6efb3b157881U, 0xbd920705be338bceU, 0xbdcf8219bd2f2dacU, 0xbd009ee9be2dc94fU,
  0xbe0b5ce43baf4f1cU, 0xbddf77e83d5cdc35U, 0xbe0a57a9be0f7002U, 0xbe055aa7be0d99d5U,
  0xbd2fb5dc3dd09dccU, 0x3ddcbdfb3e1ef22bU, 0x3e397b28bda10173U, 0xbd4110c13de375acU,
  0x3d8c8986be405bc6U, 0xbc837a033c64c275U, 0x3e5cc0ce3de38537U, 0x3c9c7d773e624fd6U,
  0x3e3194d6bd8e4c3fU, 0x3d69c3b6bc6d7032U, 0x3df1ec2f3e2c1315U, 0x3cbdec933d9aa5b0U,
  0x3d14dfd23e1c50c9U, 0x3e44d1f83cbc3e41U, 0xbd91a34cbe07ec47U, 0x3ceb2b743d845bf2U,
  0xbdb44ed8be496683U, 0xbc804800bbba7df7U, 0x3db578c6bdfed42aU, 0xbdafe133bd844791U,
  0xbdea8c36bc830afeU, 0xbd7efb1cbd776debU, 0x3de7414dbdbc7665U, 0x3d3b5a6d3de956c3U,
  0x39d0e04a3d4cab95U, 0xbe071ea23e3e9b0eU, 0x3d118984be724f94U, 0xbdab4d05bdd06856U,
  0xbd2ae3f43da5d9b2U, 0xbd8940613e32c1ecU, 0x3df9a60bbdd61bf9U, 0x3ab968eebe4f8405U,
  0xbe5fdc89be3fa123U, 0xbcdf520a3e1b018dU, 0xbc80c538bdd05b4cU, 0xbc6130f939e88a97U,
  0xbe180752be570072U, 0xbdd391d7bd6c4bd0U, 0xbaa61e5c3e3295e3U, 0x3e7e64033dafc9f5U,
  0xbcf1d12b3d566b0dU, 0x3e012749be03bad5U, 0x3d7da0a53dd507e5U, 0xbd933c68bdc11c8fU,
  0xbdf26e663da1abe0U, 0xbdc32036be175cdfU, 0x3e1903f4be10f160U, 0xbce92ffa3d1efd73U,
  0x3ca54596bd070c46U, 0xbe9a45d23c7239b0U, 0xbdc5e174be5440b0U, 0xbd133f40bd8c89f1U,
  0x3e8c2e8fbd89f745U, 0x3e1bba7e3e8a220fU, 0x3aa604f83d9494baU, 0x3dc82d063d3eb758U,
  0xbd3bb962bc722ee2U, 0x3de3b71dbd393f27U, 0xbe1b206e3d3a1587U, 0x3d290366be4c8cacU,
  0xbd45d72b3dba99d1U, 0x3ded69aebcfcfb3bU, 0x3bd3b844bd803833U, 0xbdb42eedbdfc93a2U,
  0xbdd469f3bdb9a2e4U, 0xbe15813d3daaaaceU, 0x3d923942bb80f82dU, 0x3e334b883e06e5f7U,
  0xbce6263ebe45e143U, 0xbca0379b3d5953f9U, 0x3d20c8183c6759f9U, 0x3e055b313e23b32eU,
  0xbd19eaac3c98f7afU, 0xbd5adad73d531ebbU, 0x3d6782d9ba0f4dfbU, 0x3ec1c38cbe153e0bU,
  0x3dfd4ed33b25f80eU, 0x3cfe28483e413c06U, 0x3e3030073db783ebU, 0x3cedbac6bd5b7321U,
  0x3d029bfb3e232f92U, 0xbe1802983c3980c7U, 0xbc6044823d13d650U, 0xbdc32d15be12672aU,
  0x3e72245a3d025967U, 0xbb6c340ebd875b7eU, 0xbc3805cd3db48318U, 0xbd4077a2bdb7c2a5U,
  0xbe1d17dfbe3ba453U, 0xbd93056fbd714b4cU, 0xbe338623bde68738U, 0xbbce7f4d3d84d25fU,
  0x3e2be488bde22e65U, 0x3e0bf3d83dcf9347U, 0x3e03ca613e1e9d8eU, 0x3c8c7e41bdb4dbd0U,
  0xbdc57072bde32beeU, 0x3e21ac5b3a5fb143U, 0xbab95774bd1c942cU, 0xbda20ffe3d3c02d4U,
  0xbe2a1de03bac468bU, 0xbddb20c6bdd59571U, 0x3e698657be0d4517U, 0xbe4229bcbdaa68faU,
  0x3cadade33e35db48U, 0xbdf27d56be18a346U, 0x3d85e4503d1e5d3fU, 0x3e36de0fbdaedcf4U,
  0x3e1b0bc33e31efafU, 0xbde293b93e438848U, 0x3c1e89043e82f362U, 0x3dc8ac73bd9ee6a7U,
  0x3dd92d8b3cb41221U, 0x3c3a3cb8bd91e7c9U, 0xbd7450773e749bb2U, 0xbde9ea773c3fbc1fU,
  0xbe06d10abe6683d5U, 0x3e4a5314be6c046aU, 0xbd3d5083bddc5e8aU, 0xbce57e773e589949U,
  0xbdd5a1363c09d7c3U, 0x3db46fd2be0e5c6fU, 0xbcb9765bbca5e5b6U, 0x3d93f74c3dd9a56dU,
  0xbe4b43c13dc7d278U, 0x3dc4ba5cbe13c820U, 0x3de44019be5086caU, 0x3daeb3ad3d76752aU,
  0x3e0ccd793ebaa060U, 0xbe00d2043dea5f38U, 0x3cd3f2cd3b3d67fbU, 0xbd4d32d8be2a1db6U,
  0xbd31eadcbe5c5b31U, 0xbd857246bc45dbe1U, 0x3dd4b1d73cf1171eU, 0xbdd5b57bbd3de567U,
  0xbde545163da11118U, 0x3c3f09553e1cf2a9U, 0xbd1a54adbdc113a9U, 0xbd87d3f33d6ff5a9U,
  0x3dccb6d6bdeb948dU, 0x3c4f906dbe26de75U, 0x3cdc3fc53dbfa7a5U, 0x3e0e5c133d618b92U,
  0xbb8789883cc1dc23U, 0xbd4725cc3e50b22dU, 0x3dec2c51bce397f8U, 0xbc159ba6bcfdf9cfU,
  0x4084165400000000U, 0x0U, 0x0U, 0x0U,
  0x40b84480U, 0x0U, 0x0U, 0x0U,
  0x0U, 0x40d6c738U, 0x0U, 0x417048ec00000000U,
  0x416d9a1800000000U, 0x0U, 0x3ef2bc12U, 0x0U,
  0x0U, 0x0U, 0x0U, 0x0U,
  0x0U, 0x8000000000000000U, 0x8000000080000000U, 0x8000000080000000U,
  0x8000000080000000U, 0x8000000080000000U, 0x8000000080000000U, 0xc00d919c80000000U,
  0x8000000080000000U, 0x80000000c086f2d2U, 0x8000000080000000U, 0x8000000080000000U,
  0x8000000080000000U, 0x8000000080000000U, 0x8000000080000000U, 0x8000000080000000U,
  0xbf4316a280000000U, 0x8000000080000000U, 0xc007b75a80000000U, 0x8000000080000000U,
  0x8000000080000000U, 0x8000000080000000U, 0x8000000080000000U, 0x8000000080000000U,
  0x8000000080000000U, 0x8000000080000000U, 0x80000000c0519ebcU, 0x8000000080000000U,
  0x8000000080000000U, 0x8000000080000000U, 0xbf48989d80000000U, 0x80000000be909f9aU,
  0xbfe2085c80000000U, 0x8000000080000000U, 0x8000000080000000U, 0x80000000bff2136fU,
  0x8000000080000000U, 0x8000000080000000U, 0x80000000bea4c784U, 0x80000000bea3c752U,
  0xc0515d2f80000000U, 0x8000000080000000U, 0x80000000c0122a5eU, 0x8000000080000000U,
  0xbd87d2c380000000U, 0x80000000bf641a30U, 0x8000000080000000U, 0x8000000080000000U,
  0x8000000080000000U, 0x8000000080000000U, 0xc0cb33d480000000U, 0x8000000080000000U,
  0x80000000bf9df81dU, 0xc0958c3480000000U, 0xc0e0529a80000000U, 0x8000000080000000U,
  0x8000000080000000U, 0x8000000080000000U, 0x8000000080000000U, 0x8000000080000000U,
  0xbf95071280000000U, 0x8000000080000000U, 0xc002c94580000000U, 0x8000000080000000U,
  0x8000000080000000U, 0x8000000080000000U, 0x8000000080000000U, 0xc07e4e1280000000U,
  0x8000000080000000U, 0x8000000080000000U, 0x80000000be18ecdbU, 0x8000000080000000U,
  0x8000000080000000U, 0x8000000080000000U, 0x8000000080000000U, 0x8000000080000000U,
  0x8000000080000000U, 0x8000000080000000U, 0x80000000bf8fce1bU, 0x8000000080000000U,
  0x8000000080000000U, 0x8000000080000000U, 0x8000000080000000U, 0x8000000080000000U,
  0xc025157c80000000U, 0x8000000080000000U, 0x8000000080000000U, 0x8000000080000000U,
  0x8000000080000000U, 0x8000000080000000U, 0x8000000080000000U, 0x8000000080000000U,
  0xbecc7f4280000000U, 0x8000000080000000U, 0x8000000080000000U, 0x8000000080000000U,
  0x80000000bdd5f687U, 0x8000000080000000U, 0x8000000080000000U, 0x8000000080000000U,
  0xc10f9c7d80000000U, 0x8000000080000000U, 0x8000000080000000U, 0x80000000bff4165bU,
  0x8000000080000000U, 0x8000000080000000U, 0x8000000080000000U, 0x8000000080000000U,
  0x8000000080000000U, 0x8000000080000000U, 0x80000000bd568cdfU, 0x8000000080000000U,
  0x8000000080000000U, 0x8000000080000000U, 0x8000000080000000U, 0x8000000080000000U,
  0x8000000080000000U, 0x8000000080000000U, 0x8000000080000000U, 0x8000000080000000U,
  0x8000000080000000U, 0x8000000080000000U, 0x8000000080000000U, 0xc027df7b80000000U,
  0x8000000080000000U, 0x8000000080000000U, 0x8000000080000000U, 0x8000000080000000U,
  0x8000000080000000U, 0xbea25edf80000000U, 0x8000000080000000U, 0x8000000080000000U,
  0x8000000080000000U, 0x8000000080000000U, 0x8000000080000000U, 0x8000000080000000U,
  0x8000000080000000U, 0x8000000080000000U, 0x8000000080000000U, 0x8000000080000000U,
  0x8000000080000000U, 0x8000000080000000U, 0x8000000080000000U, 0x8000000080000000U,
  0x8000000080000000U, 0x8000000080000000U, 0x8000000080000000U, 0x8000000080000000U,
  0x8000000080000000U, 0x8000000080000000U, 0x8000000080000000U, 0xbe10809f80000000U,
  0x8000000080000000U, 0x8000000080000000U, 0x80000000c1b2b67cU, 0xc24d711f80000000U,
  0x80000000c25451ddU, 0x80000000c29b9ad7U, 0x80000000c253457fU, 0x8000000080000000U,
  0xc257d272c2c80000U, 0x8000000080000000U, 0x80000000c2c80000U, 0xc263a51580000000U,
  0xc2bae8ab80000000U, 0xc28a88e3c2c80000U, 0xc1857765c183a178U, 0x80000000c2c80000U,
  0xc14da04280000000U, 0x80000000c2610b9bU, 0xc08f5686c2ac0940U, 0xc0a22f4d80000000U,
  0x8000000080000000U, 0xc2851205c2ad012aU, 0x8000000080000000U, 0x80000000c2c80000U,
  0x80000000c2c80000U, 0xc2c80000c22aa1afU, 0xc2c8000080000000U, 0xc106e4c2c2c80000U,
  0xc258773580000000U, 0xc250245680000000U, 0xc2c8000080000000U, 0xc2c8000080000000U,
  0xc285e30fc2548043U, 0x8000000080000000U, 0x8000000080000000U, 0x80000000c2c80000U,
  0x8000000080000000U, 0x8000000080000000U, 0x8000000080000000U, 0x80000000c1098b71U,
  0xc282b00e80000000U, 0x80000000c2c80000U, 0x80000000c2c80000U, 0xc2c8000080000000U,
  0xc2c76a82c2c80000U, 0xc1b48d1bc2c80000U, 0xc1c7ed9e80000000U, 0xc2c80000c2c80000U,
  0xc1575359c2c80000U, 0x80000000c2c80000U, 0x80000000c2c80000U, 0x80000000c2c80000U,
  0xc2c80000c2c80000U, 0x4024474300000000U, 0x0U, 0x0U,
  0x0U, 0x4022e933U, 0x0U, 0x0U,
  0x0U, 0x0U, 0x40bd9361U, 0x0U,
  0x0U, 0x4109b8e200000000U, 0x0U, 0x0U,
  0x0U, 0x0U, 0x0U, 0x0U,
  0x402ce8fcU, 0x0U, 0x3ed384c100000000U, 0x3fa15a964002dad9U,
  0x3ea33ceb3ef7c38aU, 0x3f6bfc7a3fab82d9U, 0x3faa9d323e962699U, 0x3e7cf7de3f24a591U,
  0x3dbb814b3d054a53U, 0x3fd63f0240337c45U, 0x3e76fc6900000000U, 0x3e5907fb3f854db9U,
  0x3f8e6ee73dd39f2aU, 0x3fbf808b3fb21764U, 0x3fb9ee763e5cb758U, 0x3e5854fd00000000U,
  0x3fad4df8U, 0x403fa0cf3f91b762U, 0x3f5a40493fca13bfU, 0x408e39563f49fe9aU,
  0x3f96fbbb3f7510c6U, 0x3f4387103fd53a10U, 0x401c3cf63fa9db1bU, 0x3f8c62feU,
  0x400dc52d3f56c40fU, 0x3e73677eU, 0x3feea5293facc26eU, 0x3fd9f0ea3f81500aU,
  0x3f9b80643ebbea30U, 0x3f9b64803e6071feU, 0x3f90345340661e1bU, 0x3f9de3173f8e8bd7U,
  0x3f8dd2b53fdbc2fdU, 0x401d0aa33f7f2a6aU, 0x3f87a7aaU, 0x3fc553983e5206afU,
  0x3fa5e03d3e6333a9U, 0x3f93a27e00000000U, 0x402b6d963fad4162U, 0x3e78a6c400000000U,
  0x3ef968023f804b3bU, 0x4092f7d43f3ae55dU, 0x3ffa48713fb665d7U, 0x3f3e02bb3d7c2c3cU,
  0x3f45f8d83fea0e0cU, 0x400bd773U, 0x3f4e5f5d40c2a755U, 0x3fb4846040a059c2U,
  0x3ee5a28800000000U, 0x3e407da13fd7a813U, 0x3e97d097U, 0x40c1425f3efda5abU,
  0x3fad7ebd3f5953cdU, 0x3f8b185f3f2613b3U, 0x40937210401de9b1U, 0x407f24913fcb8904U,
  0x3f3b5ce13fdc5dcaU, 0x3f8fb2f03fb5b0faU, 0x3f3d1d8e3f42f030U, 0x3f8d33d23fcc2494U,
  0x3fc15d913f0e1c2aU, 0x3f638fed3f811790U, 0x3f83d8b13f3a29e0U, 0x3df3f6443f217c55U,
  0x3fc3e0383f875795U, 0x3e82a6243f91d239U, 0x3f934c983f4a27aaU, 0xbed529103f8aeef7U,
  0xc13a1250bed464edU, 0xc031ab7ebf1c725bU, 0xbe932bd9bed53541U, 0xbed2b403bf94e2f4U,
  0xbeca83f8bec07959U, 0xbeccce5bbed31b16U, 0xbed55e62bed4c910U, 0xbeb37cb8bf80661dU,
  0xbed3cbb0bed53995U, 0xbeb0ee2abed546fdU, 0xbeb0e812bec4d074U, 0xbeb75251c0ac8e6fU,
  0xbecac70bbed47864U, 0xbf94a164bebb6160U, 0xbeb88a04bed4edfbU, 0xbea8a4f1bed566c5U,
  0xbed54a5ebed32d55U, 0xc120d0f5bed4a5e3U, 0xbed03e78bed3f3e2U, 0xbec022e2be8f9fb8U,
  0xbed4f65cbed28d7aU, 0xbed50e41bed536eaU, 0xbed5125abec62ed9U, 0xbecd6de5be7ba872U,
  0xbecbf1e5bed54022U, 0xbf87642bbecdb0a1U, 0xbed55888bed556cbU, 0xbed4c09bbeaf1a1aU,
  0xbdcf36a5bed01b85U, 0xbecc2384bf5a4f2fU, 0xbecedd41bed4340aU, 0xbed551e8bf0f4706U,
  0xbed1e753bec1f75dU, 0xc1ac8671bed4082dU, 0xbed551c8beca8ea7U, 0xbecfdc96bed47850U,
  0xbea096fdc133d922U, 0xbeca407fbec9398cU, 0xbed5658ebed55d65U, 0xbf7ab72cbed516deU,
  0xbeb695f7bea3bec9U, 0xc00855b6be9f097cU, 0xbeb1b7fdbec5d6bcU, 0xbed55fb1bfa96729U,
  0xbed56008bed37142U, 0xbed560f3bed1d1dfU, 0xbecf3b37bebeba65U, 0xbed4183dbed555b0U,
  0xbe9468cdbed4e945U, 0xbec5de14bec7e540U, 0xbebd4148bed1fd16U, 0xbeccd5e6bed526e6U,
  0xbe9923d0becddd2fU, 0xbeca6ecdbed2ec4eU, 0xbf10a118bed51e8dU, 0xbeca80efbed297dcU,
  0xc16ed69abeb97789U, 0xbed37b82bec6435eU, 0xbec13c6bbecf7a98U, 0xbe829728bead72c9U,
  0xbec31982be91b192U, 0xbed489ffbed566c9U, 0xbfc9dfd4bed5536eU, 0xbef20ef6bed52203U,
  0xbe7cd419bf6546afU, 0xbed46edbbefb57c6U, 0xbe8d853bbeb5d6f2U, 0xbed557c5bed3bd3fU,
  0xbed55e3ebed542e2U, 0xbe8e9bf0becb10dfU, 0xbed2370fbed45df3U, 0xbed96ca3becd2109U,
  0xbed565debec9ce1cU, 0xbe962a25bed43d9eU, 0xbed5700ebe81439cU, 0xbed4fa56be89dfeeU,
  0xbe94cc52bed5575cU, 0xbf8e3d19becb3a6fU, 0xbed4a77cbed0e74eU, 0xbed5e4adbed50200U,
  0xbed51b20be92b8f0U, 0xbe7d26fdbeb9dfe5U, 0xbed54ffebecbc9a6U, 0xbed2529fbed588d9U,
  0xc0a8f006bed3fde6U, 0xbed561e2bed3fe90U, 0xbeb5565fbebee6a7U, 0xc00ecae580000000U,
  0x80000000be2c8751U, 0xbfd1eaff80000000U, 0x8000000080000000U, 0xbebefe0f80000000U,
  0xc0415e30c0689f30U, 0x8000000080000000U, 0xc0376fe8c0b843daU, 0xc099bbcb80000000U,
  0x80000000bf33ee13U, 0x80000000c06d19b8U, 0x8000000080000000U, 0x8000000080000000U,
  0xc09cade080000000U, 0x8000000080000000U, 0x8000000080000000U, 0x8000000080000000U,
  0xbf20527ac071284cU, 0xc0ae7944be804630U, 0x8000000080000000U, 0xbf9c8171c0974a1bU,
  0xc08f0bcf80000000U, 0x8000000080000000U, 0x8000000080000000U, 0x80000000c07e612fU,
  0x8000000080000000U, 0x80000000bfafdcc7U, 0x80000000c0628f14U, 0x80000000bfb5e263U,
  0x80000000c03124c2U, 0x8000000080000000U, 0xbfc1c765c05ffafaU, 0xc0803e54c023c8bdU,
  0x8000000080000000U, 0xc00b6e39c024ca55U, 0xc0490354bfdab921U, 0xbf1ec93cc127103fU,
  0xc0a1cd5680000000U, 0x80000000c029f6dbU, 0xc0afda2a80000000U, 0xbf672be580000000U,
  0x8000000080000000U, 0x8000000080000000U, 0x8000000080000000U, 0x80000000c0b29737U,
  0x8000000080000000U, 0x8000000080000000U, 0xc0263c2780000000U, 0xbfb7f69780000000U,
  0xc00bfb0580000000U, 0x8000000080000000U, 0x41fd970642c80000U, 0x42c8000041d2ca2bU,
  0x42c8000042c80000U, 0x42c8000042c80000U, 0x42c800004212a336U, 0x429807f042c80000U,
  0x42c8000042c80000U, 0x42c8000042c80000U, 0x42c8000042c80000U, 0x42b3ca264204ccbfU,
  0x42c8000042c80000U, 0x42c8000042c80000U, 0x42c8000042c80000U, 0x42c8000042c80000U,
  0x42c8000042c80000U, 0x42c8000042c80000U, 0x42c8000042c80000U, 0x42c8000042c80000U,
  0x42c8000042c80000U, 0x42c8000000000000U, 0x42c8000042c80000U, 0x42c80000U,
  0x3e551c96U, 0x3f1a34c000000000U, 0x0U, 0x0U,
  0x3f48e19b00000000U, 0x4103549e3f49c899U, 0x0U, 0x416f0f9dU,
  0x3f68227800000000U, 0x0U, 0x0U, 0x0U,
  0x3d9a0bf1U, 0x400c0f7e00000000U, 0x409fae8300000000U, 0x0U,
  0x40459fd400000000U, 0x0U, 0x3e22bde4U, 0x0U,
  0x3f4cf18a00000000U, 0x0U, 0x3ffb6bcd00000000U, 0x0U,
  0x4105d15bU, 0x0U, 0x0U, 0x0U,
  0x3f59223700000000U, 0x3f032fd4U, 0x41002cb500000000U, 0x3f01d5a83d0dcea4U,
  0x0U, 0x3efa01d0U, 0x3d814464U, 0x0U,
  0x0U, 0x3f0cea494055b8f4U, 0x407e2d5200000000U, 0x0U,
  0x4063f939U, 0x0U, 0x3fb2c2b300000000U, 0x3f8b67b93fbd587cU,
  0x0U, 0x3f9800ceU, 0x0U, 0x3c9477f600000000U,
  0x40ce570300000000U, 0x3f0dc246U, 0x404a73ffU, 0x415285964052bb74U,
  0x415b125100000000U, 0x3fa269f300000000U, 0x0U, 0x0U,
  0x0U, 0x0U, 0x401da0ce00000000U, 0x0U,
  0x40c6f76c00000000U, 0x0U, 0x0U, 0x3e2e83ddU,
  0x3ca701a800000000U, 0x41061e663ca63386U, 0x3f0bbf8c3cba8b20U, 0x3c67563b3ca90e48U,
  0x3ca8ab773ecff578U, 0x3c9d8a313c94e1d3U, 0x3ca442d03ca9cd03U, 0x3ca88e833ca71be9U,
  0x3c89a46f00000000U, 0x3ca2dbd03ca4b19eU, 0x3c8bd0723ca3dac3U, 0x3c89a4193c9c65ffU,
  0x3c9108133f3c74aaU, 0x3c9cf91d3ca60c3cU, 0x3ef6c8623c94c567U, 0x3c90fe683ca4a82fU,
  0x3c8505a53ca7acf2U, 0x3ca423f13ca66a57U, 0x406a84103ca60622U, 0x3ca16f043ca4a057U,
  0x3c956a253c67fd6fU, 0x3ca7ac583ca20d59U, 0x3cab0ec03ca5e9acU, 0x3caaa03c3c9c308bU,
  0x3ca013aa3c4354e1U, 0x3c9d2b1e3ca82ca3U, 0x3faa29663c9fed13U, 0x3ca5466d3ca4d427U,
  0x3ca7ee1d3c8797cfU, 0x3ba15b713ca469baU, 0x3c9eddc33e88a3bcU, 0x3cb885c93ca838c1U,
  0x3ca831203dae302bU, 0x3ca146ab3c9772beU, 0x419517583ca3f5feU, 0x3ca7a8193ca0e1eaU,
  0x3ca65b423ca6d0e8U, 0x3c7e911540af4eecU, 0x3c9f5b893c9d7f87U, 0x3ca8ccc73ca8dd2fU,
  0x3ca86afeU, 0x3c8f4c113ccce9caU, 0x3f61be183c7d692dU, 0x3c99a89aU,
  0x3ca4f3093f00adefU, 0x3ca775743ca6ee97U, 0x3ca5548b3ca72229U, 0x3ca0b3583c92567aU,
  0x3ca602cb3ca65895U, 0x3c61a0763caa780fU, 0x3c98a4bd00000000U, 0x3c935eca3ca47b9fU,
  0x3c9f4b653ca8477fU, 0x3c76b6c33ca0b9c2U, 0x3c9ea6713ca49b23U, 0x3db1b9443ca7b059U,
  0x3c9f5a0b3ca0f949U, 0x405135e23c914ff4U, 0x3ca711803c99f0efU, 0x3ce6c8e83ca14a89U,
  0x3c53d0d63c8baf73U, 0x3c98ebd03c620e76U, 0x3ca7a8243ca81f5aU, 0x3ea7d62d3ca6b4d7U,
  0x3d0e9c983ca6fe4fU, 0x3c443c973e4237f2U, 0x3cb49deb3d7403e5U, 0x3c6293d23c8df3d3U,
  0x3ca3f1a93ca66a01U, 0x3caabefe3ca83acdU, 0x3c60e4a63ca3ac93U, 0x3ca2669c3ca5f21fU,
  0x3c9ef313U, 0x3ca80acf3c9c72e4U, 0x3bc7a4283ca53455U, 0x3ca964653c4932f6U,
  0x3ca3f1583c52555fU, 0x3c6ce1be3ca658ebU, 0x3f1824de3c9eb531U, 0x3ca6606f3ca336e9U,
  0x3cab8b373ca37367U, 0x3ca86eb63c5f2364U, 0x3c445c573c8fa3feU, 0x3ca80f3d3c9ff74bU,
  0x3ca5ce223ca8c2a8U, 0x3ed85c5e3ca44256U, 0x3ca8a9a73ca44d84U, 0x3c8f3ba53c92dc55U,
  0xbfc4a35a80000000U, 0x80000000bf588cd3U, 0x8000000080000000U, 0xbf7d5d7c80000000U,
  0x8000000080000000U, 0x80000000bfdf772bU, 0x8000000080000000U, 0xbfb087dbbfc07f64U,
  0x8000000080000000U, 0x8000000080000000U, 0x8000000080000000U, 0x8000000080000000U,
  0x8000000080000000U, 0x8000000080000000U, 0x80000000c00890f7U, 0xbff2725280000000U,
  0x8000000080000000U, 0xc0416753be90169fU, 0x8000000080000000U, 0x8000000080000000U,
  0x80000000bf93743fU, 0xc02163d480000000U, 0xc094e2b780000000U, 0x8000000080000000U,
  0x8000000080000000U, 0x8000000080000000U, 0x80000000bf98fa62U, 0x80000000bfa467ddU,
  0x8000000080000000U, 0x8000000080000000U, 0x8000000080000000U, 0xbef05b3480000000U,
  0x80000000bfc90e8aU, 0xc01c1b1580000000U, 0x80000000bff2adc5U, 0x8000000080000000U,
  0xbfd2cee4c0b733d7U, 0xbf63a3ac80000000U, 0x8000000080000000U, 0x8000000080000000U,
  0xbe3f3af680000000U, 0x80000000bed78a61U, 0x8000000080000000U, 0x8000000080000000U,
  0x80000000c084286bU, 0x8000000080000000U, 0x8000000080000000U, 0xbfe8556b80000000U,
  0x8000000080000000U, 0xbff0088080000000U, 0x8000000080000000U, 0xb9ad8040bcef4698U,
  0x3e6345fa3e6a03c6U, 0x3cd130da3ccdec35U, 0x3d8c5091bcf4cf69U, 0xbe3ea0943d32a812U,
  0xbded6d3cbe3d6fecU, 0x3e7195f8be31eac0U, 0xbe93c8653e4ab546U, 0x3d92b7af3d7b03a9U,
  0x3b6222313d6e0831U, 0xbdeb568a3e914679U, 0xbe0f6d933cd182a4U, 0xc10a12f1c1170c3dU,
  0x3e88f372c1391ae6U, 0x407e43d2c0e14a23U, 0x4063485f4066029fU, 0x403bce19c0513b19U,
  0x3c848ec840342e04U, 0x406f0a69c1269e64U, 0x3f2cd8f8c0f3ac65U, 0xc025af76c037e5eaU,
  0xbf6fb4aabe11cd90U, 0x4023bdb83fdb1264U, 0x40f43f843e0b55fdU, 0x3cd1f32a3c8fad69U,
  0xbd8ec6b9bbd0fb0eU, 0x3c904bff3d4170f9U, 0xbb56dcf03c6803eeU, 0x3d6bcab63ce60406U,
  0x3cc0b96c3d501309U, 0x3d7d904038dc988bU, 0xbb7157c43d275d9dU, 0x3d0278d43d8b3aa9U,
  0x3ce9b2ebbd01fba4U, 0x3d1705ca3d7f47edU, 0x3cd07a703d33c5e8U, 0xbc8e6c1c3c80bf25U,
  0xbbecabac3d00679cU, 0xbc29b49cbd16660fU, 0x3c6baec8bc11e7aeU, 0x3cd274583cae1f91U,
  0xbc8261f83b4c3964U, 0xbd6f5e07bcb4b3f6U, 0x3cf14dfdbc8a46e8U, 0x3cd3fba03d056e5cU,
  0xbc71d48bbc0cb274U, 0x3d3e2489bd5ce567U, 0x3d1790cdbb52b4c7U, 0x3d4d5f233b127e95U,
  0x3e37b4ca3d28b33cU, 0x3e309f9fbced1d9aU, 0x3cecd8603a602888U, 0xbda1c3163cba1376U,
  0xbe07dcc1bcc980c0U, 0x3d932f273d5a24b8U, 0xbc290675bcb43dfcU, 0xbcc210dfbd7881faU,
  0xbdb6f13abc17b30aU, 0x3c774dfdbd28d698U, 0x3dda8fcdbd4257ccU, 0x3d05e5453e7b50b9U,
  0xbd1bf8dabe69f509U, 0x3c8d8f08bdb46b5eU, 0xbe7b3c79bc730e86U, 0xbdd2c925bc36e6e7U,
  0x3e94bdd53e94f9f7U, 0xbea608bbbe3d4619U, 0xbdb0c15d3dd2dfc1U, 0x3dcdd7fbbd4639beU,
  0x3c47b42bbebf33a0U, 0xbd3c0c30bd6dfa07U, 0x3e28b791bd61125cU, 0x3d9485173d1c9f0bU,
  0x3d6831a4bcf93937U, 0x3dbe27b4bd8ead6eU, 0x3de838903d9f5707U, 0x3e18b33bbdacd510U,
  0xbdf6e8da3d074398U, 0x3d514cde3df97809U, 0xbccc7954bc6aa934U, 0xbd4ee5ae3dd45586U,
  0x3cd443763df244d1U, 0xbe0de13d3c00f232U, 0xbdcf94d13be0c999U, 0xbc2c1eae3b9ea992U,
  0x3c25a95cbc7d676cU, 0x3c5b572cbb95c0b5U, 0xbb235960bc778789U, 0x3c409497bc8f61c3U,
  0xbc2436f3bca87481U, 0x3c2d5796bbf8dd7bU, 0xbcb770193cd8ad5bU, 0x3c3e91763c4006b5U,
  0x3c8cd24a3ce89fdeU, 0xbd0a986c3c0c7dcfU, 0xbcf69891bd1e8fdaU, 0x4097d6d7c010c752U,
  0xc111cf6d40f6822bU, 0xbfd5c8893ff75de3U, 0x3f319ad63f557d1cU, 0x4043035abf12f6a9U,
  0xbf9dfb4ebfe243a1U, 0xc05e21943e1aa45fU, 0xbfa7a1e5c086a912U, 0x3ffbe60840978fd1U,
  0xc0c8903b400ab7bcU, 0xbf6ac476c00b4956U, 0x40b49b7f3fa7aaa1U, 0xbc70bb943dcfc532U,
  0x3cd121c23da27c88U, 0x3e3a49be3c598d9eU, 0x3e0c48cf3d51115eU, 0x3e13c693be815df6U,
  0xbd2738bbbe34ab3fU, 0xbd4dbca53cde2288U, 0xbdb4c18b3c0a2f90U, 0xbd587f3e3e58f505U,
  0x3cc6d048bd3558b5U, 0xbe2c0bcd3bf3f774U, 0x3e187fd13e9ec0a7U, 0x3c506ef1bc776527U,
  0xbd2f66f13d2611a4U, 0xbca96e93bd0b30f8U, 0xbd0730563c74db0fU, 0x3cf71fe2b9423800U,
  0xbc4515efbbc5e198U, 0xbd1f7151bd148f6aU, 0xbbbd05953cda598dU, 0xbb6ee3b73b8ab175U,
  0x3c23eae53bfebf84U, 0x3b71d26cbba53694U, 0xbb0af0783d0754b0U, 0xbf985185bf74ee1eU,
  0x3f8df8b33f878ed7U, 0xbf5021d93ead4faeU, 0xbea3111f3ead21dfU, 0xbf1a12e33f51072cU,
  0x3e8fbf54bf106178U, 0xbf288927bdf9509bU, 0xc00c53093ffaed31U, 0x3e4949913aef4f67U,
  0xbf8c9cbcbda18381U, 0xbf607e6d3f90b597U, 0xbe0416633f8246d7U, 0x3da095f6bb82ddc6U,
  0xbca27971be116094U, 0xbcde23a13d37af51U, 0x3d037990bcd3269fU, 0xbcc201fd3cf17697U,
  0xbce79d1abc21438dU, 0xbc4e982fbc6589d2U, 0x3ba321c23c4d1868U, 0xbd321e96bc0ecc27U,
  0x3e09c6543d96b9b8U, 0xbd12ad343d5c244fU, 0xbddbba12bdc737faU, 0x3d06ae4c3c3822e5U,
  0xbdf28d1fbdb36a57U, 0x3b417149bce245fdU, 0xbbb75dccbb113cefU, 0x3d279dedba66603cU,
  0xbacc76c83d29cf15U, 0xbcecdff9bb0c9c42U, 0x3dc4cc90bdb32410U, 0x3c94585b3cd47429U,
  0x3d6c09133cf4c257U, 0x3d541d79bda521b8U, 0x3dd68c90bd49ec3fU, 0x3a5e07793b86e56fU,
  0xbc72b2713d0078c3U, 0xbc0e807ebbd8579bU, 0xbb2b12e03cc5a2feU, 0x3d01f2833d8427bdU,
  0xbd9f72913ba0a083U, 0x3ccdc5203b65fc34U, 0xbca8aa77bcfaa2d7U, 0xbd01245d3dbfa63bU,
  0xbd13d12d3c2b176dU, 0x3af87e04bc876e69U, 0x3d1f491b3d33ae84U, 0xbebb60e0bf4be5f5U,
  0x3f989cc0bbff7d62U, 0xbf4c02913f3030c5U, 0xbdd231c5bc4a254bU, 0xbf4f6f023f0c10c6U,
  0x3edf512bbeec0adfU, 0xbef6485abea339caU, 0xbfae2e4c3fe60bb9U, 0x3eac7458be9ba413U,
  0xbdb7e95f3e952377U, 0xbf85bc6b3f7ceac7U, 0xbf88612cbe112b12U, 0x3da4a4123d454f2eU,
  0xbd0bbf75bca7bd53U, 0x3d8d0ac5bbfb8c42U, 0x3d9cdcfb3b57d9a7U, 0x3b7fcecb3cda2213U,
  0xbd9ca608bd033a8cU, 0x3cd87feabd0caa00U, 0x3d8bc070be1a642dU, 0xbd82ae3a3cb39023U,
  0x3c84f7223cb83415U, 0x3ce6224ebd850dc4U, 0x3e01708cbd0bbcdeU, 0x3e032038bd4c264bU,
  0x3e3ff4223e86527fU, 0xbcf57a0cbdbe538aU, 0xbe11a9613c0313b9U, 0x3d89e244be1d3f11U,
  0x3e3393203bc7d4eaU, 0x3e4876cf3d85459dU, 0xbd1b103abe383e23U, 0x3e46fb75be6ad515U,
  0xbdeb9d1a3d0a8ddeU, 0xbda24828be397c8bU, 0x3c7ae1dfbcd2b925U, 0xbfacb01fbfd40e7dU,
  0x3ec1a17cbf03d34bU, 0xbff347953f6a0000U, 0xbe9053de3ed3795eU, 0x3e9000943f9cdd3fU,
  0x3f80c5f63d544573U, 0xc01c93113f863edcU, 0xbffb02243fbb823cU, 0xbe7938833e0748f5U,
  0xbf6ba9d03e6fc571U, 0xbf6391ef3f2dcf58U, 0x3df2469f3f8f4e78U, 0xba94cfb83ad05ebaU,
  0xbc776b37baeb3724U, 0xbc0ca76f3c6ba744U, 0x3c72b2103c3fd1b6U, 0xbc84511a3d031c43U,
  0xbc2a039fbc01cd8eU, 0xbaaf2743bcbc5827U, 0x3b40de4d3d078fdbU, 0xbbaa32aa3cc48707U,
  0x39bbf97fbc96f8f4U, 0x3cbd27f3bb981745U, 0x3c5730fc3be83cf7U, 0x3c93749d3c0cf2c8U,
  0xbd40fb29bc26528aU, 0xbcf66825bcc52057U, 0x3c3e62debc8bf82bU, 0x3d1d7e04bd0b2da7U,
  0xbc8363f5bca0f870U, 0xbcb27fe3bc61b1c1U, 0x3d60f7bb3d2a756fU, 0xbc36892cbd195010U,
  0x3cfc1ead3d23a41dU, 0x3d461695bb22de46U, 0xbd89336f3927d38dU, 0x3d7999843e54d940U,
  0x3da84c8ebdb6fb2eU, 0x3e24e1c03c33491fU, 0xbdeed325be38e912U, 0xbe87e2fe3c5c79aeU,
  0x3e141e383eca1cd3U, 0x3cc9ffeebe0ca515U, 0x3d695316be8a3663U, 0x3d7039f63d5f047cU,
  0x3aa33ed23de47195U, 0xbd4dc77abe27a960U, 0x3cb22fe73cffe100U, 0x3d1f76033c74e1f9U,
  0x3d5410c83c145e89U, 0x3d855d84bde81bc9U, 0x3e04d7bb3d96ad12U, 0xbe2fd3223d8338f2U,
  0xbe38700ebcd3d1e7U, 0x3dab74f63e0a12a2U, 0xbdb32bfabcf6a8deU, 0x3d8234bd3d255b70U,
  0xbc8327023e2b35cbU, 0x3aadcb1fbd2d1b77U, 0x3da22a623b4ebc04U, 0xbc676678bd76c4deU,
  0xbef3c69c3d892466U, 0x3ddc70e1be0d4616U, 0xbd57497a3ea1367fU, 0x3e8315ff3e81d04fU,
  0xbe85e1ed3e750aa5U, 0xbe908cc7bdf23111U, 0xbe58c8c4beadd954U, 0xbdc4fd2f3d879838U,
  0xbdfa3db33e21dc35U, 0x3df91bf6beade2f5U, 0x3f0ce98d3e8963e2U, 0x3d937b283d5731faU,
  0xbc91b73a3d9b8bfdU, 0x3d29b892bcb5cf57U, 0xbcd7a9ea3b7a1cc2U, 0x3ccbf2a9bd6abe41U,
  0x3c12d9adbd373fe1U, 0x3d4e6413be00e5dfU, 0x3dbd0ecbbbc88139U, 0xbc562e37bc9bb50cU,
  0x3d4c664fbd85e3c0U, 0xb9aad621bd7d24dfU, 0x3d7cf259bd7a9452U, 0x3da139303ea8c9a4U,
  0xbcdcb31a3da5ff80U, 0x3eed3a38be87c39bU, 0x3cb158bfbdf8dbd1U, 0xbe272991be2edd8dU,
  0xbebdbb17bd52d789U, 0x3f163e0cbe07d9a4U, 0x3e026779be1b15d1U, 0xbddd25b6bd8126f5U,
  0x3d49c2453c74564aU, 0x3e7f48ea3e70ce0eU, 0x3e105df93e15019dU, 0xba7f5e97bbf0d4b9U,
  0xbcca437cbcd754acU, 0x3be44084bd18336fU, 0x38bfa0d23d7d38fcU, 0x3dba01983cdce508U,
  0x3aec512e3c54e61dU, 0xbd04ea123c288854U, 0xbd96fe41bd5dbb80U, 0xbd045a703d9f6aa2U,
  0xbd2e97f43bbfd17eU, 0x3c65957abd5cd522U, 0x3e110e563d458e56U, 0x3d44c881bc317413U,
  0xbc2434843c0d5ab6U, 0xbc275fdd3d3489e8U, 0xbce9ff133c92076dU, 0xbd9247e23d23a9a3U,
  0x3db5d6d63ced1218U, 0xbc484fb43d3b6085U, 0xbc61ccc53d9bae6eU, 0x3d7d6779bd4182f5U,
  0x3d6dc6a7bdb8f867U, 0xbd6bc0cabd632f98U, 0xbe443a59bd02c0c2U, 0x3d2226743e146097U,
  0x3eef08dc3e00987aU, 0x3ce420d7beedf304U, 0xbe7d85adbe99cf85U, 0x3e9c4a3c3db05723U,
  0xbeb1a17c3e09d0edU, 0x3f5c6aeb3e97131fU, 0xbf35fb59bf0b8ed1U, 0x3fa741df3db09432U,
  0xbd8acb0ebf081fc3U, 0x3e93012abe127437U, 0xbfa1fb74bf15a314U, 0x3c87ddbdbd0dd041U,
  0xbbee8dc8bb101839U, 0x3ca69a7c3c7e291eU, 0x3d837d9c3c58976bU, 0x3d57d1823d942128U,
  0xbcecbab1bd081af6U, 0x3c38fa8b3da98bd9U, 0x3d6ffe4bbc98ba69U, 0xbd6d34733d26f718U,
  0xbc2d09a13d838d77U, 0xbc0003adbcb7c7fdU, 0x3d5aad8b3a9d7148U, 0xbd3cdad43bbcf716U,
  0xbc68c9abbcb6bc6cU, 0xbc295986bc135ee8U, 0x3cf148e5bcba8e45U, 0xbdd273fa3e3bb0d8U,
  0xbd97a1e33d7a1606U, 0x3d43b947bcd2176aU, 0x3ae86da23dd8e83fU, 0xbd7826d53e0a8c9eU,
  0x3cfcc5183ddc5b1cU, 0x3afab8283c968f85U, 0x3c337ffe3d3e8143U, 0xbcf2bd7e3aa99c31U,
  0xbdc20b89bcdca21fU, 0x3db683703c72c8a7U, 0xbb13a1bf3d66845aU, 0xbc93b11e3e286f90U,
  0xbc6f89ed3c137778U, 0xbc861d933c65d641U, 0xbe5d4faabe50f59cU, 0xbe197a153dfe14feU,
  0xbd2f75b23d82de16U, 0x3d8239e5bd308b06U, 0x3eb8fe773e533479U, 0xbcdb6c5a3c5cf744U,
  0x3d2a07873e214ba3U, 0x3d8d132c3ae924c0U, 0x3db6e6cb3dfa2714U, 0x3def26e23d55ddd4U,
  0xbddc915b3ab001dcU, 0x3c3b193fbccebfbbU, 0x3dc709babdf8ae54U, 0xbd82110d3e3f4d65U,
  0xbe6916d5be2a111dU, 0x3ca69e84be0cb807U, 0x3eec51243e20c64cU, 0xbd87533e3c2511dfU,
  0xbd2c472cbbf95dafU, 0xbb6d2d71bd23880aU, 0xbcc9a9513ce4a3b7U, 0x3d70e1183ce2fd4cU,
  0xbde35c61bccb9ba4U, 0x3cc6c92fbc29cac0U, 0x3c8300e33ca56ab3U, 0xbd050ac73d1405e4U,
  0x3c3ea48c3d07d67eU, 0x3cc7fada3d054dadU, 0x3c6e7bd9bba1482fU, 0x3d319ac1bd213003U,
  0x3cff53af3e6b1f12U, 0x3c48db4dbce75632U, 0x3d238410bd1d48c4U, 0xbc4e6b91bc5b5493U,
  0x3ccf1e44bdcd9baaU, 0xbd23a4ab3c81eec7U, 0x3d50790cbd7c567bU, 0x3d82ab14bda5cac8U,
  0xbdb9b18d3d76de27U, 0xbcfa1e55bd0fcdf2U, 0xbd65eeebbcf95a9dU, 0x3d577984bc5bebd1U,
  0x3adac47c3c88e147U, 0x3b9a91b13cecd5ceU, 0xbcfb5878bd3bbda6U, 0x3c041eb13aac118dU,
  0x3c8d5fbdbd645788U, 0xbaa87d08bcbe5153U, 0xbd0bb172bc8c2560U, 0x3cb4906b3bd04f83U,
  0x3d4043ee3c4ae146U, 0x3d0ebe79bbc7a652U, 0xbd65b60d3c927a1cU, 0x3c888ee13d041d7dU,
  0xbb3c14a73c94464bU, 0x3caa01423d8c89cdU, 0x3ca5944a3bc5425aU, 0xbc21171c3d4b7610U,
  0xbd1576ec3d9e014fU, 0x3d69e855bc0765e3U, 0xbc825fdd3d25b20bU, 0xbd3ba6433d887e74U,
  0xbd8a4eb93cc447dbU, 0xbca1db9d3d2f2774U, 0xbd675beabcb5b90dU, 0x3d96a8483df15961U,
  0xbd40c031bd408bf7U, 0xbdcc57d8bd56d38dU, 0xbd204adc3cba6a45U, 0xbc971f223cc729eeU,
  0x3bf05e29bc50be09U, 0xbd3242cf3d4128fdU, 0xbd04a7d33ac4726eU, 0x3ba01e283d2e604cU,
  0x3cfe16aa3d86600cU, 0x3d76e1e3bcf14e7fU, 0x3d79efabbc8bb70fU, 0xbecb13cfbe4ca103U,
  0xbcc889ecbdec3976U, 0xbe1da9e43caa41ccU, 0xbd599a9b3d828851U, 0x3dd4cef23c04c592U,
  0x3db1c0e93da785d1U, 0xbea28d383e098df1U, 0xbdd5b6e03e8f88b4U, 0x3cef08673ca69a32U,
  0xbed3e404bd7f49ffU, 0xbd7a88753dbb61afU, 0x3e86d2a13e9004aeU, 0x3c9e25203d0d37a2U,
  0x3bcceb173caee5bbU, 0x3b7cbc1f3d199527U, 0xbd11748e3bfa48afU, 0xbb7f1ea73ba5bd99U,
  0x3ca618893a133096U, 0xbb1c7152bd3a946fU, 0xbb8d00953c6ab435U, 0x3cf851e4bc68621eU,
  0x3c2a5847bd16e4a4U, 0x3cb03350bd2fb184U, 0xbd0075443b66ad09U, 0x3ac64391bba598a1U,
  0x3cd6cbc33df676d8U, 0x3ca155283c3e5b69U, 0x3d0f05a83cac145aU, 0xbc8d1f9a3cb1874dU,
  0xbcdff487bb40b27bU, 0x3c95f22cbd31fd66U, 0xbc3acd15bc765a94U, 0x3cb7ece03d159bfcU,
  0xbd85becfbd7254b1U, 0xbbda90fabd0ea801U, 0x3d9de7553c847eeeU, 0x3c0dcb37bb88e1b8U,
  0xbbb1f3ca3d1818adU, 0xbc4bcfd2bcd64eddU, 0xbd3e3cd93b27774eU, 0x3c7951393bf8a05bU,
  0x3c6c3407ba6e129fU, 0xbc3cc0b3bc1d4307U, 0xbca167e5bc81688fU, 0x3ca0408e3ca115eaU,
  0x3c054b713d0329daU, 0x3c04a209bd3f212dU, 0x3d0ea9c23d1fda70U, 0x3d566b963da4e884U,
  0xbe7f5eb83e038e5fU, 0xbe161548bd0b6c7bU, 0xbd03cf053df8ea72U, 0x3e9d24b1bdddb86cU,
  0x3e82bfa73e149bd8U, 0x3cc5f1f33e0bf15aU, 0x3e132a63be6cbd3dU, 0x3e194d1a3ed150eeU,
  0x3da3348fbe69cf1dU, 0x3dacd1ccbe9cd829U, 0xbd772dc6bd847c64U, 0x409325e9c0bb8ce6U,
  0xc00cf5babfd5e2a0U, 0xc060db9a40ad541fU, 0x3f6e153ac03556eeU, 0xc016e941bf94e4eeU,
  0xbffd15443fbd156eU, 0xc0a7341e401e9ad3U, 0xc0216ff440603be0U, 0x40968e18bed2867eU,
  0xbf695fa840080499U, 0xc066bec8c0298562U, 0x403a2cae409e6e83U, 0xc0a221573f95eacfU,
  0x40120b32c034cebbU, 0x40f6abb0400b2e13U, 0x40b0b2a4c07294d5U, 0xc08823cdc0b43223U,
  0xbfa09a2dbf8dd764U, 0xbe6d1d664083030aU, 0x40a83c6ec09e2a32U, 0x400d446fc07c8f67U,
  0xc0b1fe013f9d72f6U, 0xbf11eb7fc103863bU, 0x4033a7aebf2afe63U, 0x40855f01c1271343U,
  0xc06c0622401d9998U, 0xc0b6e0ae401dab93U, 0xc0ebbf28c0054b53U, 0xc04fcd92c1449de2U,
  0xc1280518c0831098U, 0xc1271f43c0fdb6a4U, 0xc0716ba64002b159U, 0x402a1129c19e1701U,
  0xc009cfec3e05987dU, 0xc106494cc03018abU, 0xc0934801c0a283f1U, 0xc0428cb7c0968e6eU,
  0xc083bab1c0aa51f4U, 0x3fa4ffe0c05a7719U, 0x3ecc2a16c0210203U, 0xc0457738c03c09e3U,
  0xc0a3f3de4041c32fU, 0x3cec9956c09f91a4U, 0x40d90a8ec07972aaU, 0xc0998302bfe35f55U,
  0x40da7734c12ae2c7U, 0xbe68fc4b411b3094U, 0x404bbfb3c042e536U, 0xbfe59b20bfbb8325U,
  0x3f708d84bfe899d2U, 0xc09bd091c0e3f0bdU, 0xc0320b8440321044U, 0xc0763eb3bfac712eU,
  0x3e41cc5f401c811aU, 0xbf405686c033f3d1U, 0x40475834c096fd13U, 0x409ae033bf656b6dU,
  0x40b55d2cc097801bU, 0xbfc00bb740ffcf02U, 0x404e3e1e3f010c0fU, 0xc105ba3d403354dfU,
  0xbf009ed0bf6f219dU, 0xc059eed5411b9c27U, 0x40009c16bffc2946U, 0xc03d9964414ec0beU,
  0x3fb4574dc07487ebU, 0xbf33c86340dae634U, 0xc10029ffbf8dddc3U, 0x3f24077e40090b33U,
  0x3f1eaea7406fc94aU, 0xbf643ed7be93d599U, 0x40f4fa5240a9d6f9U, 0xc076834cc0e07be5U,
  0x40989a483f7d7d0eU, 0x40aa312ac02bdc3cU, 0xc0215b5bbffc627bU, 0x3fd08e98c086afbdU,
  0x40197cbe40aee53fU, 0x3fafcd7d3fcbe0bcU, 0x3fa5909cc0f7fc5bU, 0xc0ad291bbfcbedaeU,
  0x4052eb7ebf7deb61U, 0x3fd7fff3402b5592U, 0xc07680efbdf01f19U, 0xc00ad2c33fcc0998U,
  0x3feb7492bfce7fe9U, 0xbf9206333eaa815cU, 0x400947c8be29eda9U, 0x40909cd540e23605U,
  0x4028337ebfe51d3cU, 0xbf9d154dbd4b182bU, 0x3f8964e03e920c2aU, 0xbee71dc03f999b1aU,
  0xbfaff7a73d52e206U, 0xbf0772953f11a5d2U, 0x3e6b61f6bf8b6962U, 0x3f90d9094060eb3eU,
  0xc017a72e3d28ca47U, 0xc0c32a13413a7394U, 0xbff21083c08a727aU, 0xbf3cdac63f62cb59U,
  0xbe0038d6c0099374U, 0xbffdf9584093b794U, 0xc077351b40140236U, 0x401482163e6b35daU,
  0xbf01661840100c2fU, 0xc090ca413ed7266eU, 0xbfcf72f13f95f423U, 0x3f616128bfaa60efU,
  0xc090985ec10117e9U, 0x40e5bbf3c056b21dU, 0xbe8a40ebbecabf9dU, 0x3fbe7eb2c090a6daU,
  0xc065c621c0134735U, 0x4088601ebf71d13bU, 0x3f25179d4065fc21U, 0xc006bca63e8344fbU,
  0x3feb6e1fc078478fU, 0x40f8a847bbf11094U, 0x408e58cf3fb2a3bcU, 0x407f523940bd4055U,
  0x3fa733ccc057c3ccU, 0xc0a8bb28405db2c6U, 0xc03dd115c0074f61U, 0x4113470f40a5917cU,
  0xc067714840438937U, 0xc0da39cdbe448f48U, 0xbf19f3223f7f23bdU, 0xbfb96f48c002905bU,
  0x3f86776bc04f5af5U, 0x40a3a97b3fd8ec2cU, 0x3ea8a26a4023ceaaU, 0x40d91477410b8ceaU,
  0xbfa2aceb3f543277U, 0x3fa400dd3f4f3374U, 0xc099df9ec082d727U, 0xbfc24b153fb270a6U,
  0xc0dbde99405c81faU, 0xc0374eea409f109eU, 0xc0444fb9bfaaa1f7U, 0xbfeb7ee3c0568cf8U,
  0xbfc490643f971861U, 0xbfdfdbf93dac9197U, 0x3fb5f38ac006aba1U, 0x3f92df93bfcb58daU,
  0xc02c9a74bf946c5eU, 0x3f64c76ebfdffb13U, 0xbfce28283f09a363U, 0x3e0ddf7fbfd56e7eU,
  0xc083b95abea58e97U, 0x3dde14d33f9198b1U, 0x3ff3662d3f593b35U, 0x403726e9bfe41703U,
  0xc018300b3e1fb16dU, 0x3ffc2d93bed9e6f7U, 0x3f9351d93f40a1a5U, 0xc07fa9453f92f7f8U,
  0xc0af30ea3fe8ec22U, 0xc07969fabfea4681U, 0x4019748c3feb5da6U, 0x4097f8af4083ac05U,
  0x404c01793fca9f43U, 0xc03ab9a14097f1b9U, 0xc0ac9a88bff0fff4U, 0x400b7e6ac096695eU,
  0xc00cd34940be3cb7U, 0x3ea67b113f8d148dU, 0x3e885c484035bc20U, 0x3eed834b413bd4b1U,
  0xc10165dcbea2dad1U, 0x40b09b0c412ec7ecU, 0xbf83eb0fc065f051U, 0xc04fb31cc0a38121U,
  0xbf2359a63c511935U, 0xbf827126bf8103cfU, 0x3e8f2b753fadd28aU, 0xc11b12e040e14c99U,
  0xc0be705b403101c5U, 0xc083ef2ebfb48db1U, 0x40a782b2400cb853U, 0x3fb2790f3ca810b5U,
  0x400dedfe3f90a673U, 0x3ff1438bc014c0bcU, 0x402c815f408e1582U, 0x3ffeaeb6402823f3U,
  0xbef4cad4c0188f25U, 0xbed25e28bfc3ea76U, 0x400f85573fd295cdU, 0x3f525e8b3efcdd8aU,
  0x3e9d20bdbfc1a04aU, 0xbedc6491bfb0d8c0U, 0xbf3f6516bf5cb75bU, 0xc09e3823c10d4293U,
  0xc075c9d6c07dbf13U, 0xc08e485ec0cab31cU, 0x401984ba41489566U, 0x408380c340b968dcU,
  0xbfbdcdcbc109317aU, 0x4021c471bfb55569U, 0x3fa8589ebfd47d06U, 0xc01bbae940a99c0bU,
  0x40b421da3ec57ba7U, 0xbfb7b7673f9f1e35U, 0x3f031ac8c058cfd7U, 0x40c0b7774094e95aU,
  0xc00ece96bfc54a90U, 0x3fa562553fbe891aU, 0xc085fb41c091bf0bU, 0xc0b14219c0f5d4f9U,
  0xc107da713f76119eU, 0x4058eb4c40ce20eaU, 0xc02b88e64097be6cU, 0xbf435c8fbf9746ecU,
  0xc082671fc0113ba4U, 0xbe94ac32bfb3c2cdU, 0x3f4b1ea53f84fe27U, 0x403afbca40c77e83U,
  0x3fefab86402ae481U, 0xc031ab4540d60620U, 0xbf13ad9ebfc651bcU, 0x3f69436e3f798b6fU,
  0x3befdcc0c01dc061U, 0xbf6388214071ee82U, 0xc053aaddbfb8c176U, 0x3f47b1883f84bdccU,
  0xc0784df1403775caU, 0xc01d457fc03058f9U, 0x3eaecd9fbf8c055bU, 0xbd558a3fbf13b64aU,
  0x4030cd9440a5ffc2U, 0x40150493c096c706U, 0x4041ad5b40401718U, 0x3f9119943f199067U,
  0xbf3d3f0cbf7d7b71U, 0x40377e92c0537998U, 0x408a10fec0199d29U, 0xbf9137483facb311U,
  0x3fe5b89a3e855294U, 0x401fd8ac4055a670U, 0x3fe15cbe3f80285cU, 0xc0b64d56bff0159eU,
  0x4013ceb2408dbe6cU, 0xc075c4833f8ba8d3U, 0xbf89a84dc0567807U, 0x3f918f033fce09c6U,
  0x404ba3b9c08db87dU, 0xc0565853bfad39c7U, 0xc06bef23407e14a8U, 0x405507ddbfc63550U,
  0x405f3e5d4103d892U, 0xc0d367473f833c25U, 0xbe0ea8d63f03bdf8U, 0xc0e58ed9c085084dU,
  0xbffec5f3c060488dU, 0xbfcbde10400fe527U, 0x3fbaf193bfab02d4U, 0x3f2c1d4c40931212U,
  0x40c3a6afc0af8c4dU, 0xbf4dfade3f8099c8U, 0xc0816606bdb0df1dU, 0xbfae6d803fee58ccU,
  0xbd6486214093613aU, 0xc0e1ca56403eaf2dU, 0x4079d944c08e284aU, 0xc0dd1a39c08072baU,
  0x40e8500ec07fa775U, 0x405e1984c08d36d2U, 0xc083f264c0b74fd8U, 0xc1b35888c0530454U,
  0x416cae8940e692abU, 0x41578490407c4d15U, 0x405afb39c147c8f1U, 0x414047183fd01f2cU,
  0xbeb47c30c1279fe8U, 0x408876aa3f09e639U, 0x40794879bf8e56d6U, 0xc10cff1bc07afdffU,
  0xc042302dc087da3eU, 0xc05d1bd0bf161f85U, 0xbf5c52ce3fb2ca1cU, 0x408aece03f02b8d6U,
  0x409a83613ff7a118U, 0xc0bafd9abf267407U, 0x40d6582cc0aa1bdfU, 0x4081f06c405e03bfU,
  0xc03c5abac08e88d5U, 0x3f5303abc0ce2148U, 0xc0268a20bff2dc80U, 0xc08b039ac087dab9U,
  0xbfa0ee9040cf6229U, 0x40d438263fe37116U, 0xc0a625e23ffc0975U, 0xc0a6e67bc00611e1U,
  0xbfed66b740c82549U, 0x4174969540ae3967U, 0xbfef737840189e4bU, 0x3ec4260940100a54U,
  0xc1656758bed14ac6U, 0xc0b0e65ec1026024U, 0xc10b8f8c40c75765U, 0xbd97c2b1403e87cfU,
  0xc008b3e8405ed8d4U, 0xc0a52a814094a7a2U, 0xc0914f50c03c2c9cU, 0xc07d648240478a36U,
  0xc01c4d504086421bU, 0xbd68f4ef403343f2U, 0xc052c083c0426c9eU, 0x40306c59c08300a4U,
  0x3e9aa5573da07fa3U, 0x3f558cf1c08f4885U, 0x3e03db5f3f1de801U, 0xc0b9f1a53fa35e9aU,
  0x40d51db340e5acdfU, 0xc0eb4bc8409c5676U, 0xc04109193f8aef19U, 0x40157fd0411b5b11U,
  0xc01689e4c0bfe5a6U, 0xc04607553f5fb4a4U, 0xc0920d183f9f4f14U, 0x3fba0d65be05d25aU,
  0x40f9934540246db9U, 0xc089a85940c8957aU, 0xc075bdefbf17a925U, 0x405fb22040d7666dU,
  0xc0226e7940ba3343U, 0xbfa81fedbee0564bU, 0xc05bc54d3dc6fd15U, 0xbef3f9f8408b13e3U,
  0x40031ec7c0a6ecbfU, 0xc0847b1d407b536cU, 0xc0f79a103dacd795U, 0x4000de74405a0cd2U,
  0x40954d5abfce1ce0U, 0xc08fe88cbfa0ff81U, 0xc0e8ea1cbe7db331U, 0xbebd690abf9b5d82U,
  0xc0a238e8bffbcfc1U, 0xbf981c614024df74U, 0x3e87d2e43ca9229dU, 0x3ea9f8fcbe044344U,
  0xbffdba373fbde429U, 0xc028f6d93ff51056U, 0x3f9984493f86de5bU, 0x40aa35223e8a495cU,
  0xbfc80fb83f3075f6U, 0x3f9c1468c063d8f3U, 0x3e48409e404d9300U, 0xc0392bdd413c9bafU,
  0x40195c1d40f2c16aU, 0xc0abde97bebe14a9U, 0xc0c686f43e736f1dU, 0x40cf635741461f5aU,
  0xc03d939a40f4e06aU, 0xc0d208b7bfad1830U, 0xc0debf5e40da1528U, 0x406a35f4c08d18e7U,
  0x40700368c0e3050fU, 0x3f716176bf69ffeeU, 0xc0ff8512406d292cU, 0x3f1a6894bfb05a1eU,
  0xbde457533fb91775U, 0x3fbaba693fe1c65aU, 0xc011f6c7bfb0bb23U, 0xbd9c575ec0817a42U,
  0xc0522dd04021ae10U, 0x3f98f95bbfa3db1aU, 0x3e01242c3fb131b9U, 0xbedeef8fbfec82ecU,
  0xc010a6d63f4c8234U, 0x3f619574403d7ed2U, 0x3fa54a013eb18fd2U, 0x4131769e410d07aeU,
  0x410f7054bced26a6U, 0x40ee2562407774f6U, 0x410dae1240007ccbU, 0xc0d93682c107f6eeU,
  0xc12c5466c0c3f4c9U, 0x4092ef22c09b6803U, 0xc0e6409c40d4e341U, 0xc0db5f0840ecf481U,
  0x3fb0108440d0fc5dU, 0xc0b6bfdc40b4e32dU, 0xc0bf919fc065cc09U, 0xc0b431a5c12b4134U,
  0x408dbf40c04bcf42U, 0xc0dc6e583ff0812cU, 0x40b209c4409c98eaU, 0xbf494db8411cf93dU,
  0x409dd9ecc0c2012eU, 0x3efc6a8bc02e9f3aU, 0x404707f7bf1f7ad9U, 0xbfe7604640f3f494U,
  0xbffd0ee1c11e185dU, 0x3fa7ff41405687f4U, 0xc01af453c02644b0U, 0x4041df484075533bU,
  0x40cdbaccc07132d7U, 0x40f4a554c032de9fU, 0xc03c71773c5de014U, 0x40dd0a9a408d5913U,
  0x4115e3833ec9ad4bU, 0x40244d85be88efdeU, 0x4153dbbbbfc2e1afU, 0xbe61010140356821U,
  0x4039eba73f86fd8cU, 0xc03f430abfdfb071U, 0xbfdb75aac07fe7a1U, 0x3fdc483fbf1f4608U,
  0xc0ac469240557745U, 0xbfe2ad33bf6d9148U, 0xbe49ac95c033498fU, 0xc011646bc033e962U,
  0x3f0e36d64050ba2bU, 0xbfb4c660402b43e9U, 0x3ecbeafe3dda5dc8U, 0xbf0cb6b23ef1f4dfU,
  0xbf89cfb1bfcfeb90U, 0xbfca321ebf8e7506U, 0x3f913e893eee5e30U, 0x40e9a059c04e6261U,
  0xc0e20ea2c0ebff74U, 0xc0d319f3417070a5U, 0xc0f0d23ac01396fcU, 0xbeae336dc013beeaU,
  0xbfbc742740948b85U, 0x40e09581be886cd7U, 0xc01a481540598d64U, 0x40ceeecb4054e1a0U,
  0x40625fc6409d8866U, 0xbff0629dc0cb49c3U, 0x3fa4caca3f87bcafU, 0xc002dff9bf32ba1dU,
  0xc0f31a31411ff69fU, 0xc0acca5f3eb77a9dU, 0xc0920978c1080d54U, 0xc1471004c1031922U,
  0x407bd9ad3fdea4fbU, 0x40f8d138406a5088U, 0xc0361c1dc0b7fec6U, 0x402597d1bf1b7ba3U,
  0xbec0b6a0c07c5a4fU, 0x40165da3c02532adU, 0x404c8da4bf9f81daU, 0xc0ec45c9c07d805cU,
  0x408d39ad403800daU, 0x40abf6a7c01ed77eU, 0x40e8f191401ee3b4U, 0xbdabd49fc020b991U,
  0x3ee3c98ac08caa06U, 0xc0a595ef3e84962eU, 0xc0462e87c0a3b033U, 0xbdc035f9bf1b31f9U,
  0xc0253b5f40e38600U, 0x40da373d3b86eb38U, 0x3ffb899dc09fc393U, 0x4068e290c10876d2U,
  0xbfcecfa140659b36U, 0x3ef0b23bbe4f77f8U, 0xc0461fb5c005622bU, 0xc0dd3679c0adad46U,
  0x4064ac4c403a12acU, 0x3f29513d4030bfe6U, 0xc06e13bcbfa1e4fbU, 0xbe1b41aac1103339U,
  0xc0038a8ac0402e7dU, 0x4081e535c0157bb4U, 0x40733fcc405de4adU, 0x412dc85ac0240ec0U,
  0xc0a43c934065cd54U, 0x40f6e4f5bfcb50b8U, 0xc02887c23f59dbc2U, 0xc0770aefc05294beU,
  0x408806da404ac754U, 0xc120d1adc11e7393U, 0x40dcf04b40a1ce3bU, 0xc119125b40101bc6U,
  0xc106f207c0af897cU, 0x403cdce7408ac22dU, 0x4171a5b24007721cU, 0xc065109abfbaf58fU,
  0x3e97a783c09ab57bU, 0xc0c48276411ac6f3U, 0xbf15a742bf9fa1a8U, 0xbf17f9fe3ff3f92eU,
  0x3febc9b73c9297a0U, 0xbf9c66ac400ab771U, 0xbfa0bfacc0b4265aU, 0x406c9b7a3e76d1e3U,
  0xbeb65da44099acd7U, 0xbffd1184c00b8e86U, 0x3c54a019bf2143d9U, 0xc0b845e84045128eU,
  0x407ef3514048ab24U, 0x40e3a6d6c10ec8c8U, 0x4067c97d4066755bU, 0x406b6208c0427886U,
  0xc0ef6f2c3f529290U, 0x400c1ebe3fc75119U, 0x40fa860b410a6b89U, 0x40d1786d40c91792U,
  0xbe42281abf6118acU, 0xbbbc6ac94035d729U, 0x406283d9c00e78f8U, 0xc0a1dbf1c0708b71U,
  0x405d36fc40eac068U, 0xbdeb8d33c041a0b5U, 0xbfda9d45bfc90ff8U, 0xc0807518bfffe6ceU,
  0x3ff6b453405e4fe9U, 0xbfded527c0a8d153U, 0xbf1e6bd2c0dcfedcU, 0xbf22d5013f84c05eU,
  0xbfe4c5eebe117dddU, 0x3e25a21fc01e1d5bU, 0x4080520ec0819e7fU, 0xbf7c5591c0b13653U,
  0xc0060da03ff8b1dfU, 0x40a157a6401e995bU, 0xc0838a8cc09a6140U, 0xc0b0b0e6bfe3816dU,
  0xc16eff4340b47a75U, 0xbe8a909cc08fe021U, 0x3fb304af40dae196U, 0xc08846c9c085f40dU,
  0xc069c9a9c12c6c85U, 0xc068a1c5bffaf0b7U, 0xc023d751bfb4f83fU, 0xbf8abe9f3e29e45aU,
  0xc029a949401c4dd7U, 0x40a52b7dc0e0e62aU, 0x3ffb6a73bde3150aU, 0xbf83c025c02cbb3bU,
  0x3e2a9c55402a3163U, 0x3f84fa72c01bcb01U, 0x4030f343bfa8ce49U, 0x3f4d2e203dd6c19aU,
  0x3d50cb8abd78bc66U, 0x3fb211cebf636fd5U, 0x3fcd4551bfbf5a92U, 0xc013830140820d9aU,
  0xc004e38c409538cbU, 0xbfc0c34fc00c1ed6U, 0x409560d94022e191U, 0x4005371540a4ee3dU,
  0x411d2a29c08698e0U, 0xc003dbafc11612ffU, 0xc034e5363ea16432U, 0x4088aa84bfa07744U,
  0xbf842cc540811af5U, 0xbefd5030c03f3ca7U, 0xc04456b4c0581f37U, 0x4072ed8d403aabecU,
  0xc03575bbbfe76980U, 0xc00fe2a340b55d1cU, 0xbf544400c0144a91U, 0xbf0bdce6bf312673U,
  0xc0367c44c02c3abeU, 0x3f7068404033d7a1U, 0xc02f95673f8d9f1aU, 0xbd94323d4033ae2eU,
  0xbf8d5e13bf062f20U, 0xbfc4bb84bf42f2c8U, 0x3f534279beeb17e0U, 0x3d9c5263bfcf2cc3U,
  0xc0922f814014f293U, 0x40ab57f6c11bbda3U, 0xc07721b73e7073dbU, 0x4055feb0c0bf30fcU,
  0xc016d8abbed14878U, 0x40cfab11c04da4a2U, 0x3ff1ad2040017583U, 0xbf445438bf99cb39U,
  0x3ea547e53f48785dU, 0x3ed061eac01494dfU, 0x401ca769402d5780U, 0x3fad64483f9f46afU,
  0xbfd68137c0988814U, 0x40ee4c2fbfeea078U, 0x4028f6f4c00d16c7U, 0xc096b5bbc00800eaU,
  0xc08ea85c3f57a636U, 0x40a83fbe3f432b15U, 0x3f224479bfd0dccaU, 0x403d1bb7c0c693f1U,
  0x3efbaacbbfc0f4fbU, 0x3fccc5debdc27f88U, 0x408bbf9ebef0a787U, 0xbe6cfaffbca98a8cU,
  0xbd4eaa25bec74d11U, 0xc067410bbd7f24d2U, 0x3f3890bbbf8d875bU, 0x401cd3b4407008daU,
  0x4007c89cc00d4dd0U, 0xbe9972aec05b1682U, 0xbfe8bde3c03fde07U, 0xbf4abb32bf8ea65fU,
  0x3f9f7e39400c8f48U, 0x3ddf8bcb401237d8U, 0x3f2f7e9a3d1ba42cU, 0x408799fd409d2eccU,
  0xbf3fad87bff8c518U, 0xc0ff9f8640ceca96U, 0x4049ddd2c05c5775U, 0x4099c5034107acdaU,
  0x40588868c0586d39U, 0xc09f4af34002869cU, 0xc022712340108328U, 0x408049ee4032b732U,
  0xc028dcf63f84d977U, 0xc045918ebf7c5353U, 0xc0791dfcbfb8ddb6U, 0xc11e9ff63f68bd99U,
  0xbff93841bea9cf90U, 0xc0bba1e0c0c98a3bU, 0x41206dbf3f311bedU, 0x4100eceabe30e6c5U,
  0xc08bddf1bd77d393U, 0x400045fc40221648U, 0xbd2b5a7dc0d9a4e5U, 0x4066f85640a2555fU,
  0x4020359d3f82bb31U, 0x3f21b73b4018f67aU, 0xbfa113f8c0955906U, 0xc0caf7fd4123b3d4U,
  0xc0921cd13f4c3d6fU, 0xbdc4332bc12236d8U, 0xbe7623e7408ff70bU, 0x404f42e5410275b3U,
  0x40d00202be8474f6U, 0xc10f5b80c0e4ff05U, 0xc09ea785be4fcb76U, 0x40bb47de402f4bc5U,
  0xbffc64d041185384U, 0xc0588949bfb0beb9U, 0xbff7647dbff20a97U, 0x3f779832c00f295eU,
  0xbf8784f7c05563cfU, 0x40b7399cc0cc3893U, 0x4097a731408bf8b5U, 0x408c5ac23f7c4985U,
  0xbf2e83cac04abf5fU, 0x40867566c0ba0d83U, 0x406cd6e53f92e95aU, 0xbf9805d4402e1320U,
  0x406bc606bf262d72U, 0x3f0724b940215e33U, 0xbfd618a6bfc682a0U, 0xc1166035410eb175U,
  0x40efcb62bf252b25U, 0xbea0162440968446U, 0x4066e89540eebf7aU, 0x40799c3940d33501U,
  0x40a019f3c0f3bc2eU, 0xc0d7ea1abee17d53U, 0x4121b9a1c0292de4U, 0x3e365b53c06fa714U,
  0x40bfa4c8c0f558e0U, 0xc0378b46c08add61U, 0x3fee98043fcc458eU, 0xbf940d63bfeafb5aU,
  0x3fc1909e4075a404U, 0xc0b5f27e40c5c4cfU, 0xbec5dc9ac050c6edU, 0x3f7af282409b38efU,
  0x40ffe996c06aacd8U, 0xc0882f79bf5db76cU, 0x3df4dd88c024ea49U, 0xc091d015401f09c4U,
  0x3fdd3c36406b52f5U, 0xc05be7a4404b462aU, 0xbf59d6924013ecf1U, 0xc170e158c088c61cU,
  0xbcedd84fc0adf09eU, 0xc10e7cccc121a032U, 0x40efd2f7bf86ac84U, 0x411b948bc0589b25U,
  0xc08b07b940c054bbU, 0x4012d4c8c0b5c889U, 0xbf298016c0d14e0bU, 0x404746ad401324c1U,
  0x408775ae3f9dc2cbU, 0xbe91acd8bfee556bU, 0xbde1769b402a934cU, 0xc128381ac0b2f124U,
  0xbfb8528cc0155145U, 0xbd8e5b9dc03d9d8eU, 0x40d541d23fa99db1U, 0x3f67d192403824ccU,
  0x40d7404f4013b3e7U, 0xbec8bd613f8a138cU, 0x40ca1a41c04dcf42U, 0x40360735bf3b6ccdU,
  0xbfaa2b00bfcf351dU, 0x40934fc4c00cc3f3U, 0xc056cb23c004a598U, 0x3e8dc7a03fe3b2f3U,
  0x40934a65bfa77a78U, 0x406901d8bfd56ec6U, 0xbff71b633e1f88cdU, 0xc0402ac7c026e5f0U,
  0xc08b3d423fa314e9U, 0x4073483abfdd4379U, 0xbfdc3d283ff8462aU, 0xbec726a9c084a7f6U,
  0x3f147792bf4f1648U, 0x3ec1707a401ac548U, 0x3f87b9113fa69988U, 0xc0aec99dc00017beU,
  0xbf98e008becda840U, 0xbf7ed04fc0b26d25U, 0x40780fc84071d4a0U, 0x404bd0c33fd0dd0eU,
  0x40983e96407a2f29U, 0x3e8708acc035143dU, 0x3ec54f1abf64958bU, 0x3f839f73bf006d19U,
  0x3f8a0870c02634d0U, 0x4049e5264050c576U, 0x3fa155a43f5036aaU, 0xc0148251be268f44U,
  0x402e1f9e41a3920bU, 0xc09c0f59c099787fU, 0xc09ab7143fbf8dd4U, 0x3eb11a0540a58a8eU,
  0x3d1215c9404058c8U, 0x404f38fac00f91d6U, 0x408d44c4c0be02b8U, 0xc06d6c863fee0422U,
  0x3ff49c353e9e6c5aU, 0xc00716c6be95072eU, 0xc05030093f326198U, 0xc1245bc43f95eeffU,
  0xbfb3a89ac10d450eU, 0xbe284353c0e63044U, 0x3f97bd9e40c63919U, 0xbf491c5a3f94e9feU,
  0xbee860f8c0734b7aU, 0xbfdd9f8b3fcec5ceU, 0x3ff0c160c092587eU, 0xc03cc2f1c0533403U,
  0x4063a5ad3e81a5f5U, 0xc0888dfdbe87070eU, 0x401d7d6dc06dbf92U, 0x3eec85cac059e542U,
  0xbf3da4664080832dU, 0xbf3e7147bf8cd8a7U, 0x3fa52c0d3fb7bb33U, 0xbf9b595fbeb2debfU,
  0xc02a2613bec23653U, 0x400844043ffcef09U, 0xbfeba2514087ebddU, 0x3f81e914bff11c99U,
  0xbff262bf3e9afd6cU, 0x40102cf43f758e78U, 0x3f93ac5a401bfe7cU, 0xc03a2ba1c0d39dd2U,
  0xc0a00484c0093426U, 0x4057aa70c0ca7f40U, 0x3fae41193f8b6b5bU, 0x407b698e40366249U,
  0xc0e75416c1341ba5U, 0x408789c93fb7d776U, 0x40d612c3406444c7U, 0xbfd7c997402dd886U,
  0x40b672cd3f6b7f02U, 0x3f712c113f49aa38U, 0x3e929b80400199baU, 0xbf7530bac0289fc8U,
  0x409d84d13f611195U, 0x4091d644c0261ed3U, 0xbfcdf673bf7e2845U, 0xc0c52aedc0832e71U,
  0x40956efc406a86a2U, 0x40c1af173f7efb64U, 0x3e4bcb51c1018e76U, 0xbf10f0ddbfddc26aU,
  0x3f36f00dc0558fd3U, 0x3e65d8f6bf23fd68U, 0xbf86037ec0564757U, 0x40b8dbfd401fc57fU,
  0x404b52a1407b7c40U, 0xc0981f9d40f37826U, 0xc0b28e0dc0b5be1eU, 0xbf47638d3ec4002aU,
  0xc0535822bff7f34eU, 0xc057745b407df4b9U, 0x3edc102fc0545cc3U, 0x40c959ec3ffdcb93U,
  0xc0046e7f3fc789ecU, 0xbf39c658c0570527U, 0x3e9d0b294005ea92U, 0x40f04a4f41077ad6U,
  0xc11f7ccc3ec9038cU, 0x3f86c47540b6d2ceU, 0x3fa380c03f18ec2cU, 0xc1858176c049e1c3U,
  0xbfb30d1a40571630U, 0x3f444292412955e4U, 0x410e52e840b961b3U, 0xc0c5959c412c666eU,
  0x414167a5409e23e7U, 0xc08f0b31c05f5004U, 0xbf217126412fd1f7U, 0xc012e50d3ff1bc63U,
  0xbfaabec8bf7fa59fU, 0x4002a540c031e6afU, 0xbe3d6f2d3f931fd4U, 0xc03d8cbec0215804U,
  0xbfdba90e4052df3fU, 0xbf467ef7c0014365U, 0x400327d2bfad1f3eU, 0x3ef15f1e401b31b6U,
  0xbf749131bff263edU, 0x401c1b6dc01b8354U, 0x406086fbbec3283fU, 0x40aac44140aeeab8U,
  0x3ed6db71bf970e2bU, 0x40b16c86c0df8461U, 0x3fd92e93c1125044U, 0xc052569d408c62fdU,
  0x40fe8114bf8281b9U, 0x40a6781dc11ec1a3U, 0x409c352cc09cb91fU, 0x4082f818c0b368d0U,
  0x40e3f8a04000d218U, 0x4037e9213ebd1c15U, 0xbf3744fb40d1b4dcU, 0x40ad9f7b40a6ba6eU,
  0x3f004cf8c06ca820U, 0xc0b35f534115c564U, 0xc0982a05c0b4b408U, 0x4017a2c5bfa0f002U,
  0xc01f42613f196138U, 0x40b4f937bfa3741bU, 0xbfa51482be923145U, 0x408b6007c093534cU,
  0xbf6f9c70bffc4563U, 0x402581cec0a2ffc8U, 0xbfda729ac03c26e2U, 0xc0aed853bf8549e7U,
  0xc065b1b9bf349ddeU, 0x40be3827c103a715U, 0xbd7c839ebe4aede4U, 0xc0476f14c0d28a60U,
  0x3fc327394030e031U, 0x412892c74088e7abU, 0xbefdf0c8c0c146a0U, 0xc11cc7673f85e5abU,
  0xc059b6d1bf8dc47eU, 0x3f12a219c1177407U, 0xc06a4c03be51ad77U, 0x4031cd6cc15f41b8U,
  0xc0316d1d3ff3b4abU, 0xbf341325c07addcaU, 0xc11db50dbfb0df75U, 0xc0366a7cc1144bd9U,
  0xc0c8cc8dc09432b5U, 0xc1400cbbbfb5bd64U, 0xc05dc35c410cf82cU, 0x413caaeec15b028cU,
  0xbf480c2a40908e78U, 0xc17593debf8208b8U, 0xc01149a4c0540f01U, 0xbe167e453eb44c43U,
  0xc081d519bfba639fU, 0x3f2d7ff340559f2dU, 0xbe8faf34c04e0f00U, 0xbf11bb6abfd4d4b4U,
  0xc0bb82e13fccf814U, 0xbe1d23423e4e190fU, 0xbf33ff7c40347471U, 0x401859aac0490aa3U,
  0xc0294a453fe4841aU, 0x3f8f740f400e8623U, 0x3f1c46fd3fca567cU, 0xc096bd30c01e2799U,
  0x4093e7493d3060b4U, 0x407643e7c0c8d7ecU, 0x402ebdf540419f6aU, 0xbd6f76823e0c04d0U,
  0x3e3466ce3f9eecbeU, 0xbe5f1ca3c0536b0aU, 0x3ff9390abf9072b1U, 0xbf275098bf263eecU,
  0x407c0e83be7598cdU, 0x3f1c4dd740302832U, 0xbf857c33c05ab307U, 0x3ebd758040105726U,
  0xc086c9ae40737603U, 0x40b4ad87c0aa825dU, 0x3ff20cf8bfaab594U, 0xc0a10a4ac09a428aU,
  0xbf3c4628405b453dU, 0x403d945d3f3b2d60U, 0x3efe83d2bdf65770U, 0x401672c0c0463d64U,
  0xc00fc480c013a8e7U, 0x3ffcb207402989b4U, 0x3fad3065bfd7325eU, 0xc0a779b63f14ac03U,
  0x4009e3493f7092cbU, 0x40013eeebfedb5b2U, 0x3fa2bc26c0182a90U, 0xc02a7714c0127aabU,
  0x40148502c01cd91eU, 0x3f38b61e40993d00U, 0x40a668e1bf9439d9U, 0xbf8190533f042b68U,
  0xbf804830c0a6a8f2U, 0x3f64e9ecbf8d844aU, 0xc02d26a6bfae06f6U, 0xc0289a1dc0fda789U,
  0x3dbd5b02c02b1f33U, 0x409a03a83f1d3e6dU, 0x40028d1c3f432d71U, 0xbfc4eee13f136ed4U,
  0xc018e6b9c1110e15U, 0x40d25a5e3f2420d2U, 0x3f4e2afc4032ef4dU, 0x3f089b52bdf65b7eU,
  0x4099708bbfe19f81U, 0xc09733923fb34bc4U, 0x408012913faae47eU, 0x4141386dc0ae29ddU,
  0xc0447c6d3f8c37dcU, 0xc08a600ec0f63b56U, 0xc1165e2640a8d95bU, 0xc0b61effc0541513U,
  0xc0b2ba9b3e19fab1U, 0x40b5d9f63fede88aU, 0xbe331a80c0820bb1U, 0x3f81d89240479e65U,
  0x3f9a6968c11ca07cU, 0x3ff31ceb3fd4135eU, 0xc06ee3a34041010aU, 0xc017d4cc3c38e1ffU,
  0xc00f6c56bfc40e5dU, 0xc07958f94088515dU, 0x3f54e10abf473505U, 0xbf64bffc404b40e3U,
  0xbd8a1e49bc249875U, 0xc04e8efa3dfefcccU, 0xbf19c3cb3f8f9fb1U, 0xbe9377ed3f11722dU,
  0x3fa1e29f3e3ec196U, 0xbfafe666bfbf243aU, 0xc02bf34ebf9f2b0aU, 0xbe8cc9274011f882U,
  0x4051895fbfdfe360U, 0xbff37202c089e662U, 0xc126a037c03c9eefU, 0xc13ce43b3fd6ac17U,
  0x4134e94c4136f723U, 0x40ef2e20400fb1c8U, 0xbfe075acc129886eU, 0x40d25a6fc166323aU,
  0xc0609051c064e492U, 0xbffa45d24023d95dU, 0x3fd17d8640245eb6U, 0xc049524abfef8a45U,
  0xc004de2c40b9cb98U, 0x408de28fc074351fU, 0x4037fd7f3f193ef4U, 0xc06839b3c05d0bcdU,
  0xc05a876bbc964929U, 0x40059c92bf0db0dfU, 0x3fc9f8a7bf8518d7U, 0xbfed96fe4030b07cU,
  0xbd149a3cbe92c961U, 0xbfdcf3d83fe28e0bU, 0x406ecf32bfdf4fd3U, 0xbeac10d03de3be5cU,
  0x3ec54b30bf475616U, 0x4010b00fbfb2f7f5U, 0x3fdf73ca3ecc60c4U, 0x401b21ab4086eee1U,
  0x409ce9463e30d492U, 0xbe553f6ac04ddbc2U, 0xbf590ba4c0268b7cU, 0xbfd74e7ebf613f64U,
  0x40265b683f87e976U, 0x3fe76e55bdb59083U, 0x3fc538f03fb09a24U, 0x402e08e9401496beU,
  0xc10b2badc03aee0eU, 0xc081f6de41006ad8U, 0xbf99ff84c0921883U, 0xc084720b3f88d1a1U,
  0xc0b264ecbfccd4f7U, 0xc0d0e97940835937U, 0x40d6377640bbf9e1U, 0x3ed6844340819c73U,
  0xbfc470adbf0da835U, 0xc03870babdd53bebU, 0x3f7749db40475712U, 0xbf85fa89409db72fU,
  0xbe94c5814054e209U, 0x40916679c07d72b4U, 0xbe71b31fbf4721b1U, 0xc055749cc0e9602dU,
  0xbfb5e2f6c04e0353U, 0x40a8fe7c407b2a8bU, 0x3faf2825c0806aefU, 0x3a98b94bbfa2edb1U,
  0xc01a5781bf5d8a4eU, 0x4062f8ccc0895c7cU, 0x40b6fcd33f9a0795U, 0xc09683bac09df0aaU,
  0x3f04b4b7c0ba0501U, 0xc0c0421f40ca0a7aU, 0xbe774fcfbf950120U, 0x406cee5c3fabf186U,
  0x40682b6ec00d33f0U, 0xc02838a83e82a3beU, 0xbf5d581dbfb33bb0U, 0x40d416d53ee16170U,
  0xc06b8baebeca8c4aU, 0xbff31e88c00e00caU, 0x3f4c675f3f21aca3U, 0xc012407cbf508ab4U,
  0xc0c008cb40178cf0U, 0xc0cebc7b40cbefe4U, 0x3eac139cc070e6a2U, 0xbf8c2df73f1b1a97U,
  0xc01b033bbf832d07U, 0xbf37cd58404ae45dU, 0xc0405df73ea0cc12U, 0xbf835a0c3e873936U,
  0xc047d15040051a9eU, 0x3e7c65a53ff67e67U, 0x402ae53d40942e30U, 0x3f48a3bb3ef46b0dU,
  0x408d45d1bf338945U, 0x407a882abfe986c8U, 0xbf248be4c089b26bU, 0x3f48aa6b3e562263U,
  0x4052a30d3f2f5c5bU, 0x400f344fc0b231b1U, 0x3eabf1edc08394a1U, 0xc023d1ecbfd9bc19U,
  0x404d2e7ebdbca69bU, 0x3fa53b803f81cc3eU, 0x3fb6f6f4c02c5467U, 0x3ff269db4005f11aU,
  0xbf8b0ee040068ec7U, 0xc0be1154409b8448U, 0xbfb8713bc04c137cU, 0x3fcd88953f8f4fc7U,
  0x3ee2eeb83fc2aeffU, 0xbe8831f740215e84U, 0xbff0f1ba4028b010U, 0x4016a2a53f39c620U,
  0xbf9589a6bf1b2390U, 0xc0136bbe3f9b49ceU, 0xbf7efbebbeefc3acU, 0xc065247a4032aaecU,
  0x40c033663fed6d0cU, 0xc00a787140968c1bU, 0xbf953bfcc02cd322U, 0xc0a58f4740795a30U,
  0xc0838f314057d303U, 0x3fddb9f13f70e1bcU, 0xc038ff604040fe02U, 0x3fb1cd27c00edf91U,
  0xc0dec8634039154dU, 0xc03cb4d03fb4aa14U, 0x3fa8adfec0a6fb39U, 0x3f29e9a23f9e8ee3U,
  0xc10d6de0c06bd9b3U, 0xc089e6b940348d59U, 0x3e0c71403ec55e2aU, 0x3ee839bb3f214ad9U,
  0x3f530ae23e1fd903U, 0xbff142d6401f5542U, 0xbf45cb1e3e6ad963U, 0x3e88d3ff3f7fd91cU,
  0xbedf7f533ebac146U, 0x3f23f02dbfe48aacU, 0xbef7587a3fd8ad10U, 0xc061b646c06278d8U,
  0xc090cee4bf4b5433U, 0xbee47987c1127d4cU, 0xbf4c80244025590fU, 0x3e03dde8bf3affe2U,
  0x3f725d353e7f5190U, 0xbf50a1bcbee21597U, 0x4132d5a4c051b507U, 0x3fa7fc26bf905a11U,
  0x405049284089b5bcU, 0xbe24b64340a6fa5dU, 0xbe825d3ebfedc985U, 0x3f138e71beab7caaU,
  0x40477bb3406904dbU, 0xc0594e1540c4b512U, 0xc01be4ebc02e2e8dU, 0xc02f21dcbec7a7eaU,
  0x3de5b1b83e0e6e12U, 0xbd975608401252a2U, 0xc05ef35540828605U, 0x401f649ebfb1924bU,
  0xbf71ba003feb4d00U, 0xc058a59f3fa17fc7U, 0xbfe658ad3da22f68U, 0x40d4cd53c0b47c99U,
  0xbec62c93c03887bfU, 0x4074e219c0dc7b4fU, 0xc01c81cb4090f35cU, 0xc0981597c0f4f483U,
  0xc02430f6c09a3742U, 0xc0e43538c0b228f8U, 0x3c5574253fffcd85U, 0xc0df574c3fb5327dU,
  0x3cb565f5bf6446f0U, 0x4075bfa6407600bdU, 0x3fe5f1d3410f88c4U, 0xc0bd7cbc3fccb5f5U,
  0xc03b30babff5b13aU, 0xc079cd273fe5a0e0U, 0xbf83c6b53fef89b0U, 0x40769d5d40201aa3U,
  0x4122a2b0bd4718a0U, 0xc099c1b9403f9808U, 0x3fbc9cfcbf4b7b5bU, 0x3ff9613340052e95U,
  0xc07052c6bff29ac8U, 0xbf3c4746c0a92b9bU, 0xbf9bd4fa4017e027U, 0x3ff249b13ff5294bU,
  0x407e425ebff347a5U, 0xc0efaebc40c9a6d5U, 0x401ead43c058ab9fU, 0x40bcf7e740f587d0U,
  0x4089b235c0355fcfU, 0xbe07c1233fdc87acU, 0xc04e120dbf19f87cU, 0x3fcbab0a401d9dd1U,
  0xbf84cc61c00ab781U, 0xc0531aa53e9b41d9U, 0xbec262aa3fb07ac3U, 0xc1216781bf6bf674U,
  0x40090758bfa4974fU, 0xc1173b4a40b0db31U, 0x3ea9e577bf7c8534U, 0x3fa47e4040c7d185U,
  0x40b0f2cdbfba6094U, 0xc06bc849bfa0936bU, 0xc0c79d214022dff6U, 0xc04b57a0bfee954cU,
  0x3f68f08e40a77efeU, 0xc09d245d409cdf02U, 0xc09da5f33e90a607U, 0xbec568d6befdb238U,
  0x3f981c784057e95bU, 0x3f668f00c0c0e758U, 0xc041dcb7407893b5U, 0xbece9e9abfa7a42eU,
  0x4065cb05c05eb388U, 0x3f208f35c01ffcf0U, 0x405d9a3cc04bcea3U, 0xc09af43a3fe83c69U,
  0x40470040bfeca6fcU, 0x400c8b1d3fe9eacaU, 0xbffcbe77404cfcdeU, 0xc097be3f40339301U,
  0x40b28a9cc08ce373U, 0x408006f9c08f50b7U, 0x4085cded408cbc79U, 0xc04099a3bfeb5eb9U,
  0x3f262d7940dbf0e4U, 0x40f0d28b408be398U, 0x401aeb873ebc6336U, 0xc00edb923fbbbbebU,
  0xbf636cb7c0b2e92eU, 0xc0153613bfadfc9aU, 0xbf8c4f7dc07d80f8U, 0x3f396da2c044a989U,
  0xbf952ac4bfa89305U, 0xc009d3c0404749fcU, 0x3f58bf1fbe660c7eU, 0x3f9c5dc1404b4b1dU,
  0x3fbcfd6bbf97df8aU, 0xbfa2fdaf3fb72a3fU, 0xbfed90f3bfc3de82U, 0xbd9320e73ff32983U,
  0xc02008933f7e1f3dU, 0xbfd9df63bf936cfeU, 0x3e68d518be0afd20U, 0xc0f35c573ef8028fU,
  0xbe9f25e9be2d9db1U, 0xc05edea4c0a4458bU, 0x40e35be84097b239U, 0x40d9f43a3fe30a4eU,
  0xc0c0754c40791739U, 0x3ff6702540244e11U, 0x4012ce4cc099485bU, 0x40215c8840be4f63U,
  0x3e53c81bbe8324c2U, 0xc00d74d03fcc7f41U, 0xbf5e561ac0146bc3U, 0xc0acf2db41120176U,
  0xc104685ec039ddc2U, 0xc115e7b44131cf00U, 0x40975eb2c00a83ffU, 0x40401518c1364c0fU,
  0x3ffe9d0cbeee2840U, 0xc0cb6880c058b5b5U, 0xbfb2f6b3bfb2e9a4U, 0xbffb0776407d33e5U,
  0xbfc48a4cc0a777d2U, 0xc122969b40f9139dU, 0x401d53e2410d13f8U, 0x3ff337b2bfe322bfU,
  0x409b2497c017865aU, 0xbed178f140112135U, 0xbfa6645cbfd2ad01U, 0xc08ba8ffc0429b2cU,
  0xbf80af8c405c4694U, 0x3facf3a0408280bbU, 0xc0059140403b3972U, 0x3f279914c01edb41U,
  0xbf7e4ead3d35e22eU, 0x3f32c01b3f58f6ceU, 0xbded2e1040168910U, 0x40d5218f40c1837aU,
  0x4189a9d840f2fe39U, 0x3fb56ded40f6e025U, 0x41363694c0804594U, 0xc051e454408774c3U,
  0xbe273b6dc0b29e2cU, 0x3f0c56863f810ea5U, 0xc0a8b2a540e7d386U, 0x40722d93c0170a38U,
  0x3fe08fd94085270aU, 0xbfe4ce033fd01151U, 0xc09a363dbf8688a3U, 0x3fd90317bee75312U,
  0xc0b715883ebb9458U, 0xc03b2345409210e6U, 0x3eb2e340bef83e42U, 0x3f2a26b3bfad088fU,
  0x3f8d9bb83feed99cU, 0xbf3d7da83fe5517bU, 0x402e8eebbfcb2810U, 0xbf906c0440076f2aU,
  0x3ee6307ec01e0166U, 0xbf03ab443e512f32U, 0xbfc372ef3e65d14bU, 0x3f0444913f3f1357U,
  0xbe176b4ebf785b29U, 0x404c2222c012b92eU, 0x3ff6dc8a3f1e0aa6U, 0x3ef12971c08ae252U,
  0xc02ec0233f911706U, 0xbf4b71873e997bedU, 0x3fe9e4c5bf9819f1U, 0xbf2c5b49bf6f0672U,
  0x3f0137ccbe212008U, 0x3faa18aa3d956b6eU, 0x400458233f99b60bU, 0x408aa7a94058f543U,
  0xc08635523fd56de7U, 0xc09a623d400a8d7aU, 0x4087241fc064490dU, 0x3f9acd26413b431bU,
  0x40c7192d40218fccU, 0xc08ceb0dbc291acbU, 0x3fffcd283f6b9bbeU, 0xbdbd474a3fdd7b53U,
  0xbfe17dffbff0f7ddU, 0x40c0ef28bf90da1dU, 0xc05ad1b9c086ce0aU, 0x3f91190abeeadb15U,
  0xc01cade7405ef3aaU, 0x3f4d6eae3f7e1896U, 0xc0226cc5bdfb87afU, 0xbe9e2fadc063b5c0U,
  0xbf926f9e3ee9b424U, 0x4012cc5ebeab1a89U, 0x3ea783c6bfc2205dU, 0xbf59a9ba3ee06d7bU,
  0xbff4bb8c3f87da5cU, 0x3f3bf706bf404a26U, 0x3ffd8f903fa3e8daU, 0xc0f7a510c0a6d40cU,
  0x3f7f518fbfcdce6cU, 0xbfac25c5c0d0d658U, 0x404c8ebcbfb66e98U, 0xc0b1284640b19913U,
  0xc088f929c0b81dc4U, 0x4059c86040d94704U, 0x405afdae3e1f6cc8U, 0x403f8e27c0c4cc0cU,
  0x40290a8a3fa4f146U, 0x3ef574973efaa471U, 0x3f03f615c045155dU, 0xc0622478c0036d1eU,
  0x3fbaea5d3f32cc13U, 0xc08240f2400ca297U, 0x409df9173f907b17U, 0x3f7764d7c007bff8U,
  0xbec2f72ec0de8354U, 0x3ffa4c13403dbb15U, 0xc086b369bf916b00U, 0xbff0bb8f3fdc907eU,
  0xbe2ddf5b40a0b203U, 0xc054eca340e114fcU, 0x401447a54025fde1U, 0xbdb53e694129273eU,
  0xc1364d17405c5275U, 0xc03bb8344053e047U, 0x407f97a4bfce49a6U, 0xc057df75411270c6U,
  0x40bcb3253eb8e067U, 0xc13d0c6abedacb2eU, 0xbf9f633b407ee08bU, 0xbfaaea3f4086aea3U,
  0xc068b95ac06423e8U, 0xbe594f3b4095af77U, 0xc12a6fe4c0a93a3aU, 0xbf84ba7ec1404861U,
  0xc07c14e4c10459c6U, 0x408cc38bc07b46a3U, 0x40436159bf3b99d3U, 0xc085987dbf867987U,
  0xbf9fe07240efae5cU, 0x40e8fb1bc124d385U, 0x40c5994dbfa97f90U, 0xc0ba0855c0c71fa7U,
  0x40a8b122c0c45266U, 0x3fd16dbc411a3809U, 0xbf67c1a9c0f7c5b8U, 0x3f6ca75bc106d4fcU,
  0xc000fd4dbef737c5U, 0x40f67262c1114536U, 0xc0b53709402cc96fU, 0x3fb25c17c03b6226U,
  0xc0b4bc143f22bcaaU, 0x4071fbb8bf867d1fU, 0x40328059bea49be3U, 0x3fe629983fbf7fa2U,
  0x4095223d3fd31429U, 0x402a8b7a3f28aaa5U, 0xc003ca123fea9b19U, 0x409cdb083c22bc29U,
  0xbfbad6ee3ffab570U, 0x3d315d0bbe50c323U, 0xc0b785ebbecf639fU, 0xc0ba91d5c0a20728U,
  0xc0d8f12cc001baeeU, 0x40bd241240727597U, 0xc021b125c010cdc0U, 0x409d3b394104ad06U,
  0xbf989c5dbf46b8dbU, 0x3fa8cf56c039bb61U, 0x409e96153fac9e0cU, 0xc08f193cbfe7b9b8U,
  0xc008d87ac011d656U, 0x40ad6bbdbffa5458U, 0xc0dab509bf98344bU, 0xc01ec317c10850a8U,
  0xc017e85b404b8b6eU, 0x402e080940de68fcU, 0x406a48e440b649baU, 0x40316161be10d5b3U,
  0xc06277d8bfde270dU, 0x3fe5348fc00ecb5aU, 0xbf5537164033709dU, 0xbff6f591c096ac86U,
  0x40955f78c084094fU, 0x40e48a33c09fdbf6U, 0xbff421083f6bc67eU, 0xc08528aec0b40bc5U,
  0x3fddce283f8463d8U, 0x40a40d403f5ad827U, 0x401ecceb3faadd4bU, 0xbf0d9e68bf07bb93U,
  0xbe82d0e8bf89d4faU, 0x407ea53d3e8a8a35U, 0xbfbdf9853f3986f6U, 0xbff9b448c000ac21U,
  0x4114a74f401e5263U, 0x40a0609dc04d5cb4U, 0xbed7d58d3cc92bc3U, 0xc02b7a8640030e03U,
  0x411383304097b86dU, 0x3fa355e8c0d1b62bU, 0xc029e1d8c0abf24aU, 0xbfed9a7fc0b4e830U,
  0x4025880e3dfcfbd6U, 0x3fbbb66f3ffd13caU, 0x3fd32795bfbbced1U, 0xc01dfd0e4184b554U,
  0xbe207e4c402b8752U, 0xc1734451408437b2U, 0x412ac043408d3427U, 0x413a39344102e534U,
  0x419be3c5c064d5aaU, 0xc0c02a6540cbb334U, 0x4010bfcec0d21075U, 0x40e67e47bf8f68d2U,
  0xc1195e9ec0990b1cU, 0x40871739c0ee2255U, 0xbfdc1e83c081fcacU, 0xc0dc3291bf5557eaU,
  0x40d7217640928e5bU, 0xc0ccd1f2415a6364U, 0x3d1eaf37c0a275e5U, 0xc01e8ff5400c2a2aU,
  0x4065c7f44060202bU, 0xc04e6f82c0b9cd3aU, 0xbf9e22fd413d4480U, 0xbf03f6ca404edbd9U,
  0x405563bd402676f7U, 0xc012b923c01320c3U, 0xc0bc2bc640558843U, 0xc08428a03f4678bdU,
  0xbf7c80b1401b2bb8U, 0xbf8e20ba3f8fd91cU, 0x400d150d40058ee3U, 0x3fb6a24f40a5da9fU,
  0x4052cc923faeb185U, 0xc08834e13f1aa6f5U, 0x3fa7538e3ea20ab7U, 0x3dbdd5643f4dc1d9U,
  0x3ed12ef7bf05889bU, 0xbf0f2a75bfdc9622U, 0xc01771783e9f07c0U, 0x3fd3f210bf99e678U,
  0xbfeb3cd8bfdd6c7dU, 0xbe16c32b400af1c5U, 0xc00a01ccc01f518aU, 0xc089634fc0a56f5aU,
  0xc03b1f113f8564c1U, 0xbe779ae3408b405bU, 0xbf1cc24b404d29b2U, 0x3e08509abfa5318bU,
  0xc07e6210bfae2f34U, 0x3f0fb42cbea5cfa8U, 0x3f91089a3f246780U, 0xc100f70ac098f0dfU,
  0x4086831fc15ab9eaU, 0x41155b8ac0db4199U, 0x402d09cc40a4debbU, 0x3f0bafa5402cba6dU,
  0xbfb71e1d405bdf15U, 0xbf0dab60c018ff15U, 0x402a881d403d84b3U, 0xbf5505c63ff3f9f0U,
  0x40423a67bff72049U, 0x3e320ca8c0537b45U, 0x400cb979c0a11717U, 0x413b623a3e9a75edU,
  0x409eb8fdc0d68075U, 0x40c5cf93c0a91a16U, 0xbf4447663ff8dfefU, 0xc08c9be9c125ec0bU,
  0xc080e761bffdf49cU, 0xc0a095e2c001492cU, 0xc0c5be97bf47f2b4U, 0xbf96e593bfb98ac5U,
  0xbff91c3ec09a484bU, 0x4025ade9c0077a35U, 0x4003a2c340dd492eU, 0x3fd5f9dabf00faf3U,
  0xbcd6e80bc00a43f8U, 0xbe1ceb083e915951U, 0x3e48d305bf2cbfabU, 0x3f0c67cf40b3260dU,
  0xbdf55bf4c0273bc8U, 0xbea44744400cfdc3U, 0xc0905404bfc4c3cdU, 0x3f7d2cd8bec7aa9eU,
  0x3d8825314027c8e7U, 0xbfade4023ff2b526U, 0xbf75443e3e058c48U, 0xbeffab71bf6e0491U,
  0x40b561f94077a376U, 0x3ffc33a9c0fe7cf3U, 0x3eed286cbf57027cU, 0x410a669e40a5d1a5U,
  0x41425fdfc116df35U, 0x404de366c10b7915U, 0x4061f4c1c0ba7debU, 0xbeb00ba1c0cedf0cU,
  0x40ce119a40c276c8U, 0xbe023d67c0e58ca3U, 0xc01f7b794082a9a4U, 0xbfc32a9a3edab7d3U,
  0xc057f31bc0171a8dU, 0x3fd3dd6fc0d8d6aaU, 0x3f339fee40463972U, 0xbf687f25bf028859U,
  0xc044aca540c5e437U, 0xc03655adc0a8a9d7U, 0xbec20834bf9774eaU, 0xbf98ed99c0880f52U,
  0x3f7dc9a03e7db021U, 0x40869f05bf5801c5U, 0x3fb74004bed22060U, 0xc0e51f114023ccaeU,
  0xc10934c6c044c3ebU, 0xc13bc3fd411b1582U, 0x406db947c0ea0948U, 0x41192dc3c10348bbU,
  0x3f9ea612bef4a430U, 0xc0a7d938c0e55b7aU, 0xc0dab437bf516d3eU, 0xbe809214400305c7U,
  0xbf3bcdadc130584bU, 0xc0460de540954c64U, 0xc096665f40bac2dbU, 0x406e117abf6b7f35U,
  0xc09d88954026a711U, 0x3ff5de87c01c5510U, 0xc0c642bb406e055dU, 0x3fcc5b4bc0e60532U,
  0xc03ec37d408fa8a9U, 0x40b55dd24031f4d9U, 0x3dd9bb5d409b849cU, 0xbfa0a7fc40d7d1aeU,
  0xc0b0cf3fc013b19dU, 0x40743702401bbdfaU, 0xbf5186cac04b6c56U, 0x40aa89da401ee3c2U,
  0x40b841393f9b5cf7U, 0xc02347d9403b1950U, 0xbfb89e44bf90fb8bU, 0x4042148fbe01efbdU,
  0x40b8a094c0c1b9a0U, 0xc071c507bf0583f6U, 0xbf85ea5a4107b18dU, 0xbf5dd98240522811U,
  0xc0329d343f1a3bc7U, 0xc085df683e042e0eU, 0xc02b0df6c0356bbbU, 0x40ed1d5ac0f528aaU,
  0xbdaec49bc0c12a63U, 0x4138897dc04c99d1U, 0xbed4ad81414a9d65U, 0xc10cc670c03aa1b7U,
  0xc020cdb7c0d70aa1U, 0x3f8d79b8c048236cU, 0xbe79f0da3fa162a5U, 0xc0d1be75c025f805U,
  0xbfd7bd42c057baa4U, 0x3f77a6d73f833236U, 0x3f4102dd40eb3860U, 0x41232146c0c18806U,
  0xbfed48c63edfe02aU, 0xc08d450341314fa8U, 0x402fac59c0e2f0fdU, 0xc0cb132cc06d94b6U,
  0xc0a0175040278dfaU, 0x3d101cb4c00af21aU, 0xc062a4754062e71aU, 0x40afd8bdc103cb69U,
  0xc024bc3941157725U, 0x3f29d8f1c0d9de2aU, 0xbfe5b725c02ed0e3U, 0xc1eff0aac1d3fce0U,
  0x414ee9ddc21b4235U, 0xc1543908424d8278U, 0xc14cb02ac184edaeU, 0x41bda1d6bfde7c4aU,
  0xc14fb5c5c17a8871U, 0x40925945c19fa4bbU, 0xc14629f0c100173cU, 0xc1814bd741821df5U,
  0x410d3a5bc19e4315U, 0x409ca538c14c6c4dU, 0x413cb0d840e782a1U, 0x423bcc7bc121c0f7U,
  0x41d5b78bbe949748U, 0x40346d3ec03aee48U, 0x40da219c40d2af68U, 0x40a2a0f7404380ccU,
  0x3ffab347402eb752U, 0x405dc160bfc2275aU, 0x40dbba1040d1a455U, 0xc128391ec0a1d995U,
  0xc1036ac5c02d018cU, 0x40d18248406b2e21U, 0xc038373d4111ab28U, 0x3fc8f4f13f15e711U,
  0xc09276843ff05392U, 0xc015d0d1bee9f168U, 0xbfaace78bed3d915U, 0xbf8c90eac0459b2cU,
  0xbf37c5b8bef78b5dU, 0xbf5e2e2d400ac376U, 0xbfa2760e4058371bU, 0x3f8d92c63f14424cU,
  0xbf49f6ba401a845fU, 0xc025603fbf25c8c0U, 0xc006ed33be8dadc2U, 0xc1ceaaa64103eda0U,
  0x40c31fe1402b4332U, 0xc08ca216c104c412U, 0xbfe86c8340530b4eU, 0x40ddeb6540d4aaf1U,
  0x4115a2abc00f91e1U, 0xc081ed0d40b08ff1U, 0xc0ba2e604085844eU, 0xbff6367240906488U,
  0x3fee0cfbc009743aU, 0x407d2a91c0885fdeU, 0x3f0f4863bc8a667aU, 0xbe945a4dbf1ed8a8U,
  0xc03653aa3ffcb658U, 0x40162830c0859ac2U, 0x41096a453af3e42bU, 0xbfb59a2cc0724a93U,
  0xc05c40484070cef8U, 0xc014644fbdb633eeU, 0x41113f61c04ce620U, 0x4040bdd94094477bU,
  0xbfadc355c0ad2517U, 0x401113bbc03bc00eU, 0x400053b9c07197c4U, 0x41fbe61ec0bd96a0U,
  0xc0686addc00c52a2U, 0xc066756d403329f1U, 0xc19cb0acbfcf40f5U, 0x41859ddf40c827e4U,
  0x4182639cc1279cbcU, 0x4169c7bfc16b36b9U, 0x40ae5e274153870eU, 0xc080a87b40dbf90aU,
  0xc1a40b02c1530e02U, 0xc16c57bbc12fa413U, 0x3f84223040b655f9U, 0x427338eac1cd3be3U,
  0xc1fa04ebc11cb59fU, 0xc1b588bbc11e223bU, 0x409eb62e418bfc6aU, 0xc16e2662bff7d1e9U,
  0x4115295dc09304fbU, 0xbe4b7ce1c1127e17U, 0x40eed5d6401a7858U, 0xc148652c40c21733U,
  0xc02e9f65c011100cU, 0x40f2a9673f5f7e09U, 0xc0ca9f2b407402a9U, 0x410f3b1dc02d493eU,
  0xbee0209f3f2cdebeU, 0xc12c026a407728a1U, 0xbf201730c0227ce2U, 0x3f4579c741310076U,
  0xbf3d2ee83ffe97a8U, 0x411a23da40491543U, 0xc06587d7bec166cfU, 0xc01f18e8bf355eb4U,
  0xc1004c11bfd90d2aU, 0xc0491accc0155e8bU, 0x408a4466be675ac8U, 0xc26cd51ec00ecf24U,
  0x41cb0851c2093db1U, 0xc12af714c16947f8U, 0x3fe49240c084505aU, 0xc178fc7340d7ae4eU,
  0x3ff4c8c8402249afU, 0xbfa298553faab9f6U, 0x4043ced6419d3daaU, 0x405b4028c1011c83U,
  0xc0a6ad94c0133ef3U, 0xbe99fdb2c0acf990U, 0xbffe43d1bf5ecf57U, 0xc18f1fea428abc03U,
  0xc1a9b362c20b8ffdU, 0x413b6b154102ef18U, 0xc11946f440af4573U, 0x4192c8b6c0033b4cU,
  0x3f636fcd4104c3c6U, 0xc0a1ae263eb4c220U, 0xbff52121c05fe758U, 0xbeef3a8bc1319047U,
  0xbf5b82aac044289dU, 0x40fe7f3c402c3bceU, 0xc060aaa3403a568dU, 0x429a4312bf932e64U,
  0x422851babf90cceeU, 0xc153633fbec51163U, 0xc10c831bc0fe5c4bU, 0x4111b1f6c1058cf8U,
  0xbfbf3cffc0328db1U, 0x40cd912d4094060bU, 0x40593852bfaead65U, 0xbfa4a1efc05e56bcU,
  0x408ab30e413986a7U, 0xbed1be204009639eU, 0x40172970406d3d86U, 0xc23632bc419f2dceU,
  0x406def4a410c24a7U, 0xbf8cec30c124e2c6U, 0xc17ce052c15a2781U, 0x4168987bbfa038a9U,
  0xc03785f941254ff7U, 0x40b4613b40ad9fb5U, 0xbfd770e33f9635cfU, 0xc07440703fcaa418U,
  0x411acd704159c128U, 0xc12dedd4c1244084U, 0xbf23797ec0129611U, 0xc22274cac243aae5U,
  0x412b45e9c125c5d7U, 0x41d8ca7bc01f0655U, 0xc0629fe5c1b68da8U, 0x3f079a60c092c3bfU,
  0x40e4ee3fc176d852U, 0xc09988dac0a45cdfU, 0xc0170b63bf7f228aU, 0xc012951940a85a58U,
  0xbf97bedf3f4d7f99U, 0x40f5f54240df90cfU, 0xbfa48d423e9fae04U, 0xc240c82cc0d3ff48U,
  0xc082175b413f27fcU, 0x3f975aa640f01e71U, 0xc175a597c11ae102U, 0x3fb2d3e9c09b884aU,
  0xc160ca8a40e3323dU, 0x40989bfe40645ba4U, 0xbfa20ffdc0f00e15U, 0x412f0d7940adb2e8U,
  0x3fff3bec416da07fU, 0x4185a3dfc0f96097U, 0xc063ae4140886fa3U, 0xc19a6572c2918df1U,
  0xc20ccd504224d819U, 0xc12296ec41aa0e1eU, 0xc1acddeec15ee264U, 0xbe9a72cc412d588cU,
  0x415d7de74140a22eU, 0x40db66933f53d474U, 0xbfc498ec410c4efaU, 0xc0653d613e371e4cU,
  0xc0d09b61c107c3ecU, 0x409f6f1b40d9cf84U, 0x3fffac66c08419a4U, 0xc07b611a3fd45ad9U,
  0xc14c74cfc0b35143U, 0x401c0941c0d9b6c2U, 0x40b03b014095f556U, 0x4143cd15c086ddfcU,
  0xc0c0b61bbfa6b17aU, 0x4059b90abfc67c98U, 0x413392873f02344eU, 0xbf633cef4062dd6eU,
  0x40220b81beacef94U, 0x3d0933b53fa10135U, 0xc01912d1c0ceddf7U, 0xc2574155c21c3a4dU,
  0x418f35d0c2063174U, 0x414b390cc10841d9U, 0x4139ab6ec17af5dcU, 0xc104fdd6413d0561U,
  0xc0fa6ef0c10c4068U, 0xbfdca9b9412c5217U, 0xbff7962d4191b850U, 0xc109c785c0a7ff82U,
  0xbfccac98c0594b15U, 0x407d05e140500c46U, 0xc049a731400754b6U, 0x41985aa5c2411a9bU,
  0xc1a2132040743d53U, 0xbf08744741002d76U, 0xc0dceb8d41d6a81bU, 0x3e13044e40b2286aU,
  0xc15138253f607aa5U, 0xbf8f650fc140ee60U, 0x406140323fe0e4beU, 0xbe84b0713ffa6411U,
  0xbeca1d48bf9c2bfdU, 0xc0789496403f1f39U, 0xc14a6a794113b93aU, 0xc1b47e28c269f37eU,
  0xc1abf13a422e56e7U, 0xc0ec9204c0f54621U, 0xc147ddfdc1149a67U, 0x40f17563beef69e2U,
  0x400a8157407d2685U, 0xc127dc9f4100f44dU, 0x410e50a0406bb6beU, 0xc0168b2ac122ac5dU,
  0xbf7ed696c08ff047U, 0x405d86e840706126U, 0x41013229418b6810U, 0x416e13a7c194031eU,
  0xc16cec89bfffdad1U, 0x4120821f41594f48U, 0x41cc4d9bc0efe0c8U, 0xc03da478413809acU,
  0xc144dfb641c9924eU, 0x41a68fdfc1466168U, 0xc1280da140f46509U, 0x3f82b29e406933a5U,
  0xc10dffda410f9fe7U, 0x400079e540c93cffU, 0x4102778a40d3e2c8U, 0x420b15b44201ac99U,
  0xc03a088240cff314U, 0x4170ca7ac049f827U, 0x414362ad40feb51eU, 0xc18cda2f408027ccU,
  0x40d5f575c1570111U, 0xc12de713c07d7443U, 0x403853673fbfc864U, 0x41afdfe9c0dbdb1dU,
  0x41052c3ac0aaf06eU, 0x40d106ed403b3ad6U, 0x41726dabbe8a603dU, 0x42679d064217e6e7U,
  0x41b7d5fe417070a8U, 0x3eb0b546c1131c84U, 0xc09946b6c1a8d6a0U, 0x40df9fbb41693282U,
  0xbebefeebc0f0d676U, 0x40e9738fbef2a4d3U, 0x3f68771a3f1b1031U, 0x40a1f16f406c3b61U,
  0xc034ba68c0986d01U, 0xc0faddaa412810e5U, 0x3fd05659bf463b8aU, 0x4212a76341f13647U,
  0xc0391adf409c9cc4U, 0x4168987ebfcd9cfcU, 0x40cc81bc412a24ffU, 0xc18e8f8341581f42U,
  0x40f16e6bc0e079f9U, 0xc121e5623f02763fU, 0x4129a817bf931ff5U, 0x41912bcdc075716cU,
  0x4115d9474062bd02U, 0x40b6874540da6e16U, 0x4180a76b3fe96ebdU, 0xc00b3c8c3fb4b040U,
  0xc0207e533ff8a81cU, 0xc0d55af64051b063U, 0xbe275b2fbf1c7ab4U, 0x3fb28e1940498e68U,
  0x3fdf0f6dc0426f89U, 0xc0a80812bffd1d1bU, 0x3fde845b400d5516U, 0x3f6c4dd73fc32b1aU,
  0x3f3f30144004e239U, 0xc0811f654040ab83U, 0xc011e938be27c05fU, 0xc2544b9bc19b41aaU,
  0x414a8daac1992747U, 0x3e312227c155f1acU, 0x4072696fc171f998U, 0xc0be104fc051e50eU,
  0x40b68b27c0e539c7U, 0x3fc56551c11248feU, 0xc02d1f6dbf835dc0U, 0xbf194aa04033596eU,
  0x3fb784c4bfc38dd1U, 0x410076b6408bbaaaU, 0xc03e9a6c3f0acfd7U, 0x412ba2374284924aU,
  0x412b9144421fc196U, 0x41c95307c16cf716U, 0xc0b326fe40fac099U, 0xbf032eadc1c93cd5U,
  0xc09e50ef4025125fU, 0xc107080c40a365a1U, 0x410a83dd41b02fe5U, 0x410799a041ac59d0U,
  0x4041a455c16d96a6U, 0x3f4916383f384af2U, 0xc068e73040a874ffU, 0xc20ecca64223f295U,
  0xc02df75dc1aa7fdcU, 0xc1128e9e408ddeb9U, 0xc150c35d418c0feeU, 0xc08eebbf41590917U,
  0x4031d19f4053d166U, 0xc082a5383f04638aU, 0x40896774c0946c6aU, 0x40ef1974c077cdfcU,
  0x401aada3408715d0U, 0xc06265083f9ec9aeU, 0x40668b1d3f978f3eU, 0x40b7f3b0c28b4a73U,
  0xc2170a8a41b64c70U, 0x4095de8b40f518cdU, 0xc0f66a0c4185cc8bU, 0x406c6d354110ebd2U,
  0x3f35227bbe6aeabaU, 0x414e0c203fe7f839U, 0x3fd26a86bf7946a1U, 0x4035b22740ca8536U,
  0x408226a8c0fa9ef3U, 0xc0cea65cbfbc976aU, 0x40b98080c0d8ee8bU, 0x3e3fd523c0e9dae7U,
  0xbfe029ac3f60d60bU, 0x408ce00340cc2e20U, 0xc08c63e5bfb715c3U, 0x3ee56f81c0bbdadeU,
  0xc009e79741011e57U, 0xc0cd47bf40881fc2U, 0xc058706bc0789aa2U, 0x40a0e843c0236c98U,
  0x400d3d3f408c8d55U, 0x3f46b4d740984e57U, 0x402437be3fa03f3dU, 0xc1a764754184bb6eU,
  0x4052343140d25cd5U, 0x40caadbc41187f02U, 0x42126916c13e1fefU, 0x41c355b240e0a215U,
  0xc1b023524118d83cU, 0xc19e194ec0ad3ffeU, 0x41d034b8c11a1cfaU, 0xbfd4eef4c01cee7aU,
  0x40b77d1240fb9a50U, 0xc03b2134405547f2U, 0xc00127bc41167e37U, 0x4257b2a142105a80U,
  0xc20a7ab2c1eb735dU, 0x3eb8ed9fc1b2f70fU, 0x40ad9739c1ad3c75U, 0x3fd1d11ec06cda48U,
  0x412305b5c01b8cf5U, 0xbfd65d73c0865353U, 0xbfa78d813fd9beb1U, 0xbfb50473409a09a3U,
  0x4029cf8f40b49615U, 0xc037b4063f9572ebU, 0x40e6d25a401ac7dfU, 0xc105729a41cfbd77U,
  0xc0392d94c1d240daU, 0xbfee893f423ca588U, 0x40f4c710c0a81c44U, 0xc1126037419ec6dbU,
  0xc135d217c155c2a2U, 0xc0ed30c541e9d57cU, 0x40dca677c1524d9eU, 0xc17ebbac4174a58aU,
  0xc0643495c15d16a9U, 0x40025feb40ddfb23U, 0x40d4c28f4087e77cU, 0x426b46c6c1c0938bU,
  0x420dde6ebf386cbfU, 0xc11d5a9d41530e75U, 0x3fda96a64121ed62U, 0x40997910c112199fU,
  0xbf0e32b9c01cea10U, 0xbffaeab14082b8f3U, 0x4098d41dc02adae9U, 0xc0326668bfd7dc7dU,
  0x404486fc40a6abf3U, 0x3fbb726ec058dacfU, 0xc0ebddfc4101df9dU, 0xc1e8984542561f3dU,
  0xc0b7178bc1ba808cU, 0x40ac52f440d4865dU, 0xc1c8e2e141cd8d43U, 0x4129f22141a7082dU,
  0xbe0a1fe541382e50U, 0xc08ded5b41420575U, 0xc00bdf8ec0b7c947U, 0x408ae1e3c0167c54U,
  0xc00b82583fc4a123U, 0x4114d319417cfcf5U, 0x3c78728c4160c7e2U, 0xbfacf7ccc28cce8dU,
  0xc1f1380841409e33U, 0x41461a2e40b02fc4U, 0xc1baddcf41782fcfU, 0x3ce918ca417f53dbU,
  0xc184b0fac0acae89U, 0xc013d668c19acb71U, 0xc027e959409f58e4U, 0x40b6b9e4c09f24afU,
  0xc08ca15bc0f56c7bU, 0xc16445be40934237U, 0xc075433b41104e53U, 0xc26ba450c1842922U,
  0x41b47712c1cbd5c6U, 0x40afeb683fa9fe6fU, 0xc10da172c1663fe9U, 0xc1482282c093b2ddU,
  0x40c5e68ec0cd5cfeU, 0x410d74dcbf0d9b7fU, 0x4061eccdc1c00ebfU, 0xbf34cb97c08894feU,
  0xbf2af08bc02ea2b5U, 0xc1007bbac0d73df9U, 0xbff4ec304058d41eU, 0xbf1f4e0bc047c203U,
  0x3f0aeabe401663e6U, 0x4095def3c0d68082U, 0x400fe33c40152adcU, 0xbf7bc2e23f99aabaU,
  0xc01c3f893e2be469U, 0x40401bdb3eb6c6c9U, 0x40101966c0072144U, 0x3f0695f7c0826651U,
  0x3ecd7d9a3e5e725aU, 0x40643576bf4a22fbU, 0x3e8d1dd03fd5418bU, 0xc21c3cab42420be2U,
  0xc02a06dc4205b9b8U, 0xc1699ed7412d84abU, 0x4105efb54115df9dU, 0x415adf62c1a4b723U,
  0x3e94a701c12a99d7U, 0x40418ca3c08f889cU, 0xc1246679418f0bdeU, 0xc1285edd409e1684U,
  0xc06d2a763f7f16a9U, 0x40d04f2e40fe0d3eU, 0x409e3fe8c04528e0U, 0x418d0d49423cb464U,
  0x400383a3c112f30dU, 0x3e48b67cc10d0b24U, 0xc11f8edc4133c88eU, 0x40f9f80740535d40U,
  0x3d8075ff41891c5fU, 0x4160d9b8c0b8f718U, 0x41432ef8400fe6b9U, 0xc095526d4171dd95U,
  0xc11066bb4194e91eU, 0x405b77a53fce6002U, 0xc13b8a733f25b9eeU, 0xc1b03533c2537ab2U,
  0xc190c81241d259baU, 0xbfaac89e3f840a61U, 0xc0240003c09f10bbU, 0x40ea4058406b1086U,
  0xbecb5ce0400dfdb4U, 0x400df5d140077400U, 0x4056b723c1072132U, 0x4042690040d8df54U,
  0x4074095bbf8dec6dU, 0x4096916740ba1857U, 0x40132527bf956f59U, 0x41a82b2e427d88f2U,
  0xc2094ebec1d4b2dfU, 0x418bf1d6c0e5efceU, 0x3fc27b65c17d4db9U, 0x4166c8d2bfc7e46aU,
  0x40607c0e4089db2bU, 0xc017d378c01bee03U, 0xc07f3b513ff4faf3U, 0xbfc8bd10bf00f91dU,
  0x4051e490c020868aU, 0xbf97c4eec058ac88U, 0x3f4f86d840101924U, 0xc15e64fb4219acdbU,
  0xc067d0de3e288c23U, 0x402a2ecdc15b389bU, 0x40f67340c05de753U, 0xbecc9e51c1cf7d4fU,
  0xc0be6d2440071af3U, 0x408ffdb740155082U, 0xc157aaf24043bcaaU, 0xbf99fe084004f628U,
  0xbf94f492406743beU, 0xbfd73f98c0bfd007U, 0x3fe72bfc4039169aU, 0x3fd4be2a42627c4eU,
  0x3eff734f406d7d4aU, 0xbfc68bf9c1122ae8U, 0xc0b58df6411b8e14U, 0xc16b6fdc3f30c136U,
  0xbf30260dc0bd1cc0U, 0x3fa7640640c7ef03U, 0x4133df37408ae42eU, 0xc1520d71c1293901U,
  0x4130728bc06d7479U, 0xc14ceee6be8baa21U, 0x40bb2dae3fe30481U, 0xc1503b754283d2fcU,
  0xc18760fd41f7845bU, 0x411911c241d14c43U, 0x4114eeacc08759b4U, 0xc0644e16413ada16U,
  0xc0eee502c1da7b84U, 0x414c72c1bfe5b29aU, 0x4182fefec102e68bU, 0xc161a1b4c0ad6b27U,
  0xbf64387940b8382dU, 0x3f5c523ec015026fU, 0xbc8de2324149fbfbU, 0x421042d541f60adfU,
  0xc1121fabc0ae5d7aU, 0x4068e588c115d198U, 0xc0833e544144c361U, 0x415940603fbbdda4U,
  0x40f74c62bf5cdc0fU, 0x412709cc403c5d56U, 0xc16991163f27a60fU, 0x40c8c6513fda6042U,
  0x40525d6fc0f2e6ccU, 0x40e748ccbf895688U, 0xc131d9a9bf524085U, 0x4279bdcf4179a890U,
  0x41d5e25d410f2e9fU, 0xc119de4fc04b1bf4U, 0xc11b212ec1914a40U, 0x40b7b82b4085ec80U,
  0xc0e65e8dbebe5e12U, 0xc0a4aa96407a5d0aU, 0x40047dc5bfd404acU, 0xbdd7c33a3feee5b4U,
  0xbff9cef6c116ea2fU, 0xc0e73b0c4086441bU, 0x40083beec0f17ffaU, 0x3fc84253424d219dU,
  0xbef252e640d208f3U, 0xc0982a22c1250012U, 0x4124681040a9a933U, 0xc1005f59c1c910c2U,
  0x4078d18cc122c649U, 0xbf98d20bc040f7c6U, 0xc1048be9c06073c1U, 0x3df9c256c18cc708U,
  0xc1386e72c1466c41U, 0xc01dcaf5c0bc2389U, 0xbea281aac0836a74U, 0xc258b2a4c186dbc0U,
  0x3ff76c1142053c5eU, 0xc157cdc7c1634342U, 0x4116a1e2c0eddd51U, 0x3f29e3bfc10acab6U,
  0x4084034d412c29beU, 0xc0216f07403f80f5U, 0xc03c2768c14e018cU, 0xc030dab24094174dU,
  0xc0371f7e409c29daU, 0xbea181e8bf998168U, 0xc008b94a40234d3dU, 0x4280ce00414bc70eU,
  0x41f5df8e40e315b5U, 0xc15b3b9bc1277c91U, 0xbfaffe6bc144151dU, 0xc08e0c1640937547U,
  0xc12f5dcd4149a6e6U, 0xc11eaac6411fd548U, 0x4038712abf1a7e98U, 0x3dee5db240039ce0U,
  0xc11a78f8c19a0936U, 0x3f9be3de40606032U, 0x41071e6fc0d338acU, 0xc1e305b5418e6bdfU,
  0x40bebb8b3fc0e467U, 0xc0deeaf1c0d5dd96U, 0xc223f5aec14168f0U, 0x3f098cef40ab884fU,
  0x4022904bc1f7de50U, 0x416d268ec1e6f4ffU, 0xc08ba19dc17ea133U, 0xc000f41540673ffaU,
  0x410be22d41258856U, 0xc0d572f040b270efU, 0x4015c04c40746645U, 0x41fc429f424abbdcU,
  0xc1b84409c16b669fU, 0x417473a1c0b1909eU, 0xc087a0b3c173edb2U, 0x419371ccbe805658U,
  0x40921c41bf87c165U, 0x404a2256c093945bU, 0xc1608d12c11c5498U, 0xbf2b3316c105fc92U,
  0x403c610cc07a5955U, 0xbfc746d1c093c9e9U, 0x3f6a51de40d03411U, 0xc153d14a426aa46aU,
  0xc13b6589c125c7c9U, 0x408a620e412f5ad2U, 0xc148fe9340e3a8e6U, 0x3f856b8cbd25fde1U,
  0x4027fb60414981f5U, 0xbfb0d08c3fca876dU, 0x415d8434c0e6ad43U, 0x3f946dffc0b4dd70U,
  0xbfdbe566c05cae7cU, 0x40f30939c026417dU, 0xc10b52333e961e8eU, 0x3fb484393f8437ebU,
  0xc08a714c40498120U, 0xbfaff78fc0889c3fU, 0x41204e63403dd7acU, 0x3f55bfef3b62b221U,
  0xbfea2e0d3fedf168U, 0xc082e7b1bfa29772U, 0x410bc845c03ae359U, 0x400179af40c7ef6dU,
  0x3e5eb93ac03c7112U, 0x3e8a6ee3bf2412b0U, 0xbfaf76bbc04cefc0U, 0x41d01d6ac26797daU,
  0x41f634e0c182e253U, 0x41f31b3941ea20abU, 0x3d0991d040af79d5U, 0x40d05d0c4105ba65U,
  0x40fdbcec413a0f77U, 0xc0e66b09c13cf4deU, 0x40084a4c40bae5caU, 0xc0efa7a3c1347ce5U,
  0xbf99b1a9bf04109aU, 0x402ba467c0a5b415U, 0x40f05005c0d64cb1U, 0xc228048dc2414fc7U,
  0x3f07b67941c2e676U, 0x3fc8eab2c1e155e4U, 0xc0a02e67c0d240fdU, 0x413c3f8941a00c2cU,
  0x4121f4cfbfa72b31U, 0x401973084171d21bU, 0x409d67253e8bcf3cU, 0xc09e85acc1daef07U,
  0x3fbf94393ecdf423U, 0x40d9e7dfc1087483U, 0xc0f0057bc0956875U, 0xc26dce60c2061bafU,
  0x41a09a80c1f658d4U, 0x40def6d9c12b9d4fU, 0x40a3cf6bc1984d60U, 0xc0f61d3741015080U,
  0xc04aabe2c0b66c8fU, 0x4063adde405baa54U, 0x4037da4b41443d90U, 0xc058c999bfdee344U,
  0xc00ea3e4bf57aa4aU, 0x405691e94006cac6U, 0xc0c633c340992235U, 0xc234c9b7c0c02e18U,
  0xbfc5ec2f41234466U, 0x40ac5ccb40f1c218U, 0xc1a36828c1633d16U, 0xbe92928540179f30U,
  0xc148cd91412ac7f8U, 0xc091f83f40dc2772U, 0xbf8bb73f3f0c99d4U, 0xbeb95800415f2f03U,
  0x409fd8c73fce3c56U, 0xbffb35c8bfa8fb14U, 0x4127b57cc122c212U, 0x418598c042446c05U,
  0x3e65bbd7c1263cfcU, 0xc1104f8a4017c2c4U, 0xc152e450406f4f08U, 0x410946b5beea1d64U,
  0xc0afff1241816a8fU, 0x40eda7c5c108aa6bU, 0x412fa699c0e0abafU, 0xc0d3234840e4e1d0U,
  0xc128a43a41a426f0U, 0x410c4c49415cbad8U, 0x4029b4fbbfc37026U, 0xc25330d6c141bf77U,
  0x3f7a6f5141f22907U, 0xc17207f6c16d383dU, 0x411e415bc10def21U, 0x40064dc6c12995a4U,
  0x40513504411a3260U, 0xc01e8616408db895U, 0xc02a2fcec11c3104U, 0xc09043674078609eU,
  0xc02ec43e40823046U, 0xc033d1c8bff9863cU, 0xc006d18f3fd320f8U, 0xc0a385c140ee0ebcU,
  0x41039776bfa6c377U, 0xc0bae367bf725abcU, 0x3fe60e27404bdf38U, 0x406d2003419b96afU,
  0xbfff01694018afe2U, 0x4084e1ebc01feeadU, 0xbf48979d400cfe5fU, 0x4086dcd33fc46fa9U,
  0x410ab3a3c0899897U, 0x3eee0d44c0d0d9dfU, 0x3fcc570d401bca7dU, 0xc23dfc0441326b48U,
  0x40fd51a3c17f3647U, 0xc12b5f6ec084dbdbU, 0xc00d93ac40f667c8U, 0xbf81adc0bf06f965U,
  0x412098a43fe3a9faU, 0x40b4408bc11d8bcbU, 0xc06b1879c06c60a7U, 0xbd72417340938255U,
  0x3f9340973f2b113fU, 0x3f352c4240c9b47cU, 0x3f1deed83f2a0a24U, 0xc1cc171542913027U,
  0xc17244804213491bU, 0x413db62d419d7f1aU, 0x4097aa5640c4296aU, 0xc0828beac0c503cdU,
  0xc05ecaa7c1168b44U, 0x3f6129b8c1070ef8U, 0x4180f597bf041946U, 0xbf89d3acc018b0ecU,
  0xc07d268e413e9bd3U, 0x403ad55dc1497673U, 0xbeda0f54c08316f4U, 0x40c8a565c1e1471bU,
  0x3fc7c4c4bf02fbf3U, 0xc0bcebe8be328225U, 0x40cf3f983f561782U, 0xc138becdc0fa0cfcU,
  0xbf8706c53f17673fU, 0xc012f448c0610f79U, 0x40ebd4d83fa196c7U, 0x40d649a3c095be95U,
  0x40ce0425405ddf96U, 0xc016a1ac4128cdbdU, 0x412019164089e5f3U, 0x40e37d85bfea0fb5U,
  0x4171ead84065f362U, 0x4120fe5ec18c8075U, 0xbf654048413dc7c6U, 0x3e52a6c5c0635c15U,
  0x401525a4bfb2d434U, 0x4006ed2a40ff47e8U, 0x3f0a61ca40e1cd1eU, 0xc0da5280408d44b4U,
  0xc062a145c007a2c6U, 0xc023713440146ee6U, 0xc09a13e4401f86b3U, 0x4094ab02c24ba12bU,
  0x41909f3dbfbc8b6fU, 0x422ca8ae417adad0U, 0xc12edc7b418ed485U, 0xc01552f1c14586b3U,
  0x4108930640ab3851U, 0xc031473ec10cff4fU, 0x40590cb8c0c5b1abU, 0xbffaab0e3f1af8ddU,
  0xc1070b9bc096dbfcU, 0xc1399a3840941a21U, 0xc165c52a40d63e89U, 0xc1b5b43842858befU,
  0x40c4d991422eb75cU, 0x4031fdc041b5068fU, 0x3fc5fde1bfe7b8bfU, 0xc1ae96494114ef22U,
  0x41218881bd5a68c3U, 0x3fe98e23c0456a32U, 0xc0952d04402faef0U, 0xc03ec0bfc103e3abU,
  0x40cc6596c0bfe9e6U, 0x414170c93f891493U, 0xc091d93ec04ce034U, 0x420fc46342362c35U,
  0xc21d3301c2168cf9U, 0x41488c90c115460fU, 0x4119444cc1e91502U, 0x41512d8dc02d191eU,
  0x40cd809fc0a14da3U, 0x40a658ae4088300dU, 0xc0811f6cc08c2ad8U, 0xc01a910d40686543U,
  0xc0f9a54d410ac765U, 0xc10e307ec03330b7U, 0x40812ef3bde17a41U, 0x41a23e59c1b07f9eU,
  0xbfcab1c5c06d830cU, 0xc0d1b39b4102caa4U, 0xc191f0ebbfd4cea4U, 0x414443bec1a5e8d1U,
  0x41acb846c1d0ab90U, 0x40677d964140219aU, 0x41c148754038f83aU, 0x40f3187040831980U,
  0xc15f83e5bf39148aU, 0x409aa0a8c11397bbU, 0xc0d53e32c176aa4dU, 0xc061bf14bf900c36U,
  0xbff2c180c046207dU, 0x3eb685993e6ceb1bU, 0x3f9918adbf87bf10U, 0x3ec1f5b1beefa94cU,
  0x3e67199d3fa3471cU, 0xbf2b87943ec19c35U, 0xbde86c84bf3879bfU, 0xbdca0a88bf4535abU,
  0xc003da8aba1fcb09U, 0x3d4b1caf3fad8116U, 0x3fdcd71c3dfe37ddU, 0xc173a0c3c1a9e7eaU,
  0xbeeb39e84107ba4eU, 0xc0ee09dcc16c5778U, 0x418cda5341b6db4eU, 0x419af07d3f9b0135U,
  0xc19a164cc16623f8U, 0x41bb8b243fbb183fU, 0xc08baffd4105b9fdU, 0x4117cff5c07d220cU,
  0x40f632a9c10bf57aU, 0xbffebeb5c026ae21U, 0xbe75b9cdc0021fa2U, 0x41c5aa69c184ac0fU,
  0xc17843c0c0f3f513U, 0x41992b96412a0445U, 0x41d868f5c08d1797U, 0xc17d461441ebbd53U,
  0xc0f682d8415371e5U, 0x410094dd3e8c8701U, 0xc12410bd418ff1bdU, 0x3e26129abf955955U,
  0xc14bf2a541958ae5U, 0x411267f1c1333898U, 0x4145c8f2c10e30a7U, 0xc250f01d4228f5c4U,
  0x410082da41f9ed74U, 0xc19700e4410fbfe6U, 0x40cca41641bfa84dU, 0xc14c5262c1b223b6U,
  0x413332d8bf2b1d2aU, 0xc02dd779c053552fU, 0xc1038020bf678afeU, 0xc04bdb0cc0755a26U,
  0xc12393303f46640eU, 0xc10e371b405d9d63U, 0x414f24ccc08417a2U, 0xc1fb4542c21df115U,
  0xc11cb52c41a82abfU, 0x3f2464d0c14e01b8U, 0xbfae14f9c10e87adU, 0x41310ed23f4b44ffU,
  0xc0e1f4b2c038c63dU, 0xc01420314162824eU, 0x40e378c7408dc18cU, 0x401c49363dbcef15U,
  0x402ed625c032e57cU, 0x3f03356540ff550cU, 0xbf2592394100b077U, 0x3f6011fc3f1df028U,
  0xbe03b4ef4017b588U, 0x40605a1a3fc65cd7U, 0xc00487abc025f8d8U, 0xc0529c59c0e28c43U,
  0xc04d1ba4bf6996e5U, 0x405aaf5e3e9e6291U, 0xbf8c076d40045361U, 0xbfe42193bd435e79U,
  0x3df9f94e3f980f6fU, 0x3fb74600bfec4f09U, 0x3fa6f2ec3ec99233U, 0xc1f3d73942555e33U,
  0xc0d44173c1dac52bU, 0x4061b2a440aafbd0U, 0xc1796284418cb70eU, 0x40df566bbf989411U,
  0xbe0f21624152ec50U, 0xc0d4124f4047edd7U, 0xc01d8c783ea284b0U, 0x40257084c1063ff5U,
  0xbdd44c51bfa4884fU, 0x41314040411ff034U, 0xc024fd6bc01dfa1bU, 0x4228bee042378f35U,
  0x418b06d141b9dbfeU, 0x40a4f984c0492a77U, 0xc0f28e4ec1caab0cU, 0x403e19bf4175b19dU,
  0x3f68c2a9bfe2282fU, 0x40724d6cc03d926cU, 0xc03b1880bf3aae5cU, 0x40a05896406e2e10U,
  0xbf5e5401c115e9d2U, 0xc108775b40b278a1U, 0xc0d9a3a3c09a841eU, 0xc2298929c211c92bU,
  0xc110953f41fcb3b1U, 0xc11d1d95c12540c1U, 0x40a2ec79c13b03a3U, 0x3ff0e30abe8d178dU,
  0xbf49f70d41046b85U, 0xbfcc0633409bc36eU, 0x3fc2807cc13bcf2fU, 0xbfc0cf1f40e42539U,
  0xbf92f5e240740610U, 0x401a4c013f8401c4U, 0xbeb8e5713eaa5cfdU, 0xc225ed24c20ca13cU,
  0x3c06c8a340cb920dU, 0x3f1375544165f694U, 0xc1070f844007d5f4U, 0xbfbcd980bff8263fU,
  0xc10b1207c0df6ac5U, 0xc1256ac7c1737ce8U, 0x40154029c015c098U, 0xc0beacd8c12ad63bU,
  0xc15b4cffc1098a1fU, 0xc0592566c0117c7aU, 0xbf5de794c179abb3U, 0x418120c641516002U,
  0x420ef82641a23f2bU, 0x41cecbb0c1a31868U, 0x4135d75c41b73f61U, 0x41c8834241da2e2dU,
  0x4181b91ac1096e1cU, 0xc108f662c105c4a1U, 0xc120c0b9c133c2b8U, 0xc1199055c101b2d4U,
  0xc189e42c40a633dcU, 0xbfd24d51bfbc311cU, 0x3f224d5ec0a17577U, 0xc182d47641de6eaeU,
  0xc09feac740f0ad21U, 0x40a855ad41217b8cU, 0x4239ee37c1784f79U, 0x4194d315c04770f6U,
  0xc1b218d5411a8100U, 0xc1891e78c12b1d27U, 0x41d7b37bc088d897U, 0xbf7e264ec11a85d1U,
  0xc131a965c0e82280U, 0xc133e164c089c1d9U, 0xc17f9a4fc01b6c52U, 0x40c66b89bf5512a2U,
  0xc0c5f678c0817957U, 0xbf7a32a5413157ecU, 0x40e1282ac1147f65U, 0x4106861cbfdca554U,
  0x40aa6f433fb29f45U, 0xc0abbf273fd7d1b0U, 0xc03293324057fa30U, 0x40d7af8dc00095fdU,
  0x40712ada40388b26U, 0xc0eeddb3c046d3d6U, 0xbfdcc9e040774cd3U, 0x40cf76bcc1e462beU,
  0x3fa64173c031adafU, 0x3f19a7f140c90246U, 0x405a666d40b7c345U, 0xc0df458ec0b97786U,
  0xbf3081904111862bU, 0x408defa7c0dd2361U, 0x401b17a3c05aba49U, 0x408625a93f5855b6U,
  0x4067da03409c51a5U, 0xc05a7a4b3d755752U, 0x40920ca040428f10U, 0xc06919f1c27d5340U,
  0xc1ff6e6541b5d780U, 0xc05af939404189fbU, 0xc0e9208240f81e51U, 0x400849ae411ef5d5U,
