
/**
  ******************************************************************************
  * @file    network_data.c
  * @author  AST Embedded Analytics Research Platform
  * @date    Wed May 11 11:20:28 2022
  * @brief   AI Tool Automatic Code Generator for Embedded NN computing
  ******************************************************************************
  * @attention
  *
  * Copyright (c) 2021 STMicroelectronics.
  * All rights reserved.
  *
  * This software is licensed under terms that can be found in the LICENSE file
  * in the root directory of this software component.
  * If no LICENSE file comes with this software, it is provided AS-IS.
  ******************************************************************************
  */
#include "network_data.h"
#include "ai_platform_interface.h"

AI_API_DECLARE_BEGIN

AI_ALIGNED(32)
const ai_u64 s_network_network_weights_array_u64[ 41474 ] = {
  0xbcd440d2bdd11d0bU, 0xbb881de5bcc991c5U, 0x3cfcef1cbd15f44cU, 0xbdf3a71ebdd3a93dU,
  0xbdb26208bca2a941U, 0xbd8b7ea3bc95d57aU, 0xbcc935883da31fbfU, 0x3dc0ce643d9be9eeU,
  0xbd7140b73cb48c28U, 0xbe060655bd064465U, 0xbd2b0ca03d934b98U, 0xbd7c15083dc4c190U,
  0x3cf13c7bbd2103baU, 0xbd12ce88bd3e50e3U, 0xbdbfdc3b3d097125U, 0xbc63b413bdc2d192U,
  0xbd3a1efe3d1f5362U, 0xb7c416f4bd809519U, 0x3dafe4b83dfed55fU, 0x3ccb9dfebcf29cbfU,
  0xbd9ded713d4d0a0aU, 0xbcdf66d6bd5f96edU, 0xbe01df323dc535b6U, 0x3cc7e5323df4556bU,
  0x3d6494253d89ebe7U, 0xbda8c300ba6c1c73U, 0x3d94dfe53d1f41c6U, 0xbd010c6e3a90f130U,
  0x3c45ff46bdfab99bU, 0xbd2255903ddb72a6U, 0x3dacdbe33d5d34f4U, 0x3d0d527b3c939ba1U,
  0xbdaf2529bd581b2eU, 0xbdf8d8383d12f5c0U, 0x3cb7d0783d34d800U, 0xbb1877943c145190U,
  0xbd4fc5f9bdd943d4U, 0xbdb73230bdce8551U, 0x3a9445b73bf4ffc8U, 0x3d19f13dbde7822aU,
  0xbc70f5483ba77407U, 0xbdb569463d18c915U, 0x3dfc02fe3d99b0b6U, 0xbc17cb823da5fd55U,
  0xbcc4b7723d87e95cU, 0xbd740915bd86b66aU, 0xbdaf14183d0baa9aU, 0xbd868f3d3db2f859U,
  0xbddeff3c3ddbf3b5U, 0xbd999b033c01bef8U, 0xbdcac27e369d99c9U, 0xbd19015a3de4918dU,
  0xbc9f60f93dcdb3eaU, 0xbd4ec8d23d173602U, 0xb78ee21c3c560e82U, 0x3cd18712bdd4fd1bU,
  0xbdc056a8bd8b5158U, 0xbd935797bd325d2aU, 0xbdc33485bdd75c45U, 0xbd4fb066bda7e885U,
  0xbdc56b80bd025cdeU, 0xbd82da6cbdcc6ceeU, 0xbba2bde1bd9ff7a6U, 0x3e004120bb8ad6afU,
  0x3c9cbf45bd5cea23U, 0xbd9838363dcf57ffU, 0x3dd745343d865e82U, 0xbc8fd7de3ded376dU,
  0xbd68f52f3d6d8448U, 0xbc119014bd9c2716U, 0x3c71489abd59d64eU, 0x3a8ef88f3ce6a161U,
  0xbc9702c7bdce8fedU, 0x3cdf9ed9bdb31431U, 0xbe054fe83db99f75U, 0xbccf24f4bd21157fU,
  0xbbf098233da6e4e3U, 0x3dcb3dc13be53b98U, 0xbdbca89e3a9d0773U, 0x3d8e336dbc64afb3U,
  0xbddb3d90bd97b44fU, 0x3da571e8bbd18e7aU, 0xbd80c9463d90cf0fU, 0xbdd72cb8bc933475U,
  0x3ddb47f3bb8b8f0fU, 0x3dc4e79e3d45e2c7U, 0xbda3e877bd9a88ccU, 0x3dcdae05bcb43bcfU,
  0x3ddd23963dd41879U, 0x3d73a9273d8face4U, 0x3c77a365bd400847U, 0xbdb7ef703d9c05e9U,
  0x3d62258dbdec01eaU, 0x3d5e21eebd46488aU, 0x3d86bdf6bde0f57dU, 0x3b44f8813c22a393U,
  0xbc9690b23ddad046U, 0x3e04d42abd9e912eU, 0x3dcf5e9b3e01cf32U, 0xbd0489f93dc12d6dU,
  0xbb07439f3d098fcaU, 0x3d392a103d8dc4b4U, 0xbde69c723da8d72cU, 0xbd4ff2f83d589a6bU,
  0xbc84a214bda6ded6U, 0x3d8fd8d53dd97ef3U, 0x3b80d57f3c58201dU, 0x3c8642aabdd9e58cU,
  0xbdeecadf3d099846U, 0x3be58d46bdcef090U, 0xbdc047b93d0579f8U, 0x3d55a6a4bc51f230U,
  0xbc60d444bcccacc3U, 0xbd52eda3bd8b95e5U, 0xbd4df8993deabffaU, 0x3df1520dbdc539beU,
  0x3d7f33493c31d0fdU, 0xbc99dcbd3db28677U, 0x3def1e52bde071e9U, 0x3d1189d13dffffa8U,
  0x3d929d383cd341acU, 0xbd9f88d6bdb6b86bU, 0x3c5d22fd3d93df48U, 0x3dc466213d670b7bU,
  0xbdfb2b9c3d9f777dU, 0x3d8cc3f03d1e59a8U, 0x3dcd1483bd1a0a04U, 0x3dbc75bc3d582aa5U,
  0x3d706587bd12f568U, 0xbdf9976e3da552abU, 0xbda7a9e8bc8689f9U, 0x3b71c7d63d7c9b44U,
  0xbde39d74bd607678U, 0x3d8b69813d617120U, 0xbdc61c94bd4baacfU, 0x3dd7e8753de05874U,
  0xba9d43303dd63734U, 0xbd7230e9bb62f4baU, 0xbda949a73ddf58e4U, 0xbd9e56d4bdca6e01U,
  0xbda9ce77bdc3f409U, 0xbc0863ebbdfb7948U, 0xbdafb5c43da7b0a7U, 0x3dd3f3f4bcda3e3fU,
  0x3be79cec3d8a3c93U, 0x3d7256413e03938dU, 0x3df95f99bcb1ca46U, 0x3dd08732bd97b002U,
  0xbbca4fe1b94f75e3U, 0xbcb55363bc91f175U, 0x3dbcc787bd6f9f05U, 0x3c2cbb7a3e0c4ae5U,
  0x3c9c537abd415978U, 0xbd939ccdbd9d7a4fU, 0xbd96ef85bc2e51c7U, 0x3b761812bcaabbf1U,
  0x3da45ced3d91aaf2U, 0xbdc95d313d2c9a65U, 0x3dd19532bce56cd4U, 0x3d7c45e53da5f21bU,
  0x3daf76183d4f1561U, 0xbd60ca443d5f90ddU, 0xbcad69583dfb87c3U, 0xbdb1a5dbbcaf44d8U,
  0xbd9aa09c3d94f152U, 0x3d969f5a3cce1736U, 0xbd8161f93cce83cfU, 0xbb06fb4a3d50041bU,
  0xbd6d6f09bcbb463aU, 0xbdd736453ddc16e0U, 0x3d91334f3dd3cbbcU, 0x3da1ac7a3c2990d7U,
  0xbac5c76e3b88cbbbU, 0x3d890b13bda6e4b9U, 0x3debbd27bd3f2a09U, 0xbdcd3b86bc24f80aU,
  0x3d30d2e7bd758de9U, 0xbdde881b3dc9dbdcU, 0xbd7b87563cf79e3fU, 0xbd0dc89c3d245e85U,
  0xbc3198003da139f4U, 0x3dd472cf3d534244U, 0xbc44e53cbd22c5ccU, 0x3debf5febd98363eU,
  0x3ddb70993bb5fb05U, 0x3daab4bebd4dd37fU, 0x3d9ea1b8bd90d1e0U, 0x3d5e84b93cd161a8U,
  0xbd9f885a3dbc5affU, 0x3d741c49bcd65eebU, 0xbd5dda8b3d73bb0dU, 0xbe036bba3cc88aebU,
  0xbcd396a03dee501cU, 0x3ddec870bc9974e0U, 0xbda97124bd8e9d94U, 0xbd6c7728bbbfa200U,
  0xbc13b040bd387ee0U, 0xbc911fd03dfa6800U, 0xbd9b990cbd271228U, 0xbd6c1528bd3ac190U,
  0xbddfe1503d8c7b84U, 0x3d0cccc83dabf9fcU, 0xbdd9ccc8bdfea7b0U, 0xbdf19e003d691f28U,
  0x3d63c8e0bc79b7c0U, 0xbda35058bd5343f8U, 0x3d95184cbd9d55a8U, 0x3d98543c3dd2e338U,
  0x3bfc9c00bdc9fbb0U, 0x3db3b0bc3dbfd780U, 0xbc4303a0bbce9180U, 0xbccb20703c3c5fe0U,
  0x3dd0d69c3ddcbcf4U, 0xbdae4bb4bc899550U, 0xbd2bee383d6039e0U, 0x3df5ecf8bdb1a7f4U,
  0xbd1673803d84fb24U, 0x3d9413103dab25ccU, 0xbdcf2458bda7d5e8U, 0x3d805e90bdccad54U,
  0x3ba80440ba96e900U, 0x3c3b93e0bd56ef98U, 0x3d0bfc98bd26f3a8U, 0xbdd08bb83d9c0decU,
  0x3de8639cbc2711a0U, 0x3cd853703c675340U, 0x3ca456503d95a654U, 0xbd9063043d0fd380U,
  0x3d30af40bd8a4b28U, 0x3c112ea0bdf219f4U, 0x3d3651d83ded3488U, 0xbdb58ca43da7c2bcU,
  0x3d7afef03dfa630cU, 0xbca5e440bdca0124U, 0xbd1ed8c8bd82f52cU, 0xbdb655883dd950f8U,
  0x3c965220bcc340b0U, 0xbdb5ecf8bd373c50U, 0x3dae43883da65d78U, 0x3da6d7843d8c0ab0U,
  0x3d6c56c0bd5dedc0U, 0x3da10bd4bd5f1b48U, 0x39cde800bd44b370U, 0x3dbb1ba8bdb48f4cU,
  0xbdbe9df83c8de100U, 0x3c862530bd4b7690U, 0xbd25e9a03d7ef340U, 0xbc9886503d9823c4U,
  0xbdc1b070bc96c5d0U, 0x3d73aab8bdaad640U, 0x3dc1d1583dd64730U, 0xbdecca203d390508U,
  0x3c278c803dec4650U, 0x3c1797e0bde4adb0U, 0x3d3df648bdec9480U, 0x3d2f07d0bdb322d4U,
  0x3c217ee03d2b1980U, 0xbda2ce883df35d34U, 0x3d0db9883c29e2a0U, 0x3ca84220bdf8fea4U,
  0x3ce64470bd01bd40U, 0xbd8023c83d736300U, 0xbdf10e9cbd1e7928U, 0xbccb6750bdd77104U,
  0x3dc14dccbcaa3680U, 0xbdde9a183dc3a6ecU, 0xba95db003dec60a0U, 0xbc23c5603d3ec640U,
  0xbc0554003c6e53e0U, 0x3d9e7bb0bc793860U, 0xbb565880bdb85e0cU, 0xbd964c143da5fbd8U,
  0x3dcde9d03c03d8c0U, 0xbc82bde03dda83dcU, 0x3d994584bdb7ace0U, 0xbdb234a43c50b3c0U,
  0xbde4b6743d8f5c1cU, 0xbdd54cd0bd06d0f0U, 0x3ca0c350bd0d08f0U, 0x3db0a414bdde1ed0U,
  0x3d487b003c242900U, 0x3cea1e003d8a9ea4U, 0x3df5c1e4bdf694acU, 0xbde65bc439c9b800U,
  0xbdbf11943d7e0f30U, 0xbd5c76803d533640U, 0xbdfde7a03dbd3d3cU, 0xbd8e29f83df1ad54U,
  0xbcbb7600bdd91368U, 0xbd46e670bb038f80U, 0xbca12580bdb52e40U, 0xbdc1cdf83d75e398U,
  0x3dee8facbd149400U, 0x3d5675f8bbe73700U, 0xbd9933843d6430c0U, 0x3dca8fcc3d97a1dcU,
  0xbbb33dc0bd109478U, 0xbabe4d003cb01100U, 0x3d6eff403d46e7a0U, 0x3d1601383d9a9844U,
  0xbda6bde8bca5af50U, 0xbd41d020bdbc41a8U, 0x3bcdc780bdc7cf14U, 0xbd97b3bc3c97b1f0U,
  0xbc12fee03d52cc60U, 0x3d3f18d0bdd61900U, 0x3d83fbd0bdce6f8cU, 0xbd6c3868bdfbbbf0U,
  0xbc2322803da9fd20U, 0xbd37ab98bdf3cdc4U, 0xbdfab86cbcc35460U, 0x3d01d0103da2dee0U,
  0xbd69d6583ddbe21cU, 0x3d6487d8bdf6c678U, 0xbd1bd0183d909a3cU, 0x3ca120603c892380U,
  0xbdc652b0bde51fdcU, 0xbddddb803d635278U, 0x3dfea0843d2fff50U, 0x3d5298203df70fb0U,
  0xbdaa1d77bd8680d9U, 0x3d835868bd72226aU, 0xbd9c853b3d172954U, 0x3d19fbd3bb932c2eU,
  0xbd18a7173da1222eU, 0xbd4887b83c9078ccU, 0x3d891d26bc626ab5U, 0x3e066567bd00781aU,
  0x3da64906bdb941cdU, 0xbdca32b1bb6b6d5fU, 0xba886a1a3c484fc4U, 0x3cccb3e3bd833dcaU,
  0x3d2eb434bcaddcc5U, 0xbc0bda29bd18c9eaU, 0xbd4b00e93deaee87U, 0xbddafd4bbd0c992bU,
  0x3c94ed6cbcee031fU, 0x3da040e9bd9f1183U, 0x3dba1a593dcddd50U, 0xbdeb3207bdca2dfeU,
  0xbc923595bd561cf1U, 0xbc719ab33cd33193U, 0xbdd2f9bb3c79d45bU, 0x3dddb523bddee0a0U,
  0xbb76f436bd7dbcccU, 0xbd7580b8bc6a55e9U, 0xbd959d08bd3cd2feU, 0x3d5ea6f0bdcfc407U,
  0x3d7538cf3d84dd1eU, 0xbc681eb8bdd624deU, 0x3dc273233d654523U, 0xbdfdc640bbe73634U,
  0xbd9a9959bd31df73U, 0xbdcd55cc3ce4d19dU, 0xbd6f1de7bcb863a7U, 0xbdd36a8bbd61c2abU,
  0xbda343ce3d7d97fcU, 0xbc9831bf3dc7ce25U, 0x3d522769bd0736d4U, 0x3deef5923c69d21dU,
  0xbd7717d5be0534cdU, 0x3dbd7d103cb8fd23U, 0x3ddb02933d6e16f5U, 0x3d9367ba3d566b86U,
  0x3dcecba13cbc0310U, 0xbdf8bde3bc0f2610U, 0xbd6378463d8ea1f8U, 0xbb35e101bdaf4beaU,
  0xbd9630b0bdd1f915U, 0xbddb7034bd92a881U, 0x3d00a7b73d2dea0eU, 0xbc7a9aaebdbe06afU,
  0xbdd90b4ebda1a260U, 0x3cb63feb3cc58118U, 0xbdb37629bdebe42dU, 0xbd9646d3bdfaea46U,
  0x3e01310abdd638d4U, 0xbd847da0bdcb60d1U, 0x3d93f210bd4bbfd5U, 0xbd91eec3bd2a945aU,
  0x3d58cdc1bdbe6a15U, 0xbd5bead4bda45ee9U, 0x3bb22efcbd3e5b9fU, 0xbd7294de3d2c661fU,
  0x3cc470e7bd9996b9U, 0xbdaf3bedbdd9b085U, 0xbd80dfcb3d37e708U, 0xbd998a3cbbd239b6U,
  0xbdaed91abdcdf5cbU, 0x3c9a6ecd3de0c25aU, 0xbdd6eb183b9ecd8bU, 0xbdb800cabd05068eU,
  0xbe012ad5bd4f2250U, 0xbda7471ebdd56ab7U, 0xbc6367afbd64f05cU, 0xbd63e1dbbaa7eb23U,
  0x3c5fb0783dd8d07cU, 0x3d63e690bd3bcd17U, 0xbcc78a17bde37390U, 0x3deaa33d3d2f6081U,
  0x3a41ee363cb8cc62U, 0xbdd7ac8f3ca07e7eU, 0xbdb2f400bd834e1fU, 0x3ce012873dd421deU,
  0x3d67c43a3c9efa65U, 0x3db03d673ccb9d51U, 0xbdebc196bdcfaa0bU, 0xbcc33ffebdf94316U,
  0xbdb151c53cd2bbadU, 0xbc4000c23de0233bU, 0xbdaebc23bdf268caU, 0xbd85d9de3a200830U,
  0x3d4525d23dc9935cU, 0x3dae433c3d8cd11dU, 0x3d1fb9583d9240cfU, 0x3dd12a4abdd3ea89U,
  0xbdd06b2b3dcc494eU, 0x3cd59a1a3b3db8f9U, 0xbdc833da3df4a055U, 0xbdd585c5bdb60224U,
  0xbc5a875cbde96d01U, 0x3df70eab3d7a7f1cU, 0xbd677ce5be0730d3U, 0x3db944353c928a55U,
  0x3d584e4a3ddf57aaU, 0x3c894fef3d0093deU, 0xbcb9406c3de6df41U, 0xbd9721b13da3a41fU,
  0xbc91c40abdf0ef6dU, 0x3dbbb2a4bc1c9987U, 0xbc8b6ee4bb17be1eU, 0xbc070e5bbd86fcabU,
  0x3da6f1333da580baU, 0x3dbce24dbd9cebe3U, 0xbd091203bdc07dc1U, 0xbdc3e8353dd830dfU,
  0x3d1cc74fbe0da109U, 0x3d59d1e93b89972dU, 0x3dc40c8b3c2114fbU, 0xbdaf71c3bc1dd503U,
  0x3d44979fbdee3fbbU, 0x3de0d195bd3dee05U, 0x3c1074c6bde513f0U, 0x3b6c89953da97bf0U,
  0x3cdf48953def48acU, 0xbdda9c75bbb8cb39U, 0x3ccbaca1bce79387U, 0xbdbd53d3bcfd5238U,
  0x3df866d4bd5af689U, 0xbd0c5685be067314U, 0x3c9f7415be020fdaU, 0xbd5c0ef0bdf242f2U,
  0xbb9ac02fbdea6a1aU, 0xbddc7e5c3dadc1b7U, 0xbdda2ed7bdbb7cbfU, 0x3d0b7badbdf14935U,
  0xbcf40468bd1dfe3bU, 0xbdf4e3dfbdf128daU, 0xbd6ccad33d2b9fe3U, 0xbd5436053d034ef2U,
  0xbcb7d472bdc5b87eU, 0x3d210c19bdb8b6dbU, 0xbd694905bd51f81cU, 0xbd439f44be0039d9U,
  0xbb967edebbcbac7cU, 0x3db7335abd87307eU, 0xbdc8b3cb3d595b96U, 0x3b9272c9bc25bb6bU,
  0xbdbf3d513d6584e2U, 0xbd9398f13c9b4810U, 0xbcaca654bd7547f1U, 0xbd3e13d33c6b3cc3U,
  0xbc958a583d0a99adU, 0x3cd72ab9bdf47616U, 0xbd059678bd052da0U, 0x3e031e2b3c6a8355U,
  0x3d1517693d514b47U, 0xbdf96e1dbd214e82U, 0xbda284f1bd219e46U, 0xbda20be03d25ed4dU,
  0x3d287a0fbd79a285U, 0xbda49f933dcfaf23U, 0xbde949f2bdfb3d8cU, 0x3d07f11b3c3dc7bcU,
  0xbdb6a3213daea528U, 0xbdd5cf80bdf05301U, 0x3ddb41ff3deade4cU, 0x3dce8ba03de8389dU,
  0x3dcd06473dc3e1deU, 0x3da057c4bcaacf42U, 0xbd4821f53d870ac2U, 0xbda24e0ebdd0decfU,
  0x3d84b342bdbcff23U, 0x3c8aec493be24a50U, 0xbda3b2c8bd02e887U, 0x3dcd48b1bd7200efU,
  0xbd72267c3d872450U, 0x3c6a6318bdb269ccU, 0x3db216ffbda11fbaU, 0xbd18ddb6bdbb78caU,
  0x3cd3fbebbd915b67U, 0xbd42ab0dbc78fe6cU, 0x3d9e9a853d09cbd1U, 0xbd9057163db1deadU,
  0xbda8e6ea3d5a4326U, 0x3d45b5223d90f0f7U, 0xbdd639ad3acc7c46U, 0x3c9bcde2bd4561c9U,
  0x3dba37f2bd8020b1U, 0x3d9cd22bbd67ec79U, 0xbce9842ebe0f4651U, 0xbce778c23d22a4f5U,
  0xbdf90a09bd74775dU, 0xbdd860fabc0cc46eU, 0xbc26f3933e04fdd9U, 0x3d88c8763d73de6bU,
  0x3dba83d83d8c2e00U, 0x3c6f9589bdd9da5cU, 0x3d6bb59b3d35d4d9U, 0x3dcafb30bdc13372U,
  0x3d9ca1a6bdab305eU, 0xbb5638ea3dd03b1aU, 0xbcc70db1bdb28487U, 0x3dc80166bcd20c3eU,
  0xbc8c69f4bddd725dU, 0x3d41c3cabdb2e902U, 0x3d44c74ebdafb912U, 0xbd81389cbd04f7aeU,
  0x3d5fd3563c5c5638U, 0x3ce926bf3dd8aa6fU, 0xbd7881503c85045aU, 0xbc86ffec3dbc6550U,
  0x3dd41de83cd0401dU, 0x3b68bede3ba951a9U, 0xbe0dd3243d8f3182U, 0x3d947abfbd64bfceU,
  0x3cddad78bdbe74bbU, 0xbd6b01833dc5932aU, 0x3dda5ccebc8a368aU, 0x3d8770b6bb379f51U,
  0xbe18b31dbdd39ca7U, 0xbd8dcecbbe0282afU, 0xbdffdd66bc2a3ec6U, 0xbd5297acbddbb0afU,
  0x3d0699953dc5df0dU, 0x3c2a18e0bc4ef4a1U, 0xbd5abe90bdfc0767U, 0x3d3ebb26bd9f1cf1U,
  0xbd4d3b663c0ad4cbU, 0xbba8ae82bca16d7dU, 0x3b0572ef3dc954deU, 0x3dc530b03c007c72U,
  0xbd656ef53c0e0602U, 0xbd40170c3d154cfdU, 0x3d5687693dc524adU, 0x3d3103f53cb3c5f6U,
  0x3dab0170bd911ea9U, 0x3d7055493defd477U, 0xbd127bdfbd6d734fU, 0x3dbc7f683db8dbd5U,
  0x3b6995e63def10f5U, 0xbc8e9a50bda7825fU, 0xbdbd2fa13d9f601eU, 0xbdf24921bdfc6fa2U,
  0x3d5245b3bd6be6faU, 0xbdb8b9c63dd18da9U, 0xbd801300bdcdacebU, 0xbac246f23d45ead6U,
  0x3d241380bcad053cU, 0x3deebbeabc40cbffU, 0x3da96ea43dcad3eaU, 0xbd5705643da8c2b9U,
  0xbdac19df3dadac6bU, 0x3dd2a690bda63114U, 0xbdaf56eb3d8e62a7U, 0x3dd3a6c23c34de4dU,
  0x3d61ea603c4a7820U, 0xbddaad34bbfa3a40U, 0xbdf270bc3d9c5f48U, 0xbdc88b443d1cf4e8U,
  0xbdd6f3303df3f840U, 0x3d9a65443d803e54U, 0xbd5f62e83d64a088U, 0x3da49ca4bd8c42e0U,
  0xbc853b103c22b880U, 0xbdd5d85c3ce42500U, 0xbd2e3f683cbb2800U, 0xbd512c483d8ce790U,
  0xbdac7d583d910840U, 0x3bd1c740bd6e39f0U, 0xbd8f8dc4bd2443a8U, 0x3c22b0a03d67abe8U,
  0xbd7f6d90bd7ff078U, 0xbd9821203d092e68U, 0xbd68c8c0bcb02160U, 0x3d85cf583da36750U,
  0xbdf4821cbd2d6d80U, 0x3d1771f03d4331f0U, 0xbd37a9c8bdcd62f8U, 0xbda9bb583dc4f764U,
  0xbd2707a8bcf367b0U, 0xbd2954a8bd3f3288U, 0xbd415740bbfa0980U, 0x3d852f70bd163250U,
  0xbdfed0943d3fdad0U, 0xbddfbf243dcbdab8U, 0x3cb73c10bd17b338U, 0xbd25e828bac50400U,
  0xbdb6cff43d2978b8U, 0xbd319228bbe1c600U, 0xbc9761a0bd353d68U, 0x3d0d5aa0bdf22a0cU,
  0xbdafc268bdacc4dcU, 0xbd3c9b38bdad5ac4U, 0xbd9ce78cbddb2e28U, 0x3daabdc0bce4fb40U,
  0xbdfebab03d235f18U, 0xbd095390bd3996e0U, 0x3d4b08d0baa57500U, 0x3c3fcd003dd62e7cU,
  0xbd1bcad03de8f96cU, 0x3d77d5203deef0b0U, 0xbde6d370bddf9654U, 0x3cb6c290bbf71d80U,
  0xbd8e4cd83b681a00U, 0xbc4a4400bd8de600U, 0xbd250190bda0a7c8U, 0xbdc698e0bdbfb398U,
  0x3c5186e03c5bf5c0U, 0xbdb4bf383cf5e700U, 0x3d77ed703d4fc058U, 0x3b0184003deb6c98U,
  0xbd663c38bd394548U, 0x3afd2f003de43414U, 0xbd57f7783ccf4070U, 0x3c8ab0903da9b754U,
  0xbd9fed48bde5459cU, 0x3bd441803d5edd20U, 0x3cbbf790bd054868U, 0xbde2a6583d290080U,
  0x3db6cb433c7e442cU, 0xbd11a5c5bdb5484cU, 0xbd9e04513de75ac0U, 0x3a19673a3d95f7bbU,
  0xbd4345bc3ded9b25U, 0x3dd952bfbde117ecU, 0xbdd76c6bbda7769cU, 0x3cfd00a43b92f391U,
  0xbdb58c3fbd5fce50U, 0xbba7c6c4bdb30b0fU, 0xbe03882e3dd3d99aU, 0xbdd7e3f7bd3e2d06U,
  0x3d85f3413c2afc7eU, 0x3dc5581a3b75cf79U, 0x3d8eb9efbc9c44bfU, 0x3ca71b06bde0d62eU,
  0x3df44012bd241027U, 0x3df190f93a925991U, 0xbd360b4b3c84e330U, 0x3d58d6fcbdcfd8aeU,
  0xbd4bdb38bcab99deU, 0xbbd58da13de88457U, 0xbcfed409bde437adU, 0x3dec50ee3bbfb848U,
  0x3e03cf5d3dcb96cdU, 0xbe0a6fe73d6ebbbfU, 0xbb2bef54bd6d4550U, 0xb9dcc54f3da97735U,
  0x3dd108ca3db6813eU, 0x3dfbed9bbdbd66e5U, 0xbd9f894b3db10c3fU, 0x3ca7bb54bddd96c3U,
  0x3d615925bd23072fU, 0x3c66d6ec3c97967dU, 0x3c2207dc3d3ea57eU, 0xbd963d303d8db5a7U,
  0x3dbe353f3d9722a7U, 0xbd3277e13d99a016U, 0x3de1bda3bb997dadU, 0xbd7199b8bc999e36U,
  0x3d9d3fd43d8b5641U, 0xbd37eb32bc73c293U, 0xbd9099c3bc6e65dbU, 0xbd1cb4d33db9c15eU,
  0x3c8bff923dd48e99U, 0xbd9f9f65bd0bfa18U, 0xbdd48fec3d94b4a5U, 0xbcbc4344bdb3eb5aU,
  0xbdb51a37be039f77U, 0x3dd71779be0fd95eU, 0x3c83ca2dbc2c35bdU, 0xbce9cbc43c882469U,
  0xbd0142a83ddd16fcU, 0xbdbdb0efbddcec84U, 0x3d40669cbdbf5a26U, 0xbd8d54ffbccf112cU,
  0x3d9a1892bd033865U, 0xbd62e6023ddcbd72U, 0x3da1bc7bbcca17f8U, 0xbc84d9683d8ef4dbU,
  0x3dbf51313d1971f6U, 0x3da31d6c3dedb5c3U, 0xbb3b71503cc5ae50U, 0xbcc6c4903de9ce64U,
  0x3decdcdc3dc7452cU, 0xbd07fdb83bca5f80U, 0x3deedd743de32ff0U, 0xbc0cdec03db37ec8U,
  0x3ddcc6fc3d92af30U, 0xbd6a02203d8609a8U, 0xbd3256e8bd4fff70U, 0xbdb96b04bdf86098U,
  0xbdd3160c3d1a5ff0U, 0x3d1abad03d90eb58U, 0xbd637da83dca08b8U, 0x3dbb82e43d0f95d8U,
  0x3cdea010bd9736c0U, 0x3cd162f0bd134270U, 0x3d309050bdb7ce00U, 0x3dcc991c3c1d9820U,
  0x3dc49df43d288e78U, 0xbdd3f3943b3eaf00U, 0xbdca85583d26ab40U, 0xbc9d7920bdcc1cd0U,
  0xbdd0d158bdb6a004U, 0x3d8df2b03dc75d68U, 0xbdaed9f8bd28eb08U, 0xbd8f7564bd9c7790U,
  0x3dd3e9f8bcc0b550U, 0x3cc9e3e0bd3e0fa8U, 0xbdde8f74bd8a992cU, 0x3d051a58bd88eb80U,
  0xbd94da50bd818bc0U, 0x3ca0bb603d28c298U, 0xbda649243df7c170U, 0x3dc0f11cbc2aaac0U,
  0xbd5af5b83bae06c0U, 0xbd0fadb0bd54b490U, 0x3d9ad168bd169750U, 0x3cb00ba0bd5536c8U,
  0x3c995790bdead050U, 0xbba14c80bc7bd9c0U, 0x3da6a118bdfa8588U, 0xbdee75703de15804U,
  0xbd3d8a58bdb445e0U, 0x3d99c8c0bcfceea0U, 0x3d96c6683d44f7e8U, 0xbcc16ef03d100f18U,
  0x3dbebd54bd8d288cU, 0xbdb2e7f8bd8edd04U, 0xbd664428bcc075b0U, 0xbcc500e0bd835f30U,
  0xbd85ec70bd9058b4U, 0x3dae6510bdc61344U, 0x3dff3a0c3da105c0U, 0x3dd191dcbd7ef1d0U,
  0x3ddcccd43d08fa38U, 0x3df1aeb83dea0aecU, 0x3c897770bcc08dd0U, 0x3dd6a2a4bccf24a0U,
  0x3de35238bdf7f78cU, 0xbcaf8d703dc2067cU, 0x3d91fe303de05a38U, 0x3d6ecfb03d975dd8U,
  0xbc91c650bc057d00U, 0xbdaf7a483dc9e200U, 0x3dc64a64bc96b770U, 0xbde78000bad45300U,
  0xbdf32ddcbd98a003U, 0xba6d664e3d0980ecU, 0xbd9a2d1a3d808cd5U, 0xbb3cf8053d83512dU,
  0x3d54f96cbd8d7e58U, 0x3dd103d8be0e2415U, 0x3df71e403dedc870U, 0x3b7e4fcdbcc4b4b0U,
  0xbd93fe753de6f20bU, 0xbd28e4cfbdf33beaU, 0x3d0da9f3bd279ef7U, 0xbd6973babcbc265dU,
  0xbcea1bf9bca624b4U, 0xbafdcd39bdffd45aU, 0xbdb808acbd9a62a6U, 0xbc734dab3d396c6eU,
  0x3d44a95b3dc80a36U, 0x3da3b97bbc31d414U, 0xbd95abd93d957fb3U, 0x3df1ff023cff35b7U,
  0xbd2790a73da48ae9U, 0x3d8a4062bdb97616U, 0xbdfdb5e2bcdc70abU, 0xbd9034d23dd5ae90U,
  0xbd55498b3df0a2fcU, 0xbdd50a86bdf3f389U, 0xbd13c022bd8da5f3U, 0xbdca2ddeba81eefeU,
  0x3ddb5d8fbbc42513U, 0xbddc4c61bd10a68aU, 0xbd01b89cbc8f130cU, 0x3d539823bd95af00U,
  0x3e04ed753ca2109aU, 0xbd1936d63cc92475U, 0xbb0d36babd9688d3U, 0x3cf24d0c3deabb98U,
  0x3c86bc0d3d03b707U, 0xbcc2b0c7bd27f890U, 0x3da9858f3cce58bcU, 0x3ddd2ac5bced8d23U,
  0xbd7d11c83db48ed1U, 0xbddda5aebd491ac1U, 0xbbdf5150bb0376e2U, 0x3d249d773dbd8384U,
  0xbce520a7bd92ebf6U, 0xbdc31533bd925a24U, 0xbd278d9ebd9d3081U, 0x3d56ba843cfad437U,
  0x3dbf2fc73db956b5U, 0x3aa44459bdde789cU, 0xbd983465bdb977ebU, 0xbbfabf3dbd8b1eefU,
  0x3d06b393bdd713d7U, 0xbddc09703bf03c97U, 0xbd038d283db91f81U, 0xbd39721cbdc29e3eU,
  0x3ddb5fcbbda55bcaU, 0x3d62d6c9bd8fd2a1U, 0x3d9dbd8f3d25198aU, 0x3dc0b7363dd4de53U,
  0x3b8da29e3db0f590U, 0x3d2df7b5bd0ffbd3U, 0x3dde213fbdc85075U, 0x3dfd4715bde47475U,
  0xbd8cdb5cbcf246d6U, 0xbdaed1a03c87c789U, 0x3c792df6bda7950cU, 0xbd58309bbad61a78U,
  0x3cb3794abaf97a87U, 0x3dde37453df57837U, 0xbdb5ae2bbd2c0730U, 0x3d4555973d9b92beU,
  0x3e0440953dd1c45bU, 0xbd0499ef3db1353fU, 0xbd8247debb8a7b99U, 0xbdff4b313da4ac5dU,
  0x3de61dfebe0425fcU, 0xbddb761c3d453685U, 0xbd46d3ff3de0874fU, 0xbe08e024bdd2006aU,
  0x3d12d7053da091b0U, 0xbcd7c910bd2a45b0U, 0xbcbe6c773b26dae1U, 0xbd886dbbbcca6b95U,
  0x3dcfe6e73d0e8a6bU, 0x3d7231b1be13014cU, 0xbdd5e18d3d77f6fcU, 0x3c92bae53d0f9c6fU,
  0xbd9690663d4c6bb8U, 0x3d01226dbdcbc7bdU, 0xbbacd404bd468680U, 0x3ddcd1023ccc4d83U,
  0x3dea6e793e124e1eU, 0x3d61a7e63d169055U, 0x3d6747443c7e1dd6U, 0x3dc4d5133dac7cf7U,
  0x3d2573993dda7c41U, 0xbdc782663c3fb72cU, 0x3dccb315bd6c70efU, 0xbd9549f0bd2b882dU,
  0x3dea873c3d8f7041U, 0x3d6c6e0cbcf1f3b4U, 0xbcee59aebdd5bceeU, 0x3dd8c43cbde0c403U,
  0x3e01b22c3d1dc0bdU, 0x3b22f045bd845696U, 0xbcf920b7bcce9e65U, 0x3dd1407fbcb4182aU,
  0xbc132ff33b0d19edU, 0x3c91e2953d47c391U, 0x3d0cc884bd64648fU, 0x3dcf3ab5bd92b734U,
  0x3d62d6813e073449U, 0xbdd2a3b43dc4c3ceU, 0xbd3756dd3d97e35fU, 0xbcfc6ad2bd8e0bddU,
  0x3d0fd4603be3ecf0U, 0xbd8411693d92daf0U, 0x3dc73490be01fe41U, 0x3dfedafbbdb38dcfU,
  0xbdc7b5f4bd91967aU, 0xbda45f723ae25cbeU, 0xbd2dc34cbdcf6ef6U, 0xbccd944fbd91aeacU,
  0x3d461f74bc9ac33dU, 0xbd0b990cbe080e6bU, 0xbd97b81e3c9d3f9eU, 0xbd46a41ebdb02b2dU,
  0xbcf5c6ab3cd45698U, 0x3dbe413abde02116U, 0x3d557232bcdac19bU, 0xbe011302bdbb9b41U,
  0xbc0ac6cf3dcf973eU, 0xbd2551453d135437U, 0x3dd461853d9dad81U, 0x3de8e26a3c3408b3U,
  0x3d904cd6bcf6836aU, 0xba5547adbd3ce55eU, 0xbc8442b0bcbf39b7U, 0xbd8d8f41bce11b42U,
  0x3d746d613db431faU, 0x3bae4602bdf1d751U, 0xbd259cd6bd5c929cU, 0xbe0eaca53dbdf445U,
  0x3dc038c6bbb780bbU, 0x3cada4bbbdcf7525U, 0x3bfd89ebbd6c25bfU, 0xbd321b82bdd840f9U,
  0x3cdba7c03d786a8aU, 0x3c9debcb3d4dc965U, 0xbd03e5613dc9b00eU, 0x3d30eef1bd41cc1bU,
  0xbd9819a5b9aeb1bdU, 0x3db438c5bd97540eU, 0x3ba6343fbc6c1fccU, 0xbd9bf03d3daa8347U,
  0x3d1fc611bc7a3ef2U, 0xbd31e4b33de21d91U, 0x3d76a3823dd80e19U, 0xbdebcc56bcabbd15U,
  0x3cff42143d8bb147U, 0x3c8d1bae3cb4ff45U, 0xbd84de0b3cec0491U, 0x3ce7ebcebd1e8441U,
  0xbd426b32bde04b9dU, 0x3d5b89d7bdc6e206U, 0xbd335ed43d1b8253U, 0xbd3c03493ca323bcU,
  0xbda39bd83d7dd648U, 0x3cf266bb3dbab1f7U, 0xbc8cc6d5bdbb7394U, 0x3dbed009bdcebb52U,
  0xbd86c5403df7c8deU, 0xbce2e5b2bd127432U, 0x3dafba913d17cc19U, 0x3d420ddb3dba4a25U,
  0xbdec09c3bd538608U, 0x3d8a66cb3da71c43U, 0x3d8d0e8e3cbe63f7U, 0xbd6f8d613dba0fbaU,
  0xbda26ee2bdc5eb44U, 0xbdd0d3e03cbd296cU, 0xbd0ca5bbbd9ce651U, 0xbd0572113c881638U,
  0xbc8c8ebe3dacbeb7U, 0xbd024cde3df08df8U, 0x3da73fd9bd4536e8U, 0xbdf47023bda4820bU,
  0x3d4feb24bda4c8e1U, 0x3d8912e4bdac0006U, 0xbc0e5b293e0bf5ddU, 0xbd20ec24bb99c78cU,
  0xbd4ee5f03ddf59d0U, 0xbdbcda50bdfa6098U, 0xbdd8daf03deb6c58U, 0x3d585e00bdbafb8cU,
  0xbdf26318bc5b71a0U, 0xbda34d70bdd1af34U, 0x3dddee44bd854f2cU, 0xbd858a0c3c9b4860U,
  0xbd6998083dfc53ccU, 0xbdc7cb003d1f6b90U, 0x3dd91280bceebba0U, 0x3de3bf68bdad8ebcU,
  0xbd52e4603da5e92cU, 0x3d945e703cdcd990U, 0xbd4b2268bd3f20b8U, 0xbdf782883cbcc310U,
  0x3d89bdb8bd0e0ac0U, 0x3d9782743b9c68c0U, 0xbd7427b83d5ebe08U, 0xbdabdf2c3db67778U,
  0xbd01cc80bcd1cf50U, 0x3dbf9a203d0afb60U, 0xbd4dca78bc280660U, 0x3de9aff4bd6496c8U,
  0xbd230fa8bdc049fcU, 0xbd1a65783df32798U, 0x3d12e630bde72b50U, 0x3db5446cbd95f8b8U,
  0x3dd2076cbc6846c0U, 0xbd7435a83cf3b2b0U, 0xbdbc5694bcbe89a0U, 0x3d9df7bcbcec0510U,
  0xbdb54ad0bd2fb5c0U, 0xbd9cf5b0bdf94f40U, 0xbd28d348bdcff734U, 0x3dca79a43d676f40U,
  0x3cd23e40bd917a88U, 0x3c7daaa03dcaacf8U, 0xbd2f80b8bd4feeb0U, 0xbcaf65a03c13ff00U,
  0xbd80cd483ccad460U, 0x3d5a2370bdc1d850U, 0x3dd6b0183c11b0a0U, 0xbddcaef03caf31a0U,
  0xbdb185803defd820U, 0xbb26c9003d3c9470U, 0xbc614c003bd7b140U, 0xbdf0f24cbc9e4aa0U,
  0xbdce8f783c311b80U, 0x3d83b49cbda2815cU, 0x3dae0e383da0d52cU, 0xbc931c703dab7998U,
  0xbcf9ee50bd317928U, 0x3d141ec8ba485000U, 0x3d25bd60bcdff340U, 0x3d8e8bd43df3826cU,
  0xbddbb0d83d8231d0U, 0xbdb35fb4bc7fb240U, 0xbcba5ab0bd4226c8U, 0xbdbf32243da915c0U,
  0x3d45f3183d4ec470U, 0x3d439fd0bd99c1c8U, 0xbd169e183d6e8db0U, 0x3d02bd883ddcbf4cU,
  0x3c97bc74bd81387cU, 0xbdba674fbdd9f877U, 0x3cd4f9f13bee5742U, 0x3d9b2498bdb25f97U,
  0x3d24633fbd72a3daU, 0xbdb79bdcbd8c0d74U, 0x3d532b5e3da3b836U, 0x3d2c574cbda8368cU,
  0xbd94f6303c949651U, 0xbd48e0e9be03640bU, 0x3dedba0bbde0c25fU, 0xbd8f39f93d8d2e3dU,
  0xbd850ef53d89df39U, 0x3d9e54743e0772dbU, 0xbcd3bb0abbf23d39U, 0x3e0308e9bd258797U,
  0xbdd5072bbcfe5cccU, 0xbdf0c485bd6ea37cU, 0x3dfc9d223c3e5d4cU, 0x3e0978463dbf3c46U,
  0x3d82b652bd5e2fd5U, 0x3d8c039ebdd20434U, 0xbdf97364bdb73a92U, 0x3a51bc5c3dae4deaU,
  0x3db6b1f23d073781U, 0x3d1f6d303dc27752U, 0xbd948ca33df9de9bU, 0xbd88a158bd854eaeU,
  0x3db00c8bbd686233U, 0x3af82c6bbdb4c2faU, 0xbb4273a83ddab1a9U, 0x3defb946bccbef4aU,
  0x3ddba302bd806680U, 0x3cd681cd3dba9d8fU, 0xbd017898bdb0d501U, 0xbd62ef5d3c536ab8U,
  0xbd1ccc4bbd73f0d7U, 0x3dd09a773bfc0ba5U, 0xbdd774a3bc3421ffU, 0xbddbb256bdaf0c47U,
  0x3d829dcf3ddcd161U, 0x3c9d92ce3dc42765U, 0xbd51c820bd30e24dU, 0xbdc519363d9e71baU,
  0xbdc2ac5ebd8b2510U, 0xb823d0b8bd291c41U, 0xbb4ad908be0994bdU, 0xbe0038773d571414U,
  0x3d4758133e06c334U, 0xbd0809373d574492U, 0x3c9e4b4cbc79669dU, 0x3c74cf06bc9f02dcU,
  0x3dac6feb3c4b6958U, 0x3cd10da63c068f44U, 0xbd8f01483ca36dcaU, 0xbe095e663d696589U,
  0xbcaf0566bdbc2771U, 0x3d9482c43db73663U, 0xbd0897133d447bf5U, 0x3de9dc72babe5391U,
  0xbdbe77eabd37883fU, 0x3cf77e63bd99b472U, 0xbda333edbc5423dfU, 0xbadd88f9bc32d95bU,
  0xbd05c7803d58bb60U, 0x3d89d240bc11b8a0U, 0x3cc6cb50bdcfffecU, 0x3c25ca403d5286e8U,
  0x3deeb43c3da30c38U, 0x3d2448803d9cd090U, 0xbd8f0f203de5c510U, 0xbdb85e18bdbc9898U,
  0xbdab0680bb9c2880U, 0xbc5edf80bdc81edcU, 0xbdbda4743db5beecU, 0x3de0c25c3d8eb7b8U,
  0xbcdad3803c4c3560U, 0xbd3065183d38e0d0U, 0x3bbecf003dd27260U, 0xbd85a1143dbc5efcU,
  0xbdf6c104bda2ee54U, 0xbd151940bd2b0a08U, 0x3d4953e0bdc3dfecU, 0xbd286e783d235a68U,
  0x3dfac34c3de5b69cU, 0xbcadb290bd0db7e8U, 0xbdd5ef28bc821fc0U, 0x3db626b43d25d8f8U,
  0xbd13a7283c94beb0U, 0xbdad463c3d0e3778U, 0xbda863903cbbeb10U, 0xbc8d41b03df6fa98U,
  0x3d10bb88ba1e1a00U, 0x3d8a3c70bdc1ffb4U, 0x3c5359203d9d7454U, 0xbdbecadcbd2202f0U,
  0xbd8f6d20bd3169a0U, 0xbda60e783d6b3688U, 0xbde44ef8bdd586c0U, 0xbddcc80cbcd250b0U,
  0xbda3a244bdde0594U, 0x3d0a0a703d82d89cU, 0x3d22dae8bd110e40U, 0x3dfe28983dcb9304U,
  0xbca081a0bc53ec40U, 0x3de3f0c0bd823db4U, 0x3d793d80bde8dedcU, 0x3d0446103d138e68U,
  0xbd49a3b83dd59a14U, 0xbdfa91e43accd800U, 0x3c3186003d7ec0d8U, 0x3ce46c50bde55614U,
  0xbd3555383baee0c0U, 0xbda2e65cbcbc4e80U, 0x3ceacf80bca83270U, 0x3d3407e8bcae2cf0U,
  0xbd80b074bcb140f0U, 0xbc5caca03df9b280U, 0x3dd0589c3afd1c00U, 0x3d3bc5c8bd9b59e8U,
  0x3ba0a480bb9ad800U, 0xbdfc53083d42dfe0U, 0xbb0ecd00bcf7b080U, 0xbcb838d03c628720U,
  0x3cffe1103da917e8U, 0x3da51bb43a4f6c00U, 0xbcbbdfa0bcf0aa60U, 0x3cb6edb03b3dbc80U,
  0x3df7fb65bde2c60aU, 0xbd5f4b40bdcfdf99U, 0xbdc545f33dfd71d7U, 0xbd6664dd3c3481adU,
  0x3decc4bb3d6aa4f5U, 0xbb2b44883d8c0929U, 0xbd97d0c13c0d880bU, 0x3daa9151bdc89bc6U,
  0x3da024a63d63895dU, 0x3d2abeb0bdf02830U, 0xbdb4a1803d6ea7f2U, 0x3c2bbd26bd8c24ebU,
  0x3dc37ab53db976dcU, 0x3de34d7cbd10a32cU, 0xbcc08155bd87e62eU, 0xbd240d3ebd7825cbU,
  0xbd72257fbce828dcU, 0xba1605dc3ca81202U, 0xbdb1f2ec3c6518b9U, 0x3dc136b43de7fc15U,
  0xbdbcbd72bdd017deU, 0xbdfd55fd3dd41eb5U, 0x3cceb8213d9ff6e1U, 0x3db22140bd95f161U,
  0x3d9fcd273d0e76ecU, 0xbdc708993dc57874U, 0xbd89e15abd848642U, 0xbd8b60e03bcf1bdbU,
  0xbdb8c27c3d5faf8eU, 0x3d1012c23d1b5dffU, 0xbd9aee5b3c4c8616U, 0xbd9c7e6b3d78e68fU,
  0xbdd10fedbdaabe99U, 0xbda7da6dbd1fa6a2U, 0x3d57af63bc29cb2aU, 0xbd8616763c304bafU,
  0x3d02a0103d2ca623U, 0xbd8e58cc3dd2ea47U, 0x3ce5f415bdb60b6cU, 0x3d13f741bd133a09U,
  0xbd47ab90bdd450ecU, 0x3b7a9a213b77792fU, 0xbcdeffe1bdcc7904U, 0xbdd0e458bd83c7acU,
  0xbcd3225e3dd2ff80U, 0x3bfd3d18bdd0c6d0U, 0x3cdff037bdaa8922U, 0x3dd10cb8bd9dd5c0U,
  0x3cd4849bbd0395d5U, 0xbdec45febda7ea49U, 0xbca09e933d27b02dU, 0x3de09ba43b6b71a3U,
  0xbe0e2f943db0a45cU, 0x3dae41a2bdd0c185U, 0x3d9136323d8fe39aU, 0x3d2ea3103d41156aU,
  0xbdaffd95bc85967dU, 0x3dbdef1abdd20d5eU, 0xbd8cff913deb2b48U, 0xbdf45baf3de7632eU,
  0x3da8c1243c6433cdU, 0x3d9c7415bba4aee5U, 0x3cadf072bb68eec5U, 0x3dbd8d793de0ad1fU,
  0x3d00b0203d3ccf10U, 0x3c8fee703df02f5cU, 0xbdb48d3cbdddbcb0U, 0xbd845cf83dd506ecU,
  0x3d9c46f43c8c4370U, 0xbdac82603db88fd4U, 0x3c0d11203b3f7c80U, 0x3d002f38bd82c7c0U,
  0x3d4f1a583d40e1c0U, 0x3d9e255cbd345640U, 0xbcfa90c0bd2147b0U, 0x3d8bee4c3d017f50U,
  0x3d8c768c3dfb1260U, 0x3dd193743d6a8a88U, 0xbde5302c3d23e390U, 0xbd5c7de83d7d4700U,
  0xbdf2879cbd814cdcU, 0xbd66c2503d76eba0U, 0xbc0239203ca4b0f0U, 0x3df82bf43db784d8U,
  0xbd2f50e83d8ff3c8U, 0xbcf0b870bd57c3c8U, 0xbd65deb03de42890U, 0x3dbfe2043dedfcf0U,
  0x3dc842b43c9c4b40U, 0xbd4750703ca7d3f0U, 0xbd4e3da8bd4d9ae8U, 0xbda448943def9580U,
  0xbd67c4203d4a1530U, 0xbdb71fe03df2913cU, 0x3cd8c8803bd0a180U, 0xbd87a5bc3ddea7bcU,
  0xbb45ed80bd922304U, 0x3da0bdd8bdbb30dcU, 0x3d9e6818bdf767d0U, 0xbd9cfe143da13b84U,
  0x3d50af503d22d600U, 0xbdc1115c3dcc6ea8U, 0x3d711f303df14ddcU, 0xbc3fe4803de5e09cU,
  0x3d57c4f0bd30c548U, 0xbd0c4bb8bd8211ccU, 0x3a258e003d6afc70U, 0x3dbb4ba4bcdbcc40U,
  0x3df7a8643d9ca300U, 0x3d833b783d802d58U, 0x3df6ef083df2b498U, 0x3d9ff8c03d445030U,
  0x3d81cc10bbdbd940U, 0x3dc7d25cbdc132a4U, 0xbd8fb5c4bd1226d8U, 0x3c2b20803dacf7a8U,
  0x3cda4e003d533640U, 0x3d9517683d41cfb8U, 0x3dce7174bdc841fcU, 0xbddd72d83d2f3bb0U,
  0xbdb541543cffe240U, 0xbdc9802cbdcc1844U, 0xbd32f1f03d330270U, 0xbdbff9783ca283a0U,
  0xbdd8cf843d714400U, 0x3d9947a8bc29cee0U, 0x3d9056c4bd7cfd98U, 0xbc9301603d899ae0U,
  0x3c53f695bdb7de68U, 0x3c7f42473c84a051U, 0x3d65c9cfbccf7432U, 0x3df0e779bdc79aafU,
  0xbcb86210bd3b5b4fU, 0x3df4097cbd826b0eU, 0xbda4989cbdc320c1U, 0x3d9b10013c4e00e6U,
  0xbdb0ad433c935a31U, 0x3d76725dbd38bb50U, 0x3dc97ed43ae98446U, 0xbcc5ca9b3da6d612U,
  0xbdc0b9d9bd602448U, 0xbd2bfc3dbd70f1dbU, 0x3d23ee10be076afeU, 0x3c7223d73d96e8e5U,
  0xbc455f2ebcecf6feU, 0x3da2b3d5bde4d775U, 0xbd1bbbd23d2a5be7U, 0xbdb3baaebd651153U,
  0xbbe57a3bbd90e8a8U, 0xbca4aca8be01d67cU, 0xbcfce84abd236953U, 0xbcb358213ddb5df5U,
  0xbdc1c86bbb6a9446U, 0x3da036e1bd5c4581U, 0x3d4eed8fbc4c8b98U, 0x3b94c59f3cd868f4U,
  0xbd68762abcef17adU, 0xbddb89733dbd43f6U, 0x3d88a8893dc03987U, 0xbd0d531cbcd319f1U,
  0xbe0451cfbd2dbe37U, 0x3de235923e046e5cU, 0x3de05f06bcca45f1U, 0x3d50d9593dd8199aU,
  0x3d9b7d3d3daebd7eU, 0xbd8fba843dd9d857U, 0x3dee084f3cf27e20U, 0xbde1c8ffbcb82493U,
  0xbd3ac5623d9ef48aU, 0x3d31cebf3dda9097U, 0xbdbdd15c3d8c36fbU, 0xbdcf77bc3cb2edf4U,
  0xbdb42f313ddf1ce8U, 0xbd9dc463bdbb49d1U, 0x3c6c5c08bb56e2a4U, 0x3c664a78bde388d2U,
  0x3ca23346bcbc7b53U, 0x3da8ba433d3a41c7U, 0xbd385d10bdd90076U, 0xbda67137bdc4b40aU,
  0x3dc529e53d90b1e4U, 0x3d55a60abdcea23aU, 0xbd2593cbbc65b368U, 0x3c6bb154bd8eb9d0U,
  0xbde288003cb009a7U, 0x3dd3efe0bb864939U, 0xbd2bb66ebcb5857dU, 0x3e0198333c79ed67U,
  0x3db862e03da1efb1U, 0xbd7aacb53d27b9e3U, 0x39a243783d85a24dU, 0x3b37d98cbdd34150U,
  0x3d156680bdcd97f0U, 0xbdc8c4b23d017eaeU, 0xbcec5ffc3d5ce7fdU, 0xbd83317dbcc81545U,
  0xbc8cdc383e00310aU, 0xbcba1f263c2b9931U, 0xbbcdbfc5bd8663c0U, 0x3d11234e3d8c90a3U,
  0x3dc52ddbbd6f75b7U, 0xbda37bc53d323b54U, 0x3d4b3c103df71639U, 0x3dbbfde2bd5580beU,
  0x3c97ed193de8e062U, 0xbda3898bbd558eaeU, 0xbdfc00b83c023705U, 0x3d833927bc1e7862U,
  0xbd8464f63da34528U, 0x3d8cd3e2bd4d7c7cU, 0xbd371ebbbb57275eU, 0xbdb2c8e3be05d7b9U,
  0x3ccf1fcd3df1b01cU, 0xbd10b21cbd1c084eU, 0xba943318bd9d2c09U, 0x3d92351a3dc8f14aU,
  0x3d5f383bbd7621eaU, 0x3cb54b283db3f1a2U, 0xbdbca6e13d2153c7U, 0xbdb0ad633dcaba2bU,
  0x3bd76985bda69ebeU, 0x3d85aa67bc8f6728U, 0x3df90b65bce0798bU, 0xbc4d63ddbccce2bbU,
  0xbda204eebd6cc435U, 0xbd26035dbdac9da1U, 0xbdd07172bdd0f9fdU, 0xbd8cc386bd5264c9U,
  0x3d35a364bd6a37a0U, 0xbd2e6018bb5493a0U, 0x3db30581bdc07743U, 0x3d1664443c4938d8U,
  0xbdaa0a423dc62615U, 0x3da47617bdd33803U, 0x3d99f9093da09579U, 0xbcac4efbbc76d09fU,
  0x3d55caf0bcf30313U, 0x3deb07d4bddcb9d8U, 0xbcd139233d877ad1U, 0xbd4b37c43da6982eU,
  0xbd82c083bd691327U, 0xbde46ddd3ddf90a6U, 0xbd220a1d39b010c1U, 0xbdd05907bd47c103U,
  0x3dcea532bc9de250U, 0x3d8e24963e07df5fU, 0xbd748b923d19c149U, 0xbde0ab6a3d638732U,
  0xbc311b51bd69c14aU, 0x3c01a0263dc9c634U, 0xbddaba5b3c79c880U, 0xbdd02c0abd008d5eU,
  0xbc6fc2d4bcaa7dc4U, 0xbdd64080bde14536U, 0xbb39fb933e0fde5cU, 0x3d3c5465bcd2646cU,
  0x3d533d3cbdce9a2cU, 0x3ced75663dab751aU, 0x3dd3d6bcbdd59a16U, 0x3d8fc9d13caeb256U,
  0xbc72a8263dae26d5U, 0x3d9ab1783d23b73bU, 0xbddf86aabced22c9U, 0x3de247643de3c852U,
  0x3c9ee9a83dba606eU, 0xbcc65c35bd963414U, 0xbda1eab83d59e98fU, 0x3d58ddd43de13c21U,
  0x3bb8497abb9c5ef3U, 0xbdb2000ebd4aab37U, 0xbd36afcd3d166d3dU, 0xbd5386f33dbcba99U,
  0xbd8f5e1ebc3d8d20U, 0x3d3053ef3cbb1ad9U, 0xbdbff3d73dc4e7d0U, 0xbd16390c3cf5143cU,
  0xbd976d963d4ae686U, 0x3d869e62bdf0a3c8U, 0x3d6fd8fb3db24e64U, 0xbd9a725ebd91d697U,
  0xbcd4bad5bd5e197cU, 0xbc6e29073e07eaa6U, 0xbd3204083ccc06b7U, 0x3d9d29863e04c099U,
  0x3cb65160bce0a221U, 0xbd35c021bd66c76eU, 0xbcebc9513dade7ecU, 0x3d4bc25a3dbbe0cfU,
  0x3d8d119dbd2ee46bU, 0xbdb9fa033aeb6333U, 0x3dd8232abdee695dU, 0x3c72f7723d8e7f8eU,
  0xbd6266ce3d8ddc7aU, 0xbd607269bd12480dU, 0x3bb8b3fcbc847d32U, 0x3cb6e089bd8e53e1U,
  0xbcd6e942bdb4ad07U, 0x3d2e28c73bc1f4dbU, 0xbd9317cdbd06acb5U, 0xbd4b33a6bdd74990U,
  0x3d9794cdbe099a4fU, 0x3b759f1e3e0735b5U, 0x3dcc9eacbd81d42fU, 0x3db582d53da36208U,
  0x3d8a7395bde6f3e4U, 0x3a6baab1bd51ef03U, 0x3dcdbacdbbded3ecU, 0x3d408a633d1e530cU,
  0x3d155a86bd6a1661U, 0xbad7426bbd5638fbU, 0x3d8e74a6bdee0898U, 0xbd8cde503cb319e8U,
  0x3dc94eb03d747106U, 0x3af752d5bd4ee9b0U, 0x3d799c523c11f2ffU, 0x3d924a843da0654fU,
  0xbda31f8dbc701701U, 0xbcf3f4e73e0aaab8U, 0x3d3d22273d183a7eU, 0x3dd018bebdaa4da2U,
  0x3d41d188bd0ec411U, 0xbd54d7ffbb890dc6U, 0xbdd7206cbd937b35U, 0xbc831bd13de31d49U,
  0x3dc449f5bd00a19fU, 0x3dce30613da99df6U, 0xbdb603bebdb945fbU, 0x3d64d0613d05c5aeU,
  0xbdf355a43d97e5d5U, 0x3d84c0e0bd81e7b5U, 0xbcfb8fec3d61bac5U, 0x3cd969c73d0fc179U,
  0xbd81c8f9bdb8f2a2U, 0x3defb64fbdd1d9b2U, 0x3cbfff7cbd1efdbcU, 0x3d3d1852bdc65703U,
  0xbde3d2483d71ce4bU, 0xbdc699c2bd2779d1U, 0xbd057448bd4a5c02U, 0x3c99317d3d9e2a1eU,
  0x3b5356ccbd73212bU, 0x3dc7681bbaba7a47U, 0xbc83e6fc3dcb5685U, 0xbdadeb323d4f1cddU,
  0xbd14b7d5bd61be00U, 0x3d652ae03db0d45eU, 0xbd4d9f673dcc650bU, 0xbbe314fe3c2a6217U,
  0xbd99ad55bd16dfa1U, 0xbdc7ea9e3dc1fe14U, 0x3de220b3bdb2504aU, 0x3dc2a1553d640c38U,
  0x3d5822753b50d6a8U, 0x3d847b103d342328U, 0xbb97e8893e033fc4U, 0x3d9411d9bdf645e1U,
  0xbd4eebffbd3a675aU, 0xbda0837a3d0be364U, 0xbc69d80cbde36694U, 0x3db6ab933d6bb4f5U,
  0x3ced11c3bd41c66eU, 0xbddc903b3da7d0a1U, 0xbd1f5efb3ca8f767U, 0xbdcc6d283ba1f24fU,
  0x3db66027bdc78517U, 0xbd87935c3d9dd66bU, 0xbdfde1b2bd86e7ffU, 0xbdf819463d889b08U,
  0x3dc7b424bbd6edadU, 0xbd972b793d28de76U, 0xbb39e9ad3ccfd08dU, 0xbcade9a1bcf332bfU,
  0x3c94af2a3d94a6abU, 0xbd1f4fa03c1c88acU, 0xbd7585373d94df59U, 0x3df5b73d3da39c49U,
  0xbddeedc63d502f45U, 0xbdb1b7e03d84ddbaU, 0xbcf6ca6dbdfcacc7U, 0x3cafb65dbe033f19U,
  0xbda817c0bdb504bbU, 0xbe01f2ec3de68fc9U, 0x3d12bed43db0313bU, 0x3dfd1a9dbce04b40U,
  0x3d2168983dd6b114U, 0xbda70c4c3dcb237cU, 0xbd9841083dc20a0cU, 0xbde8cdecbdbd6ec8U,
  0xbcf797c0bbd0ecc0U, 0x3db69c503de7d88cU, 0xbca26d703d7364b8U, 0x3cbe89c0bcc8a1c0U,
  0x3da2c218bcbac660U, 0xbcba24f03bff6d80U, 0x3decd8c0bd9bd33cU, 0x3df2c0803d829f80U,
  0xbd13c690bdf0b8b4U, 0xbc152f003d604828U, 0xbcc92a80bd10bb30U, 0xbd2e3af03d956e38U,
  0x3de7fbf0bd91aa78U, 0xbd6b0e403dc69120U, 0xbc51a960bdcc5c04U, 0x3ddd4ad43d000b58U,
  0xbd9630b0bdd93edcU, 0xbca728c0bc900960U, 0xbd8f1ce0bd87c980U, 0xbdb6adbc3d81bfccU,
  0x3bbafb803de65fd4U, 0xbd8d74443d742a30U, 0xbd4a7cb83de28434U, 0xbd8bee5cbd2cbd20U,
  0x3cc3a090bca78d50U, 0x3caac0e0bbfb9940U, 0xbd16aad83d204190U, 0xbdcd1ae8bdaa1c94U,
  0xbdddc2543d8a72c4U, 0xbcc9e2903cb589f0U, 0xbdf0e088bbe58a80U, 0xbd663c783d932874U,
  0xbd6b42403dccb80cU, 0xbb0d4180bdd53b44U, 0x3d6b02083dd53afcU, 0x3cbfc2d03dc32f88U,
  0x3cd21ff03d9e3368U, 0xbdd129a4bd9b2c4cU, 0x3c9dfce0bce48390U, 0x3d5a3b583ce57160U,
  0x3b172780baf45400U, 0x3c49a4c03da40540U, 0xbda6d1ccbd3f4d08U, 0xbde147283c938670U,
  0xbd032380bc2491e0U, 0xbd84b4ccbd6d2c78U, 0x3b5c6f00bd49c900U, 0xbd2f4558bcef7730U,
  0xbdfe3820bda10f1cU, 0xb938a0003d39d340U, 0xbd1172583da03ba8U, 0xbc6c75a03d919c1cU,
  0xbd046cc83d6c82c8U, 0x3de227f4bcdd4c20U, 0xbcb85f803deb9330U, 0x3d3c8c50bd9a2ab4U,
  0x3d5c53b0bb360500U, 0xbddaebe43ddb9a24U, 0xbd0faec03ddfae78U, 0xbb159a80bcc54b20U,
  0x3dd29deebda18744U, 0xbdb16b8ebd85a666U, 0xbcd2f078bc0298ccU, 0xbdbad8383cdbeb42U,
  0x3bbfd50fbc8d5f80U, 0xbd70e13e3dc13edeU, 0x3de6ca563dcf6b3bU, 0xbdb1b9473d3fd476U,
  0x3dbf0263bce8ef15U, 0xbd051e9b3ddb33ebU, 0x3db3b3273e0ee087U, 0xbd90acc13df7a1e4U,
  0xbdecb1103df8163eU, 0x3df2a8edbd5bb933U, 0x3da42c543d2c6ac8U, 0xbdae0cd9bd09b3a4U,
  0x3ddfab6c3bc9cb6bU, 0xbdc732203dbac297U, 0x3ce3b729bd19b2cfU, 0xbd469ff63dd14144U,
  0x3d0bf2dc3d2091daU, 0xbdc2d199bb1db5f1U, 0x3d8600d13d455954U, 0x3cefa4153df5cc77U,
  0xbd9c0aacbdeb64deU, 0xbdcc12af3d63786fU, 0xbdf33f41bd312dccU, 0xbd2680113d3bcacfU,
  0xbb98251e3dac9198U, 0xbd89a1d2bd510977U, 0xbde342dcbd6a4ee7U, 0x3ccfe3a8bd4ac3d8U,
  0xbdab3be63d017f22U, 0xbda8ac06bdabfe08U, 0x3bef657e3d87310eU, 0xbd620af4bd85d8adU,
  0x3cba4d81bdcc5712U, 0x3cde97fd3c391806U, 0x3c8b89b03d67684eU, 0xba9c0de53b229362U,
  0x3dc058753c806a68U, 0x3da14a06bd679c01U, 0x3d1c5f86bdd036cdU, 0x3d6f12ad3dd388d4U,
  0x3d20cdc53dd83a8dU, 0x3cacec6ebde81d83U, 0xbd73bc5d3de223d7U, 0x3dd7de1b3b043484U,
  0xbd04b03c3dcae2acU, 0xbc30aaa7bcaf1f90U, 0x3d8e1783bdf1512cU, 0x3d51cfb8bbccc4dfU,
  0x3d693aaf3b49e9d7U, 0x3c6f70163dc60f4bU, 0x3de7b4283dfc0ba4U, 0xbd6f71e73c48bbe1U,
  0xbde31fdebde76cbbU, 0x3daaf543bcea9effU, 0xbce1137c3dbc3920U, 0xbd4a36003de07201U,
  0xbd03e6d33d7691b5U, 0x3dff85afbde63d0dU, 0x3b02fd1abd4005d2U, 0xbdb4a9e23c94e6e4U,
  0xbd76f1e53c6a0efeU, 0xbd9d4ed5bde5f7ceU, 0x3dcf6b563d74d93dU, 0xbdc2e120bc57b2fcU,
  0x3df4e3a03d7943b8U, 0xbde77e30bd8c4494U, 0xbd6c6341bd5eb012U, 0x3cbb94bbbd8f94fbU,
  0xbc18367a3cf07e9fU, 0x3a392f1dbde36e73U, 0x3d87cec5bd228904U, 0x3da165a1bda88c04U,
  0xbd9211d43e0dcf16U, 0xbde122b23d7d8a60U, 0xbd1deb05bd5e1612U, 0xbd772adebd99a54aU,
  0x3ddc7a893db1e3e9U, 0xbd38615cbd19b0e3U, 0xbe02381fbb1808deU, 0xbd8d2a133cbabe5aU,
  0xbcbb65ed3d701f15U, 0x3d8df726be025f14U, 0xbce39a56bd369a74U, 0x3c1c75603cb301fdU,
  0xbd554cc1bcc704edU, 0xbd4724f73c83e773U, 0x3d651df93d766d89U, 0x3db92377bdda8e63U,
  0xbd9f2f5bbd1fbf9fU, 0x3d8f39d3bd62b2dfU, 0xbdc1403f3d683abeU, 0xbdea42ff3ddf1e0fU,
  0xbdb8502d3c63a3a4U, 0x3d2c40b03d00aca6U, 0x3cc1ba803c2ca177U, 0xbd1657513d690f9aU,
  0xbd4d9a94bdab8fa1U, 0x3d9f4e343cd7ecf9U, 0xbe152729bcf1b3b8U, 0xbde1615cbd13676aU,
  0x3c6fc20e3d9b46baU, 0xbd1bdaeabdd15298U, 0xbc31b4413c9aa990U, 0xbcdec4b4bd3c3074U,
  0x3dfcf20e3ce7a5f0U, 0x3cc171823dbaf1e4U, 0x3daae6d83d7f0d9aU, 0x3d7055b6bde1403cU,
  0x3d9f880abd89d4ffU, 0xbda63b3b3dc3567eU, 0xbd7358473de17169U, 0x3c457d7c3c82809dU,
  0xba9e5decbd94d622U, 0xbdbe0831bdb48bb0U, 0x3d90d400bdc59e1eU, 0x3d28df83bd25df4eU,
  0x3d3deb9fbdb507d6U, 0xbd5ec11fbcc21754U, 0xbbc34ce03d9c2348U, 0xbdab2e1abd313bdfU,
  0x3dca01c1bd5e32feU, 0xbdbbfd19bbd95b26U, 0x3b5f0991bdb3c6e4U, 0xbc0200423dfcd88aU,
  0x3d234607bd21bf03U, 0xbc3d95b83cd8155aU, 0xbdea7641bd63dff9U, 0x3c489734bda0ee25U,
  0x3d9310a1bdf0d807U, 0xbb6ae41b3d00967aU, 0x3d7d2b3abd515a06U, 0xbd5f81e93cce9f3dU,
  0xbd8f2be2bd6b9c93U, 0x3c1708b2bdfb606dU, 0xbd292c273d5af88eU, 0x3c602aa93ba9aec6U,
  0x3d130566bd83b5acU, 0xbdc403b8bd9604feU, 0x3b0cc685bd57b083U, 0x3d6385ddbdcaebd5U,
  0x3cde2c1c3cf891ccU, 0x3c898d003a44ab3dU, 0xbdb129083c897657U, 0x3d53cd6abb8d0926U,
  0x3d6465ddbd6b2850U, 0xbd46fc023d855712U, 0xbd255888bc7b0c50U, 0x3df9e4ad3db4eb90U,
  0xbd6a7c583c8a0dc3U, 0xbdd0ebaabd2e1ff1U, 0xbdbdfb5c3e05559cU, 0xbd0a59a6bd01a8c2U,
  0x3d730a9ebd5217d9U, 0x3d81f47c3d35203bU, 0xbd1a6f893d5950a1U, 0xbd517cbcbd50e524U,
  0xbcf2b388bd63fe62U, 0x3d03f9d73bd735d9U, 0xbbf03e28bbe6fb88U, 0xbdb5f0403d80aa80U,
  0x3da71d6c3dbb12ccU, 0xbda3d621bdd687dbU, 0xbc3a1e373db6facdU, 0x3d28015dbd975d74U,
  0x3da4d953bdd9defbU, 0x3d8a34023dde05bfU, 0xbc50db13bd20bdf9U, 0xbd4d10de3da81a66U,
  0xbcb2316c3d3344c0U, 0xbde5671bbd6f90d0U, 0xbcf701193dd96496U, 0x3d3cb4afbd2a0ebfU,
  0x3dd963de3cc30aabU, 0x3c4713153dd0060eU, 0xbbdd1625bbf23735U, 0x3d052e653d2ed7caU,
  0xbd89b8ee3db3d245U, 0xbdd30a85bccacd26U, 0x3d04181ebdfbd7ddU, 0xbdd039f13ba01c2aU,
  0xbd5625913c82bf51U, 0x3c9ce00dbd09ebfeU, 0xbdbe8e253de63e7cU, 0x3c3612093da5d1f5U,
  0xbdaeafdf3d1078a6U, 0x3df67d5d3c902bf8U, 0x3d87269cbd80a34eU, 0x3defd58a3c8b0a07U,
  0xbc492a29bd741299U, 0xbcb83a45bdc1d38bU, 0x3de1ffc0bdf136c8U, 0xbc8ce4ad3d3aed9eU,
  0xbdede21bbdff9778U, 0x3c90b38dbdfdd0fbU, 0x3d9578643dd3df6aU, 0x3d748f9abda94bc1U,
  0xbdd07192bde48420U, 0x3cf96fd1bd0f9d02U, 0xbdd55af83e013e47U, 0x3dc4523a3de41bddU,
  0x3da42d743d3bbb51U, 0x3da0fdfe3d8212e6U, 0x3d6613133da090a2U, 0xbd930f4b3ccca725U,
  0xbdb1a0d63d5397c9U, 0x3de0ed813ce6ecdfU, 0x390739e6bd107055U, 0x3dfa6b57bdf166e1U,
  0x3d2b6b233dc52d79U, 0x3c7a7e6dbd3ffa00U, 0x3e0a3badbd3e5c96U, 0xbd5f18eebcd5f004U,
  0xbd422768bdf1441cU, 0x3c9647263d2fa30eU, 0x3ac5ef18bd646bf9U, 0xbd8498b53dc1d673U,
  0xbdbef4163d0becefU, 0xbdd95ea03d3a3ccdU, 0x3dacdef03ca21634U, 0xbd90a3f8bda68c61U,
  0xbdb028e6bd76aee2U, 0xbd003283bc1b05b4U, 0x3de2021f3dc16906U, 0x3db06c5a3ba143a1U,
  0xbdf3f387bd972d1cU, 0x3b1285f2bd49f6e1U, 0xbda424c4bc6a14b7U, 0x3ca275d23da3647bU,
  0x3dcb2e3d3d877185U, 0x3d84262a3dd06ebfU, 0x3db326b3bc09a6ecU, 0x3cd31602bd0697c2U,
  0x3d2fa31a3c8720c1U, 0x3cece4cd3c6e9413U, 0x3dd7c029bdf31e2aU, 0x3d3604e5bc00c233U,
  0xbc4cc3e83c0311b2U, 0x3d809182be0212d8U, 0xbda927b2bdced10fU, 0xbddce7203d1079ceU,
  0xbcc365a53cb289b4U, 0xbdc234963d76f6b7U, 0x3bc41dc43da4eea6U, 0xbc05c4a73df11503U,
  0xbde358203daaafc2U, 0xbd9aa4773dd50340U, 0xbd8d5265bc748202U, 0x3d0b4c68bd0401a3U,
  0x3dd04d1b3db38459U, 0x3d5aff39bdd0f1d1U, 0xbd5f291cbd63f243U, 0x3bbe6fd9bdcf5c9bU,
  0xbddff3b03dffb32cU, 0xbd229bb8bb650d80U, 0x3d699e00bd20b1e8U, 0x3df241f4bd03d5a8U,
  0x3ddd02c43dd710f4U, 0x3d6c04503dde912cU, 0xbd0b57d03de06c90U, 0xbdc46ef43d2736c8U,
  0xbd0a0c38bd99c9a8U, 0x3def53043d9688f0U, 0x3c0e41c0bd9d7980U, 0x3ddaa9c0bd260aa0U,
  0x3d91a4c4bca86d30U, 0x3d0f0c40bc641100U, 0x3cf37c303db00a0cU, 0x3ca84890bdeffbacU,
  0x3d9d87103d6294a0U, 0xbd8baa743d2eb988U, 0x3dab907cbdcc859cU, 0x3d0341083da889ecU,
  0x3d1fb230bdd51954U, 0xbca42a103dac6084U, 0x3df0e9203bd6ac80U, 0xbdb9d8203daef068U,
  0x3d9f44bcbdcbe2dcU, 0xbd84b4183daf1aacU, 0x3db90a443dae3a34U, 0x3d88e57cba0f1c00U,
  0x3cd379303be8d980U, 0xbb3c2580bb90adc0U, 0xbddbcd18bdb5e03cU, 0xbd839e383df1f364U,
  0x3dab39f4bd77eb10U, 0xbd1dfd78bceee550U, 0x3de669503dd420e8U, 0x3d7a2938bd0118e8U,
  0x3d98e5003cdd6fb0U, 0x3ddbdab83de8e8a4U, 0xbd9275ec3d66c438U, 0xbdca44a83dbcb740U,
  0x3d66b8583dbd3eacU, 0x3dbe0c1c3defa484U, 0x3dce0ab83cdd23f0U, 0x3dbfb1c83d9392e4U,
  0xbdbb78f83dca94d4U, 0x3de9c67cbd498478U, 0x3d62f4d03da88664U, 0xbdcc2b5cbd4afa50U,
  0xbdf62860bbed9280U, 0xbba3f1003ca35e20U, 0x3d1c52283d478748U, 0xbd81a1203d7d6400U,
  0xbd9389f83d00b5e0U, 0xbdb119183d584be0U, 0x3dc9ea78bdfed2c4U, 0xbc5dfe40bd993f24U,
  0x3d5eae68bd7f9380U, 0xbd062f603daaf08cU, 0x3d1325d8bc173340U, 0xbdff5c48bcb1c5d0U,
  0x3d643918bc12f980U, 0xbd92a7f03dbeb000U, 0xbdeb9e643dcf4a60U, 0x3d8c6c343d7b24c0U,
  0xbd7142f33d11efefU, 0x3e06e4a0be08f619U, 0x3de197393dfa68a1U, 0x3d56a6a83d4f6b98U,
  0xbcf6f4f9bc5b3dbfU, 0x3de53e38bcb4f644U, 0x3dd3a933bd87ef25U, 0x3d0c65293d0302b0U,
  0xbd990275bd9f8003U, 0xbd36192f3c8d4f5cU, 0x3d3a5c58bd3f431bU, 0xbc1fc4bebd7e8280U,
  0x3d16b44abdfd6009U, 0xbd7292f2be027827U, 0xbd0201d1bdfaac55U, 0x3d807b19bd9bb459U,
  0xbda43bd6bd85a6d3U, 0x3d131338bdaf1d22U, 0xbc2effbc3cbfbd0fU, 0x3ce175473d941772U,
  0x3d73172abdabd9f2U, 0xbc35b63abd42a4c9U, 0x3cde14ff3c18fca0U, 0xbde5e3d53ddaf5c9U,
  0x3cf677c4b91f5053U, 0x3ddac804bc8669f4U, 0xbd3e3fe23c254c0bU, 0xbd994718bd12e183U,
  0xbc754c0fbdd400ecU, 0xbdb509463d7a4876U, 0xbdb3337cbc1080fbU, 0xbd57ef6fbddf2f3fU,
  0x3ddfe05e3d18dd58U, 0x3d537a4dbdb3fce6U, 0x3d050114bdc59ab7U, 0x38b87c7abdfc27a6U,
  0xbdae32453db225e8U, 0x3d8f39393d67b4cfU, 0xbd9f29e7bd31f497U, 0x3d488c02bbb0812cU,
  0xbdf1c24a3d497105U, 0x3da847adbd37ea17U, 0xbcbe2df03ce60debU, 0xbdb79bbebd83e8d4U,
  0xbd88fb023d8c8a46U, 0x3daa0b39bdcf47bbU, 0x3d96087bbdff52bcU, 0x3ca9c1febd33ea5eU,
  0x3ba80bdf3df3f1fbU, 0x3dc0c859bd82788eU, 0x3b4bb0acbde2563eU, 0x3ddd82193dde99a4U,
  0x3d4821873ae4955cU, 0x3d368d3d3db17e0fU, 0xbd80da14bdee645fU, 0xbca84e193dc1905bU,
  0x3d64148abd6f9ae8U, 0x3cbe0086bddf293aU, 0x3d9580b63d2d450bU, 0x3bed935e3dbb5897U,
  0xbc9688cd3d4174baU, 0xbdb428373c96102aU, 0x3d2047363d07b6a1U, 0xbcd60cc4bd8a773bU,
  0xbdc9d5c83cf4d100U, 0x3d053480bc0ecd00U, 0x3d9ba0503d0cf598U, 0xbc81f5e03db72380U,
  0x3cb260e0bd946020U, 0xbdc1b080bdf542e0U, 0xbce715f03d261680U, 0x3cfd8930bdb58040U,
  0x3d553e283d506610U, 0xbdc69170bdd81d40U, 0xbd9e6d50bda17f38U, 0xbd9fc3dc3d3ed870U,
  0x3d6ee0483d1120a8U, 0x3c9933d03d38eb30U, 0xbd66ea78bd95855cU, 0xbd0499b83af5fe00U,
  0xbdfe79403d1be608U, 0xbd89a1f43de78d20U, 0x3da94778bdb3e694U, 0x3d0b93183da33844U,
  0xbd9fb198bd93add0U, 0xbc1a3f20bd305628U, 0x3df5f0f0bddedddcU, 0x3b8e7500bc10f9e0U,
  0xbb0205003db77574U, 0xbccb3e70bdfe45c4U, 0x3d6487d0bd89a658U, 0xbd0bab103d137c90U,
  0x3d1db2903c2fed20U, 0x3d7e39a83df2561cU, 0xbd9438b43c55f720U, 0x3daefb403df86a90U,
  0xbd5656f83cffa670U, 0x3d981028bded0c50U, 0x3da40408bdbb212cU, 0xbced4340bd7084c0U,
  0x3dec9208bbc21440U, 0x3da81778bd09c7b0U, 0x3bd743003afa3e00U, 0xbdc009a43da7f554U,
  0x3d734470bdada49cU, 0x3d6e9b283d8ec644U, 0x3dd323b83dfa3b2cU, 0x3aa34400bdc27d8cU,
  0x3de5c4f83c5c9040U, 0x3bfaf0c03dc4dadcU, 0x3d095bf0bdb600ecU, 0x3d24f5283c3db640U,
  0xbdf3ed50bdbd6f88U, 0xbd726dc83d801fa0U, 0xbd1229b03db3a16cU, 0x3dfa2698bdda1820U,
  0xbd9750783d62a0e0U, 0xbdcabe983d388460U, 0xbdd9c7f4bd0d26b0U, 0x3dde02743b7a9200U,
  0xbc97c7203d42a9c0U, 0x3cfa2770bd37c2d8U, 0xbda98aa4bdaee734U, 0xbda5be683ca48640U,
  0xbc26cc60bde77650U, 0x3c6625403d6e6a20U, 0x3ceda7e03c4407e0U, 0x3d93cfa03dd67b14U,
  0xbd988a6c3bf0a96dU, 0x3da77ccfbd69cd3cU, 0xbd86664a3e01501dU, 0xbcf5b0f4bdd9d941U,
  0xbbe4e37abcc649cbU, 0xbdef2d7cbd4bb440U, 0xbd0885b83d84c228U, 0xbd682bacbd584539U,
  0x3dd12adf3d8e88a1U, 0xbcfd3df2bd62e95dU, 0x3da7723e3bf76736U, 0x3dc31138bd63ab0bU,
  0x3dad10ddbd9ccda2U, 0xbdc75ac83dc0a6e2U, 0xbdc9654abdc6b841U, 0x3e06fd5ebdf61a4aU,
  0xbdf91d35bdae6411U, 0x3d99c3e6bdb05905U, 0x3e2a557bbd195d89U, 0x3c7706a03d575207U,
  0xba95b1423d865071U, 0xbe0321533d6eba50U, 0xbe022be23d80b2a8U, 0xbd233accbde79a6aU,
  0x3d736bec3cc6fe0cU, 0xbd83ca9ebbe4a523U, 0x3db5678a3cda80cdU, 0x3d604042bd837ae3U,
  0x3d511ae23da5e049U, 0xbca52ce13cf8feccU, 0x3c737be13dc29178U, 0xbdc9066dbda74651U,
  0xbd6300eebc39dd57U, 0xbd24b7e93bcdf080U, 0x3d99f04abd4b524dU, 0x3d07d00c3d1ebcbbU,
  0x3babd72dbd9d4669U, 0xbd8e04dbbc5f97b2U, 0xbdcbc0483d922998U, 0xbc329303bd8fa6f2U,
  0x3c65d0e93bc2f9aeU, 0x3d68d6253d732c33U, 0x3dd512a83d4488fdU, 0xbc18f1d93daebedeU,
  0xbdc9afba3e00b569U, 0x3d87d055bda7c738U, 0x3d72d2f9bc4b38b1U, 0xbda4b2453d8e74b8U,
  0x3d4a8192bd3a63c9U, 0xbc77f6c6bda3e2c8U, 0xbdc98eb4bdabae7eU, 0x3db7e6823dfc44c8U,
  0x3d4a4778bd7e1010U, 0xbd979b74bde2cb86U, 0x3dc994aa3dc0f85dU, 0x3da184fa3d975830U,
  0xbdf04494ba326ea1U, 0xbdd25ebdbd30da1eU, 0x3db19e433d04e78bU, 0x3d0749efbdd32340U,
  0x3c550000bd38d734U, 0x3dd7ccbfbd36cee5U, 0x3dce99f63aac55e3U, 0xbd5fc5b3bd0351c4U,
  0x3df6aa103deecc34U, 0xbaa391003d258c38U, 0x3d29f038bd241440U, 0xbdd4d30cbc8377d0U,
  0xbccd9de03d1aab20U, 0xbde42a183d000570U, 0xbd7d7f383db71b68U, 0x3d2e29e03c2de900U,
  0xbdcf7cec3d5e1238U, 0xbd4ed8f0bd0c0268U, 0xbd6b1560bc2e24a0U, 0x3c07c480bcbc57f0U,
  0x3cc1e8f03cda3e80U, 0x3dbdcaec3dbc53c8U, 0x3dc698c83deea4a8U, 0xbdd9ba683d89c2e0U,
  0x3bdb6a00bcf85860U, 0xbdba20243d3ee340U, 0x3c3dae00bd02a0d0U, 0xbdd9b0d03d5524f0U,
  0xbd6081503dd8dc8cU, 0x3ddee158bd662df0U, 0x3d7a9c503da70f44U, 0xbd838efc3de8f3acU,
  0x3d8829a83de5cbb0U, 0xbdb30664bd285eb8U, 0x3cc71fa0bdb018acU, 0xbd20a1e03db1e33cU,
  0x3d3b5050bd8e1868U, 0x3ce402c0bdb4e410U, 0xbddaef483dc8c4ecU, 0xbd4668f83c5b5da0U,
  0x3c099a403ceddd80U, 0xbd9b18f83d7019d8U, 0x3d9f65e43dcf89d0U, 0xb9c768003d94263cU,
  0x3dc1c270bc5d2a00U, 0xbd5ed6903dc68778U, 0xbdcaa89cbd32ef70U, 0xbb58d280bd88b9a4U,
  0x3d3ded703de45140U, 0x3d61dec0bdf23cc4U, 0x3dadba743d817498U, 0x3c218e80bce5c340U,
  0x3d28dec03df21180U, 0x3cb9af703dc7782cU, 0xbc0d92603d6df148U, 0xbd010250bcb81c90U,
  0xbc892770bd875808U, 0x3c83bdd0bbedb440U, 0x3d89ae80bc31b500U, 0x3debb270bdf00e24U,
  0xbdfe4bf43df22580U, 0xbd651de03951a000U, 0xbdd46ed4bd562998U, 0xbdba86ec3cde9c60U,
  0x3d222168bde92050U, 0x3ce67f703d566a50U, 0xbda48170bdcc5aa0U, 0xbdbee6b4bd3d54f0U,
  0xbd7f38d03c00d740U, 0xbdb437ccbd996ab8U, 0x3da43d043d1fefb0U, 0xbd8f8100bdbefa28U,
  0xbb84ca003d26da18U, 0xbc05b0203dfa5edcU, 0x3d2ddb68bd8b92d8U, 0xbdeb7b3c3dc70588U,
  0x3dca7b28bc9c03c0U, 0x3c59cfe0bd2e8910U, 0xbd6cf2b03b9a05c0U, 0xbd0139d8b9989400U,
  0x3d541ec838bd8000U, 0x3b4d1900bd2580e0U, 0xbc6eb4603d9d3a58U, 0x3b2f37003dbd4214U,
  0x3d9555303dbe9f28U, 0x3d491ea83d035160U, 0xbdd195bcbdecd8acU, 0x3de8f4343d3a6848U,
  0x3d8182f0bceaa010U, 0x3dbaf670bc631960U, 0x3dd84c98bd9f6b30U, 0x3cefa260bd6c6e50U,
  0xbc487440bdcb673cU, 0xbdfb7e603d909c64U, 0xbafa3c003d347c48U, 0xbb9890803db51508U,
  0xbccc98a03d2976e0U, 0x3dfbb0d4bd8e6658U, 0x3d76ae683d6b9488U, 0xbdcbc2583d8ccb58U,
  0xbada54003bb5d5c0U, 0x3d5665f83dc99550U, 0x3d91be2cbcf93f50U, 0xbcd1d3803d6bb140U,
  0xbdf1ad283d496328U, 0x3cafd5003dc0fc88U, 0x3bfc23803dd51b24U, 0x3dbb38dcbda124a8U,
  0x3c0403c03de361b0U, 0xbdcc33203d13ac00U, 0x3d25d8603dd8f580U, 0xbdd026083dc65788U,
  0xbd66a0303dfddfb8U, 0x3d6ab6e03dec2988U, 0xbdc1f31cbc48a080U, 0x3d0e7c10bcdafc30U,
  0x3dc21cc0bdd37644U, 0x3dc02a74bdd59674U, 0xbcf22b40bcd40790U, 0xbd80a840bdc4c85cU,
  0x3c795c803cf6b370U, 0x3dcdfdc43dd47050U, 0x3d238ed03d852f18U, 0x3d16c1703db0d57cU,
  0x3da4d1b03cc1ed10U, 0xbcfdaac03d90c8b4U, 0x3d460ba8bd00b240U, 0x3dbc2ec83d7e8180U,
  0x3d0ed8f8bcbb96f0U, 0xbcc03900bdff4ad0U, 0xbdaa7a883df77c78U, 0xbda70dbc3d8e5f18U,
  0x3d809aa0bd0bffb8U, 0xbdd02438bd57ae08U, 0x3daea5c83d219f90U, 0xbcaf8dd03cd0e0b0U,
  0xbd32a905bd6923d0U, 0x3d32c72fbdcdaa87U, 0xbe042f23bd241246U, 0xbceb7986bd8283a6U,
  0xbcc17762bd4e68f8U, 0xbd9d7fa73db7ea7fU, 0xbd83af91bdcfc70cU, 0xbdf3ea053d60cafdU,
  0xbda2a3f1bd0735bdU, 0xbe0fa08a3d141f05U, 0xbcf4cda03c1abff3U, 0xbda86b8e3d14a113U,
  0xbd58b1f4bd16091cU, 0xbd5477553dee53afU, 0x3da64bc6bce4aad0U, 0xbda7fa71bd744f19U,
  0x3d9206613d5778bbU, 0xbdf49a803d84a9d2U, 0x3cc9ab80ba862f02U, 0x3d3ce6e2bddde8cbU,
  0xbdc867913c196854U, 0xbdd77ee83df380e7U, 0x3bd5d502bb4854b2U, 0x3dbf813d3db3fe79U,
  0xbc0e68dfbdadb933U, 0xbd410323bc906b25U, 0x3d7060683cef9966U, 0xbdcd80c93d2fcddfU,
  0x3dc99eb83da58dd7U, 0x3de874113dcadb08U, 0x3dcebc433c6028c4U, 0xbe028410bd842708U,
  0x3beb46f63d1d8379U, 0xbde1e7e4bde3c2daU, 0xbddce027bd9776b6U, 0x3c8c46e43cf29106U,
  0xbdea41b23d90886eU, 0xbda62372bd8fd3d1U, 0xbc5c58ad3dd32d9eU, 0xbd89c5eebd3b95f7U,
  0x3d5fd078bd00d3b7U, 0x3dace39abb226c97U, 0x3deaf6de3dff5b96U, 0x3db0c59e3dabcb56U,
  0x3cbae95b3d8142acU, 0xbdc8d2213c8c6506U, 0x3c7054233df42629U, 0xbde4c25abd4100f0U,
  0x3d9ff27c3d1276b8U, 0xbd88b9ed3d1299a1U, 0x3de567e03ccabaf8U, 0x3d1c14b9bd26f489U,
  0xbd1d19cbbcbced0fU, 0x3cd798febdb04cf1U, 0xbdf493d93aea4f94U, 0x3db17125bdfef608U,
  0xbd6635ccbdda474fU, 0x3dfea2d73da30a68U, 0x3bd06002bc4f680aU, 0xbcef01783bcba808U,
  0xbda303acbda5efbcU, 0xbc78a73abd308c03U, 0x3d399a343dde6969U, 0x3e02a19e3d296438U,
  0xbd9e4e12bd2ede41U, 0xbdd60df93d639c47U, 0xbd439a4d3dd01d8bU, 0x3d5d5341bd188de0U,
  0x3dae94ce3d252a5fU, 0xbd1aa75ebc2f21dcU, 0x3e085eaabd3c075cU, 0x3deb3130bdaa95e4U,
  0x3dbcffbcbcb91a99U, 0x3cdd31b53b74bbe3U, 0xbd3df7b63d7cc156U, 0xbe17c3e6bc66b11dU,
  0x3d361f043df135ccU, 0x3d502ad4bcf95338U, 0x3dbca9853d1da155U, 0xbcff3c2e3d772455U,
  0xbdb8319ebc7d8b23U, 0xbd735a88bd49660eU, 0x3d24ba063da99740U, 0xbe049de2be0d0309U,
  0xbc9ade4f3db4070aU, 0x3d1447503dc73205U, 0x3da89ee4bc6537c8U, 0xbdc44d7ebc6f5abbU,
  0xbda073a83da94f9bU, 0xbd86d39f3dbd713cU, 0xbd8b366f3de1578aU, 0x3afd46963cb41caeU,
  0xbda085ea3d483bc5U, 0x3d6845d23d4d2ee0U, 0x3cc7e78d3e15acefU, 0x3cef820d3dfd3182U,
  0x3da7e0f8bd82a5b8U, 0x3e0fbad73af4a67eU, 0xbce50e6a3d88d9b7U, 0xbdfa80263ddb2e2bU,
  0xbca71f05bdc8b7bbU, 0xbd94aa6abdaf9290U, 0x3e02ddecbda1d4e1U, 0xbd8f9957bbca6de2U,
  0x3d98e79e3cfd85d9U, 0x3db043d33c77d744U, 0x3dca62fcbd40b57dU, 0xb8ae24053cdfab06U,
  0xbdd3cb79bbac752dU, 0xbd8f38cdbc546cf9U, 0xbdc872d83da00e60U, 0xbd8212343c8792f3U,
  0x3db17d64bceaf779U, 0xbdb641e2bd417e3cU, 0x3cd7385cbd9a1f69U, 0x3cf80339bbfe2527U,
  0x3d536136bc232fe4U, 0xbdc457f23d8ecbb2U, 0xbdd81f3dbd93d40cU, 0x3df7d4463c35747aU,
  0x3da22db7bd2a9707U, 0x3dfc9f013ce7bc78U, 0xbd8c6d71bd460418U, 0xbd0152bf3b1e334aU,
  0xbcfdd3f33cf390a2U, 0x3dee07ad3b8048b4U, 0x3d4ad6313dbcae39U, 0x3dacc68bbd30c8a2U,
  0xbda2d169bdb514adU, 0xbc0f140fbdde66f4U, 0x3c5cec3abc8dc3e7U, 0xbd9c6ef13cfc17d8U,
  0x3d752fcabb777c01U, 0xbdd7248a3da44b6dU, 0xbce2ff283d19946fU, 0xbcf7aa08bd0ebe1cU,
  0x3c4b0314bdd459e1U, 0xbd88cbf0bc8f5252U, 0xbe00277ebdb0ab77U, 0x3d897de13dac1a06U,
  0xbdd86e9fbdb5f329U, 0xbd09f8a0bda1ba5aU, 0xbd1efeec3d6ae28aU, 0xbc490c8cbc2187ddU,
  0x3d5260973d2a226aU, 0xbdc3a56fbcaa70f5U, 0x3d4a7d5f3db1f31eU, 0x3d9c4b6ebdc3b478U,
  0xbc2d7eaa3d77ed71U, 0xbddff9093d98d901U, 0xbcea57893d912a20U, 0x3cd11a35bc670a73U,
  0x3d554447bd53b5acU, 0x3d8017443cfaf466U, 0xbb63fd083dbe32c6U, 0xbd6cc4973de8a1abU,
  0xbde1a0193ade27c0U, 0x3d9705fc3defd33aU, 0x3d9892b2bd986cb2U, 0x3d136a17bd9fa838U,
  0x3d973914bd98d478U, 0xbdba34e7bd808fb9U, 0xbdd930adbd3c3813U, 0x3dc4b15a3ba59677U,
  0xbda0bbe2bce97ebeU, 0x3d548c5a3d3bb2aaU, 0xbdc6c9b4bdb674c1U, 0xbd80b2e33d05d554U,
  0xbe01fe16bcee3d6bU, 0xbe04ef52bdd1cf6eU, 0x3dace265bde3ccf2U, 0xbd8bfbfcbd58fe9bU,
  0x3d2ba3433beb6c6aU, 0x3d534a19bc96177dU, 0xbdc77263bd3fb83bU, 0x3d1f7e8fbcb80aa8U,
  0x3cd9a8693db0dd18U, 0x3da6cdd9bd684df8U, 0xbcea7048bc1e44fdU, 0x3d8aa68d3c4749f9U,
  0x3d98daca3c62c55aU, 0x3dc225bebdca9aedU, 0x3c1086af3c7b0313U, 0x3c889d73bcbaf4a1U,
  0xbd4120af3d147a42U, 0xbd5f13e5bdd274bbU, 0x3db0830b3d401612U, 0xbe0cd1d9bd8aa90bU,
  0xbcea758d3da0063cU, 0xbdaed05e3da52ae3U, 0x3d6e3dc73d02c184U, 0xbd9967593dd0bb82U,
  0xbd66706dbd176aa1U, 0x3db7e2c2bd327614U, 0xbddf45273d25f996U, 0x3c6f2748bd3fd37aU,
  0xbdb81b283dabc802U, 0x3de2696a3de6aba0U, 0x3dc8233cbde4fa2fU, 0xbcd5c9d93da2aae8U,
  0x3cb8fb853c5d6a1eU, 0x3d7e393d3c90dcf3U, 0x3caba07b3d1758ddU, 0x3ca554943c1c8937U,
  0xbe03bd58bd4020e5U, 0x3b658e03bc92117cU, 0xbdc9b54dbd101534U, 0x3ddf06e83dac3b5bU,
  0xbddb3a143dd11ab0U, 0x3d38fef7bc97afc2U, 0xbdd3557ebd3e051dU, 0x3d9fe0e2bcd65a55U,
  0x3decae373c0b3e00U, 0x3cb03b463d83754bU, 0xbde9efaabd3cbbd1U, 0xbd38a4263dd9f91bU,
  0xbcb873b7bda71e22U, 0xbb416a183d1068beU, 0x3e05315fbd0bf962U, 0x3c807cd53e199c07U,
  0x3e024df23d6a73f6U, 0x3cbc1631bcc5ba9bU, 0xbc950ea03d99a304U, 0xba021046bde8ce05U,
  0x3dc6f8a73d8f8e1dU, 0x3d3d14dabdc07c36U, 0x3d8aaf8bbd3e3b62U, 0xbdd59431bddf602fU,
  0x3da77222bbf97a5cU, 0x3db4375cbcddad9aU, 0xbe0871373c746252U, 0xbdbfe28fbc949517U,
  0xbdca41d0bbc635a3U, 0x3dee30b3bd70599aU, 0xbc9501003dd86133U, 0xbb844caebb904651U,
  0x3aa5f586bd1e7bceU, 0x3cd737dd3d9847abU, 0xbdd7363ebd195920U, 0xbdecec2fbcd23ca9U,
  0x3d7f411ebce5a0ffU, 0xbc6080013cf0d055U, 0x3d17e7333cf80164U, 0xba1b5a203d3e8da8U,
  0x3b5e25543cd874f2U, 0xbe008df43d78c6dbU, 0x3da2cb1f3dfb56f3U, 0x3cc00b193d6aad47U,
  0xbd58ce01bd2432e7U, 0x3d1ed1223dbd245aU, 0xbb519676bde60c6eU, 0x3deda1cf3e007a57U,
  0x3dc0d23fbd7d9bf0U, 0x3d610cb3bdbc7d83U, 0xbdf0a0c0bdb607bbU, 0xbd931cfb3d81d809U,
  0x3d111e2cbd08b5cdU, 0x3c0af1f73dd8c6c8U, 0x3b0a1d37bc8b02c5U, 0x3cd9e0883c2b83e8U,
  0xbcb57a6abdefc973U, 0x3e0025cc3da0de8fU, 0xbc5b6ebdbd172729U, 0xbca865af3c22f015U,
  0xbdb83f543dde9fc6U, 0x3dc218ff3dfa4a45U, 0xbd711a683a7f6bd4U, 0x3dcdcd473d9982ffU,
  0xbd955ea73bb8cf0eU, 0x3ba691a0bd08657eU, 0xbd91d494bcd47f61U, 0x3c80671b3cb37ca5U,
  0x3dce097bbe00d9edU, 0x3dc11413bbe48f80U, 0xbd93da9abda1c47aU, 0x3dd36772bcabbef1U,
  0x3d43697ebd9ef2cbU, 0x3c09ab4cbd9dcc1cU, 0x3e0a17bebccc0083U, 0x3d1d0176bd778382U,
  0x3d125cadbd033413U, 0xbd50adc2bd3be54fU, 0xbdb2a41fbd80732cU, 0xbd5ecac9bdaa1ff0U,
  0xbc842a793c7cb47dU, 0xbdbce1a83db95bd9U, 0x3da7da39bbc1fdf6U, 0x3df868ed3d533db1U,
  0xbde51864bde65102U, 0x3b914ece3b5b224dU, 0xbd9bdde03d2374d7U, 0x3cdc38323ca47c8bU,
  0xbe053edb3dba5931U, 0xbdd84f03be02bcc8U, 0xbdec14c8bd88f3acU, 0x3da3d7e23958b886U,
  0x3df57f1a3d8da4cfU, 0xbda0f79bbc93bfb1U, 0xbd12d0bcbdc0c24fU, 0xbd844b52bc4571a0U,
  0xbc87edb5bdbeeb96U, 0x3df69a793cb8416cU, 0x3ced80f2bdac00e5U, 0xbc16d706bbf54684U,
  0xbc3da1a73da8d40dU, 0xbb9dd192bc3c8579U, 0x3d459ef1bdb02538U, 0xbdc9c6a43d7349c5U,
  0xbd3c810fbd004889U, 0x3e019af1bd21f515U, 0xbd8a07f2bd00425aU, 0x3d7f67f2bd2417bcU,
  0xbd5d923ebbc46bd2U, 0xbdcfe8183da32f43U, 0xbbdd59003db652b1U, 0xbdb0cf72bc6aa1a2U,
  0xbd5bee73bdec9c6dU, 0xbdbff0ffbda8c1fcU, 0x3cc23064bd0e2003U, 0x3dc67112bde351e2U,
  0xbc77ba963d2798c5U, 0xbd8611f2bd1e953dU, 0x3d8d4cb7be017879U, 0x3df28f9f3dd8fb50U,
  0xbda7143cbdf176e8U, 0x3bf0e072bc55eb66U, 0x3dd880793cfaacecU, 0x3dca2bcabd08fceaU,
  0xbd3acd3c3d170e3cU, 0x3d809538bda85362U, 0x3df51e523e162b90U, 0x3e11eb15bdc3fa4cU,
  0x3dac1f3bbe05f46cU, 0x3d93566ebdca05ddU, 0xbd886b2e3dab23c4U, 0x3d2fb6a53bcb0311U,
  0x3d261853bd1f039aU, 0x3c920c11bc0ddc7eU, 0x3e034bc3bd633002U, 0x3de229c9bb406d3eU,
  0xbdba73333dc32560U, 0xbd501e253dc4454eU, 0xbdcd9401bb9c044dU, 0x3dcef0083d82bd13U,
  0x3cdbda60bceba7bcU, 0x3df351aabd837555U, 0xbd4232fd3dd68faeU, 0x3cff53a73d950005U,
  0x3aaf24763d4e0339U, 0x3db2ee283d88202cU, 0x3dbd01e93d81d65dU, 0x3d9a5e413d9420e6U,
  0xbdbd513f3d63b546U, 0x3d2815bdbcbe17e9U, 0xbd00956ebdb532c0U, 0x3ce4d0f73defe8baU,
  0x3c88cd933d5c7d02U, 0x3b6d3e5bbde215ddU, 0xbd28421abca122e2U, 0xbdec23403d2d32b1U,
  0xbd9c0c5abb15720bU, 0xbda929ffbc2fbaa0U, 0xbd6561bc3d9ef893U, 0x3dbd47ccbd6a1668U,
  0x3d59d352bda9c2e6U, 0x3d458198bce6a3d1U, 0xbdcfce823dbb6215U, 0x3afdc1bb3b61ef4eU,
  0x3b8c8679bd84b3a8U, 0x3db35531bd8ec077U, 0x3da6d5f5bde06ecfU, 0xbd6bc436bd9aafceU,
  0x3cf3772b3dce1729U, 0xbdec6e9bbd3e1498U, 0xbca026aabbd1ccc2U, 0x3d79b18b3c6b3e17U,
  0xbd14657a3d566bd2U, 0x3d49ebeebd7b500bU, 0xbd968bbf3d83fde8U, 0xbcce60053d06c5a0U,
  0x3bbe6179bd111ccfU, 0x3dbb9b64bb26baf3U, 0xbdea6b6bbc240611U, 0x3c5eee12bdbaa2e0U,
  0xbde0d348bc0b7d95U, 0xbdb533b33dd94f45U, 0x3da580443db7a065U, 0xbd42872abdc18b54U,
  0x3e07e5d4bd8d5362U, 0x3d5d030c3bf6b114U, 0xbc0b125b3d207f56U, 0x3dc72099bd675e1cU,
  0xbda64de2be00f74bU, 0xbd20e35dbde8fdbdU, 0x3d990e193da58362U, 0xbd8b84593d438e62U,
  0x3d79b0a6be03af9aU, 0xbc0770debe0091fdU, 0xbd202a04bd46c176U, 0x3d4094773d8d2883U,
  0xbc2f1d11bdcacd7cU, 0x3ce378393dbe9878U, 0x3da7f5553d008f33U, 0x3dd9da27bd22fd77U,
  0xbc397701bd3fd5c5U, 0x3e06afe23dace779U, 0xbd1cb29d3d992613U, 0xbd43e35bbc558036U,
  0x3c262273bdc9abd3U, 0x3d1f731cbe099bb7U, 0x3b2e46063d93fa54U, 0xbdc3b562bd6e19c7U,
  0xbd5d637d3d935d30U, 0x3cc635763cc630baU, 0xbcee46e13de4df07U, 0xbb0133893c2bbfd0U,
  0x3e01c942bcbd9199U, 0x3d43ed1bbd92cdc7U, 0x3dbc94c93bc41d98U, 0xbd6814f83d6a0fa1U,
  0x3c55c3ccbd76a7feU, 0xbd4d1dae3d82cb86U, 0xbda41cafbd550be4U, 0x3d36065fbdfefa28U,
  0xbd0fc8e83d38c9f3U, 0x3db3e59f3d7a0ef9U, 0x3da45cef3dd19142U, 0xbdb03cf83d329659U,
  0xbce43567bdd25b8dU, 0xbdbf01d1bdcae2c6U, 0xbd371b44bdde331aU, 0xbd93389a3d106f23U,
  0x3dd823a0bdb59385U, 0xbddc0bf1bcaa2862U, 0x3cb059f5be0743d7U, 0xbd6884993d9e5dd5U,
  0x3d125567bde8659cU, 0x3c99192e3d78a62dU, 0x3d119eebbd354cd2U, 0xbc3fc80dbdef85c5U,
  0xbd18a24abdde17f9U, 0x3d98764dbcd6981eU, 0x3c3278f0bd848c88U, 0xbd305c3b3c7966eaU,
  0x3dd09f2cbc343952U, 0x3d82ba753b090983U, 0x3c9efac53cf04e9aU, 0x3c15bd1e3db095b5U,
  0x3d9ea8bb3d366b9bU, 0xbda207dbbd2cd367U, 0x3dcd86483cf0c876U, 0xbd0e6f8cbd7e1a11U,
  0x3de8a1243d3abab8U, 0x3da293bfbd983274U, 0x3dc93ffebe085b17U, 0x3c128a0e3d6d8916U,
  0x3cfd7beb3d1b0f69U, 0x3d4baac1bde41607U, 0x3e03a91b3e022083U, 0xbe0e27373d92c710U,
  0xbc3d20d8bce61e06U, 0x3dd7ab6d3c9701f3U, 0x3d98cd7c3bfbece2U, 0xbd1f72103d6fdf79U,
  0x3cc8dbdf3df67b12U, 0xbd9cd6b3bc428e78U, 0x3d8231f1bca60eedU, 0xbd9a5f643d56ebc3U,
  0x3d8c0ae83d9184e4U, 0x3e00fb1abcea7afaU, 0xbd72a1f9bd8df502U, 0xbdb91bcebd146770U,
  0x3db166353da76f93U, 0xbdf4a8e23c24e514U, 0x3db382bf3d8fbc76U, 0x3dc876e6bd7723c6U,
  0x3dc5a1153b744fadU, 0xbda446513d45108bU, 0x3b8188af3d412c0dU, 0x3dcaaddb3db09dfaU,
  0xbde7a6e7bcac6714U, 0xbd62396fbdcc3245U, 0xbdb8a8203d0ab8f6U, 0xbdac18983dad0ff8U,
  0xbc26a15f3d23b7a1U, 0x3e000c7b3d647e2aU, 0x3c43d512bcc4aeb8U, 0xbd3e2aacbdbd56faU,
  0xbd2384c03c76848fU, 0x3d3e621a3d8b12e5U, 0x3d03fb04bd0ba96eU, 0x3d000628be035fbbU,
  0x3b9d2aba3d73344bU, 0xbc6062babdef89e7U, 0x3ce6126f3dd01a51U, 0x3d330d1a3b15a9aeU,
  0xbd5b16f3bccb0d86U, 0x3ddf0c253d72ed39U, 0x3d5859003d687f3bU, 0x3d283c75bd8d80f0U,
  0xbdaf078fbd50b1f3U, 0x3d131eedbdc24311U, 0x3d862846bced05dcU, 0xbd7ff2d03dc4d3c2U,
  0xbc271fc1bd3be430U, 0xbc4e91adbd8c5593U, 0xbb81c7893d8d0ef0U, 0xbdbac6fc3d94be8eU,
  0xbd98d733bd8a0288U, 0x3c883584bdb5a230U, 0x3d9d575f3d059ec0U, 0xbd05cedc3d4ce073U,
  0x3de566d73cc611d3U, 0xbd3983bdbae4bf75U, 0x3cd59440bddaad74U, 0xbccf07acbdaf3f4eU,
  0x3d4cd0aabd941b47U, 0x3c8800563ddd0a6fU, 0xbe0350d63d234a9fU, 0x3d8870fd3d894b6dU,
  0x3e013575bdfcb1b0U, 0xbd57d8e33de48772U, 0x3d8e3bc73d94bbc8U, 0x3c963ef9be01a927U,
  0x3d0f6fd7bdf85eaaU, 0xbd9c9a0b3d92526dU, 0xbde56715bd34a744U, 0x3dc3072fbd91a21eU,
  0xbdd2c7443dc5ee82U, 0x3bc355a7bd8f2685U, 0xbdea7e3fbdc1e00cU, 0x3cb8aa41bcc27b8dU,
  0x3cfdb635bd7c0decU, 0x3b5b59f03ccdf453U, 0x3d36a859bd4b77edU, 0xbde2e4523df9b06aU,
  0xbd5feda63d76eef5U, 0xbd130ccbbc0c1a15U, 0x3d4192563b7f3b0bU, 0xbcbedb68bd8c4552U,
  0xbdd458833c3cd549U, 0xbd5cf000bdc90a6aU, 0x3dc408fa3d46720bU, 0xbd4e716fbddd6bc7U,
  0xbdda95b4bc0ba54bU, 0xbd8e5ef9bdc6b31cU, 0xbcde18a83dca9ad8U, 0x3df459773d765e42U,
  0x3dc555e9bd9a2919U, 0x3da3abb7bbe53d24U, 0xbd505e9fbde9208dU, 0xbd36c38e3c6d0abeU,
  0x3c864274bdb9e4e5U, 0x3cba4ad2bdce8918U, 0xbddeaa78bddafcfcU, 0xbcf5b1e3bdd8038eU,
  0xbbedca283d371b7fU, 0xbd8c5f273dca17cbU, 0xbc8f400ebd8399a8U, 0x3d65d87cbd2289e4U,
  0xbbff8123bd411e86U, 0xbdc88d14bd0a1859U, 0x3d7eb7cfbdbbeb91U, 0x3d392c753db9a004U,
  0x3dd51ea7bda4e450U, 0xbdf5b675bd410985U, 0x3bac854b3dc7885aU, 0xbc1df47f3d97e36aU,
  0x3b81abe73ded7690U, 0x3d136032bd82169aU, 0xbd435e1dbd121907U, 0xbc0525b4bd6e84aaU,
  0xbc63cc07bdd9a96fU, 0xbdabcca03d91ccf1U, 0x3df334cd3dbe86bdU, 0xbcb50ce73da40c29U,
  0xbd98e1183dfec2dcU, 0x3d2847c83cfe36b0U, 0xbdcb7a44bde99238U, 0xbde9cdd4bcfbb200U,
  0x3c461d40bd7c8fb8U, 0xbc8c6f603ceffe20U, 0xbcbda9503bb699c0U, 0xbd1bf7d8bd4e12c8U,
  0x3dcd1e0cbdc2d134U, 0xbcdd8fe03d948b00U, 0xbd8192e8bd192058U, 0xbd82655cbd6fba68U,
  0x3debc954bded4bf8U, 0x3cf7f6303d3de1f0U, 0x3df3c3c03bedd680U, 0xbc5577e0bd48c248U,
  0x3d2a0298bdab1e98U, 0xbd5b9428bdc748d4U, 0x3d85fe203d9e0cd4U, 0xbc87c4a0bd4f0c90U,
  0x3deeefa03d9e8934U, 0xbdcb7e08bdd7b034U, 0x3df55d08bd7fd060U, 0x3d04e3683ddb797cU,
  0xbd18b0e0bd22eeb8U, 0x3dd454acbdd535bcU, 0x3de2e1703d4cad90U, 0x3cd42f703d7f0370U,
  0x3d803ee03d2ad978U, 0x3d40f650bdfa1f14U, 0xbde5f0a03db50e34U, 0x3cbf11b03b804f00U,
  0x3d572688bd401118U, 0xbd6c0c00bcbb50f0U, 0x3dfd45443cb3cc10U, 0x3d88c3a03db4e1c4U,
  0x3d263500bd06e148U, 0xbde72730bd6ced30U, 0x3de781043d329be8U, 0xbc9966403de7e3d4U,
  0xbdc4c960bdb732b4U, 0xbdf7e8e03bffb7c0U, 0x3deb97d83dcbb4b8U, 0xbdb4e6a83b106300U,
  0x3deb3dc4bdb7a478U, 0x3d8f8ff0bda11684U, 0x3d41cca83da4ac9cU, 0x3da761c4bbc2bc00U,
  0x3d2a4048bda987a8U, 0x3cdafee03defbffcU, 0x3bc68f00bdebae0cU, 0xbc416820bd19c200U,
  0x3d810f443db829fcU, 0x3d4ce6883dad6024U, 0x3dc370583dbd3e18U, 0xbd8337e0bbbdd780U,
  0xbc4204003c3820e0U, 0xbddca494bdab85b8U, 0x3dbc4d98bcd69410U, 0x3ce7a470ba11ce00U,
  0x3d8006b8bd601e90U, 0x3bc930c03dd700e8U, 0x3de7b94c3dad95fcU, 0x3ca0baa0bd3d9ac0U,
  0xbdeedc63bd97c071U, 0x3dd13ded3d2b7f59U, 0xbbd951c63cc4d584U, 0xbdcc539d3dab4b9aU,
  0x3dcec9e6bd5710edU, 0x3d1c22463df14f55U, 0x3db239dd3dab8548U, 0x3d4f4ddebd614302U,
  0x3d90b7ec3dbabfdfU, 0x3bedf0debd208862U, 0xbd59e6f33c747c45U, 0xbcd85427bd8c5188U,
  0x3d9820adbc903d38U, 0x3da5fe2fbd48a2a3U, 0x3c48bddabccd8eb8U, 0x3dae4686ba02a8feU,
  0xbcbea4263d74bb72U, 0xbcd84febbd50f721U, 0x3df0d9583d7b040bU, 0xbcf59f98bd2c7d2dU,
  0x3d396bc4bced1910U, 0x3db372f2bdde747dU, 0x3c2d2e15bdbed116U, 0x3d8c49573d2e6d26U,
  0xbd4d276cbdfaef2eU, 0xbd42e7723dd04f74U, 0x3dc4aa563dd97402U, 0x3dedff023c76fe28U,
  0xbd56ebb53ce64ae1U, 0xbb0e42493c859b24U, 0xbd2776523cc7eceeU, 0x3d93ee69bae38d4eU,
  0xbbf92a413cc3ac50U, 0x3d4f0dedbd1e9a54U, 0xbdeb502dba1231d6U, 0x3c80ff58bde01f22U,
  0xbce248dd3af9c322U, 0x3d5faabb3d118141U, 0xbd6ea7713dbcdd18U, 0x3d5061e93dbeed1bU,
  0x3bf92704bdf8fdf0U, 0x3dc8be1a3d2c5a42U, 0x3d9a55023db50d99U, 0xbdabcf06bdd8d9beU,
  0x3c86c8d13d92ec1aU, 0xbd3bf0103d8010fbU, 0x3dad65293d673afbU, 0x3de8fb0fbd159e3fU,
  0x3c0bd4d33df6ca0fU, 0xbde519f73db8f975U, 0x3c04c0623def4cf8U, 0x3dc19946bd857daeU,
  0x3d8030fcbd83f496U, 0x3cfbaae83d05665cU, 0xbd1269da3da3fa9fU, 0x3db00696bdde6308U,
  0xbdc3a5243de6149cU, 0x3df02a5fbd594cb8U, 0xbc9bddcdbd398b22U, 0x3ced3a083d67213cU,
  0xbdb95d403db95edcU, 0x3de1bacb3da65157U, 0xbb8023a83d02b742U, 0xbd99c2e5bc95b783U,
  0xbd1483983d80758cU, 0xbc2f4a203d1cf228U, 0xbcfc2dc03ded7638U, 0x3d1b7060bd87a074U,
  0x3da6cf50bdd36408U, 0x3d3e1b90bd0824d8U, 0x3d12a3783ce40e10U, 0x3cdc23c03d84e564U,
  0x3dfdc6e83db65320U, 0x3d9526e0bd881aacU, 0x3d0648103c4ecb00U, 0x3df1dc0c3da401b4U,
  0xbc38c7a03d50b568U, 0x3d9abe70bde5c8c8U, 0x3dedffdcbd440470U, 0xbdc52c54bdc1f244U,
  0x3dd0e65cbdda3314U, 0x3de7c2a83dc39c38U, 0xba498c003d8f6240U, 0xbd5deee8bd9b8460U,
  0xbcde8ff03dfecd3cU, 0x3da7fa8c3dcf8388U, 0x3bd943403dae80fcU, 0x3d4542d0bc0b8d60U,
  0x3dafc0583d2bf940U, 0xbbbe5100bd1c37a8U, 0x3d3e0c30bdf02668U, 0xbdf39d803dcce6dcU,
  0xbd81fdf8bc029e80U, 0x3d8457c4bd0aa318U, 0xbd5330b0bdc71cd4U, 0x3d109b203d0c6e10U,
  0x3dc251cc3d52e7d8U, 0xbb835e803d32c270U, 0xbddf7ac83dd073ecU, 0x3d46ecd0bdffac74U,
  0xbd047928bd22bb20U, 0xbd29d2c83da14c10U, 0x3dfd5300bdab7af4U, 0xbd98e43c3dcf1330U,
  0xbbcc2a003d4858e0U, 0xbd3490c0bd2332d8U, 0xbcfd0700bd95a670U, 0xbdd368f03d9a1ed4U,
  0xbd92e8d0bd877d98U, 0x3daadfdcbda1a438U, 0x3cd08dc0bda8731cU, 0xbcefd050bb10ca80U,
  0xbd8d2370bdb96f18U, 0xbc091e40bb84b180U, 0xbdce7bec3dfa8aacU, 0x3d86b6803d8d7f78U,
  0x3c10f8003c19a7c0U, 0xbdcaddc4bd83f168U, 0xbba349003d88db94U, 0x3d117690bdcfe03cU,
  0x3d872c5c3bd4dec0U, 0x3dbba6643d87adb0U, 0x3d93be6c3d9aa4d0U, 0x3cc7ab403dec685cU,
  0xbda08c1cbd484f78U, 0x3d586180bbdb23c0U, 0x3cf17270bd345218U, 0xbd619b48bd7527f0U,
  0xbdd008083d42bbf8U, 0x3da7466cbd5bf1c0U, 0xbcf672b03d97ba5cU, 0xbca4ddb03d954338U,
  0xbc8167c03d9119d0U, 0x3c564c003ae5eb00U, 0x3de10fc03d24db08U, 0x3c220300bd92e5c8U,
  0xbd057ca8bdb540ecU, 0xbd27c6c8bd9816a4U, 0x3dcf86dcbd949c98U, 0xbdaf8138bd43a358U,
  0x3de50a283d9ee8b8U, 0x3d7facf0bdaf4930U, 0xbc977e403d729418U, 0xbd15cdb03df61cb0U,
  0xbdd49fc83deef608U, 0x3c782ca0bd8cb900U, 0x3d9d3ec83c912750U, 0xbd8c061cbca0fdb0U,
  0xbd8084083d1f2250U, 0x3d8610483d5a8cc8U, 0xbc236180bdc4ccccU, 0xbd773fa0bd0118d8U,
  0x3dafe95c3d9d3fd8U, 0xbd9790acbd4b3800U, 0x3d5d2ff83d376fa8U, 0xbd5355f8bc223fa0U,
  0xbdc5b6dcbd1350d0U, 0x3da1c5e4bd99ffd4U, 0xbdeada383de66290U, 0x3dd6f8083d19ed70U,
  0x3cad9f503dd78090U, 0x3b9f0800bd0d2690U, 0xbd02a488bc72cfa0U, 0x3cf0ecd03cb1a710U,
  0xbc82ab00bdd0ad10U, 0xbdfae744bd7814d8U, 0x3d512cf0bd059a98U, 0xbcd3fac0bcae49e0U,
  0x3de3710c3dcd99f0U, 0x3df674803d8612fcU, 0xbc4bd5603d01ab60U, 0x3c01f5003ddcf2a4U,
  0x3de7c5d03d67b200U, 0xbd9f81ccbd71fb78U, 0x3d198de83dbe588cU, 0xbdc403ecbd8ba3dcU,
  0xbc2526803cf4cbd0U, 0xbde4fd843d7ac970U, 0xbd87032cbdade458U, 0xbdf740f83d49b300U,
  0x3dc074a4bd325d08U, 0x3d396918bde9feacU, 0xbc6d53a0bdb26c74U, 0x3d23e228bd7f1568U,
  0xbc5db940bd307fb0U, 0xbd4e46c0bd8b7aacU, 0xbc0bc8e03d951bbcU, 0xbcea32f03d90f880U,
  0xbd58f2783daab920U, 0x3d251a58bcded490U, 0xbc952cc0bd9ce320U, 0x3d583f383da9c64cU,
  0xbd231d553c6c3179U, 0x3d9154a1bd6c0966U, 0x3d3de875bd888d96U, 0x3cdc2c5c3d85c5f3U,
  0x3ddfefac3be0ba4bU, 0xbd2720863de34e7eU, 0xbdfef1d4bd9028ccU, 0x3bdc9b2dbda133cdU,
  0x3d1c9517bd8eb71fU, 0xbc5a7f9d3df35d44U, 0xbddd1e8abc9f99aaU, 0xbc728fbcbcf77727U,
  0x3cb312ff3cf48e1fU, 0xbdcad6a7bdd09566U, 0xbd4b4248bc3271b3U, 0xbd608068bdad9a9bU,
  0xbd30262a3d4b635eU, 0xbde79345bc7ad293U, 0xbd204d22bc021496U, 0x3ca6e5453de1179cU,
  0xbb422f3ebdbc3e45U, 0x3dff4998bdf9431dU, 0xbdd6cff7bd5cda44U, 0x3d1541ad3de60a89U,
  0xbb371092bdb2361dU, 0xbdab549bbe046f75U, 0x3b1a3024bda96788U, 0xbd8f5276bd1a2442U,
  0x3db9f03dbe004dbcU, 0xbba7403fbd27dc56U, 0x3dfb50b73e0dcffaU, 0xbc4001bc3d60409eU,
  0xbd54384f3d7551fdU, 0xbdfbab1cbd7a8511U, 0x3d97b2d4bd355e33U, 0x3dacffd73d67b500U,
  0xbd125dd8bdc3e835U, 0xbddfc1ecbc4b26f5U, 0x3d84a8653d9dff45U, 0xbde7cbfcbcbefe1dU,
  0xbdfe157b3c91c042U, 0xbd4a5beb3d4a09dbU, 0xbd9f38dabd419e4aU, 0x3dcd99eb3dad6406U,
  0xbdea2becbda8feadU, 0xbd0daa7fbddc2aeeU, 0x3dd4d36dbd6b1446U, 0xbcc1e399bd344689U,
  0xbd949cdf3c6ea937U, 0x3df0047d3d276dc3U, 0xbd3d8674bb25f658U, 0xbd692317bd316d5dU,
  0x3ddd10433ce9f54fU, 0x3ca20044bd567afeU, 0xbd925b5b3da8879fU, 0x3dde1640bd3a1f9cU,
  0x3e001e24bcb014caU, 0xbdec660bbcab349cU, 0x3d73e55bbdd5d4deU, 0x3cec6b66bdae1ba0U,
  0xbd9bb22ebbebe691U, 0x3dc3b2ac3c6461dbU, 0x3d7cec293cfb269bU, 0x3dcbf544bd05bc01U,
  0xbd1d5919bb0a01e1U, 0x3cf5f6993d42f73cU, 0x3ccff94ebd247f0eU, 0x3dbda8d63ddd2a9eU,
  0xbdd4f045bcd19993U, 0xbdaf4adbbdb8d390U, 0x3dd958a83cba54faU, 0x3ca8a3d5bccf4e52U,
  0x3d7b97dc3de6ec62U, 0xbc20d5e13d95b2e6U, 0x3ddc70a03dab81c5U, 0xbe012db4bcf5124fU,
  0x3cfee3b73de4bb10U, 0xbdbc1dba3df73423U, 0xbd2aba8a3d54a35bU, 0x3e05786fbceb0a6dU,
  0xbd86a029bdfcd9a9U, 0x3c3d5a0dbdb1a52cU, 0xbd8d97703e0570efU, 0x3d32cac5bd3874a0U,
  0xbdcbb58bbd4db947U, 0xbdcb59d0bde60f9eU, 0xbca3e7d33d620051U, 0xbcc56a0bbde666b2U,
  0xbdb1a7303d863a0eU, 0xbd68e6233c0bc864U, 0x3dd5917e3d4d5f15U, 0x3d833ce23beff125U,
  0xbbfe00babd56f673U, 0x3dbd669e3d8d3620U, 0x3d64e258baeb1ec7U, 0x3d1b81adbdbc74beU,
  0x3c1e47ae3d6641f8U, 0xbda3e34abdeacaeaU, 0xbdad4ba1bd9803beU, 0x3dd467563dcfc809U,
  0x3c52bb3b3d17a057U, 0x3d9077fdbdf56f94U, 0x3c975945bb5091caU, 0xbdff04613da0095fU,
  0xbd348ecd3da8669eU, 0xbd9aeeffbd7de2a0U, 0xbd5c13e7bdbb5cd6U, 0x3d02f57fbdb0944fU,
  0xbe01c2ccbbdbfa30U, 0xbdf5cbdebdbfb81dU, 0xbc673b0dbd8bc4edU, 0xbd134ce0bdc08d89U,
  0xbdf8bfb03d0bc970U, 0xbd3b03143d8499cbU, 0xbd2e1c60bb9686e0U, 0xbddfa73e3dc32cebU,
  0xbc8c87673d851277U, 0xbb97d923bd64e35dU, 0xbdd514e33da51b92U, 0x3cfa08753d30ffbbU,
  0x3d88b47f3c90574fU, 0x3dfdc55dbbc55dd3U, 0x3d9e73e63d9c4fa1U, 0x3ddda050bdf2a061U,
  0xba526df63d3a0cf4U, 0x3e0675543d0abe54U, 0xbd030522bb95caa5U, 0xbdcdb2b83d460b81U,
  0x3db187ea3da6821bU, 0xbdbe89ccbddd78b0U, 0x3e00dda2bd9bcf0cU, 0x3d86bdd63d7f2d2aU,
  0x3dbf39263d0b6c68U, 0xbdbeaa4fbddd3154U, 0xbcbb4322bdd9180bU, 0x3dd16c63bde74108U,
  0x3dc78972bddcb629U, 0x3d231baabd9c007aU, 0x3e0a0aec3e0bf968U, 0x3c1e514fbcafdcedU,
  0xbd88f6b33e0036a1U, 0xbc52914ebdebd817U, 0xbdcf1645bd8390d1U, 0x3d50aff53dc0678aU,
  0x3cd5b8e53d59c292U, 0x3d9533f9bd8b0f17U, 0xbc214b8fbd0104bfU, 0x3d856ebdbd3a1313U,
  0xbdca172e3d224d90U, 0xbcab9cf0be036390U, 0x3dcf44313d88d826U, 0xbd80a0963c0b1e12U,
  0xbda9087a3b64af3eU, 0xbde16286bc0fb6caU, 0xbd72dd2fbde2b6cfU, 0xbdda4dedbe0486e4U,
  0xbd6fc90fbcd010ecU, 0xbdef12153c827f38U, 0xbe02b9b4bdbd2e9cU, 0x3d3eecd53b980ca0U,
  0x3dbc9f47bcdb5201U, 0xbd0ec2ba3dbfc0dbU, 0x3c17ebc83db6c6b0U, 0x3df859923d8aa940U,
  0xbb8c4545bd5fb56dU, 0x3da71e3c3dd7396cU, 0x3d40ddedbd751cc6U, 0xbde613ebbc43e055U,
  0x3dc2d478bdf66ba7U, 0x3da8cac13d701e23U, 0xbd93d530bcd7b7b8U, 0xbdcf0513bd244ba0U,
  0x3e07b09d3d7826ddU, 0x3c9bbbaa3d7048afU, 0x3dc9124f3da83a3fU, 0xbd6aac5d3d382c04U,
  0xbd52bdfa3d91db6dU, 0xbd0dfb0c3c6d3f0bU, 0xbe0696b73d70bfb4U, 0xbc8382c83db06504U,
  0x3dc59f773d8c0285U, 0x3dbb1f433daec0b6U, 0x3d9e4c06bda24bc5U, 0x3c2f372fbdc0adf5U,
  0x3d7f16b6bc9e5292U, 0x3dda4f6c3dafe62aU, 0xbe0efdf73bc389c7U, 0xbd2e1f3ebd161ff1U,
  0x3d9d8bdcbdd204fbU, 0x3dfbff8dbe058b9dU, 0xbdd6234ebb85549dU, 0xbb91f854bdd0e410U,
  0x3df78b403dc5df78U, 0xbd20fd20bdfa38f0U, 0xbd3f1bf83d833544U, 0x3da219383da74108U,
  0x3dc13c7c3d537748U, 0x3d7fb320bda517f0U, 0xbd724888bd039188U, 0x3cb415f0bcd173b0U,
  0xbccb83b0bd5fe258U, 0x3dc07ca83d18c600U, 0xbd12e7983d098490U, 0x3d8a543c3b883740U,
  0x3db9ec28bdf7c718U, 0xbd07caf03cd77370U, 0xbdf569bc3d8f2230U, 0x3be5b4803dbe779cU,
  0xbd53b210bd95c778U, 0x3cda8ff03d751418U, 0xbbf1ca40bdbe8d78U, 0xbd290f603db017c0U,
  0x3ccf0110bd98a30cU, 0x3d0b9598bd0c9698U, 0xbd7ea6f83d538bc0U, 0x3dfd08843d75ea00U,
  0xbda9b980bdb41adcU, 0x3dc8e14c3da9c25cU, 0xbd9d14acbca72270U, 0xbdef60c83c71ac40U,
  0x3dde2918bda4dfdcU, 0xbd697670bdaa8048U, 0xbdb1682c3d88a760U, 0x3cc5d3403dadcbb4U,
  0x3d8af1f8bdbdcc3cU, 0x3c9102d03ce6d820U, 0xbb5e8d803d068670U, 0xbdb36840bd0469a8U,
  0x3d8b44443ceaf450U, 0x3de93cc0bd80c140U, 0x3d717dc8bdf81e18U, 0xbd36a0f0bc2ba8e0U,
  0xbd76da803d9f5d88U, 0x3da1ba3c3d397018U, 0x3dacb9f0bd23fb38U, 0x3d9135d4bd38d428U,
  0xbde844c4bde0f27cU, 0x3c6a78a0bdea6c78U, 0x3db41ef8bd6099a8U, 0xbca4c860bc269ce0U,
  0x3d59fae03c28d3e0U, 0x3cdf8270bca0eca0U, 0x3d4be060bd9a218cU, 0x3d75d6903db26f28U,
  0xbd6930a03da472d8U, 0x3c3cd5c0bb77be80U, 0x3dea11a4bd909e40U, 0xbd47b7b03df23300U,
  0xbba972003de7fca8U, 0xbd5ec1703d2ebd90U, 0xbdff01c83d82b7ccU, 0xbdffdd9c3d143338U,
  0x3c927a603dc8ba14U, 0xbd369b50bbeaf700U, 0xbd5d73d83dc7e2f4U, 0x3d37bb00bbdbaa80U,
  0x3d0c6c1b3d17b041U, 0x3e04ad7f3d09fc12U, 0xbd362ad7bdb2445aU, 0x3d44ae9bbd4ce14dU,
  0xbddfd65c3d0b99ccU, 0xbd567aa2bbf50d09U, 0x3c0064913d298718U, 0xbd86116a3dc9d3eeU,
  0x3dac3c4bbdc5fd96U, 0xbdd624dd3d77169dU, 0xbd0dcc4fbc37354fU, 0x3bc36710bd971daaU,
  0x3d061c583d7b5db7U, 0x3ddd452abde95471U, 0xbd4f54b0bd9461f6U, 0xbc9eeb813ca74931U,
  0x3db8cecebd4aee09U, 0xbdf0261ebd97e86cU, 0xbd8628ee3d9fcf0dU, 0x3ddfd7f6bd9618dbU,
  0xbcb540673a7f8d87U, 0x3d8bdccdbd4d0033U, 0x3d1723fbbc129772U, 0x3ddcf532bd159671U,
  0x3cbf52a8bcf38faaU, 0xbd560dd3bdb63e0fU, 0xbdde15eebdd38f75U, 0xbde20fbbbdb0ddd3U,
  0xbda30ae2bd9e3e34U, 0xbcaea132bd5f2a9cU, 0xbdb6d85dbd13ceedU, 0xbcb178fdbd1dfd25U,
  0x3e0b707ebd58ab31U, 0xbbd715083c6a3770U, 0x3d4e34733cd294aeU, 0x3e1093bc3d91e15bU,
  0x3d4247633bc218a4U, 0xbd9fdd17bd859d36U, 0x3da91970bcce8084U, 0xbcb5936ebd72536eU,
  0x3df15ac03dd54a99U, 0xbd96fdd03df81debU, 0xbc2ce902bd7fc09fU, 0x3dba391bbcff4886U,
  0x3db735673c930bb1U, 0x3d6638fd3de2c646U, 0xbda539223d46a66cU, 0xbd88f1b7bd546a92U,
  0x3d052564bde9d9c9U, 0x3dc1c7febce7b3c7U, 0xbd386488bcbf669dU, 0xbc7695f13db5747fU,
  0x3d79fa843cc4c300U, 0xba1acb7fbda81d01U, 0xbd8e081cbdc4bc05U, 0xbdf6f1a53dded97eU,
  0xbd50bce73c6dd607U, 0x3e11e0f7ba24534eU, 0x3dc1a3df3d21dcc2U, 0x3d2623763dbe5976U,
  0x3d952effbdbd878eU, 0xbdba1e6abd356092U, 0xbd4618a7bdffd6c3U, 0xbd8f24833c9c7051U,
  0xbdcfe7d83debeee0U, 0x3d6a76303b167800U, 0x3dddfbf4bdc19f3cU, 0xbd9ae994bdc28854U,
  0x3d70aa88bd22e888U, 0x3dbe04203db89330U, 0xbdae7cf8bcfa5940U, 0x3dbf4ce43d47a788U,
  0xbd9fb0c0bce52260U, 0xbdc259cc3d4c91f0U, 0xbdb6a180bc4f45a0U, 0x3d6134203cec7920U,
  0x3deb62f4bde0a9b4U, 0xbd9fcb403dea0bd4U, 0xbd65ae18bd71b258U, 0x3cec2ee03dae0bdcU,
  0x3df4410cbc4d0dc0U, 0xbdd38a7c3dd4a060U, 0xbc6410403df7e2a4U, 0x3dfb87503da416dcU,
  0xbca433f03da14700U, 0x3db67d6cbb266700U, 0x3da9a50cbdb7405cU, 0x3c85add03df4a30cU,
  0xbd8fb0a8bd940344U, 0xbdd0ca043c72b080U, 0xbbe8c140bcb406f0U, 0xbdbabdd8bd87c368U,
  0x3b2f3680bdb0c360U, 0x3d9594c4bc9f7aa0U, 0xbda43d343d896500U, 0x3d8f6dac3dd6f3e4U,
  0xbdd6c3703d80747cU, 0xbdbc73543ddcf0dcU, 0xbd30c710bd88bac0U, 0xbdd7c2983d8459a4U,
  0x3c5af9403debf0acU, 0x3cd95de0bdf6fa10U, 0xbce8c900bdc36fc0U, 0x3d7810e83d38e0c0U,
  0xbdc1cba83cc54d00U, 0x3db872c0bdc464d4U, 0xbdbf0ec8bd2e8f20U, 0xbd566388bd621888U,
  0xbdef33e0bcdb8e60U, 0xbd41c0f83db1b4c0U, 0xbceac4c03d2edcc8U, 0xbd20d9b0bddaf7ecU,
  0xbdcc6b94bce7def0U, 0x3d9a98ccbd537940U, 0xbd8ab60cbdf52380U, 0xbdea18603bb88040U,
  0x3c4ae4a039078000U, 0x3dd3a0a43d159d90U, 0xbc39bd603db8a558U, 0x3db91700bdb6f260U,
  0xbda6c1c03c6aa3a0U, 0xbcf08810bde995b0U, 0x3dfe36f03d6b7898U, 0xbdc7b5dcbbeb2e40U,
  0x3dee4334bdfb58acU, 0xbd362f983be221c0U, 0x3d07fa883de40a20U, 0x3db432fcbd17fd28U,
  0x3db553cebdfb55e5U, 0xbd01265e3c3b449aU, 0xbda4f117bcd27c0bU, 0xbdf5d84b3da5a37aU,
  0x3d55f8f4bca174d7U, 0xbd79a25abde5cbacU, 0xbdb3a3adbdc02d8fU, 0x3d30fa203d82b409U,
  0x3da971bebda99cecU, 0x3b861c053dac846eU, 0xbded9798bc3d4762U, 0xbb1ccb64bd12f15dU,
  0x3dbd763ebdb6ba68U, 0xbd66da453db1dfcdU, 0xbdeff54d3d21c97dU, 0x3c7afa623d623109U,
  0x3b2861a23bfc38d7U, 0x3d1a6661bd7ab732U, 0xbcffe18ebcda7500U, 0xbd344a8d3ccec1a6U,
  0x3d75489bba41dbbbU, 0x3dc351b63d5f3456U, 0xbca22f90bdbb3c72U, 0x3de503b93d828ac2U,
  0x3d6080603d959219U, 0x3d958a99bdcd0d73U, 0xbdece90cbdf61cb8U, 0xbd330ffabd581979U,
  0xbd4af9903d5e6f21U, 0xbc9ca7ae3dd3903fU, 0xbc121f64bcfebfc3U, 0xbdb57530bd2378f7U,
  0xbd5bee42bdca176aU, 0x3d6b9fd53def42a7U, 0xbd1cdec63d546c50U, 0xbe07c511bdb8adf6U,
  0xbd6e9f3ebd956515U, 0xbda649c9bd936e8cU, 0xbdb3a6483bb77f2aU, 0x3c8010133db1dc7eU,
  0xbcce5403bdc90e08U, 0xbd5143fa3de3ec2bU, 0x3bc4a42b3d7de623U, 0x3de5d73fbce58d7dU,
  0xbd919edabdaca1adU, 0xbd8c54c03cd1c5baU, 0x3d8d051bbd176991U, 0x3dce4b293d6c7f92U,
  0xbd9d3c56bd30b452U, 0x3d29e3ea3dae1ec4U, 0x3d84b5983cb244ebU, 0x3d6ec9d9bd1af307U,
  0x3d37e246bdd4b5d0U, 0x3dda86503b7b84c3U, 0x3d7eddc3bc64e827U, 0xbd73b13a3d408248U,
  0x3d98eb933d8b6c3aU, 0xbd461c2ebc940850U, 0xbd8a5d61bda505a6U, 0xbde5a2fabd97cbadU,
  0x3d260556bdeec3b3U, 0xbdbc08efbdd20d61U, 0x3dc6c396bc141273U, 0xbd74b9e73e01c32aU,
  0x3deca653bbc083acU, 0xbdf1ebf9bdd37401U, 0x3db748f2bdba225cU, 0x3dc51ab53df8147aU,
  0x3dcc7e6bbdb8fb8aU, 0xbcfddeb3be010547U, 0x3d63e87f3dea9c53U, 0xbd85e2f83d95764eU,
  0xbdec9dfebdad7e20U, 0xbb39fba73de09d28U, 0xbc0dce55bd07c580U, 0x3dc9702b3d2d7f41U,
  0xbd4839c1bdff947eU, 0xbddb9c253d829fe3U, 0x3d63db6cbd9af7b4U, 0x3dc062313d44793cU,
  0x3c9c62973d8a5672U, 0xbdd9dbd5bd60da72U, 0xbd876bd1bda1d9c3U, 0x3c165a93bc8aa4d0U,
  0xbbe6566bbd92ab8fU, 0xbd6460c1bd65bf21U, 0x3deb325abb751a93U, 0xbcfb30383b8d017cU,
  0x3d917c58bb7f54c2U, 0x3dba5fd63d2b005cU, 0x3cb67d193bce35baU, 0x3cc4c965bc8a4022U,
  0xbced0eda3da8ad69U, 0x3dbfa8ea3d7160a2U, 0x3dccbb2dbd89a5f8U, 0xbda8e9dbbdea4d06U,
  0xbd8741cd3da6c12eU, 0x3cbad676bd8d6367U, 0xbd82f9423d093cf1U, 0xbb880daf3d904b9fU,
  0xbda5ec12bdbbbf91U, 0xbb88fecebc8a3ff7U, 0xbd3e045c3d8af4caU, 0xbd8b702b3db3bce9U,
  0x3ce7da40bcd86a5fU, 0x3d9261c8bdc69467U, 0x3d9a33aa3dcff7d8U, 0x3ddd935b3da0eae5U,
  0xbc887fffbd955f3bU, 0xbda52e50bde215e6U, 0x3d8e38583d8b2714U, 0x3defe208bd141e64U,
  0xbcb321023db6aac3U, 0xbce6c3b7bc838e30U, 0xbddc6dda3c7cce86U, 0x3ce3098cbdfcf72dU,
  0x3dbb55043d758eddU, 0x3c9db43ebd89c29dU, 0xbded295a3cb38966U, 0xbc8158fe3d8403e0U,
  0x3d606f863daea81cU, 0xbda15666bd760400U, 0x3cdba8b8bdb1ce1bU, 0x3c0abd1abd92748aU,
  0x3d04eee0bd37afb4U, 0x3dbf055b3de4927eU, 0xbda8710a3da8475cU, 0x3caebca13c8c0643U,
  0xbdbd29283d4b8d60U, 0x3cac53f03de1bd34U, 0xbd176448bc04c0a0U, 0xbd0dba88bdd084b8U,
  0xbcd0f110bdcb629cU, 0x3daa00d0bc229880U, 0x3db4ba00bd6e8688U, 0x3dace5603d8d01acU,
  0x3dfc0ad03ddaaf64U, 0xbda9e2b03dc00948U, 0x3dcd5c8c3b998b00U, 0x3dd0c9bcbc9e11e0U,
  0x3d3e1f68bde6fa0cU, 0xbdbea7483d911524U, 0xbdaa7aa4bb9e9c40U, 0xbdf91bacbd8f51f8U,
  0x3da9627c3dd30068U, 0x3dd58f90bdc62548U, 0xbda206bcbdefdf8cU, 0xb9c35c003dfa5948U,
  0x3cf05230bd8c96a4U, 0x3d966cc83dd20ba4U, 0x3d913dd83db051d0U, 0x3bb6f0403d85c5c8U,
  0xbd1a16383d9a951cU, 0xbdcf080cbcfeeb60U, 0xbdb0e5503def482cU, 0xbd750ee03daace8cU,
  0x3ce11e703c7a6ac0U, 0xbb8a2f00bdd517b4U, 0x3d753ab8bc3e69c0U, 0xbdeb5ba83cc0a830U,
  0xbcf016d0bd23d940U, 0xbc4bef403d445058U, 0xbd192408bcdbe900U, 0x3c8d34a03ce7dd00U,
  0x3d972cdc3c901ee0U, 0xbdc564543dfcda90U, 0xbca3fd403d86b204U, 0x3d33e9603da2a3a8U,
  0xbda7c8803d91943cU, 0x3c91e3a03dbe6b40U, 0x3c30f4a03d66b818U, 0x3da2cdfc3cf6e810U,
  0xbc88ac10bd6e8e60U, 0xbc4ddb20bc931280U, 0x3d41f4d83dab07fcU, 0xbc7eb080bd85fdb0U,
  0x3d3d88b8bdef6868U, 0x3de73eccbd896038U, 0x3cf363f0bc3afc40U, 0x3dd207bc3d92c370U,
  0x3c2329003b78d180U, 0xbd97575c3d95a974U, 0xbd945ddcbd7c1b10U, 0xbc675e203db8f2a8U,
  0x3c2402003c8ff720U, 0x3defff24bc926080U, 0x3cbb53e0bdadaff8U, 0xbdd913983d9ec778U,
  0x3dc267643d90b0c8U, 0x3da8c89cbd992a64U, 0xbdc4ce84bd324c48U, 0xbc93939039e70800U,
  0xbdc07c71bc18c733U, 0xbdb409d7bdab2382U, 0xbd9a3ece3d95cbbeU, 0xbd47acd9bd34a240U,
  0x3d8daeb73df1994fU, 0x3d8986053bd375b2U, 0xbce9e40e3d6417f7U, 0x3d90bda1bc615769U,
  0xbd0b51b6bd04a2e1U, 0xbcf0be513d0ecfddU, 0x3cd388c53d856662U, 0x3e0e501b3c9a66e6U,
  0xbdf7a38ebdabd705U, 0xbd83dfe3bdbb1a46U, 0x3d75a6bbbd9a874cU, 0xbd3212e9bd4214f5U,
  0xbd22f5c7bd11195bU, 0xbd6e7a603d95131aU, 0x3d33e3ec3ce4eda2U, 0xbde4c3a23c90d1b0U,
  0xbd9b523fbdb6db07U, 0xbdb0f27b3dae4371U, 0xbdc80d2fbe1572a4U, 0x3d4fbb2d3dc82ec7U,
  0xbd1d068f3dec670dU, 0x3da68fc73da00699U, 0xbce1dc8e3d66f0abU, 0x3ddc0263bdaac7baU,
  0xbc76f8343d5f9969U, 0xbc84ab113d541037U, 0x3de330ebbdac11b6U, 0x3d5e1455bd0b7631U,
  0xbbf941b83cc32d09U, 0x3da940683bedc8f8U, 0x3db2bd483d1cf6e6U, 0x3c6095b8bd6853d1U,
  0x3dfdea3bbdaf4cdeU, 0x3df1374ebcecf5f7U, 0xbd955649bd01c6e3U, 0x3a599b343c3d2b1fU,
  0x3dc07277bcfff8f5U, 0x3d9be6e9bce9df42U, 0x3e06122bbdde051cU, 0xbd26127bbd7b0119U,
  0x3d4de4293d1a027fU, 0xbd363184bd9d50e9U, 0xbd3747033c9cd379U, 0xbdbd4e953e021c87U,
  0x3dcd59fcbdf8dc48U, 0x3bc731133d1ae333U, 0x3d164ab1bdba0c54U, 0xbd9a0e853d96bed7U,
  0xbdd0b1853d62a3f8U, 0xbd9a0f7c3dc89008U, 0x3bc5efec3d14c59dU, 0x3dab706c3e05a9ceU,
  0x3d51665ebd6429e6U, 0xbb98fe4ebcbd6008U, 0xbba4548a3dd9f8fcU, 0x3d87daeb3d95f524U,
  0xbdc184e4bdc8a2b5U, 0x3d38faa33da1a01fU, 0xbdb8b3fdbd81ef8dU, 0x3ca037c13d2cfaa1U,
  0xbd87724d3cebb9b5U, 0xbc69b5f5bdcd6e1cU, 0xbdc6071ebdd424b7U, 0x3c6f39a1bc841eceU,
  0x3dd13e59bd67e378U, 0xbd83e95a3d3e8bcbU, 0xbc83b1d33da9f49eU, 0x3b52b9b0bd905dedU,
  0x3e015f38be048b6eU, 0xbcdf2b9e3d52ab75U, 0x3e072c3ebd354aa7U, 0x3dd251e1bc805b1dU,
  0xbcafeab5bd94985cU, 0xbd97517f3dc5e3cdU, 0xbc56c7f73dc1e541U, 0xbd8c68babd008dbbU,
  0x3c96d067bd92e3d7U, 0x3bf6bd98bdb1b579U, 0xbc95dae63db013b3U, 0x3aa666d0bd9efda9U,
  0xbe0adb793ca44230U, 0xbd57551cbdf4892eU, 0x3c7fdda5bd14c7bdU, 0x3ca8826d3d1c978bU,
  0xbda250773d141825U, 0x3d95a41a3dcd241bU, 0xbda1d20dbdc97178U, 0xbbe8ea043daadf7eU,
  0xbd119bb8bce8919dU, 0x3de5330ebd1acf82U, 0xbd551363bc744595U, 0xbd903a9abd3b6f05U,
  0x3ddd36613e15da58U, 0xbb88e688bd9a734dU, 0xbd23a12dbbbae27eU, 0xbcc15c2abd9c012aU,
  0x3d08ce963b24779fU, 0x3cbd3933ba59f1cbU, 0x3becb6b0bded0d5bU, 0x3da0137b3d9e87b9U,
  0x3e05dd293db9ad76U, 0xbd3bfea8bda283a8U, 0xbd1f22113a9c1cd0U, 0x3d9da1f4bd57641dU,
  0x3dd5bde5bdd497a4U, 0xbdc53da83d509d88U, 0x3bb38af0bc46bc03U, 0x3c4dd8c63ca6f243U,
  0xbd16400e3d62eb41U, 0xbdd98f43bdcfd3d4U, 0xbd450ccebc5fa0e6U, 0xbdc123b4bdf753b9U,
  0xbd38b70f3d3a26deU, 0x3d92e9fcbdb0ce5aU, 0xbd41c5e2bd84df77U, 0xbbeb225bbd93284fU,
  0xbd88338d3d8139d1U, 0xbdbe23383d094fc0U, 0xbd8196fc3d652e7fU, 0x3c5762e6bdc2a469U,
  0xbdddfd343d4d2e9cU, 0xbda960b9bdb35e4eU, 0x3dc45856bd87c586U, 0x3d621db7bde475c1U,
  0x3d2daf60bdb7d379U, 0xbda293dbbc4ddaa6U, 0xbdb2dfd63db7bcc1U, 0x3cc05d8bbd60698dU,
  0x3db8b3a2bd382601U, 0x3db7acea3b9a26f4U, 0xbc9536dfbd8a7facU, 0xbd4b9ce83e0881f3U,
  0xbd05f0b7bdffd20aU, 0xbdb6e243bdca959cU, 0xbd252c5bbca4f5c0U, 0xbdf3f019bc192a71U,
  0x3d9374323caa205fU, 0x3d02105cbdbebe20U, 0x3bd9592bbd8d4b5dU, 0xbc2fa6a0bdfe6af9U,
  0x3d9e6c373de0eadeU, 0x3db3e3f73de28054U, 0xbdcc4ee0bda79b89U, 0x3ddce20cbd87e146U,
  0xbdcb0f2c3cc5b9cbU, 0xbd9da865bdddfecdU, 0x3c2fa7143dd9ab5bU, 0x3db5f600bd00e4ccU,
  0xbcade2113cbc81aaU, 0x3d9658cbbd3fd6d9U, 0x3dbb6ecb3d9dbf6eU, 0xbcdfd8813dd4a972U,
  0xbd58680ebda4aba0U, 0xbd875831bd94d57eU, 0x3d3bbaa03b82be30U, 0x3da74fab3c25f4c0U,
  0xbbfdd9f4bafbb3b1U, 0xbd8fce6d3dc2a385U, 0xbde4575c3c892be7U, 0xbc96a014bc7bb01cU,
  0xbd190abfbdc212a0U, 0xbdb9b54c3d9e1d61U, 0xbdac4682bdbda161U, 0x3a2666523d6e2b10U,
  0xbdbf88203d16b9beU, 0xbd355890bcc7709cU, 0x3d8c27a1bd93d8d6U, 0x3dae6bda3da58125U,
  0xbc1a12d3bd81071bU, 0xbd226be43d47d76aU, 0xbd87374d3ae034a6U, 0x3d0e6b353da34764U,
  0xbdbe8bdcbdd3e064U, 0xbadad261bd3e6420U, 0xbde45c06bda54fe4U, 0xbd31880c3d9098feU,
  0xbc6683d0bd252920U, 0xbda99bbf3c0eefa1U, 0x3cc51f24bdcb8f24U, 0x3b56fd0dbdf07d62U,
  0x3ddba20ebd03829aU, 0xbdce86f83d269e8aU, 0xbe01794b3c7b618fU, 0xbcdf95af3c9446a5U,
  0xbd900c83bb04e21eU, 0x3defa4d2bd5aa121U, 0x3d76e8fcbd83577aU, 0x3c386ccebdeb162dU,
  0xbdae2d0fbcd2a2e3U, 0xbdd523d4bd4ad86aU, 0xbd61261abdeca15cU, 0x3d9ee2a8bd3fd237U,
  0xbc9dc61ebd23b48cU, 0xbb10b386bdcff5c4U, 0x3c3d816a3cfa701cU, 0xbdf6c40bbd89ea32U,
  0xbde8c4f0bdb4c0cbU, 0xbd11a120bd1f9740U, 0x3cc912dd3da325d2U, 0x3d1fc3533d3feae1U,
  0x3dccee9fbda85e90U, 0x3bbc8ab3bdeab171U, 0xbd4545a6bd8cbcfbU, 0x3d70b859bdc920dcU,
  0xbdcc28c53de27e6cU, 0x3d119ff23ddabf8fU, 0xbcb08458bccc1153U, 0x3ccc99b93dfc584bU,
  0x3d5a9f083db17bf9U, 0xbde418e83d1dd419U, 0xbcbfa7203cc70700U, 0xbdbc1f02bdbb6975U,
  0x3cb4e1f1be014eb9U, 0xbdf89bb6bd71bb93U, 0xbd91fef13d8d8815U, 0x3dd77ddfbc2aa277U,
  0xbd20271f3dda576aU, 0x3d823c19bd4164e7U, 0x3db76d8ebdb0348eU, 0x3c40c7cf3dd86b5aU,
  0xbd56b77cbbf99fecU, 0x3d7eb8ca3bb87500U, 0x3d07a02d3ceb48c1U, 0xbcb5d32cbcd47837U,
  0x3cd478473dd836d4U, 0xbd208340bc087f52U, 0xbd10088a3dd7a0e5U, 0x3d8c648e3d95da47U,
  0x3de0e3cf3db0e78fU, 0xbd08de39bd8b6639U, 0x3d24ba5a3e0afb5aU, 0xbd23ef153d87d481U,
  0xbe06b81abcc6e91dU, 0x3ceea9543d8ee7d1U, 0xbde58df3bcccaaa1U, 0x3d5bfc0abc706601U,
  0xbcddbbae3ddfc538U, 0x3ce595d6bdeab557U, 0xbcdb2f3fbd21ee2eU, 0x3d28f7d7bd82aa2fU,
  0xbd81291dbd2de74dU, 0xbd91e343bdb024c6U, 0xbd0695353db5adc8U, 0x3cafe742bca513c6U,
  0x3c2e081abc8479baU, 0x3d9d17b5bd9e5b18U, 0x3d47ff9dbd88882dU, 0xbbebed5bbdbcf74eU,
  0x3daadc4bbdfa9fb1U, 0x3da57e5d3b3f4f37U, 0x3c274dbc3b8c7072U, 0x3bf76f01bd8126a1U,
  0xbdaf7d5fbd9890cfU, 0xbdc5e87f3d534b06U, 0x3d18234b3d3e93e9U, 0xbd8db8733c6591c0U,
  0xbdb43753bda6ed68U, 0x3d89a9ccba127fd1U, 0x3dfac364bc34e564U, 0x3dfac3b53ce6be32U,
  0xbdf3df953da0f2a6U, 0xbcaf053f3d437d78U, 0x3dd1468ebd40e90dU, 0x3ab30ab63d3e596cU,
  0xbc1bd0183daeb3eeU, 0xbdb725363de87cbcU, 0xbd8230debdea1b06U, 0x3c3217383dbf8a0dU,
  0xbd935c20bd0b50ddU, 0x3cf0272dbdd0db89U, 0x3dccd8af3db373aeU, 0x3d974f21bc23423bU,
  0x3ce44ac0bda7159dU, 0xbdc2b5ddbdba8ca7U, 0x3dcc28b0bd379d8eU, 0xbd97c1ffbc302455U,
  0xbba4eb853d06f023U, 0x3dd1553bbcd1a72aU, 0xbd1fed9cb9c074b8U, 0xbdcb02f4bd42eb0eU,
  0xbc00d151bd35f67cU, 0xbdcfa2b93d2e8f3fU, 0xbdfdd8313d80e0ceU, 0x3dc6b643bcce9709U,
  0xbddc9eda3a8a5ad7U, 0xbd61f0a4bc9e8f7eU, 0x3d9a179a3d4c1db7U, 0x3d9768a53cdb4785U,
  0x3c4cc6353dc6b9e6U, 0x3cd8cee53daa644fU, 0x3db477f33bdf0580U, 0x3d53fc0d3d6ee116U,
  0x3c572ccd3d03aaf5U, 0x3d742c173d0051dcU, 0x3cc92e03bc6151edU, 0xbd3c2de73c29c96fU,
  0x3d2129db3cec716dU, 0xbda1c84dbd55d497U, 0xbd84e173bc56820cU, 0xbd4a1415bd732956U,
  0xbc3b167b3d7c7c91U, 0xbd94cb82be066222U, 0x3d8c3a20bbbe069eU, 0x3dcd422c3cf23716U,
  0xbdbc8ff4bd44f679U, 0x3d9f2eeb3dba06b4U, 0x3c8efbbb3d8f1f2aU, 0x3dc9e5903e01c196U,
  0xbba4625c3b75cc94U, 0xbda7d84b3d8008a5U, 0x3ca1bcacbcbbd8ccU, 0x3bab8309bb7c2e5fU,
  0x3c91bcfa3d95f521U, 0x3dd13dbabde554f1U, 0x3d88af863dcc828cU, 0x3db9e857bd8ab64cU,
  0xbd9b31dabb0e8655U, 0xbc99f0083d762605U, 0xbd7aa270bcbb0b78U, 0xbcfa5abb3ce92859U,
  0x3dbb6d3cbc54a6ebU, 0xbd3dc5c5bc846c82U, 0x3db7ffaebd668887U, 0x3d147389bd467feaU,
  0x3d087d0abc241c2cU, 0xbdd339553d2f2b4eU, 0xbdcfe0e2bdb292fcU, 0x3bd422fd3dedf49eU,
  0x3d662eba3d933d51U, 0xbd3873c6bdd537f8U, 0x3e0510883dcbf847U, 0x3d23c61dbdcd5893U,
  0xbd7b01023db9ae64U, 0x3cc3de0ebd0fed71U, 0x3b80700cbe017d3eU, 0x3cd5a8373ddd5cfdU,
  0xbda5145abd7396a5U, 0xbd91ac9c3c829dfaU, 0x3dc9b5543db4238fU, 0x3dda38c83ddbdb2dU,
  0x3d8a8586bd74d91aU, 0x3deba2dd3d24a92fU, 0x3d9adc88bc4faf92U, 0xbc04b2563d69675cU,
  0x3daa12babde5c0e6U, 0xbad025b93d003ee1U, 0x3d872522bda1777fU, 0xbd65e58f3d685d00U,
  0xbd066afdbde79f21U, 0xbd6467763b7ac3c6U, 0xbdcf08dabd9753aeU, 0x3b6fd6853e0557b3U,
  0x3c7dd2a4bdb5adbfU, 0x3d3c964fbdab96efU, 0xbdeeac513dd8492fU, 0x3dd896ba3da77575U,
  0xbc2232c63d837fc5U, 0x3dd2c579bda31f94U, 0xbca210293dc44aa9U, 0x3cb65ad63cebe320U,
  0xbd38e34e3d976056U, 0xbca87e783c9bb106U, 0x3d78e6833c7cedc0U, 0xbc2ddbe2bcfbf746U,
  0xbd006e79bda9f43cU, 0x3dd7b3babd6a212bU, 0xbd4aa77ebded856fU, 0x3dfa3d69bd4a105cU,
  0xbd4280f9ba5a8d50U, 0x3d847a393d494e88U, 0x3d29c6fcbda87443U, 0xbc32e215bd5dd32cU,
  0x3da3dfdebd8ccac2U, 0xbd00f2b9bd8fa403U, 0x3b8f6d5fbd377c33U, 0xbde8ca8b3df7c41eU,
  0x3d6870133d803507U, 0x3c13b901bcd6e64fU, 0x3d87d6b03d371eb4U, 0xbd81288b3dff6996U,
  0xbddd897abdab3da9U, 0x3d33d492bbb22b47U, 0x3dd8bc6a3d17a297U, 0xbdde68243d67b1faU,
  0x3d4a0ed3bda3305cU, 0xbde767323d626aa3U, 0x3db70b363da38b4aU, 0x3d9abf32bd0e6ff5U,
  0xbddca6fbbd04774dU, 0xbd67a54a3d8da90eU, 0xbd2cc4c9bdae890cU, 0xbde756d53c434f49U,
  0x3d2af7c33da862abU, 0x3d8af8dc3c55a566U, 0x3d864991bc8e433bU, 0xbd815eadbd9234b5U,
  0xbdcbff60bcc11e70U, 0x3cdf1e7c3d476286U, 0xbdd2005c3d39ededU, 0x3dabcbc5bdf1e982U,
  0xbd9725603deb8623U, 0x3dfeffcc3db4a8f3U, 0xbc3eea833ccb1041U, 0x3d487ac6bc5e5ce2U,
  0x3d8dc02a3d9a9f38U, 0xbde5aee7bd0997c9U, 0x3e02ff413cbb2a01U, 0x3d971a82bb7cc93bU,
  0x3daa70c9bb8e6906U, 0x3d2af24bbd62f0d5U, 0x3db6e5f03d72053dU, 0xbd9e86863dd90d2aU,
  0x3c555ab33d04d34dU, 0x3dc67632bd98706fU, 0xbcfd7e25bdbedc31U, 0xbc4ac7e03e00b920U,
  0xbd5445cebca81fc0U, 0x3dd605423da6a6ebU, 0xbccab1343d3a4ea4U, 0x3def8c91bcee9036U,
  0x3d797048bc8b8369U, 0xbd09b917bc45491eU, 0xbd9c2cbd3de0de8aU, 0xbdaaa775bd9c0456U,
  0xbded8ce2bd732499U, 0xbd90ae0e3d85b595U, 0x3db511763da6f654U, 0x3dfdd5913d7369a7U,
  0x3c9d2c193c383ac0U, 0x3d8eb3fb3c840428U, 0xbd9cd6a5bd94cdb5U, 0x3d79dd50bd51d641U,
  0x3dada42abdb24973U, 0xbd0ad93d3cae071cU, 0xbd0e03783cc4c590U, 0xbde8f46a3be6b6ccU,
  0xbdf479673dea53a0U, 0xbdeada8ebc4a4abdU, 0x3d99b3dcbda2deccU, 0x3d1abe22bdae279aU,
  0x3d04f5763dd2a160U, 0x3da474f13d195a48U, 0xbe006031bdd6698cU, 0xbb0c71083dfa2d0aU,
  0x3cc50452bd96f6c6U, 0x3d8ecd7abdead879U, 0xbc1149803dd05717U, 0x3d8ee0a4bba51264U,
  0x3da4bd5abde6104eU, 0xbbb4b0623d23185bU, 0xbdf0d81bbccc7e75U, 0x3d9d0edebcf0053fU,
  0xbd3b721ebe053e20U, 0x3cd7794fbd2d29d4U, 0x3d7588a4bd00b7c2U, 0x3da53f803d8569cbU,
  0xbdd369873daf4f8bU, 0x3dd9d6d83e011822U, 0x3db0538cbd244d81U, 0xbc455e7cbdaad1dcU,
  0xbdd00230bdc45914U, 0x3c97324abd124086U, 0x3e0680c53c25da73U, 0xbe07034b3d62954aU,
  0xbdc2addd3d0d90e4U, 0xbda95bc8bc4ee832U, 0x3c02364a3ca80b06U, 0x3d6c57bebc3c0e48U,
  0x3bcef6e1bde02b08U, 0xbddc0926bcc4d556U, 0xbdc774173d918eaeU, 0xbd8e42a4bdfde3b6U,
  0x3c4a30a2bde085ccU, 0x3e0e1c5fbdbc482aU, 0x3d9be4ddbddce267U, 0xbce4d1acbd53daecU,
  0xbdc3a4833deb2569U, 0x3dd0d8a43d2478dbU, 0x3d1e4d5f3d64f7fdU, 0xbcf63aacbc946d4dU,
  0xbdca3df3bd6974d2U, 0xbdb46e863de3624fU, 0x3d89aeb33deae057U, 0xbda4ae7ebba01e4aU,
  0xbd857392bda3da0aU, 0xbd48ac5ebc20d9a5U, 0x3c1c689abd329fb1U, 0x3d4e04e5be0411a1U,
  0x3dcbe6143ba8838fU, 0x3dd99944bdbc08cdU, 0x3d83bcec3d73fe1aU, 0x3c6d2d083d61e190U,
  0x3d6f4c46bdbdc23cU, 0x3ce264d2bc221b58U, 0xbd600be3bdbf3573U, 0x3d11b9d03deac161U,
  0x3dd980e53cb0512bU, 0xbd5d5c55bd61f14eU, 0x3c784603bb881b58U, 0xbd98b595bbe20e17U,
  0xbcb4f7a4bddcb2baU, 0xbcc99b99bd347578U, 0x3dfb02bebdb9cf3dU, 0x3d9a01afbd1b59c6U,
  0x3d89cb953de6f64fU, 0x3df43f7c3d206686U, 0x3dace5cf3d9a5fc7U, 0x3d8cdbe1bd5e8dabU,
  0xbd68d6c03da02e84U, 0xbdbadc9c3db284e8U, 0xbd919dbc3df018b4U, 0xbbf28880bc54e620U,
  0x3d4827903dec8190U, 0x3cbc52403d5bbfa8U, 0xbd8038d03dbe2c34U, 0xbdd47938bc94b1b0U,
  0x3daa6fa43d2fd2b0U, 0xbdf06ecc3dacd764U, 0xbdcde8803d6532f8U, 0xbdd82e183dc3903cU,
  0xbcacf9203dc0970cU, 0xbdee06e0bb17a080U, 0x3da69d143c11a280U, 0xbd39d548bda997dcU,
  0xbde8290c3d38b320U, 0x3cfb46303d8f7590U, 0xbd2d9d18bdd8b668U, 0xbddb9748bd139d48U,
  0xbcdab6203d50e7b0U, 0xbdaa9c64bdb75160U, 0xbdd34114bd73a278U, 0x3c683e00bcbe4a00U,
  0xbdc24fc8bdc32300U, 0xbc9d45603def64c0U, 0xbde459d0bd9f3e1cU, 0x3d338d28bd8f7d34U,
  0x3de54cd0bb914b40U, 0x3c7d2f80bdd0db74U, 0xbcb707903d3159d8U, 0x3df37da03ddae22cU,
  0x3d2254283c0e1420U, 0xbd2dab403d299930U, 0x3d5ac5403dba2150U, 0xbd5984c03dcdd918U,
  0x3d6aa148bd72b200U, 0x3d8c11f0bd489748U, 0xbdc9bbc4bd05e388U, 0xbdded3e03cd4ccb0U,
  0xbc88a9d03c77af80U, 0xbcb9eb60bc59f320U, 0x3b79a280bc225ec0U, 0xbd8c80bc3de4c410U,
  0xbdebe24c3d9c6f5cU, 0x3cfc82d03dedfd00U, 0x3d878fa83df54918U, 0x3d8be3acbbc23b80U,
  0xbde90c48bc3cc4a0U, 0xbde866003df85b0cU, 0xbdd6f8943da70568U, 0x3c78a6e03de3d43cU,
  0xbd561a983d9b4968U, 0xbde222203dd4f270U, 0x3dd7bd34bd805fc0U, 0x3dd992a8bd408d08U,
  0xbd984454bdf8de28U, 0xbdf6ea20bd812480U, 0x3dcd9c2cbd2f2d08U, 0xbc913260bdaf0b30U,
  0x3ca555103dc76070U, 0x3d4689703d88134cU, 0x3ca9f6003d84ff88U, 0x3db50ed03de7b6d4U,
  0xbd296f8abcd17875U, 0x3d7aae17bd70bcf2U, 0x3c7067403d089de1U, 0xbcba1b683e01bb5dU,
  0x3de5d7a73d38ec77U, 0x3dab22f73df07a04U, 0xbd25dc40bcf1c2d4U, 0xbe01e90fbdb7564eU,
  0xbda361a83dd0486dU, 0xbd25ed85bca3c9c7U, 0x3db135d3be0081c3U, 0xbd960fb13d76b62aU,
  0xbbb067b43bd3a83cU, 0x3d3e42453c67ca5eU, 0x3c0fd1623da2c046U, 0x3d5b693c3dd2c431U,
  0x3df7a78d3daf0128U, 0x3da2c762bc222bd9U, 0x3cdcbac5bdca4ea1U, 0x3d66fedc3d1a9916U,
  0x3cfd43b43df6dc0eU, 0xbda9010cbd3587e9U, 0x3d8930d43dae16f1U, 0xbde51c20bd32d894U,
  0x3dea8f063df5b298U, 0xbd7a0da93b08ab37U, 0x3dd2e49a3dba2cb9U, 0xbd5a2f503b7588a7U,
  0xbda31815bde70255U, 0x3c4c26a3bdc7a399U, 0x3db532753d5a1604U, 0x3d964441bd74339fU,
  0x3c005f22bceba492U, 0x3dcf5e943bddb0b1U, 0x3d5f730fbdafcccbU, 0xbda588ff3da74d93U,
  0xbdfac67ebc76074aU, 0x3d6ba546bdcd6901U, 0xbdbe566dbdb18430U, 0x3c6830123d51b17aU,
  0xbd946fd83daf026cU, 0xbd4b36dcbca6a8afU, 0x3da466513ca470cdU, 0xbd644e54bc8a588bU,
  0xbd71c69c3b05f345U, 0x3d870540bbaddd6eU, 0xbd0e68bf3d38f289U, 0xbd03f59a3dafe072U,
  0xbc93922a3bd71b43U, 0x3b822873bdb01fb6U, 0x3d9e07b6bdf81e77U, 0xbd1f48863d9e4277U,
  0x3dd853c7bd7453e0U, 0xbd9de22dbda17cd7U, 0x3d8fafe2bc8499beU, 0xbc0f2de13c9d7bf2U,
  0x3db592e33de53c08U, 0xbdf833c13c4f70e7U, 0xbcdf00a5bd7027d2U, 0x3c86f7c23e011971U,
  0xbced501bb935a9adU, 0xbdf326b3bd807503U, 0x3c69cb8bbd9fcc6bU, 0xbd48877ebdd81620U,
  0x3de589a83d2c0034U, 0x3e03de893dc79dadU, 0x3dc4649ebdec382bU, 0xbdc027ca3dc9d01fU,
  0xbc844032bda9a50cU, 0xbdcd5dc43cbe2696U, 0x39c67acf3ca39e4bU, 0xbdd1538c3d85f971U,
  0xbdb6ea0e3cec1172U, 0xbd693ad1bd8f83edU, 0x3dec2bd7bdc04129U, 0xbcd9f3f9bda81e34U,
  0x3bcf93cabd697891U, 0x3dded12c3d7e84eaU, 0x3d9820cd3b8afcaeU, 0xbe0e6b92bd128904U,
  0xbd23e25e3ca35911U, 0xbdd8a96ebdfd716fU, 0x3c4348ccbd8e4a66U, 0xbdb3aa22bcef13b3U,
  0xbc81a0853d8abbe1U, 0xbd1d92cd3dc88b87U, 0x3d08b1fcbdd2f689U, 0xbdaf98c13dfb1e96U,
  0xbd96df953d78cc35U, 0xbde08a5c3d8577aaU, 0xbd585f92bdbef52cU, 0xbd9a5815bc99ba90U,
  0x3df02ee2bd975aa2U, 0xbd9ce3b53d35f88cU, 0x3d66b52cbd850cf0U, 0x3dcd417e3e0aba9fU,
  0xbd4ea77fbdaa4586U, 0x3df7effc3d15b797U, 0xbd32be9ebe00a371U, 0xbd20a1ea3dabf7f1U,
  0x3d05ccde3d682667U, 0xbd98becd3e05e0b7U, 0x3dcd5eebbd58c9c2U, 0xbdccdbea3da83ac5U,
  0x3c982637bd959909U, 0x3d968f263c33ce79U, 0x3e09c37e3d3d614aU, 0x3e04b29c3d8b7276U,
  0x3ddb8c90bce8b622U, 0xbcdc859cbc0a2ad2U, 0xbdb2d89cbd4c3f28U, 0xba9c2a4dbdf0375eU,
  0x3def4d38bc849712U, 0x3d7cdf1ebe009c38U, 0xbc0b5d7bbcf45839U, 0xbdd7a08ebd872190U,
  0x3dc646e3bda9b6a1U, 0x3c3a2ba63df4bbf6U, 0xbd7635a6bd8ee368U, 0xbc2b9562bd3c705bU,
  0x3d059ca2bd4e9a08U, 0xbdde841bbc9241bcU, 0x3d67d348bd462db1U, 0xbd7c571dbd0e64d4U,
  0xbd92d2e0bdd1f5f5U, 0xbd122cc63d166626U, 0xbde68e6e3b4ae6b2U, 0x3dcacf47bd554a2fU,
  0x3dbaf1fbbdc65cd9U, 0x3d7b113e3d58f0dfU, 0xbd917abdbdee6755U, 0x3adf032abd60a675U,
  0xbdcad6c8bd31e74eU, 0xbdd1d7f03c894c34U, 0x3ce6910c3d0db940U, 0xbdaff75fbdaa2ca6U,
  0xbde6d1313dccf2e4U, 0xbce074a4bd4becb3U, 0x3df5d4c43d824fb6U, 0xbd222861bd8e9ed9U,
  0xbda6568d3dca71eeU, 0x3d03193e3c8ae020U, 0xbcf0621d3cda9b28U, 0xbb0475e5bc634250U,
  0xbd96a5bebdba90f0U, 0xbdf0e2543de425aeU, 0xbd42ceb2bd457ba4U, 0xbd459e5ebd3f89feU,
  0xbdc640443db1a5aeU, 0xbde291d83ce42ed2U, 0xbdd3d40fbd77cb47U, 0x3d7698a63db6f4dfU,
  0xbc92b468bdd3112cU, 0x3d5c09093dc3b31aU, 0x3d7e4865bd213642U, 0xbca4498ebd5d2362U,
  0xbdc86985bd9eb4f3U, 0x3d6af8c1bb61523aU, 0x3dd06451bdc29c54U, 0xbb19be583c4dea5dU,
  0x3ddc67463d8abffdU, 0xbd2bec29be00179dU, 0xbd0b158f3d0ff566U, 0x3dbdec393db3ebfeU,
  0xbc6d123bbcd5332dU, 0xbd96705abdad12a2U, 0xbd1696be3c09320dU, 0xbb732ed2bcb9eecfU,
  0x3cd882a4bd6e35c8U, 0xbdebe37dbd5fa86bU, 0xbda3b9b5baaa11c1U, 0x3a4e3eec3c591d91U,
  0xbdfd35e73db8ee35U, 0xbdfbb9113bb96b17U, 0x3b58c3c6bd40b520U, 0x3db03e75bdff8309U,
  0x3da95c253d93a210U, 0x3acbaa633d91a8c1U, 0x3dfc09ba3dbaf03bU, 0xbe07acb83d63cc54U,
  0x3d02a210bd1b9804U, 0x3d0c13d3bcf07404U, 0xbdd6d39abd971689U, 0x3d764a943cda9cb5U,
  0xbbf93e393d8fcda5U, 0x3d30f7fcbb89eb1eU, 0xbdc786373df2f085U, 0xbdca317abcb9ef2cU,
  0x3d840d74bdded59cU, 0xbc792cc93b1a292aU, 0xbd8deb13bd9db940U, 0x3d0f74d5bd2b221aU,
  0x3d99d6a03ddf6af8U, 0x3d7c33d03de6b6e0U, 0xbd15a1383a5aac00U, 0x3df7a1103cb86280U,
  0x3d80a8a0bdf2900cU, 0xbdbad564bda6fbe4U, 0xbcad16b0bdf927bcU, 0xbd562218bd9a92e4U,
  0xbdbe0aecbc34b3a0U, 0xbd7fea203d87aa30U, 0xbce292e03d6cf890U, 0xbdf68bd4bce51580U,
  0x3cfb60d0bba8d1c0U, 0x3dfbb6b43d93a61cU, 0x3d9755dc3d92b00cU, 0x3d6e8d98bde1ad34U,
  0x3debccdcbdf7327cU, 0x3b3f2f00bcd384b0U, 0xbd00d3b8bdd0a330U, 0x3c722f20bdf1b254U,
  0x3c189060bd8eba3cU, 0xbdee1c383df56814U, 0x3b2659003db12110U, 0x3d4e7d58bd94df04U,
  0x3d873d10bd52e208U, 0xbdd2262c3dcb25d0U, 0xbdf01f0c3d6578c0U, 0x3df4fe5cbc882970U,
  0x3c946ab0bd3746d0U, 0x3d37c078bdb2da68U, 0xbd89bb703d884b50U, 0xbcd9baa0bd95f570U,
  0x3c274100bd85bc58U, 0x3d3eca68baeff400U, 0xbdcf27f83d61e658U, 0x3dafd9d03d776170U,
  0x3cb3f380bd4de390U, 0xbb694600bb429780U, 0x3c1043a03d9b9294U, 0x3db56cacbdfed0ecU,
  0x3ca762a03dc699b4U, 0x3d957e30bc228a00U, 0xbd997038bdd2e560U, 0xbdff970cbcb51e80U,
  0xbd771fd83db05124U, 0x3cd13730bd5f6e80U, 0x3cfe3cd0b9da4800U, 0xbcffa4a0bd23bdd8U,
  0xbd5ac3c03d026890U, 0xbd2f7d18bd7a1de0U, 0xbd9476583d204790U, 0xbda146b4bd24a920U,
  0xbda9b6443dc5f71cU, 0xbb67f9803d557ec8U, 0x3da8a09cbd306b88U, 0xbd99f6c8bdfc9658U,
  0xbdf243bc3de17318U, 0x3c7b5680bd8bd9a0U, 0xbdc16fdc3dbcb088U, 0x3dfef3f4bb2ea580U,
  0x3dbfa50cbb611280U, 0x3db8b9b4bbd19980U, 0xbcd5c6a03d1587c0U, 0xbd3f3e40bcc65430U,
  0x3dba2887bdb2250eU, 0x3dbf7afb3e00a4c7U, 0x3c810608bdee01ecU, 0x3d578e15bd170bdfU,
  0xbdf99a16bd52e075U, 0x3d916f503d82a87cU, 0xbd08effdbd41865bU, 0x3ddfd4e2bcb59c21U,
  0xbd079ac83d7c0d09U, 0x3d916dab3df29589U, 0x3cdee50d3d0c73dbU, 0xbdf282c23c1ccd7cU,
  0x3d7ca1063c846418U, 0xbdbad1043df6446aU, 0xbb9163cfbd9fbdd7U, 0x3ca8d1583da1ebb3U,
  0x3deb0e7cbd0b14e1U, 0xbd5cc482bd0cafd1U, 0x3b19ae35bdaa2f40U, 0xbcd5f8183d8b886dU,
  0xbce88343bde7d4d6U, 0x3cdf35ac3d0a6dd8U, 0xbd83c2c13dc8bb4cU, 0x3dffb57e3dd9a543U,
  0xbdb91b7cbcb23dd7U, 0x3d11b5043dc44b20U, 0xbd9d7bb73d3a279aU, 0xbdaa0a293d459e0bU,
  0xbd90db1ebda283a4U, 0x3c15ecc3bd6512e6U, 0x3dc250453d9eecc3U, 0xbdf2e2f3bdaea3d7U,
  0xbd5724803bbc1222U, 0xbdc50a2dbd5d89dcU, 0x3cbe3b5dbdba4107U, 0xbd74c4efbddeb4ceU,
  0xbd3e0fb3bda00483U, 0x3dc068313d2f2006U, 0xbc260e6c3d42cbf6U, 0x3df1483dbd9a413bU,
  0x3b4dbb58bd90ed0fU, 0xbd6a97fe3dc6a1c3U, 0xbd500e453b1e5e0fU, 0x3de489ecbd0fbb80U,
  0x3d309b3a3d9da681U, 0x3cfee3c6bd03bf87U, 0x3d85a2773cdf85e0U, 0x3bebabb9bdd27e75U,
  0x3df472cf3d98ec04U, 0x3cbb6e87bd0264fdU, 0x3cdc2af43d626ba3U, 0xbdf997623caa0bd6U,
  0x3c067c8fbcfc5c8fU, 0xbcc1839a3da48e94U, 0xbcdb41ce3cd4a567U, 0xbded6e30bda876d0U,
  0xbd6a2c35bddbf2e1U, 0xbcb1b3ac3dfc9fa1U, 0x3dee6829bc89a4f2U, 0xba97e0f13cf09c4bU,
  0xbd033b2c3c723369U, 0xbd89547abd2fb35eU, 0x3d0629673dcd1fabU, 0xbd4496eabcabfbb9U,
  0x3d1d63f03d524f00U, 0xbde25c643be44240U, 0xbdf179ecbc9a6980U, 0xbda401683d9c6bccU,
  0x3db3cba83ad47000U, 0xbdcaa3043dd8d24cU, 0xbdedc8583bac4300U, 0x3b6836803dbacfa4U,
