
/**
  ******************************************************************************
  * @file    network_data.c
  * @author  AST Embedded Analytics Research Platform
  * @date    Fri May 27 11:28:14 2022
  * @brief   AI Tool Automatic Code Generator for Embedded NN computing
  ******************************************************************************
  * @attention
  *
  * Copyright (c) 2021 STMicroelectronics.
  * All rights reserved.
  *
  * This software is licensed under terms that can be found in the LICENSE file
  * in the root directory of this software component.
  * If no LICENSE file comes with this software, it is provided AS-IS.
  ******************************************************************************
  */
#include "network_data.h"
#include "ai_platform_interface.h"

AI_API_DECLARE_BEGIN

AI_ALIGNED(32)
const ai_u64 s_network_network_weights_array_u64[ 64985 ] = {
  0x3c204a5a3badee2aU, 0x3c8f83333cba6b2dU, 0x3c983a873d2a67d8U, 0x3cf0a27f3d2766c3U,
  0x3d0808123ce55065U, 0x3ceae24e3cc521caU, 0x3cc06c6a3cd582f0U, 0x3cdee6bf3ccc0733U,
  0x3ce5f6373cd7a905U, 0x3cde31203ce4303aU, 0x3cf9f8e03ce26ff1U, 0x3cf9fdaa3cff9b31U,
  0x3d0581913d01d53dU, 0x3d1561353d09d405U, 0x3d0adfae3d02fa45U, 0x3d1456483d099d65U,
  0x3d1dd2463d1106ddU, 0x3d1323be3d2201f3U, 0x3d2660313d1b517eU, 0x3d1e16de3d2a4a95U,
  0x3d30f2783d287493U, 0x3d302f293d2d4c02U, 0x3d2f3c943d2d6f75U, 0x3d3e79023d442648U,
  0x3d494f423d4c85f3U, 0x3d5c76c83d47761cU, 0x3d5a2efb3d5c86f2U, 0x3d6cbfe43d5f4efdU,
  0x3d6dac803d65397dU, 0x3d876e833d688ab6U, 0x3d83de2d3d6fdac5U, 0x3d8943a83d83eea4U,
  0x3d8e532a3d8b3a2cU, 0x3d98b9f63d8b6ff3U, 0x3da01dd83da22ed9U, 0x3d9c2ed63d93cf27U,
  0x3daea7413da21ba0U, 0x3db4f9783da76a07U, 0x3db9d2c63db3c59dU, 0x3dcc61633db8e903U,
  0x3dd06a493dbef337U, 0x3dcfe1463dd2bf6aU, 0x3de629443dd9e397U, 0x3df8043a3df798abU,
  0x3dfbd2bd3df47038U, 0x3e02b2cd3deae855U, 0x3e0736d23e00580aU, 0x3e03b0d93e085698U,
  0x3e06992a3e0e0286U, 0x3e0b70803e116583U, 0x3e0e54603e130728U, 0x3e1b58c23e135654U,
  0x3e22db2e3e19d8eaU, 0x3e2814083e22d03fU, 0x3e2bf3a03e24bfecU, 0x3e29b0d03e21f7d9U,
  0x3e2565d73e30028dU, 0x3e29b2ee3e238952U, 0x3e2e72d63e247e0dU, 0x3e2a9e4b3e2fc4b3U,
  0x3e347b433e2f1dfeU, 0x3e2aa02b3e28e7d8U, 0x3e3348103e319238U, 0x3e4fdc723e318032U,
  0xc38c7ad94492f902U, 0xc31e26984391a9faU, 0xc298803643029e32U, 0xc2ad6b2b428f6f2cU,
  0xc27baef7422d5234U, 0xc2553b5b420c82f7U, 0xc21ecff9423b5975U, 0xc21c9c8e41e83995U,
  0xc1cd97df41eecb68U, 0xc1d3b28142094a95U, 0xc1b4170d41d9b1e3U, 0xc18fbcad41d3bbd6U,
  0xc1a6610f41cd7dc9U, 0xc187bff841cabfebU, 0xc196e9bb419bec1fU, 0xc15bd80241a8eb8cU,
  0xc17416b641b6890aU, 0xc165275c41947008U, 0xc190b9244169af5eU, 0xc14ccc01417d2bf6U,
  0xc12efe6c41603144U, 0xc14b68cc415a72d4U, 0xc17e8d93413d9f1fU, 0xc15992ca4160e17dU,
  0xc130b05b410ab3c4U, 0xc12cc15c414642edU, 0xc14afce74125e2f0U, 0xc139a963412ace0fU,
  0xc12de3c140bbfc53U, 0xc111e28140fb5517U, 0xc14a5bef410f20b8U, 0xc0e06652411400f9U,
  0xc1626f1b410702f8U, 0xc087b3f940a3c794U, 0xc0ff6ba54128cd11U, 0xc127471240e24ea5U,
  0xc12e2bf9410a8679U, 0xc12b249741073ecaU, 0xc0ab37b840dc8cd0U, 0xc08908344141f999U,
  0xbeb83aed41169768U, 0xc02459f6416953e2U, 0xc0e37842412e8db9U, 0xc10577884108e2dbU,
  0xc0ca5ee040f19bdfU, 0xc125a94c408c6fcbU, 0xc110025540913687U, 0xc11bf9ef40aa8090U,
  0xc0de869d4092079cU, 0xc09afcd94118a395U, 0xc0f8619640f60eebU, 0xc0c538e340acecdbU,
  0xc0b6ca1c40994acbU, 0xc0fff47d408daadcU, 0xc0a0d148408a3918U, 0xc0a374af41165c87U,
  0xc0d2816640f9dab7U, 0xc10243ee40d54d68U, 0xc0d360cc40a8bd0cU, 0xc0c4829a40e92e88U,
  0xc0c390c140e5834aU, 0xc0c2afe340da64b6U, 0xc0d5d05240cdb777U, 0xc0cf4a5f40bffba5U,
  0x3f2374cd3e44bf7dU, 0x3da30c593e862563U, 0x3f0afb863f536e3fU, 0x3f2024703ed65652U,
  0x3e8746003e44453eU, 0x3f1d48963e72cc17U, 0x3f0cf6aa3e186d16U, 0x3dd22bd33ef239a4U,
  0x3f45e3e93ec46424U, 0x3e2d3be13ee6c26bU, 0x3e2924c03ec331e5U, 0x3e956d4e3f638a6aU,
  0x3db071463e5cb2c1U, 0x3f1371353e69e087U, 0x3f5057ff3f800000U, 0x3cf48f2fU,
  0x3df9044f3f2c72c3U, 0x3e2dace73e9a9149U, 0x3f4770c63db8d0cfU, 0x3f18b45a3e158845U,
  0x3edf04283f176c1cU, 0x3efd2b8e3eafcf15U, 0x3f61c9e43ea68c8aU, 0x3ede2f393ef04f09U,
  0x3da56cb13e7c9636U, 0x3e9ff1b200000000U, 0x3f3dea603ec90c6aU, 0x3eb884703eeb120fU,
  0x3efb60263deb63f6U, 0x3ead66983e366e23U, 0x3d5780bd00000000U, 0x3f4adc393ebf0cdcU,
  0x3e8d80e73ea47cf7U, 0x3e26e2ce3f22af5bU, 0x3e607dc73f0c9a86U, 0x3eaa44b03ea6180bU,
  0x3f8000003cfdaa1bU, 0x3f4054e03f22ce39U, 0x3f5f541c3d88fa66U, 0x3eb9f0e43efe3091U,
  0x3f01dfa2U, 0x3f8000003dc3f91dU, 0x3eb223a23f498feeU, 0x3e5fa07f3dc2bc51U,
  0x3eadab2a3e9b2a17U, 0x3f0acd013e9628f8U, 0x3f8000003f800000U, 0x3dc1f69f3ea7cfe5U,
  0x3f0f4fa73d1f6221U, 0x3f4288973e902138U, 0x3e8265aa3f4c8819U, 0x3edc1bbc3f440e41U,
  0x3b981dcc3e56ff86U, 0x3e2d93903f1bb57cU, 0x3efeba043f6fd1f1U, 0x3eeaa7cf3f0c2c62U,
  0x3ed56dee3f522e7aU, 0x3eb0937f3f3732e9U, 0x3f296e253df1d3a1U, 0x3dbc879f3ef4f85cU,
  0x3ef46d6b3e8b1705U, 0x3e6d10c53ee78259U, 0x3f66f1bb3d885cd5U, 0x3e83d0233e689ad7U,
  0x3e65bfcc3e2ba7dbU, 0x3f7ca8913c997aeaU, 0x3f52a8afU, 0x3f19df6f3e845b31U,
  0x3f3774f93e383d0cU, 0x3e267d933eb91666U, 0x3da18ae43ef885fbU, 0x3ed5d8ec3e2690adU,
  0x3ddf55a93f5f909cU, 0x3f0e82473f27e37fU, 0x3d316e753f3fff07U, 0x3eac6bd23f1dcdffU,
  0x3f5c08f53f27f885U, 0x3da6f0e03e1fd454U, 0x0U, 0x3f5109fb3e91d352U,
  0x3f76b3c33ed810d2U, 0x3f161afd00000000U, 0x3e9188d13f0dcbd8U, 0x3f0aa0ea3ee19ea4U,
  0x3ec56f463ecdd3abU, 0x3f29d9f83f1af442U, 0x3d05f0393f57037fU, 0x3f083d12U,
  0x3f0866e53f1ddff5U, 0x3ec3aa1d3f111ca5U, 0x3ed2eb043e308673U, 0xbe0d1891bf139a3cU,
  0xbe9c186680000000U, 0xbf5c3c67bf1e75fbU, 0xbf358d82beac2ebfU, 0xbeed5daabe250d59U,
  0xbd632281bd06388fU, 0xbe884240bcf44152U, 0xbda97e4a80000000U, 0xbf80000080000000U,
  0x80000000bdbf09a5U, 0x80000000be74e14dU, 0xbebbccd480000000U, 0x8000000080000000U,
  0x8000000080000000U, 0x80000000bf5b316bU, 0x8000000080000000U, 0xbf1bac7280000000U,
  0x80000000be1545c8U, 0xbf00e517be94ece3U, 0xbf031600be1dcad9U, 0xbf03cafb80000000U,
  0xbd953130bec5a68fU, 0x80000000bf09b366U, 0x8000000080000000U, 0x80000000be3299b9U,
  0xbf268741bf800000U, 0x8000000080000000U, 0xbec2be3abf295090U, 0xbecbd26d80000000U,
  0x80000000be41d3d6U, 0xbeee3473bee2bd0eU, 0xbf633a45bed0e78bU, 0xbe870824bed372a3U,
  0xbf0775febe8bec49U, 0xbe5acfbabf717d3dU, 0xbe92f6edbdec6369U, 0xbe3de4eebe738335U,
  0xbef31ae9bf1b2943U, 0x80000000bf59955aU, 0x8000000080000000U, 0xbe8806ec80000000U,
  0x80000000be75f147U, 0x8000000080000000U, 0xbe1f6a7abf7e22d1U, 0x80000000bedf9c41U,
  0xbe07e43080000000U, 0x80000000beaad8d5U, 0xbf1b395bbea572ecU, 0x80000000bebe3149U,
  0x8000000080000000U, 0xbe627ae580000000U, 0xbeb23c6080000000U, 0x80000000bf800000U,
  0xbeb651eebea0b81eU, 0xbcb10351be8a0d37U, 0xbe49206680000000U, 0x80000000be39f806U,
  0xbce68a06be003d21U, 0xbf3d613c80000000U, 0xbea31f7abd3ab461U, 0xbdfe72ddbe6568c9U,
  0xbf0febb8bf0ab000U, 0xbef73a2abf18ac42U, 0xbf800000be1497ccU, 0xbe61f1f3bd3a7bd0U,
  0xbf3e2c1bbe17f77eU, 0xbe83ac40be5c121cU, 0xbf27a56ebf3e494cU, 0x80000000be9d40d2U,
  0xbe94ad7f80000000U, 0x8000000080000000U, 0xbba8cd4d80000000U, 0x80000000be2d0b67U,
  0x80000000bd4ce02aU, 0x8000000080000000U, 0xbe1f30f3bdca7b95U, 0xbe13197dbdc58e94U,
  0xbe6001bbbd33414eU, 0x8000000080000000U, 0xbbddaa28bdd8655eU, 0xbf0d69e1bed36ae9U,
  0xbf4f9458bedb03f1U, 0xbf183378bcc59298U, 0xbea8be40bebaf26bU, 0x80000000bdd1ebbbU,
  0xbe018597bd5d9445U, 0xbe76a73d80000000U, 0x80000000beaad81fU, 0xbe31e6c280000000U,
  0xbf3ba0c7bea5eb33U, 0xbeaa3e55bec7ea5bU, 0xbee8270e80000000U, 0xbf38ef0980000000U,
  0xbf1004a4bf353b5cU, 0x80000000be2526d9U, 0xbc3f4610bbe13c25U, 0xbe7fe0a8bf09967cU,
  0x80000000beba7641U, 0xbe6396d980000000U, 0x80000000bf800000U, 0x80000000beb582c7U,
  0xbe1a54f7bf800000U, 0xbf25f71c80000000U, 0xbe3dd4c4bea09270U, 0x8000000080000000U,
  0xbef7938ebec60ab7U, 0x80000000bedbd364U, 0x80000000bef1653aU, 0xbe0fdeeb80000000U,
  0xbf80000080000000U, 0xbeb9629abe82b139U, 0xbe339682bebb156cU, 0xbefb7fd6bf29d401U,
  0xbeecd579be81ee38U, 0xbe46ef7b80000000U, 0x8000000080000000U, 0x80000000bf0157b8U,
  0xbea3431380000000U, 0xbec9de61bf03d1e4U, 0xbf042d7180000000U, 0xbdb06029befafa1cU,
  0xbe17222a80000000U, 0xbda8da67bedbd9b3U, 0xbb451506be2c8195U, 0x80000000be86e8bfU,
  0xbf1abee180000000U, 0xbde825edbe7961abU, 0xbdfd740080000000U, 0xbef9dff5be85bdd1U,
  0xbeb9f206be011b1aU, 0x80000000bebc0be8U, 0xbca0fcd4bf062c7eU, 0x80000000be0f2bdcU,
  0xbde7bcf380000000U, 0xbf6d4e92be9fbcabU, 0xbf023269bcd2b207U, 0x80000000be74843bU,
  0xbf6e65e3beb71169U, 0x80000000becff8b4U, 0xbaebf06980000000U, 0xbf0afdc3bf1f5b43U,
  0xbe0a617b80000000U, 0xbeaee37480000000U, 0xbf0b8807bd4e093fU, 0xbef6be72bd631789U,
  0xbeb05239bf18d980U, 0xbe3c724780000000U, 0xbefcc95dbcb9d687U, 0x80000000beed1e89U,
  0x80000000be0a6bc4U, 0xbe655ced80000000U, 0x8000000080000000U, 0x80000000bf10b06bU,
  0xbdb59bfd80000000U, 0x8000000080000000U, 0x80000000bdb0ac93U, 0x80000000be41e5ecU,
  0x80000000befa2d3aU, 0x80000000be501557U, 0x8000000080000000U, 0x8000000080000000U,
  0xbd9963b980000000U, 0xbf3160dfbf6aa010U, 0xbe7ed97580000000U, 0x80000000bf278f1bU,
  0x8000000080000000U, 0x80000000bf23a62eU, 0x80000000be517bd4U, 0x8000000080000000U,
  0x8000000080000000U, 0x8000000080000000U, 0x8000000080000000U, 0x8000000080000000U,
  0x8000000080000000U, 0x80000000be2b3a09U, 0x8000000080000000U, 0x8000000080000000U,
  0x8000000080000000U, 0x8000000080000000U, 0x8000000080000000U, 0xbf09f80380000000U,
  0x8000000080000000U, 0xbe6f54a780000000U, 0xbe07d8eabeabe848U, 0x80000000bde909a1U,
  0xbe316395bc116074U, 0x8000000080000000U, 0xbf153b1d80000000U, 0x8000000080000000U,
  0x8000000080000000U, 0xbea2a02b80000000U, 0xbf10ef1980000000U, 0x8000000080000000U,
  0x80000000bdd668d7U, 0x8000000080000000U, 0x80000000bec3e8ceU, 0xbd68c539bf5fb710U,
  0x8000000080000000U, 0xbf1d031880000000U, 0xbf80000080000000U, 0xbeac065180000000U,
  0x8000000080000000U, 0xbf072a0680000000U, 0x8000000080000000U, 0xbf0b11ff80000000U,
  0x80000000bf2552bdU, 0x80000000bf7c870aU, 0x8000000080000000U, 0xbf579fa780000000U,
  0x8000000080000000U, 0xbc989ace80000000U, 0x8000000080000000U, 0xbe3f77b380000000U,
  0xbe28dcbf80000000U, 0x8000000080000000U, 0xbef5a4ed80000000U, 0x8000000080000000U,
  0x80000000beb52642U, 0x80000000bf800000U, 0x8000000080000000U, 0xbe1174b480000000U,
  0x8000000080000000U, 0x8000000080000000U, 0x80000000be98a447U, 0x8000000080000000U,
  0xbd6a419a80000000U, 0xbe56224280000000U, 0x8000000080000000U, 0xbe7b5e9f80000000U,
  0x8000000080000000U, 0xbee61b4380000000U, 0xbf80000080000000U, 0xbe7eaa51bf0beeddU,
  0x8000000080000000U, 0x8000000080000000U, 0xbec561b5bec7dadcU, 0x8000000080000000U,
  0x8000000080000000U, 0xbf28270d80000000U, 0x80000000bee8fd46U, 0x8000000080000000U,
  0x8000000080000000U, 0xbf3801a180000000U, 0xbe42045380000000U, 0x8000000080000000U,
  0x8000000080000000U, 0xbe76ad4480000000U, 0x8000000080000000U, 0x8000000080000000U,
  0x8000000080000000U, 0xbd9166eebd62b816U, 0xbea84b59bd9561e9U, 0x8000000080000000U,
  0xbeb872a480000000U, 0x8000000080000000U, 0x80000000bf1782f6U, 0xbeced2b380000000U,
  0x8000000080000000U, 0x80000000be61f428U, 0x8000000080000000U, 0x8000000080000000U,
  0x8000000080000000U, 0x8000000080000000U, 0xbef91c38bee96480U, 0x80000000be95ecf3U,
  0x80000000be133b5cU, 0x8000000080000000U, 0x80000000be8ce4b9U, 0xbebca1a680000000U,
  0x8000000080000000U, 0x80000000be87a45bU, 0x80000000bdf7c388U, 0x8000000080000000U,
  0xbedfaf7fbd19ac3aU, 0xbf244b2d80000000U, 0x8000000080000000U, 0x80000000bf5ca469U,
  0x80000000bda6b20bU, 0x8000000080000000U, 0x80000000bed90436U, 0xbe48510a80000000U,
  0xbf80000080000000U, 0xbeaaa9f980000000U, 0x8000000080000000U, 0x8000000080000000U,
  0x8000000080000000U, 0xbf1e5f21bf2ad081U, 0x80000000bec13ee5U, 0x8000000080000000U,
  0x8000000080000000U, 0x80000000bf19ee92U, 0x80000000be65c9b1U, 0x8000000080000000U,
  0x8000000080000000U, 0x8000000080000000U, 0x80000000bd2dd69eU, 0x80000000ba915159U,
  0x8000000080000000U, 0x80000000bdd66489U, 0x80000000bd98a864U, 0xbf80000080000000U,
  0x8000000080000000U, 0x8000000080000000U, 0x8000000080000000U, 0x80000000bf0985deU,
  0xbee648fe80000000U, 0x8000000080000000U, 0xbf6c0ad980000000U, 0x80000000be46197eU,
  0x8000000080000000U, 0x80000000bf79c27aU, 0x8000000080000000U, 0x8000000080000000U,
  0xbc7e15d180000000U, 0x8000000080000000U, 0x8000000080000000U, 0x8000000080000000U,
  0xbe013d2fbf800000U, 0x80000000bf5d8f1fU, 0x8000000080000000U, 0xbf2d17d680000000U,
  0xbe77aab980000000U, 0x8000000080000000U, 0x8000000080000000U, 0xbe81142abf1ecaf6U,
  0xbf46a05fbe9d9fd8U, 0x8000000080000000U, 0x8000000080000000U, 0x8000000080000000U,
  0xbbf396f880000000U, 0xbe9e098380000000U, 0x8000000080000000U, 0x8000000080000000U,
  0x8000000080000000U, 0x8000000080000000U, 0x80000000bf3189f9U, 0x8000000080000000U,
  0x8000000080000000U, 0x8000000080000000U, 0x8000000080000000U, 0x8000000080000000U,
  0x80000000be2bd0c1U, 0xbee4281680000000U, 0xbe319cb580000000U, 0x8000000080000000U,
  0x8000000080000000U, 0x8000000080000000U, 0x80000000bea9c92fU, 0x8000000080000000U,
  0x8000000080000000U, 0x8000000080000000U, 0xbebee6c0bf2aa7d4U, 0x80000000bf0d5a11U,
  0xbf454cdf80000000U, 0x8000000080000000U, 0x8000000080000000U, 0xbef23a0f80000000U,
  0x8000000080000000U, 0xbeb9fbf080000000U, 0x8000000080000000U, 0x8000000080000000U,
  0x8000000080000000U, 0xbe37d5f480000000U, 0x8000000080000000U, 0xbf800000be141966U,
  0x8000000080000000U, 0x8000000080000000U, 0xbf06730bbe20e63bU, 0x80000000beb3c0c5U,
  0xbd111aedbdfeb82bU, 0x8000000080000000U, 0x8000000080000000U, 0x80000000bea7e6faU,
  0xbe856e7880000000U, 0xbf255d5ebe36dfa9U, 0x8000000080000000U, 0xbe1b7fbc80000000U,
  0xbc590a9180000000U, 0xbd81944980000000U, 0xbf3954ba80000000U, 0x80000000bd563700U,
  0x8000000080000000U, 0xbe160ad280000000U, 0xbcf22a2e80000000U, 0x8000000080000000U,
  0x8000000080000000U, 0x80000000bf800000U, 0x80000000bcabd110U, 0x8000000080000000U,
  0x8000000080000000U, 0x80000000bdfd217eU, 0xbf80000080000000U, 0x80000000bf270222U,
  0xbeb6c90c80000000U, 0x8000000080000000U, 0xbf21650c80000000U, 0x8000000080000000U,
  0x8000000080000000U, 0x8000000080000000U, 0xbcb83ab880000000U, 0x8000000080000000U,
  0x8000000080000000U, 0xbec5087ebe2abcccU, 0x8000000080000000U, 0x3e949a8200000000U,
  0x0U, 0x3eb555543e22c36eU, 0x3eacba1e3e4fd5abU, 0x3e1d01713e827de1U,
  0x3ea1ce073d5d6d21U, 0x3e245cd93c867bfbU, 0x3eb4f806U, 0x3ec674083c868bb2U,
  0x3e0643f7U, 0x0U, 0x3d9a53b63eb84603U, 0x0U,
  0x3e37a7913cbfc6f9U, 0x3e21d78d3eec31ffU, 0x3c8ea40900000000U, 0x3e4917edU,
  0x3b82611d3d4d3862U, 0x3ea198e700000000U, 0x3eba1afe3d5d2dd8U, 0x3df9cbf200000000U,
  0x3e237e203d8d090dU, 0x3ea388cb00000000U, 0x3d971b213e8f3c8bU, 0x3e15a765U,
  0x3e6f67f73c81b5a5U, 0x3f2395893e6e797aU, 0x3e95a0b6U, 0x3dd35bb3U,
  0x3f2a76443d0079d1U, 0x3dff8f723cc1d052U, 0x3eb1858000000000U, 0x3d6651743c7e9081U,
  0x3db1d2ff3e33a579U, 0x3e98a70e3e2a09abU, 0x3e6153c600000000U, 0x3ece83f73c8233a0U,
  0x3e75b1613d1bbf43U, 0x3f80000000000000U, 0x3db036fb3e6a0adbU, 0x3ec724293e0baa79U,
  0x3ea8fa363d87c788U, 0x3df693db3e2f686dU, 0x3d861c05U, 0x3d10f5953d9e4328U,
  0x3e61a5893e07e2ceU, 0x3f8000003e4e0fc5U, 0x3e28d90dU, 0x3e51424d3da9e01aU,
  0x3e7b86f13d7bd2cbU, 0x3e24c4b93ecaf455U, 0x3e22ce133e949357U, 0x3dee3ec1U,
  0x3e1c95cb3e68aa9aU, 0x3eca71963e31312dU, 0x3e7f2b373e86f263U, 0x3e802b533f800000U,
  0x3deb19313f08e470U, 0x3c1999813d21f88bU, 0x3d00bb40U, 0x3e90d8393db335c3U,
  0x3e579a52U, 0x3e8bdee100000000U, 0x3cb81d4f00000000U, 0x3daf87e2U,
  0x3f1e4ad63e09401cU, 0x3c517fe83ec5932dU, 0x3ec6074e3ed5d9e0U, 0x3ec8517dU,
  0x3d397995U, 0x3e7262baU, 0x3e1f3aa83d0f1d24U, 0x3f187930U,
  0x3dd355273f800000U, 0x0U, 0x3de5dad43e8a0eb9U, 0x3e93e5563ed9e1f6U,
  0x3e3071393de2c5c1U, 0x3d68735e3f6440d8U, 0x0U, 0x3e9ef32e3f800000U,
  0x3e5f8d7a3e5855b7U, 0x3e5f0778U, 0x3e2647013e3a0195U, 0x3f0bb2a43e0890fbU,
  0x3d569461U, 0x3d4c823a3eb4f020U, 0x3e474f09U, 0x3e9825373f10b00dU,
  0x3e84fe303e64a555U, 0x3e4db8e500000000U, 0x0U, 0x3d06a17600000000U,
  0x0U, 0x3e091c173e9d5621U, 0x3d7db5bb00000000U, 0x3e8a095dU,
  0x3e490a8d00000000U, 0x3f8000003e848d91U, 0x3e81fdb500000000U, 0x3eea7c4d3dc7ebb9U,
  0x3da7c2b03e2e3657U, 0x3d02067700000000U, 0x3d8b4b99U, 0x0U,
  0x3ddad94d3f800000U, 0x3e88696700000000U, 0x3e4e34b23e8d09a5U, 0x3dd5e6f63e09d5f1U,
  0x3ec393a4U, 0x0U, 0x3e4c3ae9U, 0x3ceae59f3e932b57U,
  0x3e80e6213dcdf6d5U, 0x3f80000000000000U, 0x3c3f45d5U, 0x3ea32ccb3d7b26d8U,
  0x3e532241U, 0x3dcf1fbd3e33cdacU, 0x3e881cf13f800000U, 0x3e6f4306U,
  0x3e80bacc00000000U, 0x3f05e64d00000000U, 0x3d6a06b83d764e70U, 0x3e7d20453dfa916fU,
  0x3e25573c3f800000U, 0x3e57361700000000U, 0x3e3c94d900000000U, 0x3dc9e40700000000U,
  0x3e56805eU, 0x3f7c6d293e19a4baU, 0x3ef4466300000000U, 0x3d43aa4100000000U,
  0x3e4d1e613d93fae7U, 0x3da487f23ec7be57U, 0x3d4cb8ad3ec059c0U, 0x3d0e431fU,
  0x3f73d2683e04b05dU, 0x3ee16b2200000000U, 0x3b15eabfU, 0x3eafe5613f800000U,
  0x3f800000U, 0x3e6abbba3e23ae57U, 0x3e1a3f713f2db7d0U, 0x3e27f9493df852dbU,
  0x3ed91b7200000000U, 0x0U, 0x3ee73e3100000000U, 0x3f07168000000000U,
  0x3f2192143ea6170eU, 0x0U, 0x0U, 0x0U,
  0x3e738abb3df42d75U, 0x3e2a64a300000000U, 0x3dd1607500000000U, 0x3f6ec80000000000U,
  0x3e13ca1bU, 0x3c0a08df3e9db0e8U, 0x3f8000003e3a4c34U, 0x3d5d9ffbU,
  0x3f718233U, 0x3ec39c633e5cac0eU, 0x3f2582083e43deb7U, 0x3e4b4dca00000000U,
  0x3e34ac9700000000U, 0x3f2525afU, 0x3d3792e200000000U, 0x0U,
  0x3db1452b3e059154U, 0x0U, 0x3ecec2a83dda59b2U, 0x3e8969c300000000U,
  0x3d885d4e00000000U, 0x3c2590cdU, 0x3e0ec5b33e4eef17U, 0x3c9eefca3eeb227eU,
  0x3e2ee1693f4fba33U, 0x3e0d040600000000U, 0x3e2abe013de993b1U, 0x3e91957700000000U,
  0x3e6bab9fU, 0x3cf6824800000000U, 0x3eb7400a00000000U, 0x3e4ae01e3e9fc895U,
  0x3f0ab55a3db3ad27U, 0x0U, 0x3e25df24U, 0x3ddebb4d00000000U,
  0x3d683347U, 0x3e73fe973f7dc6d8U, 0x0U, 0x3df256eb3ea60931U,
  0x3e9df1893e9c635fU, 0x0U, 0x3e7a48aa3f40834fU, 0x0U,
  0x3e37f3f33e89b3baU, 0x3e67c8383e189d11U, 0x3d2b279b3db21d03U, 0x3eeb8c2a00000000U,
  0x3ea8151f3e23c3b3U, 0x3e9117733f52a28cU, 0x3ea1991d3e0cd73aU, 0x0U,
  0x3ecb0bcd00000000U, 0x3c636aa93e9ba766U, 0x3e6b20daU, 0x3f30eb203e3b255bU,
  0x3e8be44300000000U, 0x3e1f383b3ec24f9fU, 0x3a28e35700000000U, 0x0U,
  0x3e8bd818U, 0x0U, 0x3dcf3976U, 0x3e8954bdU,
  0x3d02f4a6U, 0x3be6c51b00000000U, 0x3e50a5df3e4a6effU, 0x3e0b6e1100000000U,
  0x3f2cfb823e574ffaU, 0x3d86d5503eef88abU, 0x3e1f43023c877a89U, 0x0U,
  0x3f8000003d8d6b71U, 0x0U, 0x3f136dc800000000U, 0x3e508eccU,
  0x3e11dacb00000000U, 0x3d8f5593U, 0x3e955bdeU, 0x3d56f7e4U,
  0x0U, 0x3e1f82fe3e307f19U, 0x0U, 0x3e4c644c3eb2547bU,
  0x3ea1cdccU, 0x3ebf2ff53cd36a65U, 0x3cccd53000000000U, 0x0U,
  0xbf30ec8080000000U, 0xbcdc669e80000000U, 0x80000000bf800000U, 0xbe5db2b980000000U,
  0x8000000080000000U, 0xbd5b0a0fbebc32d6U, 0x80000000bf356e4fU, 0x80000000bed8afd1U,
  0x80000000bf1e8796U, 0xbe7d395dbe981343U, 0x8000000080000000U, 0xbe71fb9080000000U,
  0xbef4aaf2bf56098cU, 0xbe52cf02bda35014U, 0x8000000080000000U, 0xbe22a059be6fce45U,
  0x80000000bf0d372dU, 0x80000000bf00db00U, 0x80000000bf1a13e5U, 0x8000000080000000U,
  0x8000000080000000U, 0x8000000080000000U, 0xbda626ca80000000U, 0x8000000080000000U,
  0x8000000080000000U, 0x8000000080000000U, 0x8000000080000000U, 0x8000000080000000U,
  0x8000000080000000U, 0x8000000080000000U, 0x8000000080000000U, 0x8000000080000000U,
  0xbe3318bf80000000U, 0xbec54ee6bf0da899U, 0x80000000be892b22U, 0xbf629456be9e0060U,
  0xbdeaf26f80000000U, 0xbee9589fbeff13bdU, 0xbea5dcb380000000U, 0xbe36d1fd80000000U,
  0xbed487bc80000000U, 0xbf1efe26be732e09U, 0xbdc3723ebda3da89U, 0x80000000bdd0f0f7U,
  0x80000000bd98abf5U, 0x80000000bf79c9c7U, 0xbf1966e6bf4b96efU, 0x80000000be7d1d6aU,
  0xbeb5c5e4bbbc9c1bU, 0xbf80000080000000U, 0xba8be453bec2c78cU, 0x8000000080000000U,
  0xbe18303e80000000U, 0x8000000080000000U, 0xbf12e41980000000U, 0x80000000bf32ce88U,
  0x80000000bf800000U, 0xbcc8a26f80000000U, 0xbf800000be4ff200U, 0x80000000be7a8bafU,
  0x8000000080000000U, 0x8000000080000000U, 0x8000000080000000U, 0xbf800000be5a1151U,
  0x80000000be73137cU, 0xbe35479980000000U, 0xbc5082f580000000U, 0xbdcaa5dabf2352b2U,
  0x80000000bf800000U, 0x8000000080000000U, 0xbee28c4480000000U, 0x8000000080000000U,
  0x80000000bdb7cbfdU, 0xbef00904be949d95U, 0x8000000080000000U, 0xbcdfe9ee80000000U,
  0xbe7ee7a280000000U, 0xbd0c7cc280000000U, 0xbf5c1176bed0ae9bU, 0x80000000bb3cd3e9U,
  0xbf0d961080000000U, 0xbf80000080000000U, 0xbdf4ff4dbf800000U, 0x8000000080000000U,
  0x8000000080000000U, 0xbf800000bf162d41U, 0x8000000080000000U, 0x80000000bdb76799U,
  0xbf5127a480000000U, 0xbe49dd42bdf95131U, 0x80000000bd817871U, 0xbbc66eb780000000U,
  0xbf685ef1bc7e579aU, 0xbed62c6380000000U, 0x8000000080000000U, 0xbc97a85280000000U,
  0xbdf813a980000000U, 0xbe1bcb6780000000U, 0x8000000080000000U, 0x8000000080000000U,
  0x8000000080000000U, 0xbef84a5dbc4bda1bU, 0x8000000080000000U, 0xbeedcf87bdeed260U,
  0x8000000080000000U, 0x80000000bf2431adU, 0xbf2fb6bb80000000U, 0x8000000080000000U,
  0x80000000bea8806eU, 0xbeca6c73bf171373U, 0x80000000bf4c7ec2U, 0x8000000080000000U,
  0x8000000080000000U, 0xbf16eeabbe2ddf62U, 0x80000000bdbd465aU, 0x80000000be81c65bU,
  0xbe3bdd5380000000U, 0x80000000bf580370U, 0xbee2717080000000U, 0xbf303a4480000000U,
  0x80000000bf201001U, 0x80000000beb4d155U, 0xbdcf0502bd6d96b0U, 0xbee7c5d9bda2d9e5U,
  0xbf80000080000000U, 0xbd3a670a80000000U, 0x80000000bf72dcffU, 0x80000000bf29e65dU,
  0xbe13261580000000U, 0x80000000bee0664bU, 0xbe8c8f79bdbbe44cU, 0xbf01b6ee80000000U,
  0xbf4819d7bd2d3603U, 0x8000000080000000U, 0x80000000be82d49fU, 0x80000000be890120U,
  0xbedb1c55bf800000U, 0x80000000be926e52U, 0xbeb1bbad80000000U, 0xbe20f57d80000000U,
  0xbe8ed381bf2167b5U, 0x80000000bf4443d1U, 0xbe0b3c1180000000U, 0x80000000bf11c1b3U,
  0x8000000080000000U, 0x8000000080000000U, 0xbdecb9e680000000U, 0x8000000080000000U,
  0x8000000080000000U, 0xbee81f7480000000U, 0xbf80000080000000U, 0x8000000080000000U,
  0xbed40e45be87e6bfU, 0xbf245f6480000000U, 0x80000000bf4309a4U, 0xbf06001580000000U,
  0x8000000080000000U, 0xbf800000bf800000U, 0x80000000bf4d0f2eU, 0x8000000080000000U,
  0x80000000bf800000U, 0x80000000bf1eb9b6U, 0x80000000bf303cf2U, 0x8000000080000000U,
  0x80000000bcdab515U, 0x8000000080000000U, 0x8000000080000000U, 0xbefc409fbf800000U,
  0x80000000bf800000U, 0xbea399aebda6b631U, 0xbf6f54b980000000U, 0xbe999b5680000000U,
  0x8000000080000000U, 0x8000000080000000U, 0xbf3d78aabee423f3U, 0xbf800000bf0a2028U,
  0x8000000080000000U, 0x80000000bf800000U, 0x80000000bf7f2f44U, 0xbe3b3197beb499dbU,
  0xbf39cd4780000000U, 0x80000000bdb00aa1U, 0x8000000080000000U, 0x8000000080000000U,
  0x80000000bcf8449eU, 0x80000000bf800000U, 0x8000000080000000U, 0x8000000080000000U,
  0xbd715e6780000000U, 0x8000000080000000U, 0x8000000080000000U, 0x80000000bd8c490eU,
  0xbf20085780000000U, 0xbdad9ce480000000U, 0x8000000080000000U, 0x8000000080000000U,
  0xbe34ea8680000000U, 0xbe9e239dbe9ca66eU, 0x8000000080000000U, 0xbed785bb80000000U,
  0xbf80000080000000U, 0xbf800000bf5b4655U, 0x80000000bf516ec6U, 0xbf800000bee8e03eU,
  0x8000000080000000U, 0x80000000bf786258U, 0xbf80000080000000U, 0x8000000080000000U,
  0xbdfafbf880000000U, 0x80000000bf49c1fbU, 0xbac89d7dbf800000U, 0xbe2025ae80000000U,
  0xbecaa44f80000000U, 0x80000000bdaf14b9U, 0xbf800000bf800000U, 0x80000000bd97438cU,
  0xbe68da6380000000U, 0xbee97296bed5745dU, 0x80000000be99b895U, 0xbe8843f1bf507471U,
  0x8000000080000000U, 0x8000000080000000U, 0x8000000080000000U, 0xbf35f3b4be190ca9U,
  0xbf800000beadb0c1U, 0x8000000080000000U, 0xbe3ce97680000000U, 0xbf0c9b1380000000U,
  0xbda4cee080000000U, 0xbf80000080000000U, 0x8000000080000000U, 0xbdc88f2980000000U,
  0xbe78be3280000000U, 0xbe0e12a780000000U, 0x80000000bed24f86U, 0x8000000080000000U,
  0x80000000bf800000U, 0xbf6541f3bf574b34U, 0xbe8ccacc80000000U, 0xbd826cfb80000000U,
  0x80000000bd323bb9U, 0xbf80000080000000U, 0xbe51178abf800000U, 0xbf2936c5bec35127U,
  0x8000000080000000U, 0xbf800000becead56U, 0x8000000080000000U, 0xbf40741a80000000U,
  0x8000000080000000U, 0x8000000080000000U, 0x8000000080000000U, 0x8000000080000000U,
  0xbec2713ebeefe8bfU, 0xbeaf6b5780000000U, 0x3ebc155e3d33b6a9U, 0x0U,
  0x3e530e0d3dbbbd2aU, 0x3e9a31e63e0e16ccU, 0x3db25de400000000U, 0x3e82f0ad00000000U,
  0x3e106d253cf533f2U, 0x3dcd3078U, 0x3eb840bf00000000U, 0x3d96b08e3e0b9b6bU,
  0x3cb26a0f00000000U, 0x3e6c393fU, 0x0U, 0x3df35bd300000000U,
  0x3e9a93ff00000000U, 0x0U, 0x3e457de2U, 0x3d6b993d3d8080e7U,
  0x3ea886b000000000U, 0x3e92310d00000000U, 0x3e1efeb200000000U, 0x3d63013c3e12256eU,
  0x3e22908300000000U, 0x3da9e4803efd0f4bU, 0x3e3bb075U, 0x3e1ba8aa00000000U,
  0x3e88be643e2e07b5U, 0x3e8a5ce9U, 0x0U, 0x3dbe257200000000U,
  0x0U, 0x3e39ee9b3d297fe5U, 0x3d3a97f43da653a0U, 0x3bfc8cbb3e0d00e8U,
  0x3e855b4d3e08cb74U, 0x3e1401673d3f6f40U, 0x3e8ae8de00000000U, 0x3e4f96103c100eacU,
  0x3f6bd49e00000000U, 0x3e52d680U, 0x3eb7bb6b3dca9cccU, 0x3e9927dd3d261e52U,
  0x3d7d8e8e3eacda46U, 0x0U, 0x3ddf85cf00000000U, 0x3e675d363e007f37U,
  0x3ee5a6913e7b4c3eU, 0x3dd51b88U, 0x3e2f9d433c5a7c8bU, 0x3e2eb64500000000U,
  0x3e03c1763e535dffU, 0x3e00125f3e39155aU, 0x3de24272U, 0x3d6d9d083e2c980aU,
  0x3f45ff963e4c5989U, 0x3e45f89d3e81f2d2U, 0x3deccde33f800000U, 0x3e04e0453f476d14U,
  0x3cd1f97c3d60b799U, 0x3d12ebf600000000U, 0x3e329cf93e079bf9U, 0x3e0110283e1daba8U,
  0x3e74aca900000000U, 0x3d92321000000000U, 0x3d9ab0efU, 0x3ede1bab00000000U,
  0x3ead0eb1U, 0x3ea25a4f3e0c2d82U, 0x3d0d1fa9U, 0x3d7bede6U,
  0x3e2e3390U, 0x3e27fdab3e018033U, 0x3ecdfeb8U, 0x3d5ba9473f09f07eU,
  0x0U, 0x3d141f883e869909U, 0x3e736ff83e64ee30U, 0x3d945c7d3caf9eabU,
  0x3d68d5723f4bf3b7U, 0x0U, 0x3ecbe4323f4cf923U, 0x3e31727600000000U,
  0x3e2b8364U, 0x3e5ba8263da3edf6U, 0x3e3ef36f3d1e0440U, 0x3cfe92ce3c3c0185U,
  0x3eae5b2eU, 0x3d08b0cb3e1e8363U, 0x3e7a73f33e886be4U, 0x3db95a353e48a2d4U,
  0x3dc740f500000000U, 0x3b994be700000000U, 0x3f2ab3e3U, 0x0U,
  0x3e662ece3d919f7bU, 0x0U, 0x3f800000U, 0x0U,
  0x3f8000003e52c481U, 0x3f38e1aaU, 0x3db763843d79489fU, 0x3e25146900000000U,
  0x3d0655c93d753429U, 0x3ebcafc93e155ba5U, 0x3dfda5093f159c88U, 0x3f48d3acU,
  0x3f0661ca3eec2a3cU, 0x3ee0c9ee3e8b7445U, 0x3e634fe53e22debbU, 0x3e207702U,
  0x0U, 0x3ed9d710U, 0x3cce7478U, 0x3e9b9c1e00000000U,
  0x3f8000003eef45aaU, 0x3d6ea8d600000000U, 0x3de7f64d00000000U, 0x3f33f8db3ddc1d9dU,
  0x0U, 0x3d952cc93f800000U, 0x3e87934800000000U, 0x3d85dfba00000000U,
  0x3f0116fc00000000U, 0x0U, 0x3db138a23d8c7d01U, 0x3ec97aaeU,
  0x3f1d35bb00000000U, 0x0U, 0x3d573e7e00000000U, 0x3f80000000000000U,
  0x3f8000003f5b5a1cU, 0x3df22cf83da725fbU, 0x3ec0ee7200000000U, 0x3ee6b2d100000000U,
  0x3c835dfa00000000U, 0x3e87bc59U, 0x3f12fc01U, 0x3f8000003cb282c4U,
  0x3c9a9616U, 0x3e12c8a600000000U, 0x3e723d2f3f800000U, 0x3f800000U,
  0x3d796f1400000000U, 0x3edce41800000000U, 0x0U, 0x3e4620fe00000000U,
  0x3df08429U, 0x3f172f0900000000U, 0x3e4382e800000000U, 0x3eddf4a33ef696a6U,
  0x0U, 0x0U, 0x0U, 0x0U,
  0x3d7934d6U, 0x3e7cb28900000000U, 0x3ee41e0900000000U, 0x3c00eb35U,
  0x3e1ef6ee3e03ab97U, 0x3edd372d3f232e21U, 0x3e01c18cU, 0x3f8000003f51a8caU,
  0x3e8383c13f0319f0U, 0x3e6b6b9e3e2a7b1cU, 0x3db17ab900000000U, 0x3e6251cd3dbac5a1U,
  0x3e9a5585U, 0x0U, 0x0U, 0x3d4a189c3e107742U,
  0x0U, 0x3ec750033d4975bcU, 0x3e23030400000000U, 0x0U,
  0x3df8e98500000000U, 0x3e1c3e0800000000U, 0x3e67505dU, 0x3e4ec63f3f800000U,
  0x3eb022f600000000U, 0x3ca91a053e93cd39U, 0x3e798ac83d6ca977U, 0x3db96c02U,
  0x3d738088U, 0x3e0922133d905d0dU, 0x3d69bf8b00000000U, 0x3f8000003dd389deU,
  0x0U, 0x3e1c2fc900000000U, 0x3e72a5c100000000U, 0x3dd8d6693ee9fd10U,
  0x3f8000003f21da1fU, 0x3e51f72200000000U, 0x3e3afc24U, 0x3c04aeb23f38c6f6U,
  0x0U, 0x3ecd93c63f2a843cU, 0x0U, 0x3ee934c3U,
  0x3eef19e900000000U, 0x3e12c51eU, 0x3d854ba93f07372fU, 0x3e52a214U,
  0x3e64b0873eca562cU, 0x3e1e37503dc584d1U, 0x0U, 0x3eb006a9U,
  0x3e9adfeb3f4f5dcfU, 0x3e9ad73500000000U, 0x3f1bb8153ebe9c64U, 0x3e1a2ef400000000U,
  0x3d0458443dc582dbU, 0x3db33c3cU, 0x3dc5a5bfU, 0x3b413183U,
  0x0U, 0x3e995b5100000000U, 0x0U, 0x3ce02e58U,
  0x3da50ef2U, 0x3dd517233e717ea6U, 0x0U, 0x3ee4cd6100000000U,
  0x3dfb3597U, 0x3ee99aa400000000U, 0x3f07320bU, 0x3f80000000000000U,
  0x0U, 0x3ea1293a3e6ca3eeU, 0x0U, 0x3f2d5e1a00000000U,
  0x3f2751beU, 0x3cf3367d3c2338b1U, 0x0U, 0x3e30b565U,
  0x3eaf6325U, 0x0U, 0x3e0ff5d7U, 0x3ef3722fU,
  0x3e35f8cd00000000U, 0x3f3cc20600000000U, 0x3e476d2400000000U, 0x3c212d373db6f889U,
  0x3f8000003f800000U, 0x3f31f4b93f800000U, 0x3f118fec3f149f9bU, 0x3ea1106b3f800000U,
  0x3f8000003f7278b3U, 0x3f8000003ef94a6fU, 0x3f256b2a00000000U, 0x3f8000003f800000U,
  0x3f8000003e98eb9fU, 0x3f8000003eb7088cU, 0x3f7f496f3f800000U, 0x3bdcd1673f24bb1bU,
  0x3f214fe93f800000U, 0x3f80000000000000U, 0x3f8000003f800000U, 0x3cb232343f58fcefU,
  0x3f80000000000000U, 0x3eac42963e56aeacU, 0x3f8000003f800000U, 0x3f8000003d3df7deU,
  0x3e62b77e3f800000U, 0x3e07ff67U, 0x3da2bdc63f800000U, 0x3f8000003eed4c27U,
  0x3f3b23be3c08cbebU, 0x3ea861633f2e5a78U, 0x3f3c5eeb3f327ce1U, 0x3f39b3d43f800000U,
  0x3f7ddd553f014839U, 0x3e187cfcU, 0x3ec1ab7e3ec23b97U, 0x3e9687c1U,
  0x3f3cbd0e3f800000U, 0x3f8000003f800000U, 0x3f2b60d63f800000U, 0x3dc5bf8a3f800000U,
  0x3ec2f1e600000000U, 0x3f8000003ee93f86U, 0x3f5989073d992d41U, 0x3f0629503f800000U,
  0x3e39bfa83f800000U, 0x3efcadc93e46d3bfU, 0x3f80000000000000U, 0x3ed0a3e000000000U,
  0x3f27deae3f800000U, 0x3b2897833f434818U, 0x3f50342900000000U, 0x3f4020ebU,
  0x3f800000U, 0x0U, 0x3f4d9a0a3f581038U, 0x3f1307baU,
  0x3e9a3c933edc3818U, 0x3d0a8a5c3f800000U, 0x3ecb6ad600000000U, 0x3f8000003ed75b80U,
  0x3f800000U, 0x3e09870c3eccedfeU, 0x3f8000003f09c827U, 0x3f8000003eb8f8a6U,
  0x3f4f67c33f382822U, 0x3f800000U, 0x3f8000003f67a0f6U, 0x3f52f4ef3f800000U,
  0x3e264f493f34cdf6U, 0x3d6136ad3f7a082eU, 0x3f674b3d00000000U, 0x3f50dda83e68bd1fU,
  0x3df1750f3f800000U, 0x3e4538033e77dc91U, 0x3f8000003f12261cU, 0x3dfe684b3d4da315U,
  0x3e44d139U, 0x3d8316583f69d08aU, 0x3f800000U, 0x3e0e4df13f800000U,
  0x3f78bd973ef7f6fcU, 0x3f800000U, 0x3f45cef63f800000U, 0x3efab9dd3e22af59U,
  0x3edf59983f013b42U, 0x3e1f9b863f800000U, 0x3f8000003f64287eU, 0x3f8000003e960371U,
  0x3f80000000000000U, 0x3f8000003f800000U, 0x3f80000000000000U, 0x3e596e843f800000U,
  0x0U, 0x3f23593400000000U, 0x3ca3ed8f3dc15894U, 0x3f3c89613f6cd5e3U,
  0x3f800000U, 0x3f1702d93f800000U, 0x3f8000003f800000U, 0x3eefc6923d88722aU,
  0x3f8000003f800000U, 0x3e33056b3f7aafd7U, 0x3f68c9cb3cff204fU, 0x0U,
  0x0U, 0x3f8000003f16adccU, 0x3f8000003f800000U, 0x3e0791d43f800000U,
  0x3f5adfc43f31d864U, 0x3f8000003f800000U, 0x3f00bcb43f800000U, 0x3f8000003e3df63cU,
  0x3efa826600000000U, 0x3f2cf68b00000000U, 0x3f8000003f6a3b21U, 0x3f8000003f800000U,
  0x3ea0993e00000000U, 0x3dc4e89e3e8a711eU, 0x3f8000003f2e1669U, 0x3f8000003e10afb8U,
  0x3e9cb7903f800000U, 0x3f5dd2663f6e2995U, 0x3f13e6e43f69b10aU, 0x3ee0c7aa3f1ed066U,
  0x3e293e3e3f24e97dU, 0x3f8000003eeba65dU, 0x0U, 0x3f2707393ee32e2cU,
  0x3f800000U, 0x3f3009a23f351048U, 0x3f8000003f283508U, 0x3ee9a7893f800000U,
  0x3e656cfd3f1d12fcU, 0x3da791813ec2cdbaU, 0x3f800000U, 0x3f80000000000000U,
  0x3f8000003ea03840U, 0x3f4c71a83e537036U, 0x3e9a27d93e976760U, 0x3c7dde11U,
  0xbf800000bed55449U, 0xbf800000be892ac5U, 0xbf800000be573441U, 0xbe5cc73ebed59c6dU,
  0xbd80ff42bf800000U, 0xbf366fcfbf800000U, 0xbf477fae80000000U, 0xbebce786bea73a4eU,
  0xbed0176ebf240e73U, 0xbf800000bf800000U, 0xbf800000bd13ecb9U, 0xbf80000080000000U,
  0xbeedf284be82d7a3U, 0xbf800000bf800000U, 0xbf631778bd6d9b21U, 0xbf80000080000000U,
  0x80000000bf512d69U, 0xbf800000bf800000U, 0xbf800000bf800000U, 0xbf800000bf800000U,
  0xbf80000080000000U, 0xbedd4bb380000000U, 0xbe6dad65bf036b4eU, 0xbf800000bf800000U,
  0xbf80000080000000U, 0xbf54af4280000000U, 0xbf006fd6bf0eab6cU, 0xbebdfa80bea140ecU,
  0xbf800000befb8abbU, 0xbf2392d5bf800000U, 0xbf800000bf800000U, 0xbf148559bea66717U,
  0xbf6a914bbf800000U, 0xbf800000bef1fa49U, 0xbf6d58f4be9835ecU, 0xbf065d30bf800000U,
  0xbf491c70bf800000U, 0xbebe08e6bf77a8fdU, 0xbea56f1b80000000U, 0xbebb219ebf800000U,
  0xbf800000bf800000U, 0xbec0f1b4be1f47a8U, 0xbf800000bf46bd50U, 0xbf800000bf7da9d2U,
  0xbf800000bca97b4bU, 0xbf800000bf800000U, 0xbd466862bf800000U, 0xbe33746fbf800000U,
  0xbee0577ebeed2786U, 0xbe63ebb2be222eeeU, 0xbf800000bf800000U, 0xbf800000bf3cd65fU,
  0xbf800000bf800000U, 0xbf800000bf5948c5U, 0xbec37a3bbe69bc18U, 0xbf422b76bf800000U,
  0xbe34260bbf800000U, 0xbf800000bf58ef9dU, 0xbf800000bf800000U, 0xbf32100fbf800000U,
  0xbdbf22b3be2ae993U, 0xbf800000bd4e8f29U, 0xbf800000bf800000U, 0x80000000bf800000U,
  0xbf600e91bf800000U, 0xbf800000bf800000U, 0x80000000bf2a1d14U, 0xbf800000bf1c5d45U,
  0xbf80000080000000U, 0xbf800000bdcda8fcU, 0xbf800000bf800000U, 0xbf800000bf6491ccU,
  0xbf548b1280000000U, 0xbf80000080000000U, 0xbf800000bdd0fc4eU, 0xbf800000bf800000U,
  0xbdaf7a2280000000U, 0xbf59c672bee6a2dfU, 0xbda71478bf800000U, 0xbec84338be9fe2bcU,
  0xbf800000bf800000U, 0xbf29092cbf6a2a2eU, 0xbeac8d03bf800000U, 0xbf800000bf800000U,
  0xbf800000bf11b942U, 0xbdb446bfbf800000U, 0xbd87c491bdc04d9fU, 0xbf800000bec774e7U,
  0xbf800000bf428261U, 0xbf800000bf800000U, 0x80000000bf800000U, 0x80000000bf800000U,
  0xbf800000bf3d22d8U, 0xbe4e6867bf800000U, 0xbf2bca37bf800000U, 0xbf800000bf800000U,
  0xbd89ceacbbeca1efU, 0xbec6e65ebf800000U, 0xbec0ffc7bda95b63U, 0xbf800000bf055e85U,
  0xbdf68a8abf800000U, 0x80000000bf800000U, 0xbe813317bf800000U, 0xbf800000bf800000U,
  0xbf800000bf26be45U, 0xbf7df104bf800000U, 0xbf800000bf5213a9U, 0xbf800000bd12d553U,
  0xbf800000bde2702dU, 0xbf21de4fbe756f70U, 0xbc9634e2bc139804U, 0xbf800000bebcf2f4U,
  0xbe680d43bf800000U, 0xbf800000bf800000U, 0xbf450ac8bca4b3baU, 0xbf800000bf800000U,
  0x80000000be467eccU, 0x3f945f08bf997450U, 0x3f084980bf96752aU, 0x3f5949983e50fa3eU,
  0x3fc4ec4cbf808f48U, 0x3f1d24edbf53383fU, 0x3f3cebbbbf5aec4dU, 0x3f537cbdbe81defaU,
  0x3e97acc7bf4e42fdU, 0x3e2e065cbf5fc3b9U, 0xbe902104bfadc611U, 0xbeec8940bea90c08U,
  0x3ec42c343e8a84cbU, 0xbed31701bf8a899eU, 0x3e3462613e9ff8aaU, 0xbcc3e0d1befa6b81U,
  0xbe2e62f2be942303U, 0x3ed3333d3cbf1b4eU, 0x3f46fbe0bf2d28caU, 0x401179663fa578ecU,
  0x400fed8a4012c6ecU, 0xbfc8dee03cab9217U, 0xbfd235a9c06f4f6dU, 0x406176c23f9697c9U,
  0xc05d9c1abf537504U, 0x400d7bd0bf803522U, 0xc056fb733e8b2f85U, 0x400b7e6abe14a861U,
  0xbf65a25cc03b7799U, 0xbfed3d413f77d6c3U, 0x3fb033acbd58d0d9U, 0x4003ff96c06fb1e7U,
  0x3f45c335c0003b16U, 0xc009a0b53ea2c103U, 0xc0037e2b3f5e467fU, 0xbfcc882c3fc42452U,
  0xbf3fa33a402d7e05U, 0x3d3f75523fe5a267U, 0x3f387f523fa82401U, 0xbf6ef77f4012fc4cU,
  0xbf2b6350bf766282U, 0xbfa9b8b3bfc0d3e4U, 0x3e6f24833f9a23e4U, 0x3e567f2b3f0cd466U,
  0xbf11cdc2bff6a694U, 0x3f514e793ec01fb2U, 0x3f84a7de3feecb4dU, 0xbe6dc1d6bf927020U,
  0x3fcc69e73f9dc101U, 0xbe6b1eabbf101138U, 0xbf294562bf201f6cU, 0x3edc7fdcbf295748U,
  0xbf159af9bf0970ffU, 0xbf8f4c04bf16fea7U, 0xbd97b3edbf692602U, 0xbe1d191a3fd74ff4U,
  0x3f0b5880bd160c82U, 0xbfd933f3bf1e57dfU, 0x3fa39cdd3ed144c4U, 0x3fa6e9bd3ee9283bU,
  0x3f0b0d1dbfa9cfdcU, 0xbe59abe93e13ef18U, 0xbce2e727bfc32f50U, 0x3f01972abf6e0203U,
  0x4003d7b44001be22U, 0x3f69a122bf7d878cU, 0x3f586aa0bfb07c55U, 0x3f9bd1583edf0d4bU,
  0x3fa09cb2bee60a36U, 0xbe98e323bfa90266U, 0x3f3c23a4bf3e5aceU, 0x3f7d7983bea60b23U,
  0xbebd5932bf432853U, 0x3dddfe81bf97cdabU, 0x3f179f873d1ab8eaU, 0x3a8148c8beb91a7fU,
  0xbedd5750bfb819e5U, 0x3ea2d1edbea5e8d3U, 0x3ed708c1be60ef2dU, 0xbe1d1c29be9d7eb4U,
  0xbee11ff4bee4af48U, 0xbddeffc3bf13d5bbU, 0xbec48572bf1a7f1bU, 0x3dbb3aa13e2b066cU,
  0xbf0b8054be7efe6fU, 0xbe1b94ebbf709dd4U, 0x3d27dcf6beff52beU, 0xbe9ce8193e513034U,
  0xbf197580bf962f9fU, 0x3d9fecfebf097fb2U, 0x3f8a48a3bd007c67U, 0x3fe00f9d3fe5c288U,
  0x403b85783f81eb4dU, 0x400f19934011c5a5U, 0xbf789d253f71ee72U, 0xbfe89da2c02e0efcU,
  0x3fb4d21bc000a121U, 0x3da498f740069a76U, 0xc042e6c1c037a171U, 0x4056bd9a3e8d0c37U,
  0xc06883713f0c593bU, 0x4053555dbf9a45a0U, 0xc026e9ef3e8b590dU, 0x3ffbe4513f5a713bU,
  0xbf876853bf1bd425U, 0xbf2510263fa60454U, 0x401b0951c02c29baU, 0x3db782abbff95b6dU,
  0xc02623c2400d2678U, 0x40100aed3e9861e7U, 0x4074b638bf554b05U, 0x3fe2bfa6bf48e6e9U,
  0x3e59179cbe7e8126U, 0xbfe421d53f9e0591U, 0xbfc4109a3e546ab1U, 0xbf9754823dbacd65U,
  0xbfd71f333deb906fU, 0x3f6105bdbf9af06aU, 0xbf22436c3e042cc0U, 0x3fb08cea3fa8f96cU,
  0x3f51eda5bf90dde8U, 0x3faefd8ebe860895U, 0xbf8fa0edbebf5817U, 0x3ffb91d7bcc34f89U,
  0xbf7b4c9fbed030b2U, 0x3f0f2ec2bf8fb232U, 0x40152e9c3f0205faU, 0x3e8d8350be94fc09U,
  0x3f1f28c7bf11daa7U, 0x3f8efbd5bf846285U, 0x3f86a6e6bfbc8422U, 0x3fa29cfdbcf378fbU,
  0x3fbdd4febf9240ccU, 0xbe9bf7e9bfd25253U, 0x3eefee76bfab7fa2U, 0x3fac895dbee1d833U,
  0xbdd66749bf2e11f4U, 0xbed1d5e5bf7f279fU, 0x3f50f2c7bf14af86U, 0xbe35f2693e301353U,
  0xbf2925bebf8c1dd7U, 0x3f35bbbabf801f55U, 0xbd94828cbe4506a4U, 0x3dd03a07be7ef7f3U,
  0xbcae5445beda57e9U, 0xbe095c4abeaa75c2U, 0xbec1d90cbf5b62cdU, 0x3e7408c0be6bdf2bU,
  0xbde75cf43e9000abU, 0xbee07629bed366feU, 0xbeb40832bf74f391U, 0x3e8bb5333cab5e12U,
  0xbee1b8e3bf66afacU, 0xbf51096fbee27ea4U, 0x3db5a6e33c3179aaU, 0x3fa7e373be674915U,
  0x3fb89a5d3f12593dU, 0x402846cd3f4c45b5U, 0x3ff893c43fb06221U, 0xbf6e97e43eea0b37U,
  0xbff24d95c061ed8bU, 0x402f5cb3bf3d08bcU, 0xbe0428263ff2e935U, 0xc015a0b3c022450dU,
  0x405f04683f2e4473U, 0xc0853b07bf2418a9U, 0x407f16b3bf63961bU, 0xc0486398bd9b3ae5U,
  0x3ff93bf83e9f58ceU, 0xbf99073fc04ef975U, 0xbfab8a074050e29dU, 0x400e44f7bfcdd796U,
  0xbf40d3babf78a7d2U, 0xbf7d0e7840553fc5U, 0x4011470ebfcea01eU, 0x400aad4bc0439518U,
  0xbe80bd173f0c8747U, 0xbf9d8590be9764f6U, 0xc017d4533fc08a13U, 0x3f9dafc0be96ec72U,
  0xbf9c605b3dee8158U, 0x3fbd0bf5bf10ad61U, 0x3ee34dbdbfab9b2fU, 0x40426a61bf9c4f3eU,
  0x3f3edbccbff64255U, 0x404f9b86bef1eec3U, 0xbef05fafbd678cdcU, 0xbfaf951bc00d0eb1U,
  0x40037800bf756c98U, 0xbf374930bfc6f7c2U, 0x3f4d04ecbf411207U, 0x3f059263bfc2de22U,
  0xbf6e660ebfd9b826U, 0x3f8f21e9bf7250c3U, 0x3f7d2576bf668ecfU, 0x3fecafdcbee730c9U,
  0x3f95f531be5de971U, 0xbe0ec832bf8dd3c2U, 0x3f104046bfb0b140U, 0x3f550272be9e46a8U,
  0xbcbf5d8f3ddcc604U, 0xbe96bce2bf7e9818U, 0x3e3f6f91bf0c4001U, 0x3f8208d53f02c984U,
  0x3ddd605fbf0212bdU, 0xbf5e863cbf90051bU, 0x3f39e3e2bf0b2bfcU, 0x3e655b75be9351b5U,
  0xbdc1ac58bea2a037U, 0x3e4991b7bf32fd49U, 0xbe196ad2bf8942c8U, 0xbf50e2ffbf53f31dU,
  0x3f568c62bf31f8d1U, 0xbf7e97593dd3af6cU, 0xbe3e64c13e56a4baU, 0xbf7377e0bfa284d0U,
  0x3d4dedc23ed4cd00U, 0x3b770b4bbf2b1bbfU, 0xbfc40cedbf82ccb8U, 0xbdc1f14ebfa50b6bU,
  0x3f4ba2b0be603bb9U, 0x3e38c3ae3e580ff3U, 0x3fad38413f8a2d61U, 0x40529de13f2c3bdfU,
  0xbecd1cac3f35b216U, 0xc014ee0fbfb276a3U, 0xbf7aca75c01ebd7dU, 0x40018ff03fd7bf96U,
  0xbff38286bf0237dfU, 0xbf0f3e67c03414cbU, 0x3fd825b8402a6de3U, 0xbff3238fc02ad0daU,
  0x3ff7451040017a57U, 0xbfa35986c000f202U, 0x3f6303de3eb2d30dU, 0x3f48a5b9c03c5cdaU,
  0xbfc1aa283f211955U, 0x3fcb7659bf9e50c2U, 0x3f879851bfffafc0U, 0xbfa0d12f3fb7f550U,
  0xbd16d595400a9591U, 0x40249959c058b497U, 0x3eba16b8c01f126fU, 0xbf6bdfb0bf027acfU,
  0xbf9fc9a5400a1703U, 0x3e57d1533f64d3aaU, 0x3f3233dd3f986ad7U, 0xbf8d081ebf744e5cU,
  0x40205550c0055c1cU, 0x3f0ca7dabf562449U, 0xbd3777ecc00b3db4U, 0xbc3c0a75bfadb01eU,
  0x401b9e71bf14c38cU, 0x3d4a63a73f0226d4U, 0x3f318d1abf88e3baU, 0x3f18a510bf7e5a49U,
  0x3ff6720f3f91853aU, 0x3f4268b7bf7af726U, 0x3f8909e6bfccd1afU, 0x3f49c74fbf088cb8U,
  0x3f3ef9bbbe753700U, 0x3e0a4e6dbfa81dd7U, 0x3ee15eccbe8cd790U, 0x3eb683f9bc93da9eU,
  0x3fb0ec68bf0daa46U, 0x3f6a28a7bea20a26U, 0x3e26b4c03f1dc599U, 0x3e4b9452bf475828U,
  0x3f41d9963f6ef4e4U, 0x3edcad04bf51b72cU, 0x3e0efa5cbe05bae0U, 0x3e987c71bea64258U,
  0xbe3e931cbf08cfdfU, 0x3eabf61e3edc42ddU, 0x3e0e866d3d595d9cU, 0xbe1383b4bf2fd84fU,
  0x3dd63772bf91969bU, 0xbf6adccabe51a121U, 0x3e2102b9be554d99U, 0x3f0234dc3d2c65ebU,
  0x3fee7e993f6c4c2dU, 0x401829713fc16a37U, 0x3e915e173f97504cU, 0xc043c2dbbff09025U,
  0xbeef8f18c016be25U, 0x403075a73ffd13f0U, 0xc02fa7e1bf3f51b1U, 0x400091d1bfaf27bdU,
  0xc0080dca3fe1d517U, 0x401e1acfbfeef889U, 0xc015ecec3b3fd203U, 0x3fc36451bf724062U,
  0x3e9ad907bfd82aedU, 0xbf4061a23f9e99dcU, 0x3fda71f4beb88c07U, 0x3f96036abfe0fb2bU,
  0xbfb30d1fbe592f08U, 0xbfa90d993ed4f65dU, 0xbee056b53f91b0b0U, 0x3f3aec6fbdcd23f8U,
  0x3f3b9752be2f220eU, 0x3f09e918c01b3209U, 0x3fdbf03ebfd9c942U, 0x3fecd9c43f0a51eaU,
  0x4008e3a83e11a3b8U, 0x3fa39df0bf72c820U, 0x3f920744bdefe99dU, 0x3eb6627bbe81da89U,
  0x3ff761eebf3c2b74U, 0xbea287b8bfea8b96U, 0xbf8f01f1bf29272cU, 0xbf2b6091bf8219a7U,
  0x3f924d01bf58f88fU, 0x3f73bfa0be91e5eaU, 0x3fe174223f97f45fU, 0x3f1934f63f25a328U,
  0xbfb9a5e9bfb8772cU, 0x3f4a072ebf8da7bfU, 0xbd4f5022c0214674U, 0x3ff8b2a8be228367U,
  0xbf3c1d24bf39cc6fU, 0x3f6c2197bf6df56bU, 0x3ec550a9bf49c42cU, 0x3fbb5b743e28e2e2U,
  0x3f6e381c3dcc093dU, 0x3f0e4ec1beba8f7aU, 0x3eed26fdbf72b60cU, 0x3f7892943ec06c5bU,
  0x3eaa2e20bf5c8c3cU, 0xbcdac50abf5027c2U, 0xbef06e3dbf37b551U, 0xbf8367bcbea1016cU,
  0x3f0e65da3e00c139U, 0xbe0d7dc2bf66ef9cU, 0x3f33640b3ce7e3feU, 0xbee7f698bf5c6da0U,
  0xbeb353d7be873400U, 0xbe1fcbeebf158f7fU, 0x3e8552f6bf86dd43U, 0x4006d9d63f757cb7U,
  0x400b85853f92ad22U, 0x3b39844e3daeb3aaU, 0xc01739f1c02cf5f7U, 0x400776173e7d1677U,
  0xc00f889d3f9af16cU, 0x3edb2858c032c126U, 0xc009985f3f82a0bcU, 0x3fc87154bfd3e1c6U,
  0xc0172c173ec1bafdU, 0x3f781d7b3ebd958eU, 0x3e674a90bf5b2387U, 0xbf0527623d0ed459U,
  0xbf85c8e43f32844fU, 0xbfb5372a3f1a2c6aU, 0xbf75c841beef8714U, 0xbcac3488be060f36U,
  0x3fca1c58bd8a7fcaU, 0x4031bb2a3ea2e8ceU, 0x4034eea03f4d2fecU, 0x3f671bab3ffc8edfU,
  0xbf19805fbe8df6bbU, 0xc04ba73fbff6a840U, 0xbea03e36bf138215U, 0x3f7f952f3f541f73U,
  0xbf807dbabef1ea74U, 0x3f62c584bfd892e2U, 0x3f04b66b3f662c69U, 0x3f7e1a81bfc599a9U,
  0x405aad29becc2e7bU, 0xc0153b42bf93ffbcU, 0x3f9e03a7c003bf95U, 0xc03a717abfee8640U,
  0x400dfcae3f611479U, 0x3e45edf7bfb293f2U, 0x3feadefd40502250U, 0x401b9bc8bfe15a2fU,
  0xbed64688bccec38cU, 0xbf724346bf780b49U, 0x400b5f73c0213216U, 0xbfc95b3abf0b3be8U,
  0x40062be73efc7bceU, 0x400136be3f54b81bU, 0x3fd52466c038b9a2U, 0x402187693e89c71fU,
  0xbf9b852240544700U, 0x3f6d067bbf88bf39U, 0x3f3e17d8bfafb3b1U, 0x3f9f4277bed0e532U,
  0x3f541aa0beec0a0bU, 0xbdaa3bd7bfc855c5U, 0x3ed690d5bfa0dec8U, 0x3f99c71ebea2a7fbU,
  0xbe26161cbef75425U, 0xbd9d560bbef34b47U, 0x3f757515bf410cbeU, 0x3e89c62d3f1aa2f7U,
  0xbeb14a69bf65948cU, 0xbe2efabcbfc03758U, 0x3efdb31d3e32a4fcU, 0x3ed6a76ebf02b883U,
  0xbeb12ca3be7b62a7U, 0x3e879398bed02418U, 0xbca70623beb7930aU, 0x3ecda00abf8a7fc8U,
  0xbd8b7f32be9882d3U, 0x3ed89077bf127b2aU, 0xbf648fa8bf851914U, 0x3f1f198fbf4d6ecaU,
  0xbf0ef75ebf59c172U, 0xbf432fbbbf08e78eU, 0x3e754300bf9f687bU, 0x3f617383bf87e6ccU,
  0x3faf42a63f280866U, 0x40061b313f72087eU, 0x40444508400ebdeeU, 0x3f909dea3fcbbde3U,
  0xbfe191edbedb78e4U, 0xbf000cc5c03e1735U, 0x4022da9f3fc10affU, 0xbfdecdcdbdab43b5U,
  0xbd38a8fac0584f1aU, 0x3fe8bbdb3fff598dU, 0xc0323fa5c057d445U, 0x3f5d818f4016752cU,
  0xbf7b9955c096fe20U, 0x3fe020253ff7cd81U, 0x3fcbb653c060eddfU, 0xbff08c233ff25982U,
  0x3fb9c3703eb4af48U, 0x3eea7eb1bfebcf4dU, 0xbf9184ca3f3698f1U, 0xbf97b93c3fbc4a3aU,
  0x404258843d60e826U, 0x3decb2b1c04ee548U, 0x3e50ec1a3f9005cdU, 0xbf187f28bfcbd6cdU,
  0x3f99fb3740302352U, 0x3f06ba97bf89be14U, 0x3f5b92673ecc2bebU, 0x3fce7414bd5a16b3U,
  0x3f91de9dbf80438cU, 0xbccee13bbf51e5e6U, 0x3f07abd7c026d0cbU, 0xbf8f3ccbbf10b02aU,
  0xc03f7a16c0390a6bU, 0xbf527e723ceb4de2U, 0x3f918a55bf7c9739U, 0xbf9e3368bda8377fU,
  0x3ebd4db7bef33d5eU, 0x3f59411fbf8179f7U, 0x3f3f3d24bf300fb9U, 0x3fc6a280bf5a1873U,
  0x3fa55ebf3e31dd24U, 0x3ec419aabf520eadU, 0x3ef9b6bcbf007ae8U, 0x3f596e7fbec958d9U,
  0x3e7b41ad3e0599e0U, 0xbe487796bf44ae59U, 0xbe557f7abf7e1b03U, 0x3ebdcb4cbbf07a0eU,
  0xbe9c0abfbf43fa2fU, 0x3cefe222bfb06b8dU, 0xbe036fd0bf079983U, 0x3e3097d5bf1c57d5U,
  0x3e2dae7ebe64d28aU, 0xbf1f8d69bf688456U, 0x3e05c222bf8ab355U, 0xbd06df5dbef74af9U,
  0x3e9a2461bfd3efe5U, 0x3f44905c3dc600ecU, 0x40180df43fa1537fU, 0x402701944023f988U,
  0xbd6df28c3ff56703U, 0xc03a8f60c00339d7U, 0x3fd1e83fc0017fe5U, 0x3f65990940172e2dU,
  0xc02d77e7c0640ae3U, 0x4062640c3eb21f9cU, 0xc085ad9fc00fcea7U, 0x403157c63fb843abU,
  0xbf87577cc060b131U, 0xc02b244e4004bcb4U, 0x401cfa5dbfcaffe4U, 0x3e42792fc0864eeeU,
  0xc04a78c03fa145d7U, 0xc015c56340090320U, 0x3ea0223ebf9f86c9U, 0x402b3292c00bd281U,
  0x3fae3e3dc025b9b2U, 0x40144835bfe0093cU, 0x3eb2accfbfe01c14U, 0x3eeb8b7ebe27121aU,
  0x3d640365bb553dffU, 0x4005b2283df7f3fbU, 0xbfb35faf3faef9eeU, 0xbdd2fa95bfcb0d6eU,
  0xbd92055b3ee89fdcU, 0x3f54c9683e92efc7U, 0x3f0d3a493f698160U, 0xbc7ad9f1bfa38e87U,
  0xbfcf266ec01a1adfU, 0x3fa8e56dbee37b65U, 0xbf93aa7c3edde2a0U, 0xc01bf7ff3ab98d51U,
  0x3f076afd3ee7953cU, 0x4020fdd83f21f997U, 0x3fa2bc793f89251dU, 0xbfa22eae3fa3ddd1U,
  0x3f6c517abf593548U, 0x404032873feeaa03U, 0x3fe9607c3f70a0ecU, 0x3d8203483f683f56U,
  0x401e34ec3f5de45dU, 0x3eeaf66fbf30e1f2U, 0x3fbc058a3f15a212U, 0x3f6b1c6b3f86fc44U,
  0x3f533bb43f9b844cU, 0x3d8b97fa3ea15a49U, 0xbf535d70be845dabU, 0xbd6f1401bf0dc9e9U,
  0x3f6c107bbf1369cfU, 0x3de8eb7ebf682260U, 0xbf2e78efbd452591U, 0x3f51896d3f40d93dU,
  0xbe86c6f5bef0879eU, 0xbd494799bea8bdd3U, 0x3f9102493f946960U, 0x401ced7a400789c1U,
  0x3f4c628e3fc51f6dU, 0xc05c86debfaf4fa9U, 0x3ffdf5b5bf2fa820U, 0xbf1eaf9d3fccaf20U,
  0x3ff31ed4c011cc04U, 0xbfcf82523e895e55U, 0x3f13f4bbbf62da34U, 0x3eda1e6abfd08997U,
  0xbf102083bf9b5e0eU, 0xbf1d99b9be94847eU, 0x3ee8ab4a3e97aca2U, 0xbbbaf7c6bfb67165U,
  0x3ebbc07a3e59100bU, 0x3f35b88b3edfdf8eU, 0x3fb935c13ef5bb59U, 0xbf7de0b9bf71d41fU,
  0xbf9552b6c00c4cceU, 0x3fd40adb3e736be4U, 0x3f838bcb3f20b23cU, 0xbfee6c62bf5e06a5U,
  0x3f2d528d3e396400U, 0xbf5ce8df3f59f31cU, 0x3f9ed98bbf0cf323U, 0xbfc78fb53f86b352U,
  0x3fa91b4ebe9adfefU, 0xbed6fbdfbf454a24U, 0x3fb77f1f401dbcdcU, 0x400f8c1e3f0d73adU,
  0x3ef37a153c61aa82U, 0xbe9e43d940168fc0U, 0x3fde3627bfc7d88cU, 0x3f32aef3bf977b5cU,
  0xbff57465bd9ea706U, 0xbf8219de3f3e72edU, 0xbf072f0a3f0c3b03U, 0xbd9de672be924bd7U,
  0xbdebd421bf5289a6U, 0x3fc7ebebbfbec8b7U, 0xbe8dfec5c000482eU, 0x3eacc221beffcabaU,
  0xbcfb0ae1bf5aacddU, 0x401c1ffcbf09e897U, 0xbd8b369b3d9330c3U, 0xbe5ad7dcbf20f792U,
  0x3ed8e7aabf2eade1U, 0xbed6a7a1bf6daef9U, 0xbfc33738bfc04bfcU, 0x3e0dbb023df02d15U,
  0x3e6b306bbe07b5c8U, 0x3fa00283bf92c111U, 0x3f835646bfa6eb27U, 0x3f444ab3be8196cbU,
  0x3fb28052bee5476dU, 0x3eeb93e2bf925f25U, 0xbe9d5650bfb1baf1U, 0x3f2d2d1ebef0bbc4U,
  0x3f366338bcd4e8a9U, 0xbee2b616bf901c37U, 0x3e892edbbfc0931dU, 0xbf2d8b7fbe5061c0U,
  0xbe10cda5bf21b306U, 0x3edb246bbf716946U, 0x3d0c1f25bf7ebc0cU, 0x3f7ce76fbf9c4050U,
  0x3f16bab4be9c0c2eU, 0xbeb28efebe792f71U, 0x3dc5e2b5bd8742bdU, 0x3f106ce0bf0df993U,
  0x3f8369f3beb573aeU, 0x402f18483fa01586U, 0x403705e4403dab4cU, 0x3f41a8e43f945e1aU,
  0xc0283942c054b51eU, 0x3feab682bfcc0432U, 0x3f4581e74039707bU, 0xbfdd2e9ec05df016U,
  0x3ff5193140093a8eU, 0xbff6daf8c041b586U, 0x3f192af14033254eU, 0x3f8b3359c05f1aa7U,
  0xc06247b63eb813c7U, 0x3ea4ae484005df39U, 0x405cd99dc0112546U, 0xbff5e164c0051138U,
  0xc057cfd13f70a55aU, 0xc025c0663fb09d7fU, 0xc011d1c93f6407f7U, 0x3e3cefde3f07994fU,
  0xbd463a9d3e6c2df7U, 0x3f95b5c2be9e62c0U, 0x3f1911fac00bb689U, 0x3fafc4623fc74a35U,
  0x3f7766abbe588083U, 0x3e71c156bf41ddcaU, 0x3eb73e1abff9f086U, 0x3eaf381bbf1ddec6U,
  0x3fa51d6bbf6de53fU, 0xbcbdccbbbed7c036U, 0x3d663e3ebf1d6d7dU, 0x3fb168d6be6a830cU,
  0x3ebb9361bf41b23aU, 0x402eee453e8dbf09U, 0x3eca44db3fe97ec6U, 0x3edd4400bf97b374U,
  0x4028d812bd2a2f04U, 0x3ff2c3f13fd8a8eaU, 0x3f400c0dbf0cc3a0U, 0x3f19638ebed08555U,
  0x3ffcc20fbf93b18aU, 0x3fcee4eb3f8f0e0eU, 0x3e8c28cec03b79f3U, 0x3f54623ebfb46a53U,
  0x3fc01925bf383c31U, 0x3fa08d11bf80e3d1U, 0x3f75cad3bf82f5f0U, 0x3fdd6467bf6dc5a6U,
  0x3f83c62f3d89e212U, 0xbecb269fbf643b4cU, 0x3f286218bfc69049U, 0x3f8381cbbe848143U,
  0xbe9e54983e718bcfU, 0xbebc595abf1ccf94U, 0x3ea0d3a9bf59570cU, 0x3f99e2153e442e53U,
  0xbd0b7dd0bf17a3cbU, 0xbfa3a3fdbf45f1b9U, 0x3d1bcbd4bf462eecU, 0xbd9bee573ee7feabU,
  0xbee4e5bdbe2d9208U, 0x3eb46631bed08dedU, 0xbd122ee4bf4870ecU, 0xbf6ac51e3d75adeaU,
  0x3f12cf53bf980c21U, 0xbedf9aee3e6c9706U, 0x3f5564a6bd7805eeU, 0xbee488a5bf9b3371U,
  0xbe301647be6abf90U, 0xbe0e42febe25d46fU, 0xbf815f74bf3cd7c7U, 0xbf15d665bf24a6b9U,
  0x3eb37deabe933ff7U, 0x3edead463ef57371U, 0x40341c413f5304c5U, 0x40404cef3f62e92eU,
  0x3edb7baa401e9b8fU, 0xbf6391c9beafac68U, 0xbfe0d721c0442533U, 0x401b0e0f3eb6e2aaU,
  0xbe87212c3fbe818bU, 0xc00a4419c03c4a22U, 0x3fdd62833f787e9eU, 0xc0239e663b086617U,
  0x4060e698bf336874U, 0xc03152c83e93f4a4U, 0x4028bc1abfe133e8U, 0xbf31ce80beac8d94U,
  0x3f6a1bd840024e54U, 0x3ff637cac03407c5U, 0xc00df48cbf26cbdfU, 0x3ff878a93fa6248bU,
  0x403e5827c03de956U, 0xbf18ec39bfb2d8bcU, 0xc0041b6c3f7ba0e2U, 0x3fca6207401f9068U,
  0x3f7a7ebcbfc06ae3U, 0x3feada7fc065377bU, 0x3fdc575abe94ad70U, 0x3f9413a9c01ceea6U,
  0x3f2496403f5d02fdU, 0xbed7d257bf43c5d2U, 0xbf22ae85bee8a8a8U, 0x3e6979e13f349e9cU,
  0xbf919885bfcd93d1U, 0xbf1b66e2be9ef39dU, 0xbeb4a589bf448b49U, 0xbe922f7b3f3a47c1U,
  0xbe966c953f22de9fU, 0x3f7ca11abf932ac7U, 0x3f8de301bfa7f2f7U, 0x3f709802bf882a37U,
  0x3fba3c4cbeb05d66U, 0x3eb45e8dbfb988c1U, 0x3ec361a8bec9e257U, 0x3e9ad270bf486644U,
  0x3f50c2d83db71077U, 0x3effe150beb33615U, 0xbed35e6fbf1fbe1cU, 0x3ebb4bffbf9c3c82U,
  0xbf58fe133f0dd0ecU, 0xbd774195bf3a1e5eU, 0xbf0b118fbf1e4b9fU, 0x3e8a7e1dbf0bb352U,
  0x3eb9bc74bf3eb8c1U, 0x3e76f5eebe473603U, 0xbeb0ad6e3d6414e7U, 0x3dc1b031bf2dc017U,
  0x3e1663a9be5bb7ecU, 0x3c3e7063bf74d163U, 0x3fac411e3ee0cf1aU, 0x3f489b973f0ba687U,
  0x400b22034004d77cU, 0x403cbd614048a7a2U, 0xbfe533a33ebcdb5aU, 0xc048b2d4c039c177U,
  0x40311856bf4fc62eU, 0x3ea4251e40093b41U, 0xc00e4154c06a8732U, 0x4042d7d44005c6e9U,
  0xc001037ec08af795U, 0x400456d94003cd2aU, 0xbf16736ec0655953U, 0xbfceee68401c40e8U,
  0x400c7331bdd1b2a8U, 0xbe117ae0c0234248U, 0xc03e7d023fbe4c5dU, 0x3fc2bcedbf01e68fU,
  0x4029e23fc0565dc4U, 0x3f238751c08fdecdU, 0x4022448ebfd5cc7fU, 0xbf0052a93edd87b3U,
  0xbfc3cdeabe190034U, 0xc019636f3fbaf253U, 0xbe9921953ff895f8U, 0x3ee4d4b83fce1ac7U,
  0xbf7cb1373ffed737U, 0x3fe23559400af29dU, 0xbf6cffb93dda42efU, 0x3fe4def7bf2be887U,
  0x3f6ac9e83fc992b7U, 0xbf4527003f3ff152U, 0x3f86bcd9bed9117bU, 0xbfc033393f87a1efU,
  0x3e117e0c3f867070U, 0x3ff461c5be43cf9fU, 0x4030f5b0bdab7a0aU, 0x3fa6dc803fc28848U,
  0x3f8eb008bed07081U, 0xbd642fd6bf94ca4cU, 0x40871f3d3ff7b8d6U, 0xbfd4be733fe7ff5dU,
  0x4009f0e8bf78a54dU, 0x3f85d36ebf84fab6U, 0x3f921cc9bfab0649U, 0x3fbdb5323e6eae58U,
  0x3fba6c39be2a5b37U, 0xbcc8064ebfa08f93U, 0x3f384009bf9e9e60U, 0x3fadf11bbe5a2de1U,
  0xbe0d1384bee55aeaU, 0xbef56509bf51a8b8U, 0x3f647963bf40d4e4U, 0x3f15bb5f3ebc73b9U,
  0xbed3353fbf1d5f8bU, 0x3eb6a2d1bf84e175U, 0x3f5557523e568340U, 0x3eb773ffbec55c92U,
  0xbee7c4debeb8210fU, 0xbe85ae21bf1f0488U, 0xbf2572d3bee54a57U, 0x3eb2a365bf336b8eU,
  0x3ea05eeabc1c22e1U, 0x3e5bf9a2beae14a4U, 0xbef07820bf59b321U, 0x3f3f72b8bf5f7a22U,
  0xbe4be6a9bf60d4fdU, 0xbfa29f7dbf464bf7U, 0xbf722dd3bfb2928fU, 0x3e6da8b7bfae45a5U,
  0x3f9d235f3f8469a0U, 0x400a576b3f5fd63eU, 0x403d71cc3fabac64U, 0x3efe32843f14c18aU,
  0xc0201c96bfdc5c06U, 0xbee561f4c04eb978U, 0x3fc41f1b3fe0607eU, 0xc00467fdbfccecf9U,
  0x3fecb761c0441c8bU, 0x3f0c717e40181876U, 0xbf04bfdbc05b3d0dU, 0x3f6802e5403e2cf5U,
  0xbd304cbdc08fc3faU, 0xbfb57ce43fe53f4bU, 0x4000aecac029b5a1U, 0xbfe44cdbbfa58394U,
  0x3e5fba4e401332cfU, 0x407c3b39bface3ceU, 0xbee17005becffdccU, 0xc024e2b5404649b9U,
  0x3f24929a3fa49ab5U, 0x3f3a7743c020801aU, 0x3fc584cac0588128U, 0xbebf7ef0c04b07a9U,
  0x40059d54bdeaa112U, 0xbfc8a877bf65a238U, 0x3fb82ae73fece102U, 0x3fdbd1024008eec5U,
  0x3f5dd97a3f55e494U, 0xbeddf1583f871414U, 0xbfbba323c056da7dU, 0x3ebdf345bf8032d9U,
  0xbff7e1eebe878e90U, 0x3f0e246ebf4b4c68U, 0x400a2e113ea53bc5U, 0x3eeca76c3fc53a14U,
  0x3e7b6b2dbf7311a6U, 0x3f900944bf8be031U, 0x3f6c4f18bf842c43U, 0x3f92e4933ea671e9U,
  0x3fa5094cbf2965f2U, 0x3f25ce2ebe9bef42U, 0x3e937204bf594b49U, 0x3f7900093e6d6e73U,
  0x3d877a45bf39ea32U, 0x3ebc298fbf4dc38aU, 0xbe9fc316bf44b23aU, 0xbf16dc69be263bb4U,
  0x3ee3bab93eb6434eU, 0xbe99bd29bf7830a0U, 0x3ed54f64bbb1ea3cU, 0xbf2c0158bfb1e8bfU,
  0xbe9c5988be097ee3U, 0x3f05ff93be49be82U, 0x3ea05704bf3c88e3U, 0x4006f9873f183e41U,
  0x4015b9b23ff77fccU, 0xbeb907043e89e35cU, 0xc04a8369c064c6a7U, 0x400cfb60be8564e8U,
  0xbffeaa113febae20U, 0x3da67902c065d42bU, 0xbfac65383fc080e3U, 0x3f675bc9c026c809U,
  0xc08325ff3f3ee38dU, 0x3f73563dbf309f9aU, 0x3f109297c05211f7U, 0xc04f8c90bf36e347U,
  0xc026ba5e403f746fU, 0xbef759f03faadf5fU, 0xbdc660c0bf56e89bU, 0x3fe49300bfbd24c4U,
  0x3fce17ecbff9bf64U, 0x40188ea2bfd846e9U, 0x4010d41abf5dc369U, 0x3f87a9ef3e24ae69U,
  0xbe4b53e3bf29e831U, 0xbff062d4bfb5a34aU, 0x3f67dd87bf53203cU, 0x401ccfed3ce56cdeU,
  0xbd6f754bbe7ad12aU, 0x3f2b0a15bfe104d2U, 0x3fb5789f3d533dbeU, 0x3ef981fac00e84c9U,
  0x40106078be6ae355U, 0x3e5dccf93edae9f5U, 0x3f76f87cc02ac5c8U, 0xbec71290c00ef5c5U,
  0x3f102a373e738702U, 0x3fb7a04fbfd99e8eU, 0xbb892bde3d053aeaU, 0xbf4c6537c0405205U,
  0xbfa8cee4bf322963U, 0x3fa52f3bbf81ee4fU, 0x4042d8f4bf7119e2U, 0xbebc441ac045d34cU,
  0x40081de83f0963c4U, 0x3f6ef1b73f624802U, 0xbf92a534c07e5aafU, 0x3f49f4f8bfa7d18dU,
  0xbf35f7df3fd3f729U, 0x3f3a81c0bf7f4e75U, 0x3f0c02f4bf60bc0dU, 0x3f5af9683e0ccf0fU,
  0x3f9293e3bea92112U, 0xbe4f7387bea339a0U, 0x3e6857dcbf5fd984U, 0x3e69c7a8bc4a565fU,
  0xbe82d59cbf7e43ceU, 0xbf07cdf2be9a442dU, 0xbcfbdd36bf5378f6U, 0x3f2e0028bf6ced04U,
  0xbe58060e3dad22f1U, 0x3f35798bbf3a3404U, 0xbec5e1babec70a13U, 0x3eaf1028becd377aU,
  0x3eb7bf01bde5ef7fU, 0x3f9cf81f3cc0e1eeU, 0x3fd2eb043fc5ec16U, 0x400c0a9140137990U,
  0xc00a4550bf5cf9e5U, 0xbf34a758c061303cU, 0x40170a9d4002bd1aU, 0xbff8008ec0497b8cU,
  0x3f95a4e33ee62fe1U, 0xbffe1af0c022b459U, 0xbf475a033fa116ddU, 0x3fad72dbc0350adbU,
  0xc00716b4bf31458dU, 0xbfb1c7c13f9dc35fU, 0xbf0f60723f5a13afU, 0x3f0f07b6bf2e2db8U,
  0x3f453c5fbf978561U, 0x3f8485bec000526fU, 0x3f907124bebb9931U, 0x401047223eb6a458U,
  0x4025eeec3f977334U, 0x3ef89722bece01a8U, 0xbf9547fec01ef64dU, 0x3f9a5093bfac4eaeU,
  0x3f68b6a83f6bdcb5U, 0xbf6570f03f57ae97U, 0x3f9ed7b0beef7005U, 0x3fed340c3f9ef369U,
  0xbf203a05be0d9281U, 0x3e9d7cf43e2d1bf5U, 0xbff306cfbe89d931U, 0x4030740bbf06a2e8U,
  0xbfd1f371c0009fd5U, 0x3fce3f563f526b24U, 0x3e49fc30bfeb80deU, 0xbf8999ee3f091fbdU,
  0x3f781a8cbfb60463U, 0x3fa59ea5bf92ea6aU, 0xbfd30a7c3f759466U, 0x3f201ef33f19f0fcU,
  0x404e1356c069235aU, 0xbf83cebb3f8008efU, 0x3f1718a53f23a20eU, 0x3f30a381401e8016U,
  0x400f079bbf1b4f29U, 0x3f68c754bff0a3b3U, 0x3fa77a60c0384e61U, 0x404700c93f04efecU,
  0xbf98a041bfe97f62U, 0x3fb1c2b9bf8bb721U, 0x3f7dbd47bf8a587fU, 0x3f94a1afbf06368dU,
  0x3f94fe5abf13b2edU, 0x3e143238bf39d69aU, 0xbe7ea3c0bf9e5fd7U, 0x3f57ad80bea1409bU,
  0x3f16a767bdb4fb96U, 0xbe08527cbf9dff3aU, 0x3e28aeadbfe26b1dU, 0xbf0c2042bed582cdU,
  0xbdbcabfebf06636dU, 0xbc44a40abf0fe166U, 0xbf4d050bbf2b0fc4U, 0x3f68e113bfa3118eU,
  0x3ec6ffd8bf6337e4U, 0xbeeccb0bbf5387a5U, 0x3e231b253d16c4c3U, 0xbe19aa8bbf1de5b5U,
  0x3f0612e0bdea1357U, 0x4002e2f53f8d073eU, 0x3ffb3cee400bf2d1U, 0x3e580f413f28d0a5U,
  0xc01e446cc068a535U, 0x3fa9f6a5c006c0ebU, 0x3f354439402c8311U, 0xc008cc27c058a0e4U,
  0x3fcaf8a94013680bU, 0xbfd6d912c076d186U, 0x3da31c0b40261ec4U, 0x3fc23990c092c798U,
  0xc07a1058bdb63b56U, 0x3f0da3c93fb61b26U, 0x402459d0c02cb4feU, 0xbfa666f9c017c12dU,
  0xc028bc3a3faaaaa7U, 0xbff6f16c3f931d6eU, 0xbff662143f35afb6U, 0x3ea38accbed1ba68U,
  0xbf7da96cbf8332d9U, 0x3fff32a7bed5e3a2U, 0x3fb80136bfc93fc5U, 0x400070ac3fd8396bU,
  0x3ffea496bc85cbd1U, 0xbef813dbbff1eab4U, 0x3f3e4aa8c0421196U, 0x3eb087d0bf00a365U,
  0x3f88973ebfaf9fa2U, 0x3d1e1c13bf999b08U, 0x3d7e214abf7a74e1U, 0x3fc9aeacbf1fd75aU,
  0x3eea80cabf5b473cU, 0x3fc8e4d03e9891dbU, 0xbf2842de3e054426U, 0xbd84c4e9bfde2f17U,
  0x3fb05e073f3a6f3fU, 0x3fda7f4c3eed5b22U, 0x3e3cbc93bf9beb58U, 0x3e40ed2bbfc3dbadU,
  0x400e552a3ec758ccU, 0x3f93b9cb3fcd6f3aU, 0xbf2ed1f2c015b71cU, 0xbfb20da9c00cd1aeU,
  0x3eef32a5bfc322edU, 0x3f8d5f0ebf69a114U, 0x3f832d9abf24bcd0U, 0x3fc700913f5a6ecfU,
  0x3f8e3b5fbea28714U, 0x3f224817beacee43U, 0x3e05dc8abf695b49U, 0x3f556db93f0e4c54U,
  0x3ec67e8abe25882bU, 0xbda464c8bf896abcU, 0xbee8d6d6bea261eaU, 0xbf84784ebe91bf56U,
  0x3f292bfabeaa9246U, 0xbe8b1e96bf746792U, 0x3f362074be5bd42fU, 0x3dd46a78bfb58db8U,
  0x3e6ed5f0bf5e02a3U, 0x3f9400e5bed16d6fU, 0xbe6c18943e215150U, 0x400f07f93f338466U,
  0x400343013fec9505U, 0xbe54d8ec3f234b7dU, 0xc038db7ac0180995U, 0x3fdd00a9bf7be156U,
  0xbe933a144041b486U, 0xbe874d1ec05ab0caU, 0x3d9ba3013fcfd081U, 0x3fb01f51c0764a7bU,
  0xbfd6398b3f441159U, 0x3fa4f784bf36d895U, 0x3ea490f8bfd7f676U, 0xbff1baf93ec3c6d8U,
  0xbf41ece640125f3eU, 0x3f115da63f126c0bU, 0x3ff62018bf73d379U, 0x3f4ddfc1bfa04819U,
  0x3f0c1660c008a1b4U, 0x3ff53339bff50e26U, 0x3ffe00753e767822U, 0x3fadb6393f956438U,
  0x3f221d803eecef76U, 0xbef96b63bfe5f6b0U, 0x3e1da3babfee0fa5U, 0x400a28efbf2c16a7U,
  0x3f1f9b1dbd6d0445U, 0xbffd101dbfdc9bb2U, 0xbe4e8bdfbf69b7f7U, 0x3faaf5acbf4cca4fU,
  0xbf8502873f481558U, 0x3e27a8463f082027U, 0xbfa51757bf62b4d5U, 0x3f81247ebf865408U,
  0x3e67e1fdbd219cc9U, 0x3fd591f1beabd174U, 0x3f84a17fc0267176U, 0xbf896cf23e119457U,
  0x3e9e98c8bfc9ccdeU, 0xbed7756dbf7f3bb8U, 0x3fba118c3e861a0aU, 0x405bd150bfb86a2aU,
  0x3e930566bf540bbfU, 0xbe2721d23f1dfc25U, 0x3e0ada463f21c366U, 0xbe873df2bef2f6b2U,
  0xbf6962c83f1cc139U, 0x3fa120b7bedcd2b4U, 0x3fc1a8a93f99c0b2U, 0x3f83206d3f4c757aU,
  0x3fa93f5d3f82c31eU, 0x3f2a1d32bca73e82U, 0x3ebb5cebbef6c7daU, 0x3dbb2cbebfb9fae5U,
  0x3eef42cc3c01fc96U, 0xbeb72da8bf1e6edbU, 0x3f3f8369bf0712a1U, 0x3f10c5933de87ee7U,
  0xbe2266843eeed6f8U, 0xbe01a115bf32c405U, 0x3f84f1f6be15eb32U, 0x3fe750d6bccb4206U,
  0x3f22c9023f745ab1U, 0xbfeecd393d9a3ae8U, 0x3f047ca0c0291afeU, 0x3fcead174015d44dU,
  0xbf9b991dbff5623bU, 0x3dcc8f1c400dd7c8U, 0xbf82db46bfc25986U, 0xbf45990c3f25133dU,
  0xbf9e18363d863d59U, 0x3c8cf8db3f1ca644U, 0xbe9c169d3e894fefU, 0xbdd27c78beddc2acU,
  0xbe8534dc3ea0bbbdU, 0x3f8c5e39beb1a666U, 0x3ee81f4f3f9f6caeU, 0xbf287d393f93d50bU,
  0xbf86325d3f380339U, 0xbf6cd782bfb03f44U, 0x40010ff43f53df10U, 0xbee572053f9485bfU,
  0xbfc845e9bfad2d27U, 0x3f813e253f651422U, 0xbfaaa60abf6f4de1U, 0x3fcb8afc3e668cceU,
  0xc01c8fe4bf393a27U, 0x40058d203fc0d2f3U, 0x3d6775c1c009790dU, 0xbf5be5b2405f752bU,
  0x405a56e7bf56dda6U, 0xbfe66d2bbfa0a166U, 0xc003627c4003aa0eU, 0x3ff77cf5bd264054U,
  0x3f811fb5c048df0eU, 0xbe5e9621bf6adfdeU, 0xc041e13f3fb65888U, 0xbf89eb443ff6aff0U,
  0xbfd83faf4037be56U, 0xbee5464c3d3732b2U, 0x3d0ddccebf6be3a0U, 0x3f84cb64bf613577U,
  0x4020fb12bf41f10fU, 0x3e87d03fbfde3982U, 0x3ff40433bf8f1ec0U, 0xbf535921be9e632cU,
  0x401d6d0ebff6e157U, 0x3fc9c7b4bf089e1bU, 0x3f435a84bf82e323U, 0xbf0dd76bbfa8a5f7U,
  0x3fb8ce9abf63c297U, 0x3f8fdf01bf935821U, 0x3f74220dbfb66926U, 0x3fa01bf4bf89842fU,
  0x3f7ba837be9c4fd3U, 0x3d22c803bfc455a3U, 0x3ee2fd42bf254503U, 0x3ee5e6b2bf34f80aU,
  0x3fa01ec4be8cef85U, 0x3eee4302befd03d9U, 0xbe9c5cd1be9be3b2U, 0x3e1c96edbfd4d92cU,
  0xbf1876ca3f1de2ddU, 0xbf1df2b7bf102fadU, 0xbdb58ff2bf216d8cU, 0xbdb82a7dbf5a60deU,
  0xbe8655cfbf61dc5eU, 0x3d530774bea2adf1U, 0x3ba3f8c6be9faf7bU, 0x3db6201ebf72acf3U,
  0x3d4a7f0abf0a66feU, 0xbf2989dbbf1130beU, 0x3ef518af3ed62006U, 0x3f81c4893f0565d0U,
  0x400eb6a53fb5cc3bU, 0x4027790a403759f5U, 0xbf1a0ff63f1f3cb6U, 0xc030396ec05d6e9eU,
  0x3fd430bebf571929U, 0x3fe4bd3d403ec8daU, 0xc02b33b5c05a1c01U, 0x4073ae493eb1ccbdU,
  0xc0770c28c0545354U, 0x405a4ca6400abdfeU, 0xbfbc797ec08675abU, 0xbeff1fae4029e493U,
  0x4030c265c004b80eU, 0xbee81163c02cb009U, 0xc00af4cf3ff55aa6U, 0x3fceeada3d91cc30U,
  0x404436f5c02acb3eU, 0x3ffc25bfc085b784U, 0x3f6030d6bf4a57b7U, 0xbf527206bed9bf3dU,
  0xc0045d383fd79d3cU, 0xc01b0866bf30fc6dU, 0xbf3ae692402e4169U, 0x3efcbb5f3f88be5aU,
  0x3e54a11f3fda050eU, 0x3fbcc33fbecef6d1U, 0xbf9f82f1bfe13e97U, 0xbf3cbe7f3f208394U,
  0x3e8ed1363ea41a9eU, 0xbf4597eb3fcd227bU, 0x3f88f89ac02a7e17U, 0xbf1f113d3f65a737U,
  0xbf8165a1befda2e6U, 0x3f9606c3bf091bbfU, 0x400201413f9d7cfcU, 0x3f2061423fece760U,
  0x3fb2955ebf856040U, 0xbfa35a5fbf6eff11U, 0x40088dabbe69539dU, 0x3f30e0a0be5c5405U,
  0x3f907631c00ce73dU, 0x3f7d8c05bf82f7b1U, 0x3f952198bfb4d11bU, 0x3f6ac2ccbf317bf5U,
  0x3f9919ca3da1f0c6U, 0x3e22e578bfa2916bU, 0x3dc666f2bf0f9dceU, 0x3eb87f62bf41ca66U,
  0x3f1954cebe67c40bU, 0x3ed4c48dbe5d6a93U, 0xbee62bf9bf4eed1aU, 0x3f2690aebfb289deU,
  0xbf69d2863f4c2254U, 0xbe077744bf57f4b8U, 0xbec4f557bf12283dU, 0x3efde032bebee99aU,
  0x3ebed182bf29f832U, 0x3e4125bcbe8fb9e4U, 0xbe8bd53cbe91d4e7U, 0xbcb13bb1becf984cU,
  0xbd3310e8bebc96fdU, 0x3e2a6f30bf9c7db8U, 0x3f5e6bb13d798c35U, 0x3f2042b93e61cb82U,
  0x4005941140067254U, 0x4025ec6d4025a91bU, 0xbfed08c33f1e6e78U, 0xbff4cdc2c03339e1U,
  0x4031dbecbf6f839bU, 0xbdb0e2ec401e1184U, 0xbffb1b12c02ccd50U, 0x4009152f40242e88U,
  0xbfddbdd1c084bde4U, 0x3fb085393fd86a67U, 0xbe14bf5ec04923ddU, 0xbfd65d6d40178ef6U,
  0x400ebcdbbdc1f691U, 0xbdfec367c03d407bU, 0xc012067d3f931227U, 0x3eb098c03e249c32U,
  0x405712afc024cb75U, 0x3f807d9dc050904fU, 0x3fb0c91ebfe20321U, 0xbee4c26abe651f3aU,
  0xbfd2e494bf439368U, 0xbf3e58f63f949547U, 0x3f1cd4153f776e21U, 0x3e55a7f03f6a1ef9U,
  0xbf16c1683ff43892U, 0x3f3b52a23fb4cb3eU, 0xbf9d458dbef9dad9U, 0x3dfd005ebf997cb3U,
  0x3f35ecf03f2ae160U, 0x3f30e481be0c9916U, 0xbe21766dbfdeb679U, 0xbf89b6153f03cac9U,
  0x3f048a2a3f9c2669U, 0x3feda154bf38a5b1U, 0x3fc43bd5bf479389U, 0xbedbc6073fdbc22aU,
  0x3fd525bf3d8957caU, 0xbfa62eb3be4e5f22U, 0x401eb7b03f4c25cdU, 0xc0136e70bf4c5556U,
  0x3f439f3bbfc6e710U, 0x3f40ae45bf649886U, 0x3fb536efbfcc4be7U, 0x3f8bbea3be0882b1U,
  0x3fc030cc3ece2e43U, 0xbecec222bfa66117U, 0xbf1ff485bfa77019U, 0x3f3f48fbbf8e79bdU,
  0x3f883bda3d0cce1aU, 0x3df1889fbf205157U, 0xbd8d14cabf309ee0U, 0x3eb40aefbdec9afeU,
  0x3f63fa7bbec87f00U, 0x3f12f1ffbefbe794U, 0x3d0a80a2bf3eec8eU, 0xbd31e251bf692984U,
  0x3eeeb765be975adbU, 0x3f840e8d3e14892cU, 0xbedaeb90bf06c0fdU, 0x3e666b06be025381U,
  0x3dd72db1bf2d3581U, 0xbf4690f8bfc5d69aU, 0x3f1001a0bf7e33deU, 0x3cb243b23e145b39U,
  0xbe330461bf5f78adU, 0xbe24a7dbbf14e6cfU, 0xbeb0cd0dbf25d4caU, 0xbf27dd02bf0cabb1U,
  0xbed41b49bea85419U, 0xbef0a6d6bfaf6c21U, 0xbf69176fbfe39723U, 0x3ee5966abf213b61U,
  0x3f4618b6bdca191aU, 0x3fbae03c3f2e7f76U, 0x40274ae43fdad56bU, 0x3fe1afd03fa83a5cU,
  0xbe8ae00b3f875eb6U, 0xbfed757cbfdfd3f4U, 0xbbdf64d1c009f372U, 0x403f346b3fea917eU,
  0xc00cd59cbef7e10dU, 0x3e070cd1c02a3cabU, 0x3fe473763faab150U, 0xbfc8570fbfdb8f08U,
  0x402ae7863e791e3eU, 0xc0163262bf3cedb4U, 0x40434883bef7bda3U, 0xbfc1671dbfb1a0ddU,
  0x3faa4d5b3f07c078U, 0x3f6d81bbbfae35beU, 0xbfc7b0f8beaa2db2U, 0x3fe6013bbfb46afaU,
  0x3fb9bc2cbf4ec9e1U, 0xbfd40d6e3e2edb16U, 0x3ef0f770bf2bbca7U, 0x3fa59fccbfc41dfeU,
  0x3eb24812bf3c4c70U, 0xbf392aca3eff8c23U, 0xbfadc49b3e0e0b78U, 0x3f72a4d9be746c39U,
  0x3f30d64d3f5112deU, 0x3fb46d063dd06a4bU, 0x4039a3d7bf0abe5aU, 0x4008182e3f815fc8U,
  0x3f26277dbed6003dU, 0x3f6ae8aebf7eaa4bU, 0x3f67fe83bfe154b2U, 0x3f5a0cda3e4f1b65U,
  0x3f594275bf561adfU, 0xbe3b6654bf98aca6U, 0x3f5528f6bf83756bU, 0x3f2579dbbed79632U,
  0xbe909f08bec37b38U, 0x3ed2c3c83e312585U, 0x3f60b40a3e6266faU, 0xbeffd07cbe637825U,
  0x3f922edfbf6b6937U, 0xbdb21b19be89124dU, 0xbeb04823bee5b8d1U, 0xbe5fc971bf57ecbfU,
  0x3df8b123bf3b0883U, 0xbe5d034bbf43937dU, 0x3daa3d5a3e63bd87U, 0x3e6e2f54bf384ad2U,
  0xbef2718cbf9e145aU, 0x3efcaae3bf75f484U, 0xbecf94613e7a2174U, 0x3cd5d553bf65ad5eU,
  0x3e722840bf52d637U, 0x3faadafe3ec84d7fU, 0x3f996e113fc61c8eU, 0x401bce794021e58fU,
  0xbeb287bb3fcb5e25U, 0xc011015cc0168a62U, 0xbdf5cc30c01e0c1eU, 0x3fc07a5c400346c1U,
  0xc0219ae4bfab8a31U, 0x401daed1c015c026U, 0xc06e0ae13f239166U, 0x3fca9daec06f26f7U,
  0xc06e803b3efbc915U, 0x400ae9a8bfccb018U, 0xbf8d1b88bfe4ec95U, 0xbf87f9453fc0d723U,
  0x3fa68d40bffcb605U, 0xbf85f7acbf0b2888U, 0xbf136dbe3eedb6b0U, 0x3f866a5ec0035751U,
  0x3ff5a80cbf8867ccU, 0x3ffe0871bf2a53a2U, 0x3ec0e2f7bf9c3e15U, 0x3edbc678bf8021f3U,
  0xbf2f4d26bfda41dbU, 0xbee426543d9e3e99U, 0x3fc37c093f55c263U, 0x3fc4d5373f036778U,
  0x3ff2bdecbe56c251U, 0x3f8062acbe026041U, 0x3ec625903fe20901U, 0x404094d0bff8e397U,
  0xbe7e2102bf827536U, 0x3fc0d4c0bea77010U, 0x3f24b1d0bf0ffb23U, 0x4015e2e13ff43fedU,
  0x3fbb5ba3bfe6eecdU, 0x3f8f2d613e2f36bfU, 0xbf75d273bf6496f6U, 0x3f4932483ef83c01U,
  0xbeecbcccc028c220U, 0x3f8cdfbcbf8ced07U, 0x3f929be7bfd67b54U, 0x3f8662013f02e189U,
  0x3f8df50ebecd61acU, 0x3e8fd08abfb16724U, 0x3f4c1725bf1e5e86U, 0x3f2630acbe856d9bU,
  0xbe3a3091bf06e606U, 0x3c5c7810bbfc5553U, 0x3f68ecf3bea5f5adU, 0xbf4f8b3fbe91f2f5U,
  0x3f1762e2bf187a87U, 0xbd38096cbd8fae42U, 0x3eaceeecbefbd172U, 0xbe90bae4bf864838U,
  0x3e770dbabf3c04f2U, 0xbe3db764bef71ce2U, 0x3f0eb705be0f9fc5U, 0x3ec62dc7bf166510U,
  0xbf42ef7ebfa3bb7fU, 0xbf030d9ebf8ced69U, 0xbf379e063d4d83deU, 0xbedb4772bfb44ef1U,
  0xbe6f7743bfbca27cU, 0x3f2aef013e7cba9dU, 0x3fbd08883fa05f4fU, 0x405718f03fd74c7fU,
  0x3f5a62e44007fb8bU, 0xc0167ed1bf7c24efU, 0xbf842d60c05a1540U, 0x4042b31a3e77d5edU,
  0xc01176f23e240497U, 0xbf2f76acc0821509U, 0xbe09c17d4061bda6U, 0xbf6df019c09b19acU,
  0xbd23950a401affcfU, 0x3fbd2f2dc077374cU, 0xc00ba6bd3fad4fafU, 0x401ad590bfad54abU,
  0x3e908a36c0083d0aU, 0xbfa41b1e3f32f16dU, 0x3d9de605bf4fffc2U, 0x3f7b79e3bff382ceU,
  0x3f9bb3f8bf90e550U, 0xbfc675363fdf913dU, 0xbfef3ac43fea3d38U, 0xbf9706183f888247U,
  0x3e01d9933f1f0982U, 0x3ee652e7be9cb3c8U, 0x40008340becf2959U, 0x40022f9abf572d7bU,
  0x3dbc6aa5bf8fc0baU, 0x3f0386c6bf12c6eaU, 0xbd65de2ebf8d06faU, 0xbf0982e53d7af8beU,
  0x3fa23348bfbfd68fU, 0xbef1837e3e7910c6U, 0x3fccc5e03fc147d4U, 0xbf1cd7b63d8256e8U,
  0x3fa903273fc7afb1U, 0xc01b682ebfd3bb11U, 0x3f4bba96bf500447U, 0xbf11ea48be8f50d1U,
  0xbf618107bfe2bfcfU, 0x3f3630bebf51f4a7U, 0x3f95a510bf43d69cU, 0x3f9367a1bee1c97dU,
  0x3f917ff63f30bae0U, 0x3f859ddbbf42f136U, 0x3e1f79f0bee5b00aU, 0x3e74136dbe7a15ddU,
  0x3eb118543f3d45b4U, 0x3f3221f9bebf6edaU, 0xbec13ac1bf3ebf38U, 0x3eb28fcfbed3972dU,
  0xbf26ff57bf090e4cU, 0xbf04c535bf735fa8U, 0xbee2e115bf36f78dU, 0xbf6481fbbefd3bd9U,
  0xbde0fa59bf02cce0U, 0x3dc69d7e3e30558aU, 0xbf008095bf2b07b4U, 0x3e0d6049bec66542U,
  0xbfb3ed57be582262U, 0x3f94a462beebe4a7U, 0x3f3b3566bd77d266U, 0x3fe46c5d3fcdb141U,
  0x40185bde3fd32ca7U, 0xbf5542893f55e078U, 0xc048b834c02c5edeU, 0x400e0d71bfbed359U,
  0x3ec1f6a53feaa7ebU, 0xbfcb97b9c0515465U, 0x40005dfb3f62b81aU, 0xbfe86eb0c0283088U,
  0x3e90fe6b3f4cb2dbU, 0xbf35b245c030ba7aU, 0xbf870df33fb09175U, 0x3f987d0ebee73ef2U,
  0x3f525574bf93cfddU, 0xbfe631403f120ceaU, 0xbf1b988b3e9d3659U, 0x3dce9881bf66f8c5U,
  0x3f0b0023bf7ed8e5U, 0x3f25c6e3bfaccef1U, 0xb8c4048bbf01d2ffU, 0x3f1fa9aabecb744aU,
  0x3e992d27bf63fe8bU, 0x3ececa2d3f574babU, 0x3f7182f03eede185U, 0x4085e7d33f6cbc84U,
  0x3f5c54173f34db17U, 0xbf7178bcbec5f328U, 0x3cd50f92bfa9e515U, 0x3f0138e9bf91d739U,
  0xbf8f4459bf8b3843U, 0x3ebc8f5abfc1e909U, 0xbe53c1d0bee8ff57U, 0x3f75b507be43ec50U,
  0xbde78cb2bf9dd5b1U, 0xbf283f14bfecd32fU, 0x3fce77b93f29aa42U, 0x400806ae3f055e0dU,
  0x3fe4d54c3fe93715U, 0x3fad2db23fb911a4U, 0x3faba66d3f2eec21U, 0xbec9bd05be8e7526U,
  0x3f8d98cf3e049e9bU, 0x3f05ea87bf2eaa36U, 0x3f85bb99bf706f57U, 0x3fa5a2e6bded37c2U,
  0x3f5fd4283f4c2024U, 0x3f6882e7bf535b41U, 0xbd59fc7fbf0464c6U, 0x3d0c25b0bd9c1fcbU,
  0x3f0951c73ec1c15aU, 0x3f175075bf237411U, 0xbee8b22abee8771eU, 0x3f48d4a5bf2b4addU,
  0xbeb6bc8cbbe7998cU, 0xbe0f0205bc71ce73U, 0x3e5a3d353e8f6deaU, 0xbe890d333d9f30a0U,
  0x3f183c3b3b74f132U, 0x3f5c80b23e7340a8U, 0xbd9b76e5bec1671aU, 0x3d79b938be72945bU,
  0xbf84ecba3dd4a471U, 0x3e92a2bfbf7c7c2fU, 0xbd8460e5be65f47cU, 0x3fc917733f980f4eU,
  0x4004a5fb3fc0d425U, 0xbe23973f3f9765ccU, 0xc020eda1c0102471U, 0x3fb97ce1c011e11dU,
  0x3fe92eac3f9ae7dfU, 0xbf960d4bbfeadab2U, 0x3ff269e83d58d021U, 0xbfea7804bf10eca9U,
  0x3f9d0894be48fa30U, 0xbf8d5ffcbfd86738U, 0x3d58ebc13f0e82dfU, 0x3f8e133bbf44d2b4U,
  0x3c833b99bf15411fU, 0xbf6f5daa3f40495dU, 0x3e92e74a3edc6a9bU, 0x3efc9f94be65d191U,
  0x3e9c6e2abf29687dU, 0xbf03ffe0bf5ee608U, 0x3c8cfcd8bee8ddc5U, 0x3ee6285abee85756U,
  0xbe8c723f3e43e502U, 0x3fc61d4c3f701346U, 0x3f6963a23f539e3eU, 0x3fed21ce3f2e4d34U,
  0x3f6b40653f22bdfdU, 0xbc3fb07fbebbd375U, 0x3e87de04bf3b77b1U, 0xbf510907bf4b5835U,
  0xbec1102abf7f6b43U, 0x3f1605e8bf554cc6U, 0x3f2b530e3f68d7ffU, 0x3f764a4abf625483U,
  0x3ed54cefbe9d6a41U, 0xbe3f57e13c228625U, 0x3f377ccebf495af3U, 0x3f87854c3ea21f21U,
  0xbc94a5bebf17c187U, 0xbe1220e53ec3f802U, 0xbed91e4bbf850c62U, 0x3e80643dbefc2955U,
  0xbe8109abbf01686dU, 0x3e5fc4a8bf31df49U, 0x3f671cecbf32c1a5U, 0x3f58be983ef7f786U,
  0x3f8fbde53ebcbee8U, 0x3f7ccde0bd5f7e48U, 0x3f9d56c8bef4077aU, 0xbea8e2d2be5117abU,
  0x3defa1f9be6238a4U, 0xbe67bb4ebf57fc1eU, 0x3c4bccfcbecee7aaU, 0xbd99d911be910f6aU,
  0x3d0de6ae3db18accU, 0xbedc2f8ebe723a69U, 0x3ede72a3bda45e50U, 0x3f25007c3e057ce0U,
  0x40379e183f83f3ecU, 0x3fe3c0ef40036888U, 0xbfc96e3d3e9ca5bcU, 0xbfeb22a4c04797c3U,
  0x401805573f5b955bU, 0xc01322eebfdb4094U, 0x3f4495a13ee2eb16U, 0xbfa5b78abfdf956cU,
  0xbf75b7413efa292aU, 0x3ea5bdf9bffb914fU, 0xbeab57fdbf923b25U, 0xbeaf26e03e532813U,
  0xbdcb1d423f596341U, 0xbed72e503f51a5eaU, 0x3d3c3f223edd626dU, 0x3f5be1d03e91e46cU,
  0x3fe1bb343de1f566U, 0x3f7476773f52a935U, 0x3b99087c3e322f68U, 0x3e0bc04bbf25b7c2U,
  0x3f88f1a9bf00dc7aU, 0xbdb638ed3e4907abU, 0xbedec742bfcc7676U, 0x3eb0cad5be1d5da2U,
  0xbf19d073bf9e9f3bU, 0xbf46b38fbf0ecdc1U, 0x3d76ccf1bea35f0eU, 0xbea6fe12bf9db5a7U,
  0x3f43ccc9bf53f788U, 0x3edc7e94bf2de085U, 0x3fc92b0e3e6b71f0U, 0x3f8325f63fac2407U,
  0x3fbf0d783f1eabe1U, 0x3f5f86763f49781eU, 0x3e9fc6193e54784aU, 0x3f00906c3d52a87dU,
  0xbef52393bfa070a1U, 0x3f36c1b7bf9b7ecbU, 0x3fe542e5beb19408U, 0x3f936bc83f9fdc19U,
  0x3ea1c0ddbf1486b9U, 0x3f231fcabdfbcbe7U, 0xbec95f793dff9a8fU, 0xbc6d96c7bf3ac0bbU,
  0xbf748d24bf81bcbbU, 0xbe56fad0bfc1fcafU, 0xbf971908c02d2d14U, 0xbf8b95a4bfe27c7bU,
  0xbe937993bfa4c5bfU, 0x3fa0ef04bf7c2347U, 0x3f58480bbf370d44U, 0x3fae0ebd3f8a2b75U,
  0x3f98602cbe3b3441U, 0x3e92b130bf51283aU, 0x3d24ecb2bf992078U, 0x3f7d92093e22b9e6U,
  0xbdeb3523bf1eb991U, 0x3e2ac38bbf97a219U, 0xbe01aa1bbeafe7b6U, 0xbf6fa02b3d4aa984U,
  0x3f8ffedd3d88325bU, 0xbe62c92ebf676dceU, 0x3ed590fb3e5d58ceU, 0x3e1b8108bf88b293U,
  0x3d6dc0a2bedf394bU, 0x3f0ee530bf33caa5U, 0xbedfdd4bbe98ba5dU, 0x4014bba23f538262U,
  0x3ff82c9c3fe0817bU, 0xbcd120e23f0aaba3U, 0xc03d5882c0296e41U, 0x40059430bf25a7e0U,
  0xbf918401402df231U, 0x3ec8187ac02dca03U, 0xbf0ce8ce40061050U, 0x3f9a5010c04515fcU,
  0xc02c29643f91f4ddU, 0x3f4abe5bbf891264U, 0x3f010da0c024c04fU, 0xc009a0eebf9c92d3U,
  0xbfddc0484024b264U, 0xbf2370633f3dd230U, 0x3f299875beefc6aeU, 0x3faf7fcebfcdddb0U,
  0x3f96c791c00bdb61U, 0x4016a8e1c003979bU, 0x40112d79bdf1eeeaU, 0x400b3b073e7a5a1aU,
  0x3fcf3c74bfa61edfU, 0xbfae564abfdff632U, 0x3f95be5dbff693ccU, 0x40536fd1be801509U,
  0xbd4c423a3eb1e030U, 0xbf0d7582c03ffee4U, 0x3f2d724bbed1ef49U, 0x3d92a535bf11e28dU,
  0x3edb5732be1e2407U, 0x3eeece84bce79f7eU, 0xbdb355b9bf4aab7bU, 0x3fde1041bfbe5138U,
  0x3e41f1dcbee60e85U, 0x3fbd58d2bfc0ced2U, 0x4020cdecbf4b567cU, 0x3f1ec2efbf9e6eb0U,
  0x3fa73d7bbe914052U, 0x3ef28ec9c0231349U, 0x3f6b0975bf16088fU, 0x3f988ecabfd44f4bU,
  0x40026f4a3fa52de0U, 0xbf4e97bdbf72404eU, 0xbfc1f4c0bfdd074eU, 0x3f9d3af2bfc599b0U,
  0x3fcd1437bf9613e5U, 0x3f6d7b69bf8f6f9bU, 0x3f5bacddbf1e9d23U, 0x3f19e5f8bf4ce500U,
  0x3f27d4debf028aedU, 0x3f1212eebf5c5c8bU, 0x3f6841a8bf4e6452U, 0xbeb18203bf33ec86U,
  0xbe8ea578bf09f344U, 0xbee08146bf3a748fU, 0xbe170f93bf2b5ed8U, 0x3e9c36fbbe10dfaeU,
  0x3e95c5c13c7503acU, 0xbe28dd6dbe999700U, 0x3f175fb63dde1921U, 0x3f70e1533dae38fdU,
  0x4024a3593fec1fcfU, 0x4027e0583ff0f08bU, 0xc0238df8bf1037eaU, 0x3f8f883bc03146caU,
  0x3f5d41e34041fa8eU, 0xbee8fc20c04f06ecU, 0xbd5ad4b9401cfa16U, 0x3f991668c05c7f26U,
  0xc04ed40d3f47b887U, 0xbe1dc1203fb6166cU, 0x40201ed0c01fa7bdU, 0x400128f3bff5cf18U,
  0x3ec48d4cbf7a1747U, 0x3e1f3702bf8fa62eU, 0x3e28c87b3e41fb08U, 0x3e5e858d3fb4b891U,
  0x3f18ff0840329025U, 0x3e6b1c1e3f52baceU, 0xbfae84fdbf91e4bbU, 0xbf422366be34b580U,
  0x3ed4fcae3f9a7096U, 0xc006c13dbfa451feU, 0x3f134defbfa64c97U, 0x3ebc1fce3f4dda9cU,
  0xbf8a824ebf8ad02cU, 0xbf81a69b3fa936f2U, 0xbf10dadcbf85f3a7U, 0xc0100f8b3fb6a3d8U,
  0x3f59b790bf4a6fc1U, 0xbf5340ebbf71943cU, 0xbea02ace3f541a73U, 0xbefcb6d4bea1d9c7U,
  0x3c1a214f3ed20fd3U, 0xc000d4943e025b35U, 0x3fb5ef6f3f6b2f41U, 0x3f0ec1063f1edf8bU,
  0x3ee723e03fa69796U, 0xbfb3d98bbdaa4643U, 0x3ec4f3723eee1bc2U, 0x3e88370d4004d747U,
  0xc01cfd5f3f9f9781U, 0xbfbaf47cbe6218bdU, 0x3fec2fe13d196cd4U, 0x3e88837e3e100cbeU,
  0xbe02b9bbbed7536cU, 0x3f80ecdbbf1f2745U, 0xbfadf42b3f8cecfeU, 0x3e4add6bbf83aaffU,
  0x3e4cb3c13e526ba8U, 0x3f5da8fdbf1d4be7U, 0x3f7a7cf83f1f9f69U, 0x3fa0a7e23fa48ff1U,
  0x3f37300d3f95488fU, 0x3f080c95bf058467U, 0xbf4de14bbf5153a9U, 0xbe4026b2bf4497a7U,
  0xbeb72e83bec8850aU, 0x3f18a746bf241edaU, 0x3e201df13e209b35U, 0xbec3a62a3f3a9d47U,
  0x3ea7265dbe3e3334U, 0x3f10e6e43f028305U, 0x402af73c3ff357e7U, 0x3e9246a43f1e78cbU,
  0xc0041147bff5b695U, 0x40242bd63e66a0b6U, 0xbfa60a6d3f310441U, 0x3f9192fa3d43810eU,
  0xbf8f92d1bfc885f2U, 0xbf9149093f11aeecU, 0x3de9d5283f2bf880U, 0xbe400f94bf7dfb6dU,
  0x3f4345abbf44f7c2U, 0xbc3be895bf0f862bU, 0x3f648f7fbe2a23dfU, 0x3fcd3bd93dfc649eU,
  0x3da4488a3f06d976U, 0xbf4e405cbea5f079U, 0xbfbcef16c00eff74U, 0x3fe2ae493e14986eU,
  0xbe03ec5b3f7257ecU, 0xbf433d8bc00d3b2fU, 0x3f38ffc43e7c63c4U, 0xbfb274e7bf4519adU,
  0x3fac8eec3ee47d41U, 0xbf290ecfbf8df034U, 0x3f1d00723f64b3eaU, 0x3fecbec3bf6d0fc3U,
  0x3e4f6c173feb399cU, 0x3fe1a1723f833666U, 0x3f0f944abff9670fU, 0xbf148a76bfbe48a4U,
  0xbf2deef33f918a21U, 0x3f62b7763fd224eeU, 0x3edc04dbbfaafe75U, 0x3f8f7507c02ee91aU,
  0xbe5d195dbff82152U, 0x3e96e294bfe13b99U, 0x3f7df81ebfc94177U, 0x3dceff153ef497ddU,
  0x3ef74170bf796f56U, 0xbe8cdb9cbdedff88U, 0x3f0516ed3f6e58bfU, 0xbf833abcbf804165U,
  0x3f1b1da2bf868955U, 0xbe7d4ceebebf6757U, 0x3d4c53203f0785d3U, 0xbde1e54dbf02cba8U,
  0x3efb6da93cd6bbd2U, 0x3f0a0a2b3f2bdd8dU, 0x3f166613becac7e4U, 0x3e71a2973e9267a6U,
  0x3f3e133f3e85161fU, 0x3f79db39bf250cf1U, 0x3fae3dbabf156c78U, 0x3fa550cb3d252702U,
  0x3f910ef33f4b8ee9U, 0x3f55c049bf2578adU, 0xbec7c42abef31e7aU, 0x3eade1f1bf0625f5U,
  0x3e0949fb3c5d28e3U, 0x3f4342fdbf403376U, 0xbed87516bf30eccdU, 0x3f314ad0bf878a42U,
  0xbf4cc2a83e8b76dfU, 0x3e03ebcfbf232316U, 0x3d92e3b2bbfe874cU, 0x3dd6d6a73eb7317aU,
  0x3ebb958cbebc9865U, 0x3f35b35abe4fd0adU, 0xbf3d039e3e9175c7U, 0x3e7f37e8beabca94U,
  0xbe0eb50cbe8b71e7U, 0x3ec9925fbf96c4b7U, 0x3dafd28fbcf67911U, 0x3fd2f9133c29aadcU,
  0x3fad1e273f728edfU, 0x3f85466f3ff61e01U, 0xc008b500bfd979eeU, 0xbe6f5972c0338a7bU,
  0x3ff9fdd83fb619dcU, 0xbff679e6bec3e5b0U, 0x40170144bfed5989U, 0xbfd48de9401787b1U,
  0x3fae54a4bf9251ceU, 0xc00670083ed5b573U, 0x3fd9124abdf08ed0U, 0x3f7df7e7bf803902U,
  0xbf659a153fb4caa0U, 0x3f688aec3d76cc78U, 0x3f3256a1bfafbf13U, 0xbf1cd0cebc4a2e1dU,
  0x3c8453443ec57b42U, 0xbe94ced63fa904c3U, 0x3e7aa8f2bf45285bU, 0x3f2a29ccbe9045eaU,
  0x3f3b2c48bf388399U, 0xbf082111bf74b0aaU, 0x40185bac3f0fbf31U, 0x3fea0ab73f8fce75U,
  0x3f1ae00dbea0392eU, 0xbf582617bef44576U, 0xbea67495bfbc791aU, 0x3ea6e7aabe8ee4e8U,
  0x3fa7affabf244005U, 0x3fbc5f943f92d121U, 0x3f141b6ebf009650U, 0x3cb53962bf30c600U,
  0x3e93fd6cbfe170a1U, 0xbebe2d0cbf90e006U, 0x3f2730ee3e848bf5U, 0x3ec59c3d3e95b746U,
  0x3dba2f7ebef2577fU, 0x3ed002a43f18b5e1U, 0x3c271c26beb63132U, 0x3f78f39ebfeab918U,
  0xbf8a59203f02ec2bU, 0x3f8b0fd4bf7c6b0bU, 0x3f61eec8bf904851U, 0x3fc69ff7bf10c55eU,
  0x3f9350c0bdad477fU, 0x3e8c18dabfbacb4cU, 0x3c2915e6bfa56521U, 0x3fa032eebf35b4b3U,
  0xbeb5f3803dfee6ddU, 0xbea7242bbf2d29d7U, 0x3ddcc7bcbeb649acU, 0x3f50acaf3e104c8eU,
  0x3de28f52bf5b5379U, 0xbf3dc1dbbfbeeb7cU, 0x3f756dd6bec94685U, 0xbe349de0be6461acU,
  0x3d3dc817bf0507a7U, 0x3f0abea8bf356fa0U, 0x3e57fb8abf5181f9U, 0xbec6e226bf100466U,
  0x3f165705bd585d7fU, 0x3f06debfbf03624bU, 0xbebfac003db30614U, 0x3c807792bf970113U,
  0x3dc5dbba3bc4696dU, 0x3d826b24beac95feU, 0xbf1f81e3bfc1552cU, 0x3f4c6b7cbf190e1fU,
  0x3f41bd273eaac8b6U, 0x4007b3ab3f2937e9U, 0x3fd0487f3fdffcd4U, 0x401e5c4640122c22U,
  0xbf2ab3d33e99a893U, 0xbfda0c59c0211b62U, 0x3f22249ebf42d05eU, 0x3fe45aa4401eb2c4U,
  0xc030fdfcbfbbfd67U, 0x403e1b94bfc70646U, 0xc019322e3fe7d7cbU, 0x3fda5f47c0460066U,
  0xbf759f2c4024ddd4U, 0x3fedb9b4c0251c2eU, 0xc027f48f3fae3c30U, 0x4056e3d0bfd8ba8eU,
  0xbfa01d8dc022808fU, 0xbef2cdb53f92969cU, 0x40195ed2bf660420U, 0x3f4421e3bfa0fd5bU,
  0xc00360c2be1a0563U, 0xbf4250553f9e5be3U, 0x3fb73a09bfb6f8e3U, 0x3fa3554bc000c93dU,
  0x40043ca3c052da04U, 0x3f2e0dea3ec4d1b3U, 0x3f773845c008cc04U, 0xbd37a91a3f945720U,
  0xbfa7ff66bfb6bad6U, 0x3e10d4dfbef471d3U, 0xbfad0620c0166a78U, 0xbf252665bfebe33bU,
  0x3ebbfc38bf058755U, 0x3f3cd56e3f3eef29U, 0xbea4542abfad7188U, 0x3faea8f53d0f8632U,
  0xbfd142d63dd07db5U, 0x3f67857cbf92068cU, 0x3f8465fcbeebc2f6U, 0x3f6fe770be78e3caU,
  0x3f7ced27bedd0d0eU, 0x3fb6dc83bf56e4d6U, 0x3f26ddfcbf79d70cU, 0xbeff56fbbf3c7799U,
  0xbed46000bf6772c7U, 0xbe9b95a8bf2649f1U, 0x3aa46d15be956edcU, 0x3e6e8a113eec7791U,
  0x3edb10153e9c5dedU, 0xbf2db00ebe101b1bU, 0x3f0143563e86c0edU, 0x3f0e7501bd3f2912U,
  0x402e7d7c3feca543U, 0x40274bd43fe8aad4U, 0xc02a88e0be82174dU, 0x3f9113a1c0399c8fU,
  0x3f3af1ae404f4c52U, 0xbf5bb38bc047954fU, 0xbf34e7833fd17f4aU, 0x3f57e230c0382456U,
  0xc078fed03f1c3b6dU, 0xbde30f713f867e34U, 0x3faa92c9c04027b2U, 0x3f968208c0014daeU,
  0xbec744b5bf54eda8U, 0x3e0547adbf8042d3U, 0x3d982b32bde82a3cU, 0xbe75ef1a3fbe45d7U,
  0x3f0bc5a7404d65f4U, 0xbee9818bbe28bb65U, 0xbfdeccd8c007764bU, 0xbea03cd5bef84054U,
  0x3ec9ca933f3644c7U, 0xbf6e4652bfbd4a78U, 0x3ff59b05bd82d013U, 0x3d5234e53fc55306U,
  0x3e26ecc6bf9f4a74U, 0xbfc068d93fad67e7U, 0xbe91e0cdbfce25feU, 0xc028b480401f3cf6U,
  0x400b2ef43d6239aeU, 0x3f14caa0be0491eaU, 0xbefe431b402fd166U, 0x3ee029f13f175513U,
  0xbeaa5addbbc01bceU, 0xc07cec3f3f2b8575U, 0x3ff3ce423f02ca71U, 0x3fd610a2bea8ae09U,
  0x3ffdd6b5bf45991bU, 0xbe7f3d05bf1165c5U, 0xbf91aee73f173d48U, 0xbeb35ebc3ff6a39aU,
  0xc055351e3fc15fceU, 0xbf8d33a3bf95cbf5U, 0x3e8bd2c3bfa17155U, 0x3f4d7661be9ed9b3U,
  0xbf16f8a3bf8fb132U, 0x3de3b500bfd42199U, 0x3e4687653ea87132U, 0xbfdc15a4bf5d3cc4U,
  0x3ee998c73e6b9750U, 0x3f5d8bf3bf6b34d2U, 0x3fb04f50bfc441ecU, 0x3fba0bc7be62c1cdU,
  0x3f401f363f448f3cU, 0xbf3c3207bfc251f8U, 0x3e31c506bf84680bU, 0x3f252cebbf218d0eU,
  0x3f12e208bd3e7777U, 0x3d604059bf064e14U, 0x3e03eb3ebeeb5c5aU, 0x3e1f0f0bbf186267U,
  0x3f615fd0bebcef24U, 0x3d9fa9d8be3e9924U, 0xbef9049dbf2434adU, 0xbebd0812bf4e45e1U,
  0x3d054bc4bf0e9269U, 0x3f28eb8ebe90eb3fU, 0xbf2bf9693f037ab7U, 0x3e8842d2be75e26aU,
  0xbd473587bf6a619dU, 0xbf1b3461bf87ed1dU, 0x3de2817abeed3224U, 0x3be795053ee3b9abU,
  0xbf1fd2b8bf247f43U, 0xbf449e91be9d1560U, 0xbea666cfbf14350bU, 0x3ed96047bd380e3cU,
  0xbe335311bf2377b8U, 0xbf1c0e66bfbeebfeU, 0xbfae2bd4bfc2cac5U, 0x3f1c2876bed1af70U,
  0x3fa8ffd53e87c454U, 0x3f21be5c3f5783feU, 0x3f8363b03f613a57U, 0x4033a7fe3fdb1e71U,
  0x40571c654004bf71U, 0xbfdea38abf7480e2U, 0xbff7df95c0226451U, 0x3f85a82cbf763cf2U,
  0x3ea363c14027708bU, 0xc06045d5c03e851fU, 0x40061861bfbe608fU, 0xbe37ee18403d8cb8U,
  0xbf06c6d9c082fe10U, 0x3e738cf73f97b582U, 0xbf82751bc0809d79U, 0x3fe44bc04082c899U,
  0xbe23e16ebfec52c1U, 0xc029b5f83ef2e8e8U, 0x400ac583bfd2cb12U, 0x3e259b593e00907fU,
  0xbff4becf3fb5a617U, 0x400c8fb2c062b803U, 0xbe81f6d3c003151eU, 0xc00965b23f6e35daU,
  0xbd2424d2bea35eeaU, 0x40000b1ec06ca839U, 0x3fe9cee0bfb677a5U, 0x3e15c1623e105b0eU,
  0x3f69b59d3fee2adfU, 0xbdfcc8a13fdbf3d3U, 0x3f989aea3f40efacU, 0x4004f1173f09cdb8U,
  0x3f8b5adabf697d90U, 0x3f45182cbf0bc96bU, 0x3facdb7bbfc59aaeU, 0x3f7d6e743f9e50eeU,
  0x3f680986be4ba9a7U, 0x3ecc188cbf592cd0U, 0x3f3ea492beeb9b9cU, 0x3f448784bd88e2daU,
  0x3f08a64abf4c5b04U, 0x3cd3cdfe3e93b337U, 0x3edaf99f3f1b881dU, 0xbf56a777bf1aaa79U,
  0x3f863575beb2ee02U, 0xbe7d5dc5be1bd0feU, 0x3e9afbb1bda81de5U, 0x3e184718bec157bfU,
  0x3e0d72653e69b7fbU, 0x3f45c8f7bf103fbfU, 0x3e6a7e8b3ef3c9f5U, 0xbea98af33d7bc9caU,
  0xbee94cc1bf4c9d66U, 0x3f842661bead22ccU, 0xbf1708cfbee9fcb7U, 0xbe155d73bec2e2f9U,
  0x3efc5afabf9cca50U, 0x3f9c988f3f246b54U, 0x3ffaf88c3f499a19U, 0x3f8b778a3f845eadU,
  0xbfc89580bf3e7883U, 0xbfd66ccdbfef1a10U, 0x3fed6002be87510bU, 0xbf30e67e3ec3f6d9U,
  0xbe81b9afbf923302U, 0x3f552c763f870704U, 0x3d94e60dbf92cd91U, 0x3f9a3cf63ee24afeU,
  0x3f58852ebf850504U, 0x3eb7bd7b3eb5acf9U, 0x3eba8fa8bdc519d9U, 0x3f1b18f8bf7cc981U,
  0x3f6ae09f3e3a2d72U, 0x3fa9d5dd3e35a2c3U, 0x3ef786fcbf5be95cU, 0x3f25cf1ebe125676U,
  0xbdcc06983e84af9eU, 0x3e4b7ad4be8a486bU, 0xbd2a355abe5a603bU, 0xbf328c8dbf9b6121U,
  0xbed98aeabf89e44bU, 0x3f85764bbf03d11aU, 0x3f5530d6be83b3f3U, 0x3e5bdc05be1df1ebU,
  0x3f934071be67b1bdU, 0x3facc0cebf1318c7U, 0x3c0283ccbea5c3a4U, 0x3e8096c9bf1188edU,
  0x3f449985be8c25f0U, 0xbf0d0ea2bf80a2b6U, 0x3f47d702bf966a0bU, 0x3f57c8ebbef562d2U,
  0x3e05015a3e45d070U, 0x3ed7c55fbf04a78dU, 0x3ea8aa223f091814U, 0x3f2619e8be16547cU,
  0x3f8bb9823f2305aaU, 0x3f9030adbf64c418U, 0x3f9a3b44bf406c22U, 0x3f91b394be9a1bd8U,
  0x3fc1d9453e430dcdU, 0x3f0c3cdcbed5acc6U, 0x3f1915e1bf253148U, 0x3f7c7100bec7405fU,
  0x3f238bf2becc1791U, 0xbe917731bf3e94baU, 0x3ec9c546bf9ec5eeU, 0xbee5118cbd9bfc7aU,
  0x3da25606bf092a45U, 0x3e616308be93ae9aU, 0x3de954b8bf072cc6U, 0x3f7232f9bf3ac995U,
  0xbe931facbf2d2718U, 0xbf157801bf1723afU, 0x3e211cd3bee2e5f5U, 0x3e55f702bee4883fU,
  0x3ea490dcbf393660U, 0x3fe025173eccf8e2U, 0x401b5400400922ebU, 0x3fa2a6aa3fbac7a3U,
  0xc026957ebf85172eU, 0xbeeb9184c05dc91cU, 0x4035ca353ff58a04U, 0xc05b2141bfaad59fU,
  0x403a4a91bf307c06U, 0xc018bebdbcb13bf3U, 0x40150ee13dcaf589U, 0xc0297821bfa756b7U,
  0xbe35b5863f6c4fc2U, 0x40142078c0307053U, 0xbfa42083bfae5be6U, 0xc03ad136401704a2U,
  0x3e6a4d263e9cb71aU, 0x3fc3bd93bff1bf67U, 0x403a1280bff09628U, 0x3fc59d59c0026b72U,
  0x3fca7b07bfa62d49U, 0x3fb92863bf6f2de4U, 0x3ed39a673e594a7dU, 0x4030ecc93ee7ca27U,
  0x3ec9f5853f29302fU, 0x3e094cc13e1cd62eU, 0x3e8615bcbd96e8f5U, 0x3edcbd93bf43daa0U,
  0xbd90452b3e6871dcU, 0xbf44987e3d630f1aU, 0x3f872543bf4430c9U, 0xbfeda586bf04b62dU,
  0x3eade44dbfe7d1d7U, 0x4026fc513fbce8f2U, 0x3f761116bf5a3aa1U, 0x3f29b169be84256bU,
  0x3f708021bf605bd4U, 0x3e50d47bbf9439b7U, 0x3bf723d0be58e801U, 0x3df13f96bc23a60fU,
  0x4007e3f0bf016bc2U, 0x3fa80406bf94cb92U, 0xbf700779bf9756cfU, 0x3ee55d893fe59f28U,
  0x3fd91016bf716349U, 0x3fa7e445bf8adb26U, 0x3f815838bf8c9c65U, 0x3f8a247dbeebdc89U,
  0x3fa60d77bec6d850U, 0x3f2f325dbf6b3e49U, 0x3f00f6d4bf6bcad2U, 0x3f711509bf04b3ceU,
  0x3e992166beade55dU, 0xbef6406abf6e437eU, 0x3f13975cbf91c5f0U, 0xbf24f493bf357643U,
  0x3e1b6616bf104d98U, 0xb982c111bf5982a0U, 0xbe6db9c9bf199946U, 0x3f4dbe5cbf4e9622U,
  0xbe2ecab4beb3354fU, 0xbf269440bf6e2d54U, 0x3f0d4a8ebd85d7ecU, 0x3f017156bf303140U,
  0x3f0b31b6bf21862aU, 0x4028a5373f560a19U, 0x404211ab4027b07dU, 0x3f2b511c3f71bafaU,
  0xc02986b2c043d8c0U, 0x3f832c40c0085a06U, 0x3f215ad1404a23b1U, 0xc03c2a2dc038e9b7U,
  0x40002fc03fe4ca9fU, 0xc01b9602c03e933bU, 0x3f07b7b640521922U, 0x3f0a4adbc081c037U,
  0xc0638fd73ebf3501U, 0x3f8408dd3fbf7571U, 0x4035b51abff9963dU, 0xbfb5fd39c0059e56U,
  0xc02eab143fcb0c87U, 0xc03893e840030e99U, 0xbf60cfb53ff14189U, 0xbec3be24be2bcfedU,
  0xbdb3abf8bf8a3cdeU, 0x3f8782d2bd0cc70cU, 0x4003a19cbfb786c5U, 0x3f24bbe03f90b5b8U,
  0x3f9cb525bf989b70U, 0xbebd242bbf374350U, 0x3f317fe7bf8bb3a0U, 0x3e3241423ea18366U,
  0x3fe78eaabf724b03U, 0x3dd00b26bf54d1dcU, 0x3f4bbd47be93c9c9U, 0x3f9e9113bec5bd81U,
  0xbdb5cc5abfd38b00U, 0x3fe154b63f3d2969U, 0xbf30f7a63f75f723U, 0xbf6272e7c00c1d48U,
  0x3fad032fbf522f19U, 0x40267b373e444c6bU, 0x3e8cac3bc01e39eeU, 0xbf3170cfbec4668cU,
  0x40347b613f773643U, 0x4043eba73e41ebe0U, 0xbd9b4d2ebf31a115U, 0xbf0c3423bfe2df71U,
  0x3f84d630bf5b7371U, 0x3f106b26bf4d7c84U, 0x3f9d5c25bfc443b3U, 0x3fa18d78bf01c1a2U,
  0x3f7db7263f3c09beU, 0xbef6ba23bfd60ed0U, 0xbf32fbc3bfaf4df8U, 0x3f5e7ba3bf29cb84U,
  0x3f5a8c1e3dec891aU, 0x3e1ed4b4bf483baaU, 0x3bfbaed8bf73e9a6U, 0x3e8df182bdcecd9eU,
  0x3f23038d3e4fc4e3U, 0x3d0efd8bbeb48c06U, 0xbd68a90dbf27b676U, 0x3f0a1aa4bf430303U,
  0x3f085735beb9a8ccU, 0x3e69bfca3e133ae5U, 0x3e6784e4bf21fe72U, 0x3d5e0753be999b2aU,
  0xbf256d0cbeb60708U, 0xbcf11619bf9458f5U, 0x3f1f1d143e9b1d1cU, 0x3ec654eabf338f77U,
  0x3e49de15bf35a97aU, 0x3eb9b57cbee13ed9U, 0xbcea735ebeaeaa1dU, 0x3daa3d8fbf3c0505U,
  0xbf2a7a22bf8b2413U, 0xbebe5193bf99977fU, 0x3f199e52bf5b890fU, 0x3f948b983e024644U,
  0x400230c03f5f881bU, 0x401d439d3fcb7074U, 0x400591f43fdcb474U, 0x3ec8bc2a3f33c273U,
  0xbf29cfffbfcff623U, 0x3f78c2a1bfb6e3e4U, 0x3fbc2c603f81736fU, 0xbf8b75efbf1c98c4U,
  0x3d0c1e5dbfd90038U, 0x3f150e15be424917U, 0xbdc950f5bf9b9f5fU, 0x3f9d6c0f3d2c62c1U,
  0xbf090aafbf054d60U, 0x3f3326ecbd499477U, 0x3d54dec4bf3e1f17U, 0x3f28507dbe0af28fU,
  0x3e5c0074bf22c5d8U, 0xbe46f277beac97cbU, 0x3cacb5113c03ea0aU, 0x3f5c755e3e69f6f6U,
  0x3efc5b0abd36a7ceU, 0x3f2771b5bea1e412U, 0x3e09a33bbecd846fU, 0xbf03dbe3bf11b372U,
  0xbf8b4426bf4ffd06U, 0xbe11d286bfa4216bU, 0x3f8ff6f6bebeb4d5U, 0x3f7c2af7bf116b68U,
  0x3f7c45e4beeabcd9U, 0x3fa39c393f32ba7dU, 0x3f27c1943dcfaff3U, 0x3f76ce563e206690U,
  0x3fb627fbbf0ec644U, 0x3f0731f5bf8ca6f1U, 0x3f545ee4bf5c0083U, 0x3f5e2ecbbf81c21aU,
  0x3f21d0aebf31a2f9U, 0x3f590c4abf832319U, 0x3f601f92bf8efc65U, 0xbf185e3fbfa9a7e5U,
  0xbf57eae2bf87fdaeU, 0xbf33c6d6bf9a3bc5U, 0x3c907220bf33b09aU, 0x3e16d68b3d07448eU,
  0x3e419ecf3ef76edcU, 0xbf3845e2be58236eU, 0xbdae6b5b3ec57c08U, 0x3f1af5e63f350827U,
  0x401edaf74022294eU, 0x3f709ed83fc249dbU, 0xc02d6eddbfa009c0U, 0x401285bcbf759c75U,
  0xbff1b35e4010ac5dU, 0x3ff1b586c028802dU, 0xc024514f3ea2cf1dU, 0x3f0ee0babf169db9U,
  0xbe84ef8cbfb9d192U, 0xbfaa1a123ed93f02U, 0xc00875913f7d9fc6U, 0xbf1eae333f3ff330U,
  0xbecd7c28bedf0e9cU, 0x3f639f82bf92d42eU, 0x3f9363c5bf63460bU, 0x3fab7ef53f9163a5U,
  0x3fdd1cbb3fff8112U, 0x3e1776cb3f1bd9d4U, 0xbff88232bfd6fba3U, 0x3ebfd3ebbf4d7075U,
  0x3fda73eb3f437122U, 0xc00a4f9abf532971U, 0x403bb728bf9a72bbU, 0x3f9ccf673fdb093bU,
  0x3f297c57bf962687U, 0xbf259040bb30010cU, 0xbefd3fadc0744993U, 0xbf4a75d03fd75ec7U,
  0x400be070bf52536cU, 0xbf978b443f82dd6dU, 0x3f55e4df40327a1fU, 0x3fe909eb3e08e224U,
  0xc098543e3ed9f31aU, 0xc05aebbb3feecd44U, 0x400ae5aac042fa68U, 0x4044c098bf866d81U,
  0x3d8f2013bf8cf258U, 0x3e142754401954c5U, 0xc00ca57840188368U, 0xbf972f703fd3af1dU,
  0xbf36539fbe92e4aaU, 0xbf99a8f2bfbfcc77U, 0x3fe9cac8bf98b051U, 0x3f97a76d3f0d0245U,
  0x3f20d643c01a453dU, 0xbdfa6d52bea20a24U, 0x3fc23fb9bffe2e83U, 0xbeea8206c0048699U,
  0x3f9c9613bf94dddeU, 0x3f2fa0d2bf260c51U, 0x3f8942e9bc09a17dU, 0x3f872cf43fc5768aU,
  0x3fac377cbe0291a4U, 0xbe20b1c03e209d5eU, 0x3f11c25dbf3fe37eU, 0x3f1501983e6e8de7U,
  0x3e25cb8dbf0cb5d0U, 0x3cc0b1b1bf14d913U, 0x3ebe77a0bf840387U, 0x3f79a921bf24c5b2U,
  0xbe3eea353e5592fdU, 0x3f024b40bdcaec70U, 0x3cdd9486be968ed3U, 0x3e8051fabeb82a18U,
  0x3f07d8dbbc662ceaU, 0x3d32161bbe7076b7U, 0x3ffdca693f7cf02dU, 0x401e11e23fb532c7U,
  0xbf8b36dabcecfc70U, 0xbfb52ac1c02be5d8U, 0x402abafd3f4be51eU, 0xc03c87ec3f47b4fcU,
  0x3f9f4c79bfa399f8U, 0xc01c44083e0de1f2U, 0x3f19d11cbe8ea03dU, 0xbe8990e6bfc50cdaU,
  0xbf8b3b2c3e2256d1U, 0x3eb16d54bf3a9c46U, 0x3f639fb4bf97814dU, 0x3f865264bf4d5c2aU,
  0x3ea863f4bf69057eU, 0xbf0a26efbed248baU, 0x3ec549f83ea81246U, 0x3fad0c533efa5174U,
  0x40040e814010e6ecU, 0x3ee9de2a3f7a1eeeU, 0xc007517bbece3f20U, 0xbf85395cbfe3931aU,
  0x3f5db8c9be736995U, 0x3fb573e73fd4f826U, 0x3e8f191ebf53c4aaU, 0x3f9321f9bf5ede30U,
  0x3f155b37bea0e90dU, 0x3f33e437befc3d5bU, 0x3e9b77903e30bea3U, 0xbf5f3dabc00cc7a1U,
  0x3f7541d6bec5ce1dU, 0x3ed5ee013ed853b3U, 0xbf050907be459534U, 0xbfb6faa9bfc574edU,
  0x3f06144fbe63bd5aU, 0x3fbfea793f5ae25dU, 0xbedea098bf8a7e3eU, 0xbfa64565bf8cf4a6U,
  0x3edc22e73db8de70U, 0x40452fc83e11401cU, 0x3fc76ef63d2f25b4U, 0x3f34e4023f3e874aU,
  0xbed2a894bf037f34U, 0x3f548cbe3baab118U, 0x3fa32d953eec3482U, 0x3e747530bf48c579U,
  0x3f13a41b3ec5ccc5U, 0x3f5ef44abf866c3aU, 0x3f508685bf117e19U, 0x3fa867a83ddced40U,
  0x3f33e277bf0ca2c2U, 0x3e351fa8bf366f6cU, 0x3eb13ae6bf7eb9ccU, 0x3f1747db3f059e84U,
  0x3e8b9e02bef1d956U, 0xbe8eb5e1bf3be303U, 0xbdb2031fbe512578U, 0xbf4abf36be31e43eU,
  0x3f52ca273a026976U, 0xbdf0f1bcbf78a0f2U, 0x3fb648a03cc2c858U, 0x3e520dc7bf7df57fU,
  0x3e961188bf8fe675U, 0x3f8b57f5be2369e2U, 0xbf6cf5ebbd118a3eU, 0x3ff1ec393f52c9eeU,
  0x402140613fbd01daU, 0x3f0a9afa3fd99b4eU, 0xc0492975bfadbfa6U, 0x3f897651c00d9e3dU,
  0x3f222ad840467cf9U, 0xbfe1710ac049846aU, 0x3fbbb3d53f4baf31U, 0x3e8d8b38c04df4efU,
  0xbc9568243fa30c57U, 0x3eb9b917c02f9be0U, 0xc005ea16be72aed7U, 0xbf8c3f403f00b8ceU,
  0x3f1f3feabea6f37eU, 0x3f7991e0bfe84502U, 0x3f556051c02be21eU, 0xbce5795cbfde08d5U,
  0xbefd8853bf4c9103U, 0x3de24028bf729b27U, 0x3fcbee2e3fc746b0U, 0x3f9565933fd92fb0U,
  0xbf0619dc3f6b46ceU, 0xbf92c768bfd463d8U, 0x3f949bd5c01c2ed7U, 0x3ff8db683f994999U,
  0x3f2b60e83f847cb5U, 0xc019e7c9bfbb9893U, 0xbee7b064bf915571U, 0x3fe299f7bf29e866U,
  0x3d9f190bbeab0469U, 0x3e54e0e93f9cc22eU, 0xbfb9e854bfd0b23aU, 0x3fc768dd3f71d4cdU,
  0xbf0525d3bf431553U, 0x3f6153553ff574f9U, 0x405c5045c02790a3U, 0x3dd126763fa2e90bU,
  0x3f7ee890bfb25d2aU, 0xbeac1d56c022683bU, 0xbfa446143f5a8adaU, 0x4070d29bc000d6e6U,
  0xbf20fb59bf381ff6U, 0xbf33ffaf3e378ad3U, 0xbeff697f40227fb5U, 0xbf711c73bf9a66a3U,
  0x3eb2f889bf3f366fU, 0x3f5cfae2bf091077U, 0x3faeeeb7bfb679f1U, 0x3f7df8ee3f98a9f0U,
  0x3f9238763e6db98fU, 0x3f2520dfbf95a5b1U, 0x3f3426c2bf130d89U, 0x3efea8a23e9c4d04U,
  0x3f0c0e22bf7f1f66U, 0x3f04ad92be024d05U, 0x3f4d735d3f251e6dU, 0xbe4f80d5bf1c3e75U,
  0x3f884fe43e51aeb6U, 0x3de69b80be005f67U, 0x3f145edabe2e90dfU, 0xbbd6a018bed7ca16U,
  0xbe0fd6633c628224U, 0x3f3d262abe90b233U, 0x3ebcad893e51aaffU, 0xbf2f203abe45e7adU,
  0xbf6537dfbf636d84U, 0x3dbf6eccbe37881fU, 0xbf3129cabf7aa923U, 0xbf0fca0ebf11d994U,
  0x3ede40a8bf39f64bU, 0x3fc7b7a43f6c4251U, 0x3fc9d9c33f9a4771U, 0x3c8aa3873f64d74bU,
  0xbfbaabf9bff71d28U, 0xbeb83bd7bffabdf8U, 0x3fc398823f9d8286U, 0xbf51f95ebeef1f4cU,
  0x3fd238a8bf730041U, 0xbf23fa423f9da78bU, 0x3fabb519be2c2ad1U, 0xbf7bb6af3e2cd5dcU,
  0x3fac9720bf4bd451U, 0x3ef4776ebf570f4dU, 0xbf199b123f31bd7cU, 0x3ec056d4be29da1dU,
  0x3f17a169bf37cb81U, 0xbe02c8873f0238f8U, 0xbf4f7b05bd9f045fU, 0xbe1fea7fbf274a10U,
  0x3f27be56bfa5f801U, 0x3fc6a19ebfa20208U, 0x3f3aa5cdbfa20358U, 0xbec31755bfc6dd93U,
  0xbe8acc8fbfa3ccc8U, 0x3dd195f93e245fc3U, 0xbe2d893cbf1c831aU, 0x3f177d28bf357a12U,
  0x3e3f211bbedb31dbU, 0x3e658f4f3e390633U, 0x3ebe2146bdbd389bU, 0x3e47e414bf9f490fU,
  0xbd1c79c73bf39391U, 0x3ee5a65dbf904540U, 0x3f60a48fbfea95b8U, 0x3f369e2bbe978f82U,
  0xbf18627c3e16b7ceU, 0x3f7ecd733d5e08baU, 0x3f5f1eb1bf9f65a0U, 0xbe0454b8bf9a2c95U,
  0xbe7504d63d1ab0e7U, 0x3f3ad633bf880ffaU, 0x3ed0a0a9bf6d65c3U, 0x3f4527d5bf61e22fU,
  0x3fa86097bf8ffb0fU, 0x3db41ea3bea7dcacU, 0xbc0ff7e2bfb471c7U, 0x3e9b6b483dfba513U,
  0xbea084c7bf022bf2U, 0xbe36a80bbf8e3e9fU, 0xbe428a073dbe84daU, 0xbf0ded54bf03c9ffU,
  0x3f8c8a21bf8b91e1U, 0xbe2e5295bebfd5adU, 0x3f418fb8bfa924c7U, 0xbda9f62cbe17c7ffU,
  0x3d895c66bf756379U, 0x3f760b35bf0b9b74U, 0x3e5d070e3fa720a8U, 0x3fbef30fbe0bdda7U,
  0x4009acd640156f3cU, 0x3f3337b14023adbfU, 0xbfccf2493e6c5e43U, 0xbece9bd0c01dd337U,
  0x4049ca6a3fc449e7U, 0xc00d3417bf7b757bU, 0x4015f1b3bf58e8b6U, 0xc0186c45bf9a4ea9U,
  0x3fa4d3853f86684bU, 0xbfc56cb2c0275d09U, 0xbf588616beb5b429U, 0x3f5cc6dcbf1477d2U,
  0xbe09f706bfc65c52U, 0xbe8ca5adbf232aedU, 0xbf8fb3b6bf408492U, 0xbf6ee639bebc062cU,
  0xbfbbc8c5bee141bdU, 0xbf4b0a81beb8680aU, 0x3f56f78a3f76ff08U, 0x40175cd93f50e6b2U,
  0x3f714dc53f7c5584U, 0x3f0cac36bf76a2f0U, 0xbfdb4ea7bfda978aU, 0xbebc09d8bf4e9e96U,
  0x40353ad0bfa047d1U, 0xbf9f7e3b3fb538dbU, 0x401ddb30c024b179U, 0x3f79e0fdbda16d60U,
  0xbf0a2175bf1f87a0U, 0x3ef462abc0100a40U, 0x3f522b903fe685cdU, 0x3f698470bf9b5dc8U,
  0x40179f2f401e8050U, 0x3f7ebe7fbfb05ccfU, 0x3f1127f53fdd84e2U, 0x3fe9447bbf3f3cdeU,
  0xbf8ddf60beca1f58U, 0x3ffc3d4ebd31246bU, 0x3e821f3dc00ed6cfU, 0xbfefe0473f44080cU,
  0x3f880966be89c9b9U, 0x3f2674f0bf87e29bU, 0xbf215f983fd8c170U, 0xbffcc86b3f9b67b4U,
  0x3fdfd425c04c10deU, 0x3e8c3a72bed1be0fU, 0x3f3640d3bf796312U, 0x3f981034be7577ccU,
  0x3f3cd72a3ea1106dU, 0x3f2017edbe466c80U, 0x3e4cb7aebf1b0f99U, 0x3f41af42be848bc1U,
  0x3f35d40f3d96b586U, 0xbe97af17be4cdd6dU, 0xbe840e52bfb724e4U, 0x3dad2edc3df9e773U,
  0x3e392bedbf2dc489U, 0x3ef552babf3188c7U, 0x3e2d1143bde3ed82U, 0x3e35750dbef0a24dU,
  0x3e2228e2bb135739U, 0xbee3e46cbe5f95b4U, 0xbe966ef5bf5db4d7U, 0xbe718436befd1729U,
  0x3c31e400bfa26059U, 0x3f4eb8363caf878aU, 0x4006a0893f440363U, 0x3fa4495e3fc5d35fU,
  0xbf3dec4d3f1a4dc5U, 0xbffdfbc8bfdc29cfU, 0x3f4bb535bf22b469U, 0xbeaa17ad3edb6fd7U,
  0xbf161840bfba7847U, 0xbe431702bd7d5b52U, 0xbe79eb52bf89d9e6U, 0xbea96e0f3ddee12dU,
  0x3f01922fbec2ae64U, 0x3e14fc4f3c862b75U, 0xbe9bb4eabd9f8d99U, 0x3dc900c8bce7f888U,
  0x3d514231bd6ba25eU, 0xbeb39d50bf4e6ac8U, 0x3f1473adbe5b8e5fU, 0xbe430a2fbe6065eeU,
  0x3f13f62d3e8bda9fU, 0x3d1c52453ef077edU, 0x3d3d02983f86a535U, 0x3f58a0973efc005fU,
  0x3cdf52df3f32dff1U, 0xbe9bc7f93e3ed5acU, 0xbea826bfbe863513U, 0x3f67e6e8bf432df2U,
  0x3ee1fee23e244134U, 0xbe104604beba16e6U, 0xbe5a6b68be0d7e4dU, 0x3ecd1885be1064f1U,
  0xbeb19df93e556896U, 0x3ee91fcbbe5e546aU, 0x3e7f7f743d138cebU, 0x3f1b9b33bf181dbaU,
  0x3c9eab5cbeb5174aU, 0x3ebfbdc7bfac1ab9U, 0x3f28fcc7bf4f040fU, 0x3df92286bf04bc4cU,
  0x3f36a404bf0d907dU, 0xbecab866bef01753U, 0x3e3cb075bf4f84a9U, 0x3f27eb203f177b41U,
  0x3df2062ebf08eb7fU, 0x3f82d185bf77ac14U, 0x3f8fef1ebfb74650U, 0x3f84b7313f439011U,
  0x3f8c41a9bf149d9eU, 0xbdd3d25ebf92198bU, 0x3f5360e6bf2e6cbdU, 0x3f28e72dbeabc826U,
  0x3d5e1e95beda741fU, 0x3ead11a4bd824ce2U, 0x3f4052bf3ddf9eafU, 0xbf0637f8beb0948cU,
  0x3f700beabf3ce596U, 0xbd819e28be49f1d2U, 0xbdf67ce2bf119cb5U, 0xbe329e40bf0b5b87U,
  0x3e968303bf1ac9baU, 0xbd4b6dd3bf516003U, 0x3ea30e793e977d07U, 0x3e3d2278bf3b4cd1U,
  0xbf40c41fbfc80941U, 0x3ef1b253bf7dde6eU, 0xbdf60b7d3e4286c0U, 0xbe82488dbfa23303U,
  0xbda5df90bf9ddb3dU, 0x3f978ee73e8ec38bU, 0x3f6945fb3f827db8U, 0x40108e3940120582U,
  0xbe033bf23fd897baU, 0xc0144b65bfe2e24cU, 0xbed39179c03d6e52U, 0x4007ca8a3fd6230bU,
  0xc0334f68bf7e5c2aU, 0x40060d10c0287c60U, 0xc02633d73ffe0f5fU, 0x3fece34ac07c586bU,
  0xc040dcc53f97ecfcU, 0x4014db7ec00ccd9bU, 0xbfe35910bf438961U, 0x3da103be3f8878c9U,
  0x3fdbb6a4c0072e07U, 0xbff1b4f13f1e4c6eU, 0xbf287bda3fa5c2aaU, 0x3fb948b9c063fb39U,
  0x40076a0bbfaeec7fU, 0x3f861dd83e3e119aU, 0xbfbc08033d387ddeU, 0x3e1615a6bd4dee2cU,
  0xbf837d63bfad6186U, 0xbf6920f23f274370U, 0x402400a33f07325aU, 0x3fa8cb173f1d32deU,
  0x3faa1ed9bd04c6d1U, 0x3f9face9bf82e79cU, 0x3e43f0963facbef5U, 0x3fbcf2d2bfddbcd2U,
  0x3ccbc420c008b08eU, 0x4007c7a13dae6b3cU, 0x3fc33edebfbaaa93U, 0x3ec308a13f30de2eU,
  0x3f6d08e4c014bf81U, 0xbe867462be90e02eU, 0x3ec734f7c0080a2bU, 0x3fc200e63fe36002U,
  0xbe49c577c032fbceU, 0x3f59b49bbf88b314U, 0x3f90e910bec591a2U, 0x3f2bd74dbea2a97eU,
  0x3f8278c0be99aefdU, 0x3f02f347bda313b0U, 0x3db6f963be7d0e97U, 0xbe5ee9dabfb385feU,
  0x3df8d575bebed0f0U, 0xbf2e730ebf852ee1U, 0xbe6e59f9bee80913U, 0xbd61970dbe023690U,
  0xbebc3f383f36a492U, 0xbe299161be549a26U, 0x3fcd29fe3eaec0c3U, 0x4013444c3fc65318U,
  0x3f83241e4005ff32U, 0xc04770a5bee2c0bcU, 0x3f88935dc057e57cU, 0x3e49dbb64034371bU,
  0xbe082ee1c05a035fU, 0xc01342e0401d8e9dU, 0x3fbecb65bffb54fbU, 0xbfa00568bf86a8b8U,
  0xc043b9d63f86667dU, 0xbfd08c6c400fb23bU, 0x3dc10bcfbe8e0f9cU, 0x3f0cb95bbfc08bbeU,
  0x3fbaa103bf8a14beU, 0x40263acabe22cfacU, 0x3fd519aa3f00e7e1U, 0x3fa37ad43f3ab7c3U,
  0xbf84ee46bf1dae7aU, 0x3face7a2bfaa3477U, 0x3f65c0be3f203818U, 0xbf520270bfd48681U,
  0x3f3db393bfc45900U, 0x3f5ec6423f09d304U, 0xbe10c3fdbfc17233U, 0x3ef6a178be8e5e20U,
  0xbf8a9632bf870f96U, 0x3f88d8fb3ece144bU, 0x3e81b162be433a07U, 0x3f36fc353e6f6d44U,
  0x3ff786dabddffee2U, 0x3f60580bbfb73beaU, 0xbf1cbb1cbe848ddbU, 0x3ef12ce3bea843eeU,
  0x3f2f9853bf08b728U, 0xbf30eeafbeac5dd1U, 0x3f94f73ebf2093aaU, 0xbf18574b3f1565f7U,
  0x3fc683683ef4e226U, 0x3ebd76cb3fa78873U, 0x40101477bf00c1bfU, 0x3ef5af3a3e9f8c87U,
  0x3f6c758f3f54ffc9U, 0xbe8b7594bf6e5e7dU, 0x3f3cdb38c001499dU, 0xbf3dda38bffa5751U,
  0x3f50094abfb14d3fU, 0xbd740c52bf8a0c48U, 0x3fc3b01e3e3238bfU, 0x3f5df216be8b87b8U,
  0x3e82e718bf7398ebU, 0x3ed815eebef1e097U, 0x3fa0c6f7bec79b91U, 0x3f86da813fa5e027U,
  0x3fbd7de23f0aa9eaU, 0x3f0f9c35bd7f68b7U, 0x3f97ac0ebeb207aaU, 0xbe05b686bce7a784U,
  0x3f02a8bdbea11671U, 0x3eab2a72bed92645U, 0x3f2c00403e02a582U, 0x3ed6a3083ea3e041U,
  0x3f0db6293f1eceabU, 0xbcf9c1e73e3baf90U, 0x3efec730bf08eecdU, 0x3e3c41dbbea9a2e7U,
  0x3fe1da8fbd8894a5U, 0x3fd87b383fefa326U, 0xbf977f5c3f933176U, 0xc012fbbbc04e413bU,
  0x4001f2ffbf374160U, 0xc00f91aa3db5870fU, 0x3fa00196bf3191d4U, 0xbfd8a329bf465ea4U,
  0x3e133f50be2026f9U, 0x3e5d2edcbfd39a8bU, 0xbf988650befe962cU, 0xbee8bf0c3eb119c4U,
  0xbd85eefe3f43879aU, 0x3daeb8623f3fe143U, 0x3e9ce4c93e92187cU, 0x3fcfe0433ee8ca5aU,
  0x3fe1ddea3f095e7cU, 0x3f3e16023f21d60fU, 0xbef6a488be4fac0cU, 0x3e8997f1bf5d0fabU,
  0x3ef1b830befdf75bU, 0x3e4a7ca3beb34f0bU, 0xbf396472bfec45a8U, 0xbdeb9288bf44cbb5U,
  0xbfb45d83bf3a4f11U, 0xbf7ee160bf188bd7U, 0xbf22cd79bf65a9e1U, 0x3ea7bd62be9c480cU,
  0xbeeb893bbf60319fU, 0x3e889330bfa7b7b5U, 0x3f8de5dbbf269efbU, 0x3f6f7d2c3fc19375U,
  0x3faad13f3f7522cfU, 0x400969c23f81a820U, 0x400328733ff33ad7U, 0x3fc0f81c3f924289U,
  0x3e54bc513ef02a04U, 0x3e17e7a5bf4b6cecU, 0x3fba8709be7d0cd4U, 0x3ec0c3ac3dd2561dU,
  0xbfaad9eabfab3421U, 0xbf4eb673c02605e4U, 0xbfc4f426be276489U, 0xbfecabaebfeb12b4U,
  0xbee5997fbff45ffcU, 0x3f0a692bbfdc48b9U, 0xbc858e3bbf8efe0eU, 0xbee250e1bf90c152U,
  0x3e0b4899bfad8902U, 0x3eddd6d5bda59f66U, 0x3f219a88bf9459fbU, 0x3f922bb0be7fcebeU,
  0x3f4ec13c3e0b2f48U, 0x3f6221433d63e19aU, 0x3e90140dbf1ade71U, 0x3f61d8963cfa4216U,
  0x3f5a801e3e9f78e3U, 0xbedc0e57beb54e19U, 0x3ee04bebbf3a6bbbU, 0xbdcdb40c3e22fcffU,
  0x3e7baf4abe077f07U, 0x3ecadd99be8818afU, 0x3cd8f6e8be2f0c8dU, 0x3e2aed5fbe172bffU,
  0xbe6365c6be2f8911U, 0xbf3b3bd3bf2369b6U, 0xbeac8898bf414b5eU, 0xbe3dd51dbec01868U,
  0x3eab69b5bf1bd0b0U, 0x3f7d97523e88cbd3U, 0x3f8245e73f39a678U, 0xbe6718273e61eeacU,
  0xbf0f50f1bed01c6dU, 0xbf12c930bf8ad5ddU, 0xbd82b546be82d522U, 0xbe0d5b4fbe732a59U,
  0xbf4c1129bf0645ecU, 0x3ddf0ce3befe1969U, 0xbf176614bec53681U, 0xbe0a3549be4d997cU,
  0x3dde341ebefe9398U, 0xbeb6cf33be8f5dddU, 0x3d4b16dcbf3d0931U, 0xbe9211b3be98a4c5U,
  0xbf2a0a4bbdda9e31U, 0xbe65083dbc2e72c3U, 0xbe0884083e31530fU, 0x3e9d9c523ede6bd1U,
  0x3e630dc53f8b687fU, 0x3f2bf786bdc35911U, 0x3edb83c63f22fe86U, 0x3f8f08dc3d1e8f71U,
  0x3fa6d305bf79b9b6U, 0x3fe3fe46bf57545bU, 0x3faf9d62bf8db57aU, 0xbf4fc514bf927368U,
  0xbf9136fc3ee81eb2U, 0x3ccfe85fbeebf6a2U, 0x3e811216bf46a3daU, 0xbf213e97bea9796bU,
  0xbf1eccd6bf049d4fU, 0xbe9a4b43bdc049e5U, 0xbf222ff6bf04297dU, 0x3f178b58bedd80a3U,
  0x3db015c53e15f787U, 0x3ec774603f05eee0U, 0xbf873d82bf713000U, 0x3eaf999b3f587d27U,
  0x3e96b14abf9b5501U, 0x3eb3cc9bbec3d531U, 0x3f13127abe3b067dU, 0x3f7a6407be90881bU,
  0x3dc8965dbfabecfaU, 0x3f80bd76bf761e1cU, 0x3f779a7dbf0ac681U, 0x3f94c324bf8295c7U,
  0x3f9d80793e1cad1bU, 0x3f3ed908bf1498b3U, 0x3da47ab8bf17838dU, 0x3f613369bf35c161U,
  0x3e47ff11be4cbde4U, 0xbe627713bf05f46aU, 0xbdfe0db3bfb6fc49U, 0xbe54f4c4be4442efU,
  0x3e1ea3c9bf9f7699U, 0x3e11cd9cbf3fa75dU, 0xbe649c59bf713e8fU, 0xbd56fc75bf69dca9U,
  0xbefcedb7bd9c3c97U, 0xbf1b8315bee09326U, 0xbe07fc10bf86c5f7U, 0xbf0299d3be6c061dU,
  0xbe04d042bf90dbffU, 0x3f3f76223ecf9590U, 0x4005a0a63f837a58U, 0x4009aaa6400ab829U,
