
/**
  ******************************************************************************
  * @file    network_data.c
  * @author  AST Embedded Analytics Research Platform
  * @date    Wed Oct 26 13:44:23 2022
  * @brief   AI Tool Automatic Code Generator for Embedded NN computing
  ******************************************************************************
  * @attention
  *
  * Copyright (c) 2021 STMicroelectronics.
  * All rights reserved.
  *
  * This software is licensed under terms that can be found in the LICENSE file
  * in the root directory of this software component.
  * If no LICENSE file comes with this software, it is provided AS-IS.
  ******************************************************************************
  */
#include "network_data.h"
#include "ai_platform_interface.h"

AI_API_DECLARE_BEGIN

AI_ALIGNED(32)
const ai_u64 s_network_network_weights_array_u64[ 30243 ] = {
  0xb7abb78c36c28170U, 0x3749a1ceb6a2a5b6U, 0x3602c88e376237bdU, 0x370cd4d8b7a21e72U,
  0xb7740e1336a16aaaU, 0x363f58a8b4937980U, 0x3734df9636076498U, 0x368ba6b0b7ac8fa4U,
  0x37440c7a37834442U, 0xb69f7d5fb5af5666U, 0x36d6083835389604U, 0x36a9c160b69be693U,
  0x35bdf198364a6740U, 0x37898508365f80baU, 0xb744d4f537c21272U, 0x358e70f0b7cf9d03U,
  0x36c993fa375a2240U, 0x365581bd3515fa60U, 0x3647d926b719dc86U, 0x37a5567bb74fa913U,
  0xb7131afeb6838168U, 0x369db77db5534f78U, 0x36138291b6c713daU, 0x364ba112b6ee6516U,
  0x3737edfeb6d3e624U, 0x363891dab5842170U, 0xb7233b6237ab2749U, 0xb69e1712b742ec5dU,
  0x36f822acb7058108U, 0xb7a62adb366eb9b8U, 0x3689f0db36fffc1dU, 0xb7d79cf83728f245U,
  0xb6ff5dc335df70e8U, 0xb69295983483e1c0U, 0x36dc31b23781a350U, 0x3582021cb72964b6U,
  0xb6159db237577877U, 0x375a793a37408398U, 0x3622466cb6ce44cdU, 0xb7c38d8037b9f338U,
  0xb56d3949b6666d54U, 0x36f02e57b78dc0ecU, 0xb787774634360000U, 0xb6f1c9fa3798d800U,
  0xb718bb34355d0380U, 0xb650ab4eb7794006U, 0xb4d4ab7c37128bc4U, 0x37112556372b96e7U,
  0x366ada3e3409af60U, 0xb73ecca0343d8340U, 0x36eb728ab7abbc06U, 0x373c98f9b754a588U,
  0x37081343b54aa020U, 0x35f2945435a6ea00U, 0xb711949cb657d6f8U, 0xb741c312b67547f4U,
  0xb756d701b780921aU, 0xb818521cb6f88790U, 0xb6a9c515b7b8594cU, 0x350cc170b6a9562bU,
  0xb6571930370bb828U, 0xb6b1e38cb76efc4aU, 0xb81c4f5fb7522450U, 0xb718bff936a784d2U,
  0xb71930ddb75cd8e0U, 0x36aab32d37cb4d47U, 0x36a8b35a371349ebU, 0x3652435835675f48U,
  0x367c76b4b5c609b4U, 0x3748df7c363557a6U, 0xb770986036872a0eU, 0x36bdd588b820a7e6U,
  0x377072d2b6800b80U, 0xb4bd483037907fe4U, 0xb77a9ccbb788817cU, 0x37138d8b379e090bU,
  0x37470ee63716f7d4U, 0x375f3d48b6b36650U, 0xb63d241eb63adc18U, 0x378ef2ae3719402aU,
  0x35271dc83732c664U, 0x377b6ba8365326b0U, 0x36cd3cc136ff9d8eU, 0xb758c70237287bceU,
  0x36a9c70a370babe4U, 0x369d38acb715b9a4U, 0x3782f6e836e465c7U, 0xb76c4a3e3725e4aaU,
  0x3794f1c8373b8081U, 0xb72ad66e36fba1ecU, 0x366f90e436d656d3U, 0xb661c5feb751fa29U,
  0x3795edf637a2271aU, 0xb5a65a4eb793f8aaU, 0xb7eafc8436e4ca7eU, 0x373a00a4b785305dU,
  0xb6b93fecb70fdb26U, 0xb65b60fab74f6fb0U, 0xb5aaaae0370a573eU, 0x36a083c83654d144U,
  0xb65ad7683630ae4cU, 0xb58bd89cb586006dU, 0x36850c1a37136c58U, 0x366c1235b7969899U,
  0xb630820cb72a0a70U, 0x371c8c2bb77e2389U, 0x3744476a36861360U, 0xb71f046136bda827U,
  0xb6f9036a36e09f8eU, 0xb694e3fc37463ec5U, 0x365d43a4b683494aU, 0xb827ae1f364b8227U,
  0xb7435ae836a01630U, 0xb6bbca56338ddd00U, 0x373349dd341b9f40U, 0x37dcd360b715709cU,
  0x37dfa249373c6f2fU, 0x3714b6c83687ab81U, 0x365d66083627750aU, 0xb768b508b7745e9aU,
  0xb77c78753753eaaaU, 0x3714f9c8b76b6557U, 0x36e7ede4b687def1U, 0x36a4e00037891286U,
  0x3765a5e136e7eee8U, 0x34ceba00b72ba0aeU, 0xb69808e737cedf30U, 0x37991c59b5651d90U,
  0xb69272f3b73f74b7U, 0xb59e1230b5803dffU, 0xb7a0d22b35a725f8U, 0xb629e7db3566fea0U,
  0xb70c1f94370d7d71U, 0x37cb31ba36d76c18U, 0x37770f5d37922f7aU, 0x36b6218cb6ade91aU,
  0xb78aec9a3738c1b4U, 0x36f5c89db6177c1fU, 0xb794701737aaeff5U, 0xb763a892b4222e00U,
  0x369467ac3718e7adU, 0x3777c68bb691faf4U, 0xb6605113355c3dd0U, 0x3622610cb74e4abcU,
  0xb76711e7b70bc9a0U, 0xb7090ade366b6fb4U, 0xb5c6f3d8370f1284U, 0x3327b90037670b14U,
  0xb63be034370db224U, 0xb767c672b767cdebU, 0x3517d4e0b60efbceU, 0xb502e130b5944340U,
  0x379c1ba636ccf85eU, 0xb6f1cd003541dda8U, 0x379b5f9eb77fc175U, 0xb7c4ff30b78ae232U,
  0xb6b45facb79947d0U, 0xb78fe39d370aed36U, 0x360f5f68375e273bU, 0x370f7ab034d47f68U,
  0x378b8f1336c7f971U, 0xb68573bab7afd4e0U, 0x373f8b0ab67d5ed8U, 0xb539f338376efa7aU,
  0xb67bbf6636f333f5U, 0x354c5914b63b0216U, 0xb737742c378bcca5U, 0xb7102dbab70b5a06U,
  0x373c8f0a36957f7aU, 0xb6b24b2837af44e0U, 0xb77b947037c91f70U, 0xb709b62cb71a5a46U,
  0xb72d8eb33719b4ebU, 0xb7945bb0b71934efU, 0xb6e654d1375f8a2eU, 0x3322f580380febdeU,
  0xb4bb47383720c415U, 0xb7e20940b702b841U, 0x379cebecb6a55030U, 0xb78a076c36acb685U,
  0xb6748f2435297380U, 0x37886fceb6204c94U, 0x362fc599379adad8U, 0xb78c5986b741eb69U,
  0xb72d2ff3366e1e47U, 0xb5650130373ee5aeU, 0xb7881504b7f6869fU, 0xb742c0a837af5fa7U,
  0xb54ee6ecb700120cU, 0xb78e661cb684b2d2U, 0xb7c243b2b5dbe438U, 0xb7054ea037ba8918U,
  0xb682c30e3746e068U, 0x371cfb2637f553c6U, 0xb6647918375d07e6U, 0xb6670a5137a35124U,
  0xb6662cd0b768647dU, 0x36eeef5ab7ba02d1U, 0x3719aa2c36b22704U, 0xb76fd06a365d0a34U,
  0x36dd54ab378434c8U, 0xb6222720b6c14c5eU, 0x370b193e37ae37c8U, 0x378fb137b78b0114U,
  0x37026e2c3425fa40U, 0xb72fe26ab827ff7fU, 0xb6e940e235d06da0U, 0xb66a59a4b5b37e50U,
  0x3586a36935efbf60U, 0x371f145fb700a72eU, 0xb6ec0330370a17e2U, 0x3658eb70b6ee83d0U,
  0xb6967bdbb81198afU, 0xb76ad9b4b73b26e7U, 0x372edfea36dd908bU, 0xb740c80b3670c7e0U,
  0xb768fc6437ca932eU, 0xb715af8ab4afb040U, 0xb711f6aab718b5ffU, 0x37aaadabb7b88b2eU,
  0x36958770b7a77931U, 0x36afa0f137000585U, 0xb3085c0036cbd3a2U, 0x360ac07035ce08a4U,
  0x37200eb4b6967ec5U, 0x35baf530b6e08299U, 0xb7391c963500e03cU, 0x381ac05fb750c156U,
  0x3712e05bb746479cU, 0x374287203706d09eU, 0x37263015b644ef88U, 0x36af1cf23763502eU,
  0x3699a99a360cedecU, 0xb7ae414eb7515b14U, 0xb6e39de6358caf68U, 0x36503d43b6c77823U,
  0xb7073972b5ae9c3eU, 0xb63f75e936f2db27U, 0xb695def336384a00U, 0xb7c2d746377e398aU,
  0xb72bc4f1b613fb68U, 0xb737e6c63733a501U, 0x361a9d51b77e6f94U, 0xb5a58e3cb70043b4U,
  0x363f1d43b784c67cU, 0xb71f848336aa1926U, 0xb6d9b53c36be6ef0U, 0xb697998936fe2059U,
  0xb78de83237b9371fU, 0xb7111e423786498fU, 0x377fa134b7099770U, 0x375ee4beb705d3c6U,
  0x370db61bb72412b8U, 0x378d8b54b7b76909U, 0x37f1f7fc37278355U, 0x3756da32b7c646bcU,
  0xb65115ac3738f15eU, 0xb7bf2eaeb7276acbU, 0x35e4fc46b799f793U, 0x36a8c7cf37203845U,
  0x37a84857b5833cbcU, 0x37c9cbbe3749a47fU, 0xb73b27323745ca3fU, 0x369a2982b63e2580U,
  0xb76ae716b73e7a7aU, 0xb79024ab37418599U, 0xb72c6f193726e0efU, 0x3684c7c4b766234fU,
  0x361ca736b829bfbcU, 0xb740e3e1b68cc9baU, 0x35c94fb037551a47U, 0xb682ec4c37237800U,
  0xb733439db775c410U, 0xb734a9adb4d3fa28U, 0x35a24b80b4c9ace8U, 0x37a22f0437e91584U,
  0x37929f0e37aff2ccU, 0xb6d65908b4db65c0U, 0x37416768b6f78425U, 0xb779e77b36c7c9e7U,
  0x3714e56736e2f6e4U, 0xb79f14bfb664b300U, 0xb714be60b788b499U, 0xb7620e41b682f2a0U,
  0x36d839003802f52eU, 0x377fad8f378efad0U, 0xb6aa4d2135afc463U, 0xb6c55abbb7574190U,
  0x376b6e0cb62de268U, 0x378969ba36421076U, 0xb6407d4a36aa0648U, 0x354f27a836c472c8U,
  0x3604bc8837f277c3U, 0xb7039608b686f402U, 0xb6d20191b7971f9aU, 0xb68ba868b73ef0f0U,
  0xb720a3213634d278U, 0xb72f8866372c3fbeU, 0x37c6d1ecb6a76b9bU, 0xb6d4f80fb7a1b6ceU,
  0x37566e23b6249f4aU, 0xb6501ca0b734606cU, 0xb7933cd036d1ee82U, 0x36fda7e6371056d7U,
  0xb6e9b99bb69357c4U, 0xb7b0b5e5361ce6e1U, 0x36d06c22b73d09aeU, 0x379db5b2b6cdbb96U,
  0x37022863b45291a0U, 0x3688024bb732c276U, 0xb7b00e17376ff718U, 0x3696d415b7536c79U,
  0xb79dc15e379c2f79U, 0x376239b6358e0f30U, 0xb6e76844372f559aU, 0xb7bbd314b76630fcU,
  0xb7c02a1636eef170U, 0xb6e9ed44374ea096U, 0x373beb9435a3f5dbU, 0x36f7f481358789bcU,
  0xb75ac9cdb58c50c0U, 0xb5bf8068b7af0c85U, 0xb6b100b4370403d0U, 0x3749a98c370141b4U,
  0xb7564fb237358bdcU, 0xb6a0accab78f2e98U, 0x372329c4b78f7eb8U, 0xb652df26358c6948U,
  0xb602ff743658d1abU, 0x3783c096370c3e49U, 0x35e9d278b6d49042U, 0x37615b68b7da1d41U,
  0xb78c8a18b76bd00cU, 0xb59b8be4b71c7febU, 0xb78c2afd378c83b0U, 0xb755563236e3f435U,
  0xb7a69945b60fa48dU, 0x3681ed9db78eb3d9U, 0x369b86203688b553U, 0xb793cf8cb68cfe92U,
  0xb7ce7ce2b7918f9eU, 0xb7586f8e375ab326U, 0x3628b7703713e760U, 0xb5ab346c36f502baU,
  0xb785287336a16911U, 0xb71d58ccb671972cU, 0xb5838f60b7934f31U, 0x377b631c3605f7a8U,
  0x3784d1ac36cfa324U, 0x36f9938037492472U, 0xb70f8ff3b5a9a620U, 0xb5473de0b6859a15U,
  0xb739b50137416d50U, 0x35cdf828b7362100U, 0x365d02e5b681dd7eU, 0xb6d04bbeb6b53f5dU,
  0x3771e87c3709a450U, 0x3781cf1d372a504cU, 0xb52e6800376104dfU, 0xb789c9fc3748ff2aU,
  0x3647909c3774cdaeU, 0x37290967b6967f76U, 0xb795ba52b73a2d4aU, 0xb69fa308b7444878U,
  0xb70850c2b69cae8aU, 0x36c133c2b61642b4U, 0xb700929b35bd4880U, 0xb69e0bfeb63e030eU,
  0xb5c11721b62cb12fU, 0x35974128370e3982U, 0x379569b337433d06U, 0xb791114fb73f14e1U,
  0xb688e24b374ff9d1U, 0x375c66dc37084a3bU, 0x373d6ea1b65236a0U, 0x3776684d375bd964U,
  0xb7050c75356d1620U, 0xb749ddf5370dee73U, 0x371d42e2b7559f60U, 0xb6773b8ab77bdf60U,
  0x372aaba3b6048faaU, 0xb47ff8c0b79bfa2bU, 0xb788848eb7b916f7U, 0xb6c2cef8b7422e6bU,
  0xb75c39ed34114630U, 0xb6f3b71e36e774b2U, 0xb4c944a0375af8b6U, 0x36ae5098b763da09U,
  0x3745a89cb5e2ce50U, 0xb66e1be536925c5eU, 0xb6b2a1d2364bf757U, 0x37081d683795e630U,
  0x3697861db71c6462U, 0xb6bebbbe3780ed14U, 0x372996c0b7a7ee86U, 0xb7abd8ddb63d7ddeU,
  0x3736795435dc4ee4U, 0xb730c5ecb781b12eU, 0xb74f2a9836b9b80eU, 0x367c84463692fdd3U,
  0xb7258816b70930a6U, 0x36654123b7663c34U, 0xb6ed20a036b71dd8U, 0xb761fd5636875e88U,
  0x3705e1ae363980bbU, 0x36ddebd4b811d1b8U, 0xb68ab2ea37a2617aU, 0xb7019abc37123ea9U,
  0x34156bf8b4a77340U, 0xb793e753b7160eccU, 0x36bed996b4988934U, 0x36e045f937372a66U,
  0x37a8daa636a23999U, 0x378b38ecb7568ffeU, 0x35ccb69c3733839cU, 0xb74fc8da3609a386U,
  0x376993df373aa396U, 0xb6d76722b71e2416U, 0x36736b4037ab4022U, 0xb682e3283794bfacU,
  0x372e30a0b5ff5c1eU, 0xb645b3f037ac0e81U, 0x3757f770b6dbb055U, 0xb60aaf11b76b80caU,
  0xb6d6ec50b7454c73U, 0xb68a1dc13650270bU, 0xb58af52437043ea1U, 0xb752b873376e24c6U,
  0x32852000375d5e64U, 0xb6218480b6db0360U, 0xb721e4d93632cff8U, 0x3711149437415748U,
  0xb6e92efeb65795d2U, 0xb7aa7b41331f9000U, 0xb60e2cb8b74f7dbbU, 0xb7a8bcb3371c8431U,
  0x374f999fb76546d6U, 0x37bbf50836f8b0f1U, 0x35e8a7c8b7ca6124U, 0xb63bc0f0b6976226U,
  0xb7c10f0d36cda6c4U, 0x36e45d64b67b4aa8U, 0xb7709993376ca412U, 0xb63bbaec37357c7bU,
  0xb62c566db646e559U, 0xb6f3af973686fefbU, 0x36ec10bfb76113c0U, 0x36f097b1b71319f9U,
  0x36af3fe6376de958U, 0xb721f37a35780af0U, 0xb69a9f84376cf84aU, 0xb711ee5837bfcbb7U,
  0xb63c4fefb7067d16U, 0xb794ba38373392f8U, 0x36c668ff37612e26U, 0x36186097b5998fe0U,
  0xb73ae680353299f0U, 0x3777047c36f32ec8U, 0x36cea2f637094a2fU, 0xb65b586437c35703U,
  0xb59c2ee2371e8b66U, 0x3701dbc136da0fc6U, 0x37246d83372b89c1U, 0x368b3b6036df10bfU,
  0xb799509a370413efU, 0x36176dd4b58d78b0U, 0x36fc40c83739d187U, 0xb6ae5912365b5be9U,
  0xb74f60f8370102eeU, 0x36d3fc263776d5c3U, 0x3752f85037a27376U, 0x36d93c2eb6bea904U,
  0x36f13bcc36af34a7U, 0x35ffd56037c7fee3U, 0x3824d34f3627823cU, 0x37252859379d144aU,
  0x376827ffb6315004U, 0xb73647cd3678635bU, 0xb69e055ab7042b2dU, 0xb709836736ab53fbU,
  0xb76f17b4374a881cU, 0xb5a4d2a536fe62bcU, 0x37c493bb362a4617U, 0xb65e61c0370fa272U,
  0x362c9c21b7208c28U, 0x372a8288b31d9c00U, 0x35ed6720b56d4870U, 0x37243c4037c5a314U,
  0x37419db4b6985f55U, 0x36400c68b80317e5U, 0x3572aeb0b7601001U, 0xb7966d0f35d29b6cU,
  0x37664eefb5a9b014U, 0x36f24d40b73ff591U, 0x37c7b386b7943544U, 0xb76f3f02374a81d8U,
  0xb513cc30b6d6ea33U, 0x361935d8346654c0U, 0x36ddbc5836d5c80aU, 0xb71b4db1b71540cdU,
  0x373be1663705a105U, 0x368feb23b706baa1U, 0x373769e037635622U, 0xb747d089b7084001U,
  0xb61650a8b78e0754U, 0xb78ae111b7b73104U, 0x3790cd08b7b1d0faU, 0x35c4378037101330U,
  0xb781046eb719ccb8U, 0x3720faa1b6b9e66fU, 0x36dcd5f83667e46cU, 0x374b0ce5b5f67608U,
  0xb79e618834d2bd20U, 0xb64061a037260f15U, 0x370f8d61370eda78U, 0xb6fcf22b36ee2342U,
  0xb71f1058b75af0c6U, 0xb730ee5e378511edU, 0xb7cdf0753764f5bdU, 0x36316750b73c232cU,
  0xb6dc2b9836d9d0e6U, 0xb72a7a1bb706605dU, 0x36c4ae0cb6916bc6U, 0xb780f877b72d38f5U,
  0xb7a3af56b57e0e50U, 0x37967297b7a2f3d3U, 0x37b8551037b201bfU, 0xb71e88e1b65e513eU,
  0xb78fc82e370a3e78U, 0xb74f310f36cf71a6U, 0xb7cdeae937ad36ffU, 0xb6d7687e3706dcb0U,
  0xb78df0cbb6ff3b79U, 0xb646ad2e36e30c26U, 0x36530e54379391faU, 0x3699cdabb646908fU,
  0xb6ea13c1359440a0U, 0x37999c5035c09d04U, 0x366af03cb6efd194U, 0x37382654b754e107U,
  0xb6cfa4eeb789e181U, 0x35f06008b7345c8bU, 0xb7316fdeb5bae68cU, 0x36bb0c30381e5627U,
  0xb7897898b70b65ddU, 0xb5df5ac43643d014U, 0xb7d0ee7137498a41U, 0x371f47ab36152de8U,
  0x37b97894b744b1cdU, 0x35922d2837740a68U, 0x379a27983702d62aU, 0xb7a9b4a4b60d7420U,
  0x375370cd36bf687eU, 0xb7308777b6fc8e42U, 0xb70ae780359f32b0U, 0xb6a42fb437086f8fU,
  0x36bda3e635e1a8f7U, 0x37864761b6e88635U, 0xb71391acb6e9104cU, 0x364759ac3680da09U,
  0xb6becf2bb5fef670U, 0xb66629a8b6691c48U, 0xb6ef6f6e3728f386U, 0x36f2e87c376ab0a7U,
  0xb60ab0a0b5e4e9f7U, 0x37e06160328ca500U, 0xb78e094136821e80U, 0x3682e21e36d02826U,
  0x3713fdc6b78467e5U, 0x3772ba70b6adf4bbU, 0x3591430436807af0U, 0x37815b2836a2a81dU,
  0x365e591fb784b2d8U, 0xb701d351b6ad716cU, 0xb72b619fb646f032U, 0x370cd19bb7590a4eU,
  0x3727aa0f37680a40U, 0xb69486fab7a61e7fU, 0x379892f036df7f84U, 0xb7169264b742cd72U,
  0x363b13e0b50c1b58U, 0x3706681b37632298U, 0xb770ea6b35e263c8U, 0x35625f10b70cb1baU,
  0xb7d72c8334bcdee0U, 0xb75a8034b63ee0c8U, 0x359411e0b4bf74e0U, 0x36afe876b4222200U,
  0xb60b84ec35a08838U, 0x3744d51e3783d971U, 0x367c8a08b7712430U, 0x371dec4ab6b79a38U,
  0xb5b7f15eb75374ecU, 0xb6caea49b7416781U, 0x36405c08b7a7836dU, 0xb5fd832db4da1b28U,
  0x36ea8c2336fb7b54U, 0x361fd772b6cce9e6U, 0x3773853cb6c89806U, 0xb7d1ac55b637d3bcU,
  0x36af16b5b7616732U, 0x3716758ab7a6bdf6U, 0xb5ec22e8b55ee020U, 0xb7c97190b6a11aa4U,
  0x36edd63ab5d642afU, 0x3717c16037ac30e2U, 0x36fd096c3607e234U, 0x37c4696e36f08a44U,
  0xb77465f2b74ac28aU, 0xb70b437f370421ffU, 0xb7127bbf37c89ae6U, 0xb690d564b72bdccaU,
  0x36d6ca2837163980U, 0x36f5ddc237093f80U, 0xb656fde0b72a241cU, 0x35a06864b6cd8cf1U,
  0xb778fec0b7acecd8U, 0xb7c0ba333783d434U, 0xb638ae10b8243040U, 0x36ee2c5836134908U,
  0x35784108b6513b0cU, 0xb7070faeb618d8ceU, 0x36c7805e37860cadU, 0x35b30d6c36d7bc43U,
  0x36821cbab723ff73U, 0x360670a5b755d72dU, 0xb703e0fcb6e537acU, 0x37b7da64b68afe4eU,
  0x37806337b73d1929U, 0x35a7df24b59cc35cU, 0x373097bcb70e787aU, 0x372b9432b69a0df7U,
  0x34b088e036f299c0U, 0xb64cd838b7840f88U, 0x372318f5376079d1U, 0x371aa3a2371e71d8U,
  0xb6444c54b65dd2b0U, 0xb6789628375683c0U, 0xb5093f30b7bf5e72U, 0x355bef3cb64a3d10U,
  0x3685c87c37b38b3dU, 0xb74e04aab7bb57a2U, 0x3696e8cdb70a84b6U, 0xb72ff2ccb78a8484U,
  0xb7fcceecb78ff15fU, 0xb619ec8ab7ae5556U, 0x3713fd3ab7bc5c8eU, 0xb754e8fd378654bfU,
  0xb720f9efb4ef7a10U, 0xb716575ab7c9a4deU, 0xb80b88173784a3ccU, 0xb7293babb775d357U,
  0x37734506b499b520U, 0x37946aee36ae743aU, 0xb6bd9d703603757aU, 0x3799817037feba53U,
  0xb621eb2ab83bde66U, 0xb6af85a0b6ce6848U, 0x37b917f436e928b0U, 0xb6e38338374be186U,
  0x377b46d1361a3a7cU, 0xb6d6fdd0b72c281dU, 0xb802d41fb7aaa34fU, 0xb604d10f383c8feaU,
  0x3633759cb52fd000U, 0x36b096a0b70b5731U, 0xb6721898368f0406U, 0x34b251c037856984U,
  0x37515a153675ac33U, 0x377c86c037099f98U, 0xb63c68beb77ca808U, 0x35536fd037a3a5d2U,
  0xb7f4888c3794eac0U, 0x36ec06ee382734d4U, 0xb6ea42cc37b511faU, 0xb76b836c37f974eaU,
  0xb78084dd371abb2bU, 0x381e42e2b74bcc72U, 0xb73c74a6b634ecccU, 0xb66645d436eccc32U,
  0x3698ec30b7ed8d3aU, 0xb6ce6f22378adbe0U, 0x3735c87e37af750fU, 0x349cd1a637579f7aU,
  0x3764f32eb7a9ebdbU, 0xb73d908e3740076aU, 0xb7d81e4e37282cb0U, 0x377b3ee036c79a1bU,
  0xb5424eb0b7cfcecaU, 0x35e131d8b6ad4a04U, 0xb6cf4f30b616c71aU, 0x3785dfcfb6d03a7eU,
  0x3756577e359ce2b6U, 0x36b1134db7bbaeceU, 0x371912f4382db96cU, 0x37055145b6ceabbeU,
  0xb6bbd569378a200cU, 0x369a1a32b6a17943U, 0xb7512844b8086697U, 0xb63f126836b00423U,
  0x364a6fbc36f3cad7U, 0xb7a1fdbb37388209U, 0x36c90f7a35bee1b8U, 0xb746ceeab5ded970U,
  0x3711cdc4b80696eaU, 0x36d5569bb4101800U, 0xb78c669836fe1799U, 0xb6c9aeca37567f7eU,
  0xb66668cf378d5e0aU, 0x37346c5337293629U, 0xb41fcab037154ce8U, 0x370a794db7292c6dU,
  0x382d88e837beedfcU, 0xb7c3292637381b92U, 0xb843275036615ec2U, 0x36038e44374186b3U,
  0xb6872e9e37545a17U, 0xb6a1349cb5eef340U, 0x370751ad3751d0c8U, 0xb6fb864db82f6e82U,
  0xb7910afd37414367U, 0x3756eaefb786cf1bU, 0x369834ebb7ac9b30U, 0x371544363670deb8U,
  0xb73f58f63786016aU, 0x3769d6e7b67120e8U, 0x37010f3a36df2061U, 0xb70c51deb687d412U,
  0xb707609d3573ffa8U, 0x37657a503789d2a7U, 0xb74545f9b6599808U, 0xb6daa8fc374a0100U,
  0xb6b1e200b79207e6U, 0x369af4e8b68f00a1U, 0x36fc395a3808f0baU, 0x36d440efb7cf4c16U,
  0xb7f8aad8b7071d51U, 0x354e4f1cb7d01155U, 0x3744b89eb6df9414U, 0xb6e35bc9b670f6f7U,
  0x374a483e369d37d2U, 0xb7b6ff8237ef7627U, 0xb572b554b6a2644cU, 0xb695de86b6470d9cU,
  0x371695fab779ae66U, 0xb7ef6edc36416700U, 0xb5055de2b78421bfU, 0xb69621fe37af6c20U,
  0x3781d2ffb803f9b2U, 0xb76b24ae377b01f4U, 0x375ea796b6c35700U, 0xb8158bf3b654855dU,
  0xb5ecdf58378381e0U, 0xb79e9e28b65166f3U, 0x37b0ee9736b2fec0U, 0x37dc193e3702be8bU,
  0x378c8d5635240a20U, 0xb72a91d8b7b64c7cU, 0xb7be7f25b71b65aaU, 0xb71e427936aaf9e0U,
  0x371c1957b7820a5cU, 0x3745c00bb72f47f3U, 0xb7c57232362ed4cbU, 0xb509e310b6de0adaU,
  0x3560eb50378300e3U, 0x36f85613b79466caU, 0xb79c9a0637529184U, 0xb73fd3cfb7ada4e9U,
  0xb788652f37326848U, 0x36c380f2b4bffb80U, 0xb6b4f834374db89dU, 0x35bbb2d8360ed0c0U,
  0xb62f26e0b6ae87bbU, 0x37191087b5294ef8U, 0xb7043c68b7a73664U, 0xb7cb94f1b78ae696U,
  0xb58a7558340d6300U, 0xb6cc31b437853b74U, 0xb751b5deb68eec8eU, 0x36da47e0b75e28dcU,
  0xb7897fddb6cadaf2U, 0x37bccdc9b7556246U, 0x3704143c368139b2U, 0x3705e276b71dec6dU,
  0x3656065bb56028f0U, 0xb58a95fab6056278U, 0xb6c5ec39b81a085fU, 0xb79434bfb6960e44U,
  0xb78e29a5b7272764U, 0xb82bbe953752eb0dU, 0xb7219e2036d47547U, 0x371d9f3c33c9a900U,
  0xb58b855836e860b7U, 0x348c3ed0b5a193bcU, 0xb6d0be7237993754U, 0x36a3a566374e4249U,
  0xb674c298370e6a7cU, 0x358480c4363ac1fcU, 0xb771cf81b70f9068U, 0xb6832e8cb5a3082cU,
  0xb497d6a0b68c551cU, 0xb7c02c4835003350U, 0x36df0e1036e6e5ceU, 0x37441f453726b2c3U,
  0xb774b430b71442d9U, 0xb68950a8376f413fU, 0xb6e21772378a83aeU, 0xb71260e4b6a5c364U,
  0x375e567c37af1583U, 0xb67f5cf8b6ada3c4U, 0x373cf19434c0d670U, 0xb6fb5cac35ae0cccU,
  0xb6e055f2b787634aU, 0xb505f23437666550U, 0x372fd1c23682170cU, 0xb71d7f6bb69e1d40U,
  0xb75e23f036eff400U, 0xb6928d9eb7364425U, 0x36bbdbe2b6d13f52U, 0xb78ebeb2b763d185U,
  0x36bfbc9a36f93a24U, 0xb6bfc6fd36dd4a3bU, 0xb76dd9af361e10dcU, 0xb6c084b1b6e78ce6U,
  0x381c231d36d39e7fU, 0xb6bd6c6637144ca6U, 0xb7a7ecfe381fcdbeU, 0x36e2c5be37c7ee10U,
  0xb666b827363ee96aU, 0x37045bb5b5aef310U, 0xb70cf3cab7dba9e7U, 0x368b2c2fb7204684U,
  0x373bb162374137cdU, 0xb6904f2e374a6510U, 0xb73cb38ab5ed7db8U, 0x3712aefab7727b93U,
  0x370019fbb7b95a30U, 0xb78434e0b70103acU, 0xb775488e36be66a4U, 0x35757ed0b6a2f03dU,
  0x37b45fa4b6a1507eU, 0x37bb705eb64d03b0U, 0x3392bc00b581a748U, 0x378797fbb73a6e14U,
  0xb77aeaf137199d58U, 0xb77da74f36ca574eU, 0xb786f5b0b609b1e0U, 0x375df654b4e3a7bcU,
  0xb6c2da81b6c369aeU, 0x36bddc11b54750a8U, 0x36eb61aab73e6b5cU, 0x35f56843b570620eU,
  0x3562477ab7679870U, 0xb7ad828ab542f0e8U, 0xb60c8fb8b68508f0U, 0xb4df6ea0b6a61382U,
  0x36deb00d37a5069eU, 0x371a0bfeb6131298U, 0xb747b70bb7065de8U, 0xb744be8636961243U,
  0xb59fe480b693f8e6U, 0xb78c1a0fb64bc88eU, 0x37002bfa3748edf8U, 0x370a7343b6b4014fU,
  0xb6340debb6d652cbU, 0x3794a8f236ca9432U, 0xb6f1543a373d7787U, 0x3780e5beb6613d10U,
  0xb537ca143605fdd4U, 0x3767da1c372e21fdU, 0xb75fdfb4b75e4a7fU, 0xb7d4f333b6bf6133U,
  0x3766086fb487a24eU, 0x3735aee4b74bb99fU, 0x378b874037946ffeU, 0x35790530b6ced32eU,
  0x3746dca73766fb9cU, 0xb6a889fe371a3810U, 0xb7345c90b71f15b6U, 0xb759b070b64ba4d6U,
  0xb59a1995b6dbb5c2U, 0xb6b2d7b5b55c6538U, 0x3783879b37335950U, 0xb7942b8cb76256bcU,
  0x37194efb37942b63U, 0xb5a57880b6aaa050U, 0x374ea8ceb79d4ebaU, 0x365230a437a3a92eU,
  0x3784bbeab7d49bfaU, 0xb798e752b7bdbf94U, 0x3687bc523697f1d8U, 0xb718d25a351967c8U,
  0xb758085037065dd6U, 0x36a7f4deb7657d98U, 0x34af5fc0b751fa88U, 0x366ffc3cb545eb64U,
  0xb6942252b6ace2a5U, 0x376f9b46366ab6f5U, 0x37394f573526ae04U, 0x349c03d0373f862fU,
  0x36534bcb35bde238U, 0x3635cb5e35a18cacU, 0xb78f3374b76c382bU, 0xb7233ee9380ebe3dU,
  0xb665b35835cb2244U, 0xb772f7ea360c3adcU, 0x36d15ce2b780428eU, 0xb6a8c6863506d980U,
  0x3712934636c5b5a8U, 0xb7475b0d3788695aU, 0xb6d2867ab703ff43U, 0xb6907606377bf9fbU,
  0xb724db9c369dd969U, 0xb6f2783e374e6033U, 0xb5c59c14b712621cU, 0xb6b4ea08b7913f53U,
  0x37b8cdd33670a1d0U, 0xb5eafcc8b808f148U, 0x36b38d2ab777b48aU, 0xb740b40fb735ff7fU,
  0x370550363781543cU, 0xb6989e40b69d48c3U, 0xb63771e437056240U, 0xb71ba952b5af70b6U,
  0x373b1558b69e1edcU, 0xb7751179367c1832U, 0x37ba6af137386497U, 0xb612843c3752409eU,
  0xb715146bb7c621a4U, 0x3785b5fdb6f26bd2U, 0x36e327e6b54fe4afU, 0x372c020b36e2a102U,
  0x36f6f1473778b89dU, 0x36dc50783701877cU, 0xb6da228237b2cbaeU, 0xb72f8d4fb71313e3U,
  0x35ba7dd0b77b44faU, 0xb5cf70503529e180U, 0x35f8a226b62552feU, 0x3755aec8b6ce38baU,
  0x37cd03bb3332cb00U, 0x381060a13773ff7bU, 0x370fcb00b78480e6U, 0x36adb2ccb72b5c1dU,
  0x3707aa4d3739b029U, 0x375caf13365ac41cU, 0x3773c747374d6e4eU, 0xb735edbf37dcd144U,
  0x36d39df1b719cd8dU, 0x375eaafb3799d0e6U, 0x36b820c8374351e4U, 0x35aa299034e0f1b8U,
  0x3756367c36a6740dU, 0xb51fc9b035294af8U, 0xb78569c43733d9fcU, 0x37b001b2b7205dd5U,
  0x377d2f2ab7505b86U, 0xb70bce48372567c3U, 0xb66f374ab72a4c4cU, 0xb74fa0e43700d1bdU,
  0xb620a668b6b4dc54U, 0x37902892b7508e35U, 0xb5f4f8d036c00c58U, 0x35f6c2e0b762b260U,
  0x35d6874437083eb1U, 0xb74638f8b687eb79U, 0xb72ced5534dc387eU, 0x376cdbe0369c05acU,
  0x363a1c8db789e532U, 0x37cfd6b637fc2a61U, 0xb6e969f8b5a4be28U, 0x363d098ab79843c9U,
  0xb6e37e48b7095e93U, 0xb6598b4a3666cd59U, 0x3788ceb3b738445fU, 0x3731f334371679acU,
  0xb7879b00b720db69U, 0xb777a56eb79f7690U, 0x36c3e6dab793f1d7U, 0xb71c688436cd2c64U,
  0xb7944060b75f6cefU, 0x36bae0d1b636714cU, 0xb646812c3704f3f5U, 0xb58097a037467fc2U,
  0xb59ecba4376a17c8U, 0xb7969174358f83b8U, 0xb6dc3c963758e58cU, 0x340f36c03769639aU,
  0xb6845b6a3753a08bU, 0x371fddfb368aa559U, 0x36b0752a374bd05eU, 0xb64248803654f108U,
  0x37cc921a35b6e8c0U, 0xb77848f4b563b3c0U, 0xb721e75eb776f3e9U, 0x37cd511ab791f40aU,
  0x37a241a4378276e8U, 0x37d90b8eb659a9eaU, 0xb70380a3b78063bbU, 0xb5bc3010b63d19e8U,
  0xb76bf75d362b30b0U, 0xb75db39c37a71cceU, 0x36caf2eab5c4ec7cU, 0xb7da01dc378ddb24U,
  0xb736d20a37408a5eU, 0xb5a06c40b6d4c195U, 0x3777be1a3679d658U, 0xb707243f369ac663U,
  0x36b642ac347ae1c0U, 0x373c4d17b7bf9a3aU, 0x377cfade35b1347cU, 0xb7bd0b1ab7d00fccU,
  0x37573ddcb6ea77f0U, 0x36aead82360d78d4U, 0x35762214364b15d8U, 0x37417a0e3726b49dU,
  0xb630cda4370c405eU, 0x35568c0037789dc2U, 0xb76f4e9eb71c0029U, 0x35d5d1e8b51bac48U,
  0x3681f468b776a924U, 0x360d1846b785d0e0U, 0x37568ad136df2660U, 0x355c918036b8d63aU,
  0xb7ad0faf36b4294dU, 0x3786897e36e3a6e4U, 0x35a41ae0b79f3cf3U, 0xb78f46773685cc3cU,
  0xb6789568b6cc9874U, 0x37cc4083365efa80U, 0x35f8089037b3c4b7U, 0x370ee077368a6774U,
  0xb66d7180364bc01aU, 0x3665eee6b6e52b40U, 0xb636fb303741cd2dU, 0xb71fe13b3788bbb0U,
  0xb71410a4b693975aU, 0xb7443e54b6a8f460U, 0x3672be8eb7438090U, 0xb771a37cb7811676U,
  0x362ca1f0b72aa580U, 0x36d83288b7c72357U, 0x36f4a318b695c673U, 0xb5d9f290368e54aeU,
  0x375a81f7b7ddf216U, 0x36ccad1036b2323aU, 0xb7055aac35717fa0U, 0xb5e2e2083739f25aU,
  0xb72d2cc2359d171cU, 0xb75feb18b7c7434eU, 0x36b41beab6559b6aU, 0xb6f0aae1374151f0U,
  0xb74646ed37151ba8U, 0x3751de4c362bc7feU, 0xb4b1dfb03639d724U, 0xb71a39b8b76a45b4U,
  0xb65376f1b7377c06U, 0xb6ef2110b5b83800U, 0xb5cb7368b727bb76U, 0xb6a8edb2b550cec0U,
  0x3586e82835f590aeU, 0x375e9d80367d6daaU, 0xb48c2d28b6a7496cU, 0xb4628c503642fe29U,
  0xb7021dcfb74a9256U, 0x3765925a378b2060U, 0x3634198a36030cf0U, 0xb6eb0c243690b4c3U,
  0xb72430c33730fc1cU, 0xb699f628b7eb0510U, 0x366c5033b7917964U, 0x36c366fa3765f4d4U,
  0xb63ede50b76aba78U, 0x3789d09c3723c7bbU, 0x3682a516b68312b2U, 0xb783cfd037c442a2U,
  0xb6b67394b6e61181U, 0xb74e77aa3694077aU, 0x37464670b5aa3c6aU, 0xb5bcf130b72d4067U,
  0xb7a3e3d937a59ec4U, 0x3717cee635cfd266U, 0xb788bba2b55a8f50U, 0xb73f0212b7011104U,
  0xb7981e963715cb32U, 0xb69bf72836ee696eU, 0x37399b54371b8eecU, 0x373f75c2b734f991U,
  0x37134e6f37272a4cU, 0x3755cf28b7580271U, 0x36fdc9c0b711e2c1U, 0x3684e5a6b75962a2U,
  0x3763c99c3425a2e8U, 0xb66d489db6c9d78aU, 0xb7871de536c0e407U, 0xb79e5cd63746a736U,
  0xb6f6188c36f9b86eU, 0xb781cdc6372577e8U, 0x3601698b373333caU, 0x36c160aa36816c49U,
  0x37a11b14b75476f4U, 0xb57cc7f0b7bfb8c0U, 0xb626269035934930U, 0x351ce690b74616e4U,
  0xb736e23ab6bb33deU, 0xb7207f363660758eU, 0x3664bd91b6ec0c7aU, 0xb7819d003782a2feU,
  0x3799fe8e3629ca04U, 0x3724d9a8b7ce4752U, 0xb6e5031ab70c04a8U, 0xb698836b3727169cU,
  0x3669a4383712c85cU, 0xb5eadffab53f13e0U, 0xb767d5dbb711932dU, 0x36f2137c375111b2U,
  0xb4bf0a8036e16a14U, 0x3783dbd4b6302fd8U, 0x37ca8bc7b7838ee6U, 0x374b38d8b78ea38cU,
  0x365c82e6b7532878U, 0xb6b95bfeb7dd40ebU, 0xb6830508358abe60U, 0x378659fc36f57ffcU,
  0x379a51e636874488U, 0xb6c74f26b711c37aU, 0xb6d37e3ab67d8102U, 0x35731ee8b6570ae4U,
  0xb73f2bddb7678ba2U, 0xb710b3d1378993a3U, 0xb6ad41d2b73f7422U, 0x370839f03738503cU,
  0x3738ae60b74b6144U, 0xb793b8aab806c0a1U, 0xb656f81435e09008U, 0x36d60c0836d33984U,
  0x373e303437d3b38eU, 0xb7dddb4a37d43b69U, 0xb6a4782337811f7cU, 0xb65a92e6b80e8f18U,
  0xb756dc05370be8a0U, 0x37228c23b6be09eeU, 0xb732da18b6bdbfbaU, 0x362fa30ab7a19836U,
  0xb6de383337262374U, 0x372fac98b6d62882U, 0x37878a31b7ca511eU, 0x380e3512358e8d38U,
  0xb72e9cf33684c502U, 0x34a6e5f0b6f9956fU, 0xb6895fd3b6911b83U, 0xb5b3062cb7fd3c90U,
  0x3667baf8b580d359U, 0xb409f7c035829fc8U, 0xb6fcf91e36f6a792U, 0x371c4e283784e3a5U,
  0xb517a050371ef42aU, 0x37a4d41337561892U, 0x3755c144366e2a88U, 0xb6dfe4fbb73a4c8fU,
  0x37651802b787b26fU, 0xb68b289237bd04ceU, 0x37979934b731dc4eU, 0x355bc280b4ca9bb0U,
  0x3726635436ae2c3cU, 0x37d26f18b7be1284U, 0x37c58284b5fa9930U, 0xb7be11a7372fd55bU,
  0x377840c3b7437122U, 0x37514a3436a6a608U, 0x3738d4db37cee93fU, 0xb61ce0a236e1b030U,
  0xb71d9a8fb74306f4U, 0x37102edfb6f5083cU, 0x36858fd13684a028U, 0xb79ef0b436845f01U,
  0x37dde59db6b66b3cU, 0xb77b5f7b374ede61U, 0xb752976a378d336bU, 0xb701ad8cb7364783U,
  0x3617afd8b6115139U, 0x37aa49f2b7648f25U, 0x343572c0b6d11688U, 0x353398543797e5d1U,
  0xb71611d5b461ade4U, 0xb741fc8a3754e7f2U, 0xb60d3918b6017458U, 0x36bdbdc4b678e1deU,
  0x370a746bb7d8f8f6U, 0x378121c7b776f4fbU, 0xb71665c136ffcabaU, 0xb5958b80b819c4ddU,
  0xb761e7ceb73e2532U, 0x37e0f0b9b62481b4U, 0xb6e2c328b7546325U, 0xb4872b9cb54289d8U,
  0xb76a024436fa5c02U, 0x368a0c0a3646fcd4U, 0xb7053d98b76bcbf2U, 0x35f63f9837000c40U,
  0x3723377234745440U, 0xb743970ab56786e0U, 0xb6a2752836af415fU, 0xb75e856236544edcU,
  0x37260eacb6feb01aU, 0xb5f0598037065949U, 0x37dcfa52b569b76cU, 0xb73fa3f0b73e75f5U,
  0xb618a0a0b7cfcddeU, 0x3788908fb790a22eU, 0xb49f25c0b78c7d05U, 0x36c4bd3eb6bf3992U,
  0xb6c23986b7ae7e52U, 0x3745502035ab1a08U, 0xb6653658b7333adcU, 0x36f0f5e436655dc4U,
  0x37b64835b7f71e44U, 0x379b65f1b6e30726U, 0xb706c6ebb74ab104U, 0xb798fd1537104f76U,
  0xb6881df6362c6db0U, 0xb764444136d6a91bU, 0xb72863a5b6e3b626U, 0xb72815e4b5869ae0U,
  0xb6627d76b69fdf68U, 0x3738cfa037eded82U, 0x36b771273549053cU, 0x37137f17b73e787cU,
  0x368cfbb636ef597cU, 0xb745e04bb77c05c8U, 0xb5db7328371a5c8fU, 0x36f37c68375beeccU,
  0xb60f107a3708b484U, 0x369597f437dd7228U, 0x364b2f52b69b2a1cU, 0x367344fe3798ebdeU,
  0x378b919a37035316U, 0xb71212a2b6e05c9cU, 0xb70e174eb74487f0U, 0x3756be7c3755a5d2U,
  0x37bc0b7a37896216U, 0x36df96563680af14U, 0xb6867c2a36ad9fdeU, 0x34078d6036dc481cU,
  0x3669a470b701976eU, 0xb7de826fb5bc0a0aU, 0xb64fd3b4360534f7U, 0x37166e90377dcde8U,
  0xb694f1f43425baf0U, 0x3796175ab780cc96U, 0x3767919db6244ed8U, 0x3695ef1e3701e5ceU,
  0x341967a0361219d0U, 0xb7a02187b6b9792aU, 0x37d19e36b6bd813eU, 0xb605c8a3373a972bU,
  0xb38ffa80b720c574U, 0x3659d68cb75b10dbU, 0x332f8700b64acabcU, 0x3693c248376eb6a9U,
  0xb7442c26b708137aU, 0x3792e1c9b62cb458U, 0x36bd3022b787a79eU, 0xb7986ac03737f942U,
  0xb7473652b665a880U, 0x375d2a3eb5896cacU, 0x37225b4937b643c3U, 0x3617708ab6c4923aU,
  0xb78b655fb7ac79d2U, 0xb6b7e4feb7a452ceU, 0x37c049f23733c501U, 0xb785663033ba2e00U,
  0xb616a1f0b7b52552U, 0xb72c71cd36e0cc95U, 0xb5049098b38b93d0U, 0xb71cc33c368e4326U,
  0xb79be4153788457aU, 0x357ecb40b6f8f710U, 0x374265eeb78ff40eU, 0x3684a646b6a1a4feU,
  0x376fc8cf36d6bb09U, 0x3737b096b78dca5eU, 0x354e1888b7359242U, 0xb80f46bbb53fb650U,
  0xb71bd83eb78a3928U, 0x36897535b6ab6ae3U, 0xb71256c6b7839b92U, 0xb6e4235cb5a7ea94U,
  0xb75fdf263516dcc0U, 0xb73e289c35423470U, 0x373fdb8eb7fca9b8U, 0xb749f61cb7061766U,
  0xb617f578b5454a70U, 0xb6a111c236683ae8U, 0x378215c636f98519U, 0xb6d18baab7c0ed81U,
  0xb710696a37762d05U, 0xb7c52849b72a5aa6U, 0xb7a57c2ab697e4d5U, 0x3770b1acb6d13befU,
  0x37867493b6810781U, 0x349aa1c035241ae8U, 0xb74f42b8b61b752eU, 0xb6a20c77b70f8815U,
  0x35f533e8b68fdf6eU, 0x374a6064b6b0615cU, 0xb7a038a137a9baa4U, 0x37440340b7baf7ceU,
  0xb717f647b7d9a0d5U, 0x36b157aeb7631d7eU, 0x36b2e8cab777d1f4U, 0x375ee3c4361816a4U,
  0xb7f2be35366831fcU, 0x372b67ccb667d860U, 0xb69ef7feb6c86064U, 0xb6a48e1a374d5d96U,
  0xb68eeefa36cfd6d1U, 0xb7543e81b772b476U, 0xb6dd037f36ff96ccU, 0x36425eacb5ed3e38U,
  0xb785cabc373e6a00U, 0xb708552ab70b60d8U, 0xb509b3943768a92bU, 0xb797ea32b739c1ffU,
  0xb618583c36f5973bU, 0xb77d2691b7398ef2U, 0x366128a8b6eae2caU, 0xb6828012b7f34be7U,
  0xb7522fe0b70a8080U, 0xb6c4363ab7ac1d66U, 0xb7bddd9ab65acfa8U, 0xb78e5fe5b6190878U,
  0x374be0c0b675bf48U, 0x37890dfa3793d79aU, 0xb7804828b6ae87cdU, 0xb4fd9ca4b7b98e7bU,
  0x3727ccd837532dffU, 0xb70a9c38b7b63ac6U, 0x37bc547a36e11df2U, 0x3773ea3cb742a636U,
  0x37bf5d56b7557eadU, 0x379e775eb7c88ce6U, 0xb5c87668376042eeU, 0x3767e62fb6d813f3U,
  0x3603cc12b6fbf7caU, 0xb63cc54cb7a1d109U, 0x3672256636020968U, 0x34ab2b203678adaeU,
  0x3725f1c2b79c6874U, 0x375bdcfbb6b71208U, 0x368cc37bb789325eU, 0x37422b2b373aa52aU,
  0xb5f64488b79eb334U, 0x364a8bc8b68cc6c1U, 0xb70fde2136334e48U, 0xb69457c9b508b040U,
  0x37a40172b6e6e513U, 0xb73de34ab6aaf350U, 0x36917c16375a780fU, 0x35f5b69637368e3aU,
  0x37846d0135b80eeeU, 0xb72dfb6e33bf4c80U, 0xb718e5b636fa70a5U, 0xb6776c18b7bbe07eU,
  0xb760f010b6f0e16eU, 0xb80844bd3727cc7cU, 0x37b655e0358e7ad2U, 0xb78c0602b6e371b9U,
  0x36b5f15c376a8c72U, 0x365a0040b637d40cU, 0xb66ce29f36958306U, 0xb6576c10b7d3b08dU,
  0xb71f8eba376ef2aaU, 0xb5ec80b4b5176b70U, 0xb72072c1b6f7a486U, 0x37690d5ab7013a7eU,
  0x37858959b6ce3ff7U, 0x37318991372f90feU, 0x365db16036ca0d22U, 0xb797180236bc681aU,
  0x37a9b62436f85e21U, 0xb728a1163711f0deU, 0xb52b3fd8368edf62U, 0xb6c91312b7a8bac3U,
  0x360baaeeb70c8b64U, 0x35df37f0b5b57df8U, 0x37530737b7ad88dcU, 0x362483983542ef50U,
  0xb6c728a8b7786691U, 0x3640419cb55484c0U, 0xb787db08b70e7e28U, 0x3442b500b7833460U,
  0x373fd221b7d1629cU, 0x359ab0fc35ca6e48U, 0x374ac57836b2db5aU, 0x37026149b75e0c58U,
  0x35641208b74c439cU, 0x35839d1a37223c40U, 0x37c8a1e0b75b84a8U, 0x36300ceb370552c1U,
  0x37132c5eb7f785eeU, 0xb71de09ab716c448U, 0xb68d961e36f44f4eU, 0x3700e5c2b70fd816U,
  0x376d69f635f70220U, 0x379a2fa2b785e51cU, 0x353eca4cb833264aU, 0x379c254a3785804fU,
  0xb78beb1b35f6e430U, 0xb76ee1a4b7489e5eU, 0x36d1072036daa019U, 0xb64cdd063590a598U,
  0xb7a0a544b6aa8642U, 0xb66e3c1cb7613709U, 0xb6e91e5436c34feaU, 0xb53c47e8b787e5d2U,
  0x37530d0634233980U, 0x36605aa4372a0628U, 0x363971dc3778b312U, 0x3644a1c8b78beb94U,
  0x35916433b7067483U, 0x375e1e34b5f020e4U, 0xb755102337891680U, 0xb79519333786b3faU,
  0xb55f14d837c74cafU, 0xb68e49c038176126U, 0x3639bfc8b747d054U, 0xb7719ef937cd5e53U,
  0xb733e11636e4ff04U, 0x35d12440b61c9bceU, 0xb655fc1c36997f1cU, 0xb62b9c38352cb090U,
  0xb74599c837362da4U, 0x35f19cb837a5803aU, 0x37901961b5874f58U, 0xb7079eacb7601359U,
  0x3702228eb7b105a4U, 0x354b3d203781cc78U, 0xb6f39c0a36bb2af0U, 0xb7a02d00b6bffb73U,
  0x34a9f444357432f8U, 0x36abd84536858144U, 0x3735f8f037319184U, 0xb508c7c8361fbe80U,
  0x3637d8fcb64d50d0U, 0xb70c81cd370d7d57U, 0x36c9a077b7081ebeU, 0xb7281c52b57a9578U,
  0xb69e386c3719f195U, 0xb6ed566bb6a52722U, 0x3806d6e036cfeda4U, 0xb6f9415db7bcef14U,
  0x3784431d36e965e8U, 0xb74008dc36757334U, 0xb70c60f937714520U, 0x379071b2b6c89584U,
  0x35570474b5e25d94U, 0xb6065106b803ce5aU, 0xb5a5a874b794ac89U, 0x37843c3f370c9727U,
  0xb4bca548369cf81aU, 0xb6e997a53739c6aaU, 0x36e26f00b71fe325U, 0x37813fe6b74eed45U,
  0xb7725d9537250440U, 0xb6910e8a374df5efU, 0x36d5b05236bccb92U, 0x36742844b73a309aU,
  0xb708fde7b79915a8U, 0xb7249e6237b861c3U, 0xb54fe424b6df1c48U, 0xb73f4f8ab6a9e0d9U,
  0x36f9e06636019acfU, 0x374927bcb727901eU, 0xb671c8a8b678324bU, 0x3790650a37004e5eU,
  0xb742f987b6e31a9fU, 0xb7cb6f3637819c35U, 0x372161bb3585ecc8U, 0x376ddbdf368e8950U,
  0x3748736e374f9a9aU, 0xb73da930b6434074U, 0xb58afc95b7815640U, 0x359b3560b6c5e6e3U,
  0x370a20acb6f561afU, 0xb708bb86b739899bU, 0xb788f7a736146f60U, 0xb7113162b6091bebU,
  0xb706ba0536e3bd88U, 0xb629257c350c41ecU, 0x3602c070b6f9d674U, 0xb45b9550b631d196U,
  0x362fb2443749b878U, 0xb7a12137b704c51bU, 0x36f3dfb8b795352eU, 0xb5e7ae28b75887d5U,
  0x360a362837405a02U, 0xb7a0718a36527d7aU, 0x3720891336dbbe23U, 0x370daf79b770ca0aU,
  0xb739613737a654cfU, 0x372156bbb7389aa9U, 0xb6969138361298e0U, 0x3608b50237422877U,
  0xb78487dc35df7c80U, 0x35991ceeb5f2be42U, 0xb68538b036d253c8U, 0x373226e73776d94bU,
  0x3607fd1036d8d9bfU, 0x37c580f3b5a55b50U, 0xb45e90a034ab1190U, 0xb77793a3b641189fU,
  0xb61995843676c4a2U, 0x37af80823740a9dbU, 0x377ac229b70fb255U, 0x375d0a0b37ac0e65U,
  0xb78d2372b7516103U, 0x37020828b6de671bU, 0xb76ee676374414fbU, 0x36467d9a36a31f74U,
  0x372dcff8b6e74d59U, 0x36fde5ceb79fd4d4U, 0xb6922ab0b652dee0U, 0xb7404578b74bf42eU,
  0xb6c4bc08b7d1a334U, 0xb8197b243755e044U, 0x372ae4b6b6924e7cU, 0x34ae298036fd6523U,
  0xb6e47ab7b78881baU, 0xb788ec8eb7070414U, 0x3602ca10b6a9882eU, 0x35f4896a36b0bcedU,
  0x37714fdb3707810aU, 0x367cb6eb37e349cfU, 0x367dc560b6e8a483U, 0xb516edc037d27d6eU,
  0x36d26f603783674dU, 0xb7495ff6b6044538U, 0x3696fb2436c22b17U, 0x36d95e973766bcc5U,
  0xb715b0f9b6f723c6U, 0xb6121d7437c2e37dU, 0x3714cccd3714c093U, 0x37cdb2f73717dad5U,
  0x3792d764b6ed8528U, 0x33842880b38831c0U, 0x37319e2d350a0fe0U, 0x3761819f370f27e3U,
  0x34b3986036346eccU, 0x36521dd8b7673209U, 0x378f672f379a12e5U, 0x373c9d1836860f78U,
  0x3675b08836c6fc33U, 0x35b81fa037241374U, 0xb6057e18b75f8523U, 0xb73dd99f35d95518U,
  0xb72ddba3b81126cdU, 0xb4fde7803718115fU, 0x3734fa75b7d91edeU, 0xb6f361ccb7209d43U,
  0xb40062d0375cab4dU, 0xb7af3121b704ad59U, 0x374eacd937c98e80U, 0xb66c6f3ab72c6691U,
  0x35fe57d837044792U, 0x335739003775d8bcU, 0xb54c46b037e8c58fU, 0xb70c00d3b7415df4U,
  0xb6ed33c33725a249U, 0x35894798b809a630U, 0x374e2fd236cb1812U, 0xb693a3283783f5d6U,
  0xb7d6088b36c143fcU, 0x376f6d40b4c79a4cU, 0xb74d848db6cf570cU, 0x36cbae5237866070U,
  0xb771e91d376ae448U, 0xb6f02e42b48dc000U, 0x3593d098b767e3ccU, 0x3774985db510bee0U,
  0xb7003b4d36a142b5U, 0x36bd1653377e6e4dU, 0x374cf0b8b6b3cdb8U, 0x36cc30d6b68aa184U,
  0x3754637fb60a40b0U, 0x3645181fb7a2a6f4U, 0x360e175e3659fda8U, 0x3795891036efd909U,
  0xb754477a379ec29aU, 0x36ba8f30b74c8f05U, 0xb787bef236d72c0cU, 0x348b8fa8b776161eU,
  0x370a064636aab6a2U, 0xb689ba68b7728352U, 0xb632a6e8b75788c8U, 0x36a76a52b725583bU,
  0x365875e4b62a7d6bU, 0xb68166f1370f079bU, 0x36634e3036fa94e4U, 0xb750450bb71d928bU,
  0xb7a6093db7ceb632U, 0xb7af163a374b30c0U, 0x35d18e6036a31708U, 0xb78b27ca3759c6a5U,
  0xb74431053705d7faU, 0xb7433d55373ff5e5U, 0xb5f4c400b6b1c326U, 0x378b57f2b7474a96U,
  0x34814490b7656d54U, 0xb785d3e83738306cU, 0xb63072b036bb5e36U, 0x366b398137753afdU,
  0x370e144636d34108U, 0xb76981e5b7935bfaU, 0xb616c184b71d43a2U, 0x3224e5c0b7554519U,
  0xb5fc3d70364c03a9U, 0x372f7d2637db567cU, 0xb7a8828236cb0e36U, 0xb620d390360d8ca4U,
  0x3788820036a0637bU, 0xb5fbc8bc371b005fU, 0xb827a0f8368e291aU, 0x36809dac374fe52fU,
  0x3786d146374a8963U, 0xb753c4ae34e6ef80U, 0x37864ec53653f03eU, 0x37a53f5d378bac4cU,
  0xb7153c9b3705a656U, 0xb762a0a236c4f030U, 0xb73ca2b2b7004f0dU, 0x36ea8bd5b7b5817aU,
  0x36f63fb4b723361cU, 0x36e39896b73dbddcU, 0xb79bc730356b2270U, 0xb799adeeb7d68baaU,
  0xb6fff56ab68166c1U, 0x36ce4cccb6fce95cU, 0xb749f644379b63e7U, 0x3780fba637a94184U,
  0x36984cf7373ff24eU, 0x36a5e14cb6344fecU, 0x34b9c3c036fb7c2fU, 0xb6e9b142b74999b0U,
  0xb60b8d403728ffbeU, 0x370a8de4b70cf506U, 0xb7efc13a374647daU, 0x3535b8b03780abdcU,
  0xb7e2ec34376eea60U, 0x35c7700035765430U, 0xb7b2f131360c49ccU, 0xb69fbe4bb812719cU,
  0x36ccf55eb726b5e4U, 0xb742e72e36e79365U, 0xb625c8b436d4b3fbU, 0x37501830b743315cU,
  0x379cf876370c5b9eU, 0xb63fec9db79f261dU, 0xb636fc40b5a9ed10U, 0x355c88e0b66de652U,
  0xb7b4ab92b7268799U, 0xb7ba05d6b6ad814fU, 0xb776833b36f31671U, 0xb52f04e4b629971eU,
  0xb739605db7d6f20dU, 0xb77a9cbc369028aaU, 0x37b540b83796c3ecU, 0xb71908d2353427bcU,
  0xb781b07bb68b518cU, 0xb79ab574b70850caU, 0xb75a235a365efe6eU, 0x36ffee66b6914974U,
  0x371b5fa8b74d3d60U, 0x35dcbb78b7f9fe48U, 0x369c33f637a3fc54U, 0xb6ff018a37396e44U,
  0x36ea5f22366956f0U, 0xb5daf7a0b727f7bcU, 0xb6b02fbd36f7e796U, 0xb5981050b6ecf8a1U,
  0x358c3b6c36ceaaceU, 0xb620f2f4b7438b4dU, 0xb73b4975b7133de5U, 0x36a3c84db66046c9U,
  0x36bdb5a9b6d59c20U, 0xb7661a08b7221b76U, 0xb5b01dd4b775a4f2U, 0xb7832e6636a52a82U,
  0xb2cbafc0b572ad30U, 0x35f2f2e638077acfU, 0xb6025cfb36eb76a8U, 0x3704bc9a376e29b4U,
  0xb71e558e37884f52U, 0x37d70388b5bc73b4U, 0x36e61414b6f85ab4U, 0x37873e34b7dedcb6U,
  0xb6c2a2bcb7551f0bU, 0xb710bb36372b8b93U, 0xb791395fb61140bcU, 0xb773b2893785ab87U,
  0xb787dcb3b78aeb12U, 0xb6df00f4b7138b05U, 0x37899d0036589be2U, 0xb524d6f034ae3d90U,
  0x36cd901db6bc8947U, 0xb6b72b6c37022beaU, 0xb756ae80b65d1ff8U, 0xb74f2ee1b6aa82a6U,
  0xb62b7322379d11e1U, 0x3638ebcbb7add757U, 0x3678d4c6b70654fdU, 0x3734899e36824de1U,
  0x373895cb36f4a6faU, 0x34931340378adc1cU, 0x36d34f16b71362faU, 0xb676fad437d31652U,
  0x370ac52e3640525fU, 0x37ab9464377f7e49U, 0xb7263352b74fd0a1U, 0xb6c88b9037d29af4U,
  0x373e2d0e364eed8cU, 0xb62c479037c91cb2U, 0x368436a4b79070a5U, 0x3745035a379433d6U,
  0xb704d47c37530212U, 0x37d09eb8369cd973U, 0xb69dc28435ed6118U, 0x36b75f8ab723bc69U,
  0x37bedf8eb7249bf2U, 0x37de30283779172cU, 0x3760f74436d6f06eU, 0x370c063a3745d628U,
  0xb772060fb74eee97U, 0xb73642e036eb0c17U, 0xb70568b6367f40e5U, 0xb789eff33652fca9U,
  0xb7d2f846b7848b0eU, 0xb6fa0fac36b7aea0U, 0xb764b11236b0ad26U, 0xb600f6bab5d3a5a8U,
  0x37030f1437c0a071U, 0x3783cf3237a33670U, 0xb587bd48b68bb1f1U, 0xb6a5f313b6bb729aU,
  0x36b67197b731fbd2U, 0x34a86618b7b64582U, 0x36b0865c3593c04cU, 0xb74fbd7236f17e5eU,
  0xb6d295be370950bcU, 0xb753b7e2b6a12405U, 0x36dcd1be36dd52acU, 0xb6fc4f02b6e7d3bcU,
  0xb7221af6350374f6U, 0x375d774937433254U, 0x36e9ca71b7072449U, 0x367189f8b7502cb9U,
  0x376dd7fc36cb7be6U, 0x374ef70e36163fd2U, 0x37bd948eb6d6b6a4U, 0xb6913100b788e8c6U,
  0xb696ec2c376a86faU, 0xb684ead8b705c4f0U, 0xb6d6e9ee36ed73f8U, 0x36b4624cb7dd45fcU,
  0xb7cf392db5b70e72U, 0x373d2f0cb66f18c4U, 0xb6f32a07b6cbb5a0U, 0x36b6e40c3730abc2U,
  0x370c6b6eb6b98448U, 0x36e472e1b76a5e77U, 0xb74b1efa3755a822U, 0x36fcca2e35861530U,
  0xb692fe5037361e58U, 0x373e68343719b941U, 0x36120df8b7bd0b62U, 0xb6496434b75fcf98U,
  0xb69b8c7d36479181U, 0xb72a002eb7277f5aU, 0x373a93963757c0d5U, 0x36df626eb5a73f14U,
  0xb66939903704885dU, 0xb4e16680b700cd17U, 0xb6b34c0a370a904eU, 0xb697e4c23717f912U,
  0x3756ca8f37b6592eU, 0xb6f322beb72351b6U, 0xb52e3370b775d008U, 0x37078904b65e5f50U,
  0xb6effa62374ead27U, 0xb5f2fd9c379df030U, 0x3799f1fa37835b9dU, 0x3750c066b64df4f4U,
  0xb49f9bc0b70ee19cU, 0xb705e30e375460e2U, 0xb673620e34b192a0U, 0xb67f53a2378b6190U,
  0xb77bc25db41a3600U, 0xb65efd44b6ca74d8U, 0xb731bd08b59d03f8U, 0x370728a6b6a2062cU,
  0xb5fbc11037c951d0U, 0xb74f27e6b65bb91eU, 0x36d0ac1cb7c78b1eU, 0xb71643053711a15dU,
  0x378daf09b7b2b5bcU, 0xb6ce2cbe3718c816U, 0x3748d2343695f425U, 0xb7009111b5facfa8U,
  0xb6e38dacb68540f6U, 0xb70e656336925928U, 0x379bf85336d83901U, 0xb76fca70b51fe03cU,
  0xb743f864b76e716dU, 0x37211b66369a34efU, 0x37d9b4beb7d94750U, 0x36c85e1ab59a58f0U,
  0x350cd8e0b7ade07bU, 0x36b2014c37041e32U, 0xb763c1a8b41dd120U, 0x36b6c59eb6dbae9fU,
  0xb68f6061b76e7f25U, 0x37406f8f361e12bcU, 0xb63bb968b7545c45U, 0xb6ec4350b74a2cf0U,
  0x33d9d6c0b62d5e00U, 0xb78299e2b6b3e3f4U, 0x355e6df8b6f74572U, 0x36384144b7bdfe20U,
  0x36b6398c371faa40U, 0xb5ff9160b56e3de8U, 0xb7a446c4b733f060U, 0xb716cff1b766e14eU,
  0x3784c15a37803d9eU, 0x37067454b6376392U, 0x3428fba0b4f4bdb8U, 0xb780b18cb6c31733U,
  0x36abb03836a4983fU, 0xb71a882e37904451U, 0x36cfa04436f4fac6U, 0xb72f27d636b60cf4U,
  0xb6e2bfb2b7075632U, 0xb68f528c364b39f8U, 0x368ec57bb693cb9dU, 0x3790f752b70e6810U,
  0x37622e96b74721aeU, 0x34e5ee60b65fb150U, 0xb72577a4b6fad840U, 0xb5135a803742c570U,
  0x3754e942b5bd4cd2U, 0xb7a7499d3782cd87U, 0x3722ec18b7bea858U, 0xb755ccc1358924e0U,
  0x37bb725eb7436e34U, 0xb2d09300370ce84cU, 0xb62eb176b73e7ef8U, 0xb584f14037286416U,
  0x37041efa37b855faU, 0x362950c6368065d8U, 0x35bdd55cb61eac3cU, 0xb73105f4374b9df3U,
  0x37377fffb75174bdU, 0xb680250f36792eeaU, 0xb686a52cb6ad968eU, 0xb68ba4f6b5ea5e69U,
  0x36069454b5a9c208U, 0x365328cf34be47a0U, 0x3603ff94b7889e24U, 0x3668a286b70e02eeU,
  0x360f3e4db6326fd0U, 0xb70347483767f2dcU, 0x37b1aeebb673aa38U, 0x3617ad04b5c84860U,
  0x36ac4e5437916adaU, 0x36f86402373179a4U, 0x38032c5c3721b284U, 0x378dffa1b5c86fa8U,
  0x3787ddc1b80151d9U, 0xb772c06cb61c33a6U, 0x3730e132b6a4fbe2U, 0x373fad63b6815944U,
  0x36bcc9ac35b77f72U, 0x371b5d6636304220U, 0xb711f538b552d3f8U, 0x3735cecb378b630dU,
  0x3743db1ab75489c1U, 0x354a31a8b63ec974U, 0x36eeff26b7997c28U, 0xb68f5fb2b56c7c44U,
  0xb6727fbcb6cd2efcU, 0xb4e1c020b74e01feU, 0x371855e0376cec00U, 0x359c553ab628f834U,
  0xb6ec9504b74dfa4fU, 0xb6cbb17bb6df400fU, 0x35f179fc36f6ec7cU, 0xb7105c03b673a157U,
  0x36ea5b7ab76f98c8U, 0xb744112bb7553c02U, 0x3725a04c36c8e90eU, 0xb7c593ba36f66e6eU,
  0x38069f63b6b0dbaeU, 0xb660d03836d499c9U, 0x34d6c040b736036cU, 0xb74267fab71085e6U,
  0xb796a63a37c0e96bU, 0x379b2f473731df95U, 0x36a0506536f2f94fU, 0xb70f8db1b7445f4cU,
  0xb70fe75cb7909da2U, 0xb73bbe88b6b2a504U, 0x3708a18536b78c1eU, 0x3668c5f0b713794eU,
  0x36e70586377f5296U, 0xb5f9e00cb67ef9beU, 0xb7b2ee1736172df7U, 0xb4b86060372b7c45U,
  0xb74cb3b637f7f286U, 0xb6d105173602814fU, 0xb7a4f21bb72a5473U, 0x36d86695b7448167U,
  0x37ad2d5eb624a8e0U, 0xb6b14000b6e2df1cU, 0x369a8c49372949b7U, 0xb6c9a21c36e3d400U,
  0xb7a17adc36a73a58U, 0x36167e3834b0baa0U, 0x3527cdd8b793c4a1U, 0x36c8baffb67edbc0U,
  0xb706c8f6b78389d4U, 0xb817e574373bfb63U, 0xb79d24a3376f5274U, 0x3780088236f7f9f2U,
  0xb75a61b1b7281b43U, 0x367b851c369fc57bU, 0xb79373f93732491cU, 0x376716a8b771e59fU,
  0xb7b8d1d6b74ac6acU, 0xb5c3f1a8b66a0ce3U, 0x379aed483611f491U, 0xb7d8355037674d46U,
  0x37748866375d80adU, 0x37a4b51637026851U, 0x365960ec381fae1aU, 0xb6d150c035d9d71cU,
  0x372f6b29b7b6cfc6U, 0xb5f8e0d03782354cU, 0xb75b81e436f1f0fdU, 0x361a6734b6dfbe68U,
  0x36ca683e35efbc30U, 0x352e724035d52540U, 0x368f0ff03712bc2fU, 0xb63fccf63737deb0U,
  0xb783ad9db6d81cd4U, 0x37546cef36cf663cU, 0xb78d81743528c728U, 0x36c7c51a368773e6U,
  0xb5d79e86b705395dU, 0xb5120649373ee83cU, 0xb61919bf3790c725U, 0xb4a6a144b7b0b6cfU,
  0x370e294f37123f4eU, 0x36c05747359cff38U, 0xb79c7c1837c3ef7bU, 0xb3b2f340b74c4639U,
  0x3774e1dc367222f8U, 0xb58c3650b70d2850U, 0x36b140d1b763a0b7U, 0xb7aa469d3756c002U,
  0x3717c2ddb37b7d40U, 0x365ffb3cb78aa038U, 0x375a8fcfb78006acU, 0xb59b190e371dda8eU,
  0x37782078b4a7ed48U, 0x373ebaccb510eb40U, 0x3758aa3ab77d053fU, 0xb79b5d6cb41be900U,
  0x37c22150b7430524U, 0x36a267cab68230f7U, 0x374f23703789ee41U, 0xb78775023747d141U,
  0xb6d207703743ac4cU, 0xb7d464063656ef34U, 0x340c5d58b6ea4c71U, 0x371fe3e6b76f4618U,
  0xb7501f2e36694cb6U, 0x37ac1472b705feb5U, 0xb7632e5c354b5c51U, 0x3790f18237b24ae4U,
  0xb7068e1537229157U, 0x374dd3c8368dc38aU, 0x3780d1dcb430b480U, 0xb71d84a7b7ad31daU,
  0xb3fb2520b6d0c1d2U, 0xb75340eb373cc9b0U, 0x36d3018cb6aeae63U, 0xb624b5b0365c4fa0U,
  0xb6c798bb373cea1aU, 0xb6a01ca4b7123203U, 0xb6526068b4ac0e60U, 0xb75072cd3743c2ceU,
  0x36907ee4b68ed9b8U, 0xb74253dbb76dee59U, 0x36529ccab7838ba6U, 0xb77bd78837476b37U,
  0x3742a6363742e566U, 0xb730c919b79cc908U, 0xb73442c5b6e0c1ecU, 0x372dca72b6a3a767U,
  0xb704c1433725519dU, 0xb6b0a71eb50eb6b0U, 0x33ea8b4036f0b5dfU, 0x37891741b7700a5eU,
  0x3630642eb76e76f4U, 0x34a58d08375c0122U, 0x35621968375db380U, 0x36490acdb5ac1894U,
  0xb52f3730b5e38814U, 0xb7ddfde436f7c5c6U, 0x37967b4636ea8219U, 0x375fd3fc361939bcU,
  0xb45badc03797c4d6U, 0xb674d68036e622baU, 0xb767b71fb7add8d2U, 0xb6e38939b6dfd3bcU,
  0x358de25036f5ed58U, 0x3805636837bffe68U, 0x374c3eec358c4d14U, 0xb73fe5ecb748a39eU,
  0x3677ea0237d1a013U, 0x36c6dcc1b609bac2U, 0xb6960b38367cb46aU, 0x359960ccb606e76bU,
  0x361991b0b6a4d45eU, 0xb681fbe1372f90eaU, 0xb760a9d2b75a67e6U, 0xb746b122b5cc4c87U,
  0xb6fe86c2b6c26a09U, 0xb5151830b5e0d142U, 0x37031b53359cbcb8U, 0x37a665af37248a36U,
  0xb536e260b4590e80U, 0x3712468b37395d9fU, 0xb772ef8836e3d96dU, 0xb6507ce2b762e3a4U,
  0x37539830b6b4e32cU, 0xb60fea52375806d1U, 0x33e32a00b58b8498U, 0xb6abdd18b7c4a146U,
  0x37a8ee18b6c2f688U, 0xb4742f60b69d3247U, 0x37625c6837e5eb73U, 0x3728a4e8b6c41e42U,
  0x36c1ebb837004d63U, 0xb664b65836bc9888U, 0x37787e87b6ffb6ccU, 0xb61471d2371333b5U,
  0x35444eb037bf4778U, 0xb735bdf237b20b3cU, 0xb752be44b680ab6cU, 0x377d20913688c362U,
  0xb612e3d8372e6a74U, 0x3757f6f4b6d84747U, 0x370178c5b7297bdeU, 0x36b3d47cb614b2a8U,
  0x371f9e35378450d2U, 0x36e06cce363c1a0cU, 0x369678ccb794f2caU, 0xb70cbf55373fd426U,
  0x37937cd235b88e50U, 0x377e29c0378b74d0U, 0x35935138b731f8daU, 0x35231e10b7167dd6U,
  0xb78f5e9437c80d2cU, 0x3725a0323694eb12U, 0x3626d5ccb345b000U, 0xb6c459e53741eb60U,
  0x374e850b354f2b48U, 0x34ea5b20b72ff6dfU, 0x3714982a3751b03cU, 0x3755da08b6d9da55U,
  0xb7bc644c36297f18U, 0xb68f2d54b698b9e9U, 0x3607dda6364a1174U, 0xb646bd48367d7250U,
  0xb67549b8b7c0f31cU, 0xb6fa649f374edc45U, 0x35b6b06034adbc30U, 0x3500d0d0b780e2dcU,
  0x3740fdcc36831c10U, 0xb6182aa5b762a3ceU, 0x370896acb72aea11U, 0xb73ce9aeb77136d5U,
  0xb753c5f8b72e61ffU, 0x372c8241b741c830U, 0x36b642a836cd0bc2U, 0x379bc115373b4972U,
  0xb660ac78b6cdfab9U, 0xb7c77775b635e2c1U, 0x374067fa3729c53cU, 0xb75d0036b6373374U,
  0xb71fe6aab809224bU, 0xb692df6f36542162U, 0x34f5a7e0379222d0U, 0x3676044035883632U,
  0xb81fc65837d2a78eU, 0xb59267d832caf5a0U, 0xb69272c4373d0afbU, 0x3698f570b6153330U,
  0x37866fb0350f4e80U, 0x36ad40f8378ba1b2U, 0xb6ccf03eb49af760U, 0x32833000b700c84eU,
  0x3737939db7300a4bU, 0xb69ea716368514feU, 0x369395bc36f9add4U, 0xb60e303c3686e04bU,
  0x36ced8d136a7c469U, 0x371b6a053706b5acU, 0x36aab99a36a8c0baU, 0x36422b1cb7db293eU,
  0xb6c0886936420134U, 0x36878130b598dc98U, 0x370c79eeb5696650U, 0xb7c5c209372b5615U,
  0xb56edb38b6830dceU, 0xb773a91eb7591b59U, 0x36eb230fb7879e29U, 0x36f3531db6f7836bU,
  0x3721d17fb6604f28U, 0x365d89743705ccacU, 0x3612cb4437c8d0abU, 0xb72999beb76941d5U,
  0x3749741236da9568U, 0x37dcbf36b74ea156U, 0xb645ee2cb7116993U, 0xb6ffd64f36e14edcU,
  0x37414cc8b6874714U, 0x369ada39b7246ad9U, 0xb6dd3806b6bcbd00U, 0xb7196ec236bf2b80U,
  0x3603c59cb73b1794U, 0x372b86593779d05aU, 0xb6d913dbb6161510U, 0x37903766b7278360U,
  0x36fd125736f1fb98U, 0x37616bf9b4d6d620U, 0xb7f8dba3b6c4249aU, 0xb82b79af3667a355U,
  0x362e8da936eb40c8U, 0x36c4de633734091cU, 0xb74d5f0435516740U, 0xb70bc67bb7cc7b8cU,
  0x37845ef737019561U, 0x378a507cb5404b64U, 0x37765f24b6b6c72aU, 0xb6922807378297a2U,
  0x3740259e3756ee92U, 0xb7223e8cb6e73faaU, 0x36f8efaab67b21bcU, 0xb6e86d9c373a7d6eU,
  0x37639762361fcb54U, 0xb349f6e037193040U, 0xb6e42706371af67eU, 0x378ce4b2b70fb1b1U,
  0x377c071837939966U, 0xb6489bbc371fd33fU, 0x3705ab3e3664414eU, 0x36a1094a349dd490U,
  0x348e27b0b6264bd8U, 0xb636ff4cb6a6502cU, 0xb6337b2236ff53c8U, 0xb7802e0a36ec494eU,
  0x37875a66375448a8U, 0x3603a774364d5bc8U, 0xb5da8c7437b9b3f6U, 0x35f8a1a03736552bU,
  0x3695ff38b3dedaa0U, 0xb704b5c037493288U, 0xb70610f2b6f5b592U, 0xb71299b437041614U,
  0x36a95ee0b761255aU, 0xb68224ec37bb3a0bU, 0xb731d95e374989aeU, 0xb5cb96b8370c0529U,
  0xb5aaf3f0b73b37dbU, 0x35fa893836fa8adfU, 0x36a34575b6eb8d7aU, 0x3730b16cb7d0d954U,
  0xb6d6652eb7057069U, 0xb5cb31b83690ab88U, 0x35c53e50b7cc912dU, 0x375d1cbd378880e0U,
  0xb5b50520b78a40beU, 0xb7082c1e368604a9U, 0xb71b3b963729487aU, 0x367aa2cdb62c4904U,
  0x3716f618b680e573U, 0xb635a30a3718350cU, 0xb74fd70db73d2cecU, 0x370e31bd37102c1aU,
  0x35a84eac3645eb16U, 0xb649b360370e421dU, 0x37debb5836a7248eU, 0x37ced8dfb63cfb73U,
  0xb736cb403725606cU, 0xb70f35d8b713d407U, 0x3713ea1537a5bafbU, 0x378b1f6c361ce414U,
  0x37c63225b634d5e4U, 0x36d7d7d8b5ca1a60U, 0xb7583e67369f182fU, 0xb5a78560b817c4d9U,
  0xb754ab3c36b04aa0U, 0xb750d882b508d874U, 0xb6e2036c370c2b7cU, 0x3753c9c8b452d1a0U,
  0x370442fab6f9b347U, 0xb63adc3d378ece8cU, 0x3696b219b7bfeaf4U, 0xb7d39eb6361c88edU,
  0x372f31c1b5ba2e80U, 0x36fa5a22371ddde2U, 0x3646351e36fff99aU, 0xb412038036fb1cd5U,
  0x37415842b70ff185U, 0xb4a074d036695a3bU, 0xb50b134837388694U, 0x37d2a83c3755c853U,
  0x3534fed0b5c4f580U, 0xb7118351b6f50fd9U, 0xb7076056b70563e4U, 0xb6cadb44372eeb60U,
  0x37cc9c54b74f6f05U, 0xb73c788737018a25U, 0x37488b433739169dU, 0x36519df3378e6c06U,
  0xb7b65851b654a47dU, 0x364a30f4373d9166U, 0x36dbe5bab76c16b3U, 0x365cd7c435eaf870U,
  0xb65aea00b7ada90cU, 0xb7182b4ab64afad0U, 0x3692c70eb7394847U, 0x36eb7ea2b72f326bU,
  0x36427c60b7364a5aU, 0x362805da37d9ad24U, 0xb55ad42a35109880U, 0xb7a15173b721c6b8U,
  0xb6b71f90b6d9f322U, 0x37ee2d70b627ef8dU, 0xb82b5ca2b697c43aU, 0xb5f2efa8b69dd762U,
  0xb5f12af433e072d0U, 0xb75ef97a3702dafdU, 0xb69925eab6d84d74U, 0x380f26b6b7b18f5cU,
  0x374107f4b780dc9eU, 0x368eb0cdb6eb62e6U, 0xb6b488ee368d9aa2U, 0xb7035f68365b2870U,
  0xb6a46024b7040b41U, 0xb7c80399b724a354U, 0x37ddff75b74423b0U, 0x3736214a36d64c7eU,
  0xb561fcf036d8ed50U, 0xb70bc119370d4e2fU, 0xb74dbfe6b742d83cU, 0x3796543d3606f4d0U,
  0x37098cbab6d001d7U, 0x377b5adab76f6ea0U, 0xb5e0857b365cdbb4U, 0xb7765a2e372132c2U,
  0x3741813837749035U, 0x36b1ebe8350b2460U, 0xb6afb6feb6437578U, 0xb5de8310375e3b15U,
  0xb6ffabfdb7472b9dU, 0x3590ccb8b76e208eU, 0x3689821cb77c1fb9U, 0x364ddba0b6951732U,
  0xb74e2c58b659a3fcU, 0xb7521118b6c760ccU, 0xb6be2cdab278e000U, 0xb745989436eb7005U,
  0x37ec341637c8dbfaU, 0x378f50d336697088U, 0x37ce0388b7e17136U, 0xb5bdf5b0b72ab48fU,
  0x33a27e0037650c39U, 0x36fbae72b744b07dU, 0xb797151437a009bbU, 0xb760a263354180e0U,
  0xb790ee25b78700a9U, 0x36625ce4b514f120U, 0xb790fa8c368095f0U, 0x35c285e6b69e9f50U,
  0xb76a5648b76b62b4U, 0xb70015a5b6be78adU, 0x36a3e92437437f10U, 0x38203c6c3666f944U,
  0xb59acbb836c48f32U, 0x370c5247b6cf78e2U, 0xb7597713b7440177U, 0x3511f250b7321d6cU,
  0x371153bc3651783fU, 0x3760ad9f37091bd2U, 0x36cf4f0ab62689a0U, 0x36f8cdc2b7046c88U,
  0x37385685b67cfd30U, 0xb712859cb7803e08U, 0x36d9bc6836b0d48bU, 0xb72c08603714d1f8U,
  0xb6f4fa3b371226feU, 0xb766876fb6d6f7f4U, 0x370f1d9735d17330U, 0xb745b1f3b7c82802U,
  0xb5add998b72006ecU, 0xb678ea62375691f5U, 0x3461cf80b75e2a75U, 0xb4d598c83655950cU,
  0x371ad4d9b73f52a0U, 0x38062e38b7629140U, 0xb6a1402eb791cf76U, 0x3762a3d5374c9a9fU,
  0x361ad588b6e0f624U, 0x35535bd036f3fac8U, 0x370c53d234ddd6a0U, 0x3736f95436e46b7bU,
  0xb6576920b7a7ceceU, 0x36ede2e0b701466eU, 0x3705424eb77afe27U, 0x36d57e2e36e0a0e8U,
  0xb70f425a372901d2U, 0x36860c0336f3b06bU, 0x375f0988b6851c2eU, 0x36c3941837c15aa2U,
  0xb76e4c20b6df4f74U, 0xb642a4b0b75fb0d3U, 0x369e0c4cb6dfc61cU, 0x3736d018b72ba6eeU,
  0x35e2951c362eead3U, 0xb746cc30b746b0b2U, 0x372ca5ec379d99c4U, 0x37202f3b36854478U,
  0x359c02343781ab3eU, 0xb28ce000370c5a7dU, 0xb7270e86b63569a8U, 0x36089f34b52ee338U,
  0x360580cd3648da0dU, 0x3647643eb759ffc0U, 0x36f05241b6c7ae78U, 0xb6a6ad54b78620f4U,
  0xb69923d836605894U, 0x35643b78b4a04a80U, 0xb6a498dbb679b156U, 0xb6ec1efab74904a8U,
  0xb6b8d1fdb6baa3beU, 0xb7c0cf3f36035acfU, 0x374c7392b6a5b546U, 0xb7d7c318b7330f94U,
  0x3649d792b701eb82U, 0xb61f667cb7cc99a8U, 0x35a56bf0b7533225U, 0xb5c4fdbeb6b5dad4U,
  0x3798571836a0ac67U, 0xb665fc4ab632143aU, 0x363eb048365df8b0U, 0x36e6268d377060c0U,
  0x3774b8e6b6fd1cbeU, 0x3716f7a4b713e938U, 0xb70a571b3705e046U, 0x37931100b706c75eU,
  0xb733be2037304710U, 0x3674ceb93782580bU, 0xb4983022355de5a0U, 0xb75132a837bbcfd1U,
  0xb7994b86354851d8U, 0xb6a10984b74b46acU, 0xb743701eb69feae7U, 0xb78b390f3757f5f0U,
  0x3710b0d237856ea6U, 0x376cf5cdb73415c1U, 0xb7266fd436963f81U, 0xb71531ba372cf141U,
  0xb7379d673829f520U, 0x36edd47cb7bb1611U, 0x374686e2b6e547e4U, 0xb6b8f6b2b70af6bfU,
  0xb7bcef49b65d7290U, 0x35b74a28b5797e08U, 0x36e33c0a37c612f6U, 0xb41a8248b51f9b60U,
  0x37bc77d536bc0ab0U, 0x3702aeed36062ee8U, 0xb7639b6e368a5154U, 0xb32bfc003724dd9cU,
  0x375a7bb6b3bf6700U, 0xb7dbea7437a68f00U, 0x378f7cfab7c4f896U, 0x3718510bb6a8b367U,
  0x3744cfd636e44486U, 0xb5c8e867b6e953a5U, 0x368244f4b46c6a38U, 0x36fc12363540d670U,
  0x377f74f7b61bf348U, 0x3727af3db7705048U, 0x3715d99c37665eeeU, 0x36dd7d4437b55636U,
  0xb72abe05368d9346U, 0xb7a4d178b51deb30U, 0x36b763bcb71860c2U, 0x375ea2b136cf8644U,
  0x36c9ba73379de612U, 0xb7a4931eb71991aeU, 0xb7577aa7b7566c51U, 0xb76477be3716ba6bU,
  0xb636e64cb69b628aU, 0xb6fadc9037657eb6U, 0x36dee960b718dd82U, 0xb71b3d1eb7095031U,
  0xb704aeb337a92803U, 0x3735e47db78c178cU, 0xb6e80020b77920c5U, 0x3755ef6cb6ff8606U,
  0xb70a538db72100aeU, 0xb707bd9936669b50U, 0x3796059637f07f29U, 0x37081fe0b54b15a0U,
  0xb6bd5b21b7065896U, 0xb57731f4b6094a32U, 0x3799c685b68bcb31U, 0x378692c937cbd6a8U,
  0x340bbf00373b736aU, 0xb57d9fc2b7db6a63U, 0x37027865b6aa1a7aU, 0xb72949e337ba63c2U,
  0x37707cbdb59afe40U, 0x3602cf8c36ec4e9cU, 0x366ecdbcb68a23acU, 0x373c506f376ae74eU,
  0x376bca6836fbc4fbU, 0x36715c74b5a71a58U, 0x377fb514b7739feeU, 0x36d1483e3719c0eeU,
  0x36c24f18b604f8d2U, 0xb7498d6bb75b6b68U, 0x37aa1998b6df9d6dU, 0x36b9cb24374fc51fU,
  0x36770a70358b0250U, 0xb72efdc4b73563cbU, 0x365cf4f3b7d686beU, 0xb6eb446237c6b1b3U,
  0xb72eb84236ee9753U, 0x37d1a07d36ca0674U, 0x36e9aaa636f2a087U, 0x37d20b22b77dca6aU,
  0xb785687ab51b8ff9U, 0x3694b85fb7512eadU, 0xb6450bc036dd01a7U, 0xb6e260e537930d4aU,
  0x378937e5b78da1daU, 0xb73dda2eb6dee54dU, 0xb5ce1bb83599d670U, 0x34b95f3036d65bbcU,
  0xb7f35615b6b4032cU, 0x36bafb21b8132bf7U, 0xb6054cde37d77e26U, 0x3742e526374f7657U,
  0x3702cf4e36861c24U, 0xb76aa8c7b75398f4U, 0xb784aaf2378bdd9cU, 0x3719595e36b17185U,
  0x36ad897fb7954b85U, 0x362b1ec436927368U, 0x3722427fb7250edcU, 0x3705c404b7819820U,
  0x36ae82f0366ae2f4U, 0xb27d4300b691d18fU, 0x371dc9e736836827U, 0xb75bf934b7491624U,
  0x36fd08ea36ea91d5U, 0xb6ebeb6cb6964d82U, 0xb6b757f3371b75c5U, 0x37656f34b75a5923U,
  0xb78c9fea373e796cU, 0xb68da05c3786c741U, 0xb652c9acb6e075d6U, 0xb7122bff37a195dfU,
  0x36158e2eb73dcc64U, 0x37358174b53a8010U, 0x37311f673737819cU, 0xb702a74cb72bafb4U,
  0x37bf7336374986aeU, 0xb565de10b6a3f162U, 0x379519bab61a67daU, 0xb6f18e4c37d2b404U,
  0xb629f310b7d9db80U, 0x35aebba03759bd86U, 0x36ffebd2371ab889U, 0xb6312c3336b2cbbaU,
  0x36aa0219b764ef75U, 0xb7808ad83753590fU, 0xb6778a84b65599a8U, 0xb758bf5f378149f0U,
  0x3716b31836b163a4U, 0xb7c3201cb62efe34U, 0xb74c09db3788e1feU, 0xb5fd6e40373bcc9bU,
  0x37180e91b702de48U, 0x3745d6f9b752671aU, 0x3717e51bb6979b1fU, 0x37c5ed5134a65a20U,
  0x363aec8cb6de4301U, 0x37bfc2fe36445b16U, 0x376ea5feb55d7780U, 0x35d13ab0b74d69dcU,
  0xb602db1c37135d23U, 0xb648c6d436e915acU, 0xb599cf98368d0d5fU, 0xb772948036b73722U,
  0xb6d8b51036eee6b5U, 0xb790dc81b746964eU, 0x37db64d0b6e2f4c4U, 0x36b4f87c35a54730U,
  0xb6576f08360b6efeU, 0x373fa3a13781decaU, 0x37d65a58374fbc00U, 0xb6fac930b64b4f82U,
  0x36f0a79eb544fe10U, 0x36936200b6e1afb3U, 0xb76d3f2eb7063050U, 0x379a076a36731120U,
  0xb5e1ea70b551eee0U, 0xb6e716f0b73ff576U, 0xb711c1acb700d386U, 0xb78ebc3836ddb50eU,
  0x33840820b65e4af0U, 0xb72e1b6a35e5f4eeU, 0x378f2f69b6c796dfU, 0x36d6ece0b75f9212U,
  0xb79133883544b380U, 0xb5c890a03732513aU, 0xb711429836531d45U, 0xb6448a16b772b3c4U,
  0x3655305db72244d6U, 0xb769f635b786ff81U, 0xb5eb433e373507f6U, 0xb716372436dc6336U,
  0xb80af966b7b7f945U, 0xb6cee59e36b2f6c6U, 0x36307dbb371bc88cU, 0xb6c8eb513585e880U,
  0xb72cc5f5b767b8a6U, 0x366a55f836a568b5U, 0xb7393eb436bff4f4U, 0x37452619b661d5aeU,
  0x36511530b6542e5dU, 0xb632db40b64e9a74U, 0x3710a4e4362ee288U, 0x36a90155b78f5c61U,
  0xb76c857d366948e2U, 0x3653552433121b80U, 0x36fc895736ea2ab8U, 0x37b8aa1ab75694b2U,
  0xb7868aefb79a1257U, 0xb6fbe618365f7088U, 0xb6863a32355e24a8U, 0x37099862b775cddbU,
  0xb6c3ad6eb7564b84U, 0x35285d3034c6b2e0U, 0xb69bd0b034d88e00U, 0x374dd13837a61d28U,
  0xb6b4474c3682c25cU, 0xb429bbb035a6e36cU, 0x3668432cb785557eU, 0xb74ba6d4b7842da2U,
  0x36773eceb5d243a0U, 0x3685544eb7482a7aU, 0x3700ec0bb6421a06U, 0xb6288fd0b775986dU,
  0xb767eb9e366adf75U, 0xb79b491137d49283U, 0xb7c86208b697e571U, 0x36462e6c3752defcU,
  0x373e997db6ebbe62U, 0xb75e043637291b69U, 0xb5c7ad2037287904U, 0xb752777db6918365U,
  0x3732250036fb3326U, 0xb664fefcb6e86e12U, 0x36d2e67a374b7572U, 0x36b0b89037ca59d6U,
  0x379e2eed36ca7b5fU, 0xb754d2c0b7b1b47eU, 0x35426b5237558efdU, 0x36eb2d67b57b74c0U,
  0x36a99b8635c7cfc8U, 0xb6fb8f0e36e8bde4U, 0xb747ce10b787a185U, 0xb6329cd9b79309d8U,
  0xb776286437338596U, 0x375d6e0db69f8abaU, 0x37a82b3fb6d0d936U, 0x37bb7700b67d8b08U,
  0x3782b4fe367b5c88U, 0x3640c9c4b6104a18U, 0xb66b7fdeb6befaf7U, 0x377ced92365f1304U,
  0xb74c42b9b6b84004U, 0xb7bed233b44a8830U, 0x36f7fe0cb7cd16c3U, 0xb5967c5db70a6e54U,
  0xb6b9642cb6631afbU, 0xb7938a693728525bU, 0x3723455c37cb0d26U, 0xb603c0c0b4ef7630U,
  0xb7d7a331b7169130U, 0x3719e250378cf318U, 0xb71f78f037543360U, 0x3781f409b779dac3U,
  0xb3e61c00360c2f92U, 0x378d450fb769fed9U, 0xb6f613a9b541efb4U, 0x3694b85737f1f183U,
  0xb52c856035f55184U, 0x35973574b53e732eU, 0x36774514b6bb25b9U, 0xb6e000d734c8fba0U,
  0xb7358862b75e6e85U, 0xb6e0191ab6f6574dU, 0xb6c0e494b687da71U, 0xb6e0d892378143a0U,
  0xb6c11ad3b58ccad0U, 0x35e24d1cb48bfd1aU, 0x37089af63742cedcU, 0xb7a73feab711080fU,
  0xb65e1ad2374ed7cfU, 0xb79b397d34d0b770U, 0xb752b145b74f7e51U, 0xb72c6c1eb5e63f0cU,
  0xb726510cb73c26aeU, 0x373ea995b7d84f9aU, 0x374ca0b3b60d9eeaU, 0xb681c8783522fb95U,
  0x36155758b7ae4bacU, 0x37282f8ab6ad07ceU, 0x3672ff7c371ac262U, 0x37009de1b7d7d5a6U,
  0x36e3b3c0b7d90f96U, 0xb7451f98b7e26b55U, 0x37970ddcb6a26082U, 0x367181a2b7897576U,
  0xb75e447c378a6ddfU, 0x372e2c48367563eeU, 0x3725713a350761b8U, 0xb69471e435428ea0U,
  0x369d6e17b7511bd0U, 0x3602df6ab6c6e320U, 0xb6e63c70b72d94eeU, 0x37835cf9b61edb05U,
  0xb7a1552836e5f66aU, 0xb78eeed63716fdb4U, 0x37b905e0b743ad56U, 0xb761116c3440fda8U,
  0x36110e84362ce4b5U, 0xb7544a29378cf2b4U, 0xb7142ff2b75621f2U, 0x3734df8c3674ed50U,
  0x371428143771ebb5U, 0xb78afabeb72cf2f6U, 0xb644d40c36172e38U, 0xb702afe9b75d776bU,
  0x3613eec8b717d112U, 0x36b9a79fb6ac808aU, 0xb7094297367d8324U, 0x354afa6835821b88U,
  0x3788f4acb7b88f19U, 0x36e3e27d36f686fbU, 0xb76a6939b65e1eaaU, 0x358591dc36ef7325U,
  0x3786a30936e93c2cU, 0x374c002ab5bd4a04U, 0x367bc8c2b57b0c18U, 0xb59b96dcb6ba50acU,
  0xb6f69230b5a0c298U, 0x362b3dbc37dacc1aU, 0xb70fa290b66721e8U, 0xb62e49ea35916890U,
  0xb71a4850b5a50f98U, 0xb70671c937c40283U, 0x37b3ece8b72b09f5U, 0xb79488b837d1f637U,
  0x36a3322435ee8cbcU, 0x36a7a59837709e30U, 0xb6b7f6f135e0bd18U, 0xb55f5d9836603fa4U,
  0x36f4a45d371e0d50U, 0xb6e4bbe6372962e4U, 0x37364c8c36d1535eU, 0xb71ede7c356b7e00U,
  0x35ba89deb718e209U, 0x365399d836826aaaU, 0xb76fec2ab2c5b900U, 0x36e97e4b375885feU,
  0xb2c85700b5c3e4a8U, 0x36d4cf0e372fbb28U, 0x3609f44cb78612e0U, 0xb798546ab786d322U,
  0xb5d657c4b8210912U, 0x371e9f03b6a29f3aU, 0xb6c88638362299b5U, 0x339de300370df83aU,
  0x3708b73e37091ed0U, 0xb54a8a24b7f205e4U, 0xb767a720b72c7f54U, 0xb73d8d9eb744849cU,
  0xb701a76db81a3bd8U, 0xb503e270b6ab93f4U, 0x3724dfb037247432U, 0x378e5e73b7026386U,
  0x3720d379b6e7ec58U, 0xb793df4336eff17cU, 0x3714df77b7c09679U, 0x36d6f84ab686afcdU,
  0xb6c7f311b6d75d46U, 0x37aeded6b6590a34U, 0xb7448bd035157140U, 0xb78c6b1cb3957040U,
  0xb72d3969358c03eaU, 0xb6c68b8bb6cd40f1U, 0x3734c29a36895aa2U, 0xb714e584356b0fe0U,
  0xb7101dacb7181cc6U, 0x370e6bd1368fcbf4U, 0xb5dad100b709e632U, 0xb6d9fb1c3684f652U,
  0x375187b036c506ebU, 0xb5b27a86b5d83850U, 0x37b878dfb61debddU, 0x374d96b03788828cU,
  0xb60a84dc3788d539U, 0x36ff5b64b755a984U, 0xb736550eb6350f18U, 0x372d3ee635e143ccU,
  0xb711847a36dd29b2U, 0x36fb1f223702f5a3U, 0x378c5b6db4259c40U, 0x36a434a1362529e8U,
  0xb60ffc60365eacedU, 0xb759fc1c36e34dc7U, 0xb79d4843374c1fccU, 0xb6bf6d5cb64720f6U,
  0x37bc5dc7376f424eU, 0x3692a0253708e54bU, 0x3624c0d8b601fc2cU, 0x3726de4eb78d5967U,
  0x36f9689737a1317dU, 0x378792eb35d65150U, 0x37d9f342b690c640U, 0x36c6606bb56d1550U,
  0xb604be32b737cc86U, 0xb786ada1b6e9d6fcU, 0xb5becb0cb72a102aU, 0xb7be9f08b781e856U,
  0x363f9bb7b45580c0U, 0xb7460aa437670234U, 0xb7076fb23695a078U, 0xb689ae54366f6480U,
  0xb7b60672b776732aU, 0xb734e53eb6a8767fU, 0xb7c800f1b5b0aa46U, 0xb552fc7c368bc500U,
  0x367df497b6cd257aU, 0x35b5fd5436bac190U, 0xb6b6ba95b758e4f4U, 0x36fe0318b7225117U,
  0x376fc5b2b6889f64U, 0x378023e93715e052U, 0x374aabe837003e48U, 0xb69551a8b74945bcU,
  0xb71206f9363cde3aU, 0x372f4ddcb6421130U, 0xb5664735b73d1bddU, 0x36d46f4fb66c8aadU,
  0x378b5ec036a692beU, 0xb6ecebec375ef12dU, 0x359580bc373fef1fU, 0xb6bd9bcfb74ad8deU,
  0x377a43863822f6fcU, 0xb7a15204b76a39a2U, 0xb5c01ff837604084U, 0xb4856aa0b70ea400U,
  0x37d03980366d5d7eU, 0xb66b33f5b6d9558cU, 0xb779c049b68b38e3U, 0x3661cbb6369af720U,
  0xb7317104362ddf48U, 0x362c0c8836df9f8eU, 0xb63373bab76cb29aU, 0xb72d0232b7186498U,
  0xb671f7e837339f20U, 0x37284b24380a4900U, 0x36fd84133691869dU, 0x3751871537d173fdU,
  0xb812adbc3645cd00U, 0x368e6cc4b6f5d2d4U, 0xb514f6d0b78da2f0U, 0x370eff4cb5a762d8U,
  0x37c1a04c3740c888U, 0xb7e7f29c376314c9U, 0xb7b6ace8b7749ed8U, 0x371df9f8b639e61dU,
  0xb670a798b785e96fU, 0xb701791ab6acd83cU, 0x3617c77cb63c9108U, 0x3686677ab5a95ed0U,
  0xb794b6e837c2710dU, 0xb6a27680b6b1701cU, 0xb6b1ee08b77e79f5U, 0x366fc53a3547db60U,
  0x36f451b836fc7d72U, 0xb77a0b96b6a28ffbU, 0x36c15abab69df520U, 0x370f7265b715b86aU,
  0xb69c7a84b750b5bfU, 0x37924ab4b724ff64U, 0x37874678b6e1ccc0U, 0xb577900c372cfcc6U,
  0x36a2f18a362891f3U, 0xb6ff207a376a1540U, 0x373ac08d3722a5e4U, 0xb78fc020b6b3c2bdU,
  0x37490883b70f6c1fU, 0xb7686ef334562b00U, 0xb73482a9373b53d0U, 0x374ddb3736259bcaU,
  0x36535134b682bb2eU, 0xb6465e42b72ccf92U, 0xb6f37536b7abd945U, 0x361acb40372b5b03U,
  0xb28bc880b6d6c39eU, 0x354aef36b61b3f7cU, 0xb6320848b4e788a0U, 0xb78b4887b52964c0U,
  0x374b8baeb4ac2fc0U, 0xb72eec70b6c6eedaU, 0xb5bce27036a2d3f0U, 0x368d52d1b77903a9U,
  0xb780c924b72dcae2U, 0x37c592cbb7944583U, 0x36d4e31936d1bf4cU, 0x365da411b721d31eU,
  0x3723266eb55f0ea9U, 0xb78855f337122c6fU, 0xb693a3eab687dd9fU, 0x3639197635638158U,
  0xb74a72eb36886488U, 0x37109e2bb5d08138U, 0xb787374cb55e23afU, 0x3756fb2ab60c7072U,
  0xb6e77beab708e927U, 0x36703dcbb717dbbeU, 0xb65ca92c3794b606U, 0x3537f080b7dcde98U,
  0xb70d3392374bbd3eU, 0x375819dcb745bd69U, 0xb7518d7bb6c51d94U, 0xb7d8aea43737db1bU,
  0x34b4890037caf1bbU, 0xb6c3ca8eb76cc3b8U, 0xb724c10eb582b9e0U, 0xb701b732369e6c7eU,
  0xb5a3ec28b7771815U, 0xb53d3d93b70878dfU, 0x373bbe0236ec401aU, 0xb7047584b6a6a344U,
  0xb7d64e85b55e2f48U, 0xb774af99368ffb2cU, 0xb68c39f437847687U, 0xb7945f3ab7878b35U,
  0x362298703726457bU, 0xb763cd26b766f0a0U, 0xb6daba0e369affc2U, 0xb7d15310b706f404U,
  0x36adc8cf36a67595U, 0x3650c384b5abdbdfU, 0x369f706037dfdfc8U, 0x3736c428b753087bU,
  0x37a4610036b205f0U, 0xb59b4a3eb7089881U, 0x3604d39837e79788U, 0xb76c2f0bb71bce4cU,
  0xb4aabf9cb73342d2U, 0xb79b8f3135f2f560U, 0xb746efd0b785edbeU, 0x376d9cacb6465e1cU,
  0xb68d19b036eee8feU, 0xb5724660b5f1398cU, 0x36ac47d233773b00U, 0xb70cacbeb39b6360U,
  0xb6aaa074b656cba4U, 0x3701a271b7076330U, 0x36e28a1037d27278U, 0xb6a1479435773cf0U,
  0xb7c2bb5636fdf2dcU, 0xb7a3573cb7119630U, 0xb6f58870b629672aU, 0x37645413369d063cU,
  0xb750c6a2b685d584U, 0x370d7b94b6ace82eU, 0xb66f97e9b7474f28U, 0x35ca361434f79968U,
  0x377bbca2b824fb28U, 0xb795a932369bef14U, 0xb725cabd346b38a0U, 0x343698d0b6a5baeaU,
  0x35ca6368b78d4c4cU, 0x372d34d8b707c35cU, 0xb6ec3679b703167bU, 0x36a2e712b6a42818U,
  0x370a976536ecfa27U, 0x3780ff7937d7dd70U, 0xb60418e8b6aca41eU, 0xb7683b9db7380bb5U,
  0xb7538df13781d9b8U, 0x3636877ab737ca1eU, 0xb7cdb6ae37833785U, 0x36273b68b6f8582aU,
  0x35cc3e08b65efaa8U, 0x37b2336ab78c3b79U, 0xb75f8732b6a15ae3U, 0xb7b344cbb7a62bd6U,
  0x34ebb720b5625390U, 0x36454100b71b324bU, 0xb578da48b4b6ab80U, 0x35f71e30b78d4ad8U,
  0x378f14beb705ea6cU, 0xb668cbe23690a088U, 0xb7b058cbb7232c07U, 0x3782ac59379a5ef3U,
  0x37917b8a32f33200U, 0x368dfee837436286U, 0x37dc18a7b783356cU, 0x34aa5960b721b549U,
  0x34d29a30348419e0U, 0x3657dafcb60ec784U, 0x3682998c369014c0U, 0xb5894758b696bde8U,
  0xb7ab5a693699047aU, 0x352d0fddb748e218U, 0xb67af950b775d5c2U, 0x342b6240b6db34ffU,
  0x36ba909835b91cc0U, 0xb73c7de937069d0eU, 0xb70a46ca3619ea52U, 0x3475b640b6fbde8dU,
  0x363c6addb6440d54U, 0xb5c1c7e0b75b32edU, 0xb75e488a378f99f9U, 0x379c03cb377fae60U,
  0xb78d1c23367db864U, 0xb30d9e00b82b26adU, 0xb716f1c2b5e06d6cU, 0xb7a6695fb3a9eec0U,
  0x37229891b6d6a8a2U, 0xb4a3f42037990b0cU, 0xb6e2865336c1d098U, 0xb74f175235c82712U,
  0xb745711b35f96cd2U, 0xb7d03560b793224aU, 0xb7297b0a36c3d286U, 0xb62ce888b811a0deU,
  0xb6f0ac5b36f2e2c3U, 0xb681320eb70566c2U, 0xb4b90cfab7540e2eU, 0xb462c740b7109457U,
  0xb703880c3775d870U, 0x36ed0c08377a68abU, 0x373151da3738d6e9U, 0x36f8beaab6f650a8U,
  0xb658a45836d42612U, 0xb8288ad73782252eU, 0xb70e277536c67994U, 0xb758be1eb5ea9d08U,
  0xb5931858365099bcU, 0xb6367bf4b6c1a7a0U, 0x370360d0b5952ce8U, 0x3661f0fcb785c69fU,
  0x36db5366b729ce4dU, 0x36f890e4b58c0ffcU, 0xb74766bf37858ad2U, 0x34ac3aa0368443a6U,
  0xb75a8936b6abaa7cU, 0xb5859368b6b53aa7U, 0x371dd1e8b697740cU, 0x37d5dcb0b71f3cc8U,
  0x37da6fb2b7037ba4U, 0xb743a6ae35b332deU, 0xb5a09cc8b553f908U, 0x37665f52b76dc1e9U,
  0xb733470a361e4e90U, 0x3687502635aa2c04U, 0xb74264d2370160faU, 0x36627d42b6967a6fU,
  0x372c68bdb722f885U, 0xb72f4b6b379102aaU, 0x37791abb3779b9b0U, 0xb7629242b71c97a0U,
  0x375ad52fb60b707cU, 0x367aae24379164deU, 0x36a4eb92b69a5bdcU, 0x3784e37436ebd188U,
  0xb76f75d336ecc718U, 0xb57887a0b70a389aU, 0x363207d8364ba512U, 0xb6a7a372342bc3c0U,
  0x37b33096b6e7f03aU, 0xb6f44d963730ce24U, 0x3658de1db6881e0aU, 0xb682abdab6aab6e8U,
  0xb78a571836060518U, 0x36882faa3736b33fU, 0xb6caf4e0b6996758U, 0xb642bda0b76199e7U,
  0x36f56e9c3606fa80U, 0xb780b5e1b71cc344U, 0xb7178b81b7b41fdeU, 0x3616dc26b75ff930U,
  0x37419d80b71085eaU, 0xb698494636c13536U, 0xb79124c834a3bcf4U, 0xb76651f7b75547a9U,
  0x378b419c36867072U, 0x379b832c374a28beU, 0xb76cd83b3794af71U, 0x3791b9bdb6eb1429U,
  0xb6a2cef4b6bbd21eU, 0x3684541cb785794fU, 0x37866ebe36b7a3a4U, 0x373255a0b71b9af8U,
  0x36fef596b7b082b7U, 0x370d12aab766c0b3U, 0x36c1efd0b785b4b6U, 0xb5fac5c8b70e94fdU,
  0x364ba740b74872a8U, 0x369cce80374830b2U, 0x35aa8820b649f0ccU, 0xb41a180036980a36U,
  0xb78d0cb336c8d361U, 0xb72da6fd32584600U, 0x3440d54036d7dd78U, 0xb4a030b8b65acf52U,
  0x368d268235ae1870U, 0x37d9e593b7cc9af3U, 0x3694b978377d73d8U, 0x36a9de27379e473dU,
  0x369b4ffcb769ed80U, 0x37dbcfcf3562a258U, 0xb65128c8b5a05600U, 0x379edef1b618dec6U,
  0x367fefd2b791fe64U, 0xb63ecd9eb772d367U, 0xb725f1973699bc41U, 0x378cd788b755b0c2U,
  0xb64d6160b7659032U, 0x3727aa8cb62fc374U, 0xb731d38237c92deeU, 0x370693eb3670e29cU,
  0x36bbb87637119762U, 0x378b139a362ece4cU, 0xb70aa7b1b29e9200U, 0xb533785ab7248766U,
  0x376752443533eab0U, 0xb73720a23708c1bfU, 0x3608f05837699bd0U, 0xb70c23d63581bf50U,
  0xb482311037274680U, 0xb63e569636f2802aU, 0x35d31f08b701fd72U, 0xb657ffa0374f6aeeU,
  0x37c03e63b66a0fbcU, 0x37bb83453746914eU, 0x37589382b604eaa8U, 0xb3807270b6bc0c22U,
  0xb73ee9e0b799cf36U, 0x36b7fc0336a68c0aU, 0xb713217236b75406U, 0xb5510a1eb70ffcdaU,
  0x36adc60eb7261dd6U, 0xb6f4e41636476dfbU, 0x36a17a543756b8d5U, 0xb7b8fe68373a56f1U,
  0x3587f4783713b3c4U, 0x370212db37990a74U, 0xb77f1e71b76d133aU, 0xb5b99cd835c83b68U,
  0x35699c88b62cdc94U, 0x35a995da372a9092U, 0x36eb8834b619554eU, 0x3515da2836de0620U,
  0xb6c5800835fea6cfU, 0xb67b1140b745e6b2U, 0xb6852c4eb7681168U, 0xb537a384b71d5e8aU,
  0xb4cb1440b718db7bU, 0x3354080036cf7f4cU, 0xb4ae01a0b6e7c12aU, 0xb790e3b3b7295051U,
  0xb7060817b76ec94dU, 0x35466ae0b74a10c0U, 0x36f11bf937936989U, 0x3617a996b4f00820U,
  0x3722eba736939a22U, 0xb72ad26c37724b21U, 0xb61e4d54b79ce21aU, 0xb63e93b8b6bcc416U,
  0x371cb3cfb7160d86U, 0xb785dcafb56f2b68U, 0x36ec5d5836c4e7c8U, 0x363af6273702686aU,
  0xb7129b4537d475ecU, 0x37b02e72376560daU, 0xb7301261b7822bf2U, 0xb6adae8db751f628U,
  0xb743a780b5a2927aU, 0xb6bf21f0378befa2U, 0xb5cda260379cc4f3U, 0xb7523a8737891d20U,
  0x36ce550b368b4208U, 0xb6cdf6d4b794856fU, 0x37bcc7cab7b3e641U, 0xb619ecb9374cecdaU,
  0xb761c2cab6f75fecU, 0xb783ca20b6516d34U, 0x3626c280b690ba9aU, 0x375ba8cfb76cb2acU,
  0xb79fee2237600aaaU, 0x3694767836ab60baU, 0x37415aa1b7130bafU, 0xb73a0faa3767bdcaU,
  0xb7248a84372c0a74U, 0xb742103db75125e1U, 0xb7a583c83650b360U, 0x369ed9a43700a488U,
  0xb7bb37d036137e44U, 0x36c78126379b7119U, 0x3483b79eb72a9a98U, 0x36f9d834b779b550U,
  0xb77d5c2eb798ee8bU, 0x378399143606ffbfU, 0x35a5f58c35c362e8U, 0xb73e79ab373a9900U,
  0xb77e72dbb6ade1d4U, 0x3728e662b6ae7420U, 0xb73697b0b75ba79cU, 0x37625b7737c4e8cdU,
  0x37cf3637b73aa880U, 0xb75305d0b7315eceU, 0x3652883c36b247faU, 0xb6b3e14b372240a8U,
  0x3779d02e36aaf1eaU, 0x37bc6f2ab5ce6384U, 0xb7243d77b685720cU, 0xb70bccee375b13eeU,
  0xb5194628b6d7b942U, 0xb6afaf96378374c4U, 0x36d4d0223743e331U, 0x37000f0cb59ebf80U,
  0x374a86fb3765fdf0U, 0x36548870b66847d3U, 0x372000df361508a0U, 0xb65fa974377b7b78U,
  0x37a81043b7998b4cU, 0xb75fcfc83555a278U, 0x377cbf84b7884b06U, 0x3735f8ca37691fb5U,
  0xb709eef1b6186ddaU, 0x378c916bb78ec4b4U, 0x3367aae03777c49dU, 0x35e1aac835ca3b60U,
  0x37bbe425b74b7342U, 0x3726a201343291e0U, 0x349d66a036b951e4U, 0x354c0d90b79b9b68U,
  0xb7059b30b723357eU, 0xb711caf1b7270ff2U, 0xb61438cdb78a8b66U, 0xb731c72f3712a07aU,
  0xb6b2771e36d71c3eU, 0x372098ca379c3ba6U, 0xb8255d84b7c8c7e9U, 0xb7d588cab46f7278U,
  0x36eda1d7b5f13824U, 0x36bd587e370c43ddU, 0xb74e0520368216b1U, 0xb7347d0036b0c784U,
  0x37845b8cb7234a4eU, 0xb5412060b68cced1U, 0xb716370cb5dba1b4U, 0x37c142c53653bb60U,
  0x3766124b37aaea4aU, 0x3582de86b7272947U, 0x372d5cbbb764b56bU, 0x36d2232bb7252bdeU,
  0x36bc2cc9b7c0d2ceU, 0x36b6558fb7784b46U, 0x359b643ab76999daU, 0x37879bd7b705a7d2U,
  0x36cda5d836de2164U, 0xb6e519e6b77106b0U, 0x3818e6a536497108U, 0xb711447037cc9522U,
  0xb6e02d6a376a185dU, 0x3685fdee3764f864U, 0xb6d729dab61c1460U, 0x37b3703a36ebc798U,
  0xb78ddc21b68a903aU, 0x37a4f926b5da0f78U, 0x377aa70d36fc88ecU, 0x3704bd25372795d9U,
  0xb74fcbbd3414ed40U, 0xb7996bccb6bc6cf0U, 0x372ebf02b609a612U, 0x36b40e8137942daeU,
  0xb6890dbb369d2854U, 0x381b7d5db73cc1ecU, 0xb7077fd2364e47a5U, 0xb70e8b8ab75f4aacU,
  0x36db77a2371b813eU, 0x3764738a379153edU, 0xb6a539883712a75aU, 0xb75dea59b6472094U,
  0xb765656bb6d00273U, 0x379ed85a36f61aeaU, 0xb6d6461436db6a86U, 0xb5a7c6d0b7b80e58U,
  0x369378d5b81f4659U, 0x32b96a00b7408362U, 0x3749d1c834ea1de0U, 0x3741d28e36b2d3acU,
  0x37861b6937263548U, 0x36c4066f35b2bd50U, 0xb7245f75369d6ff0U, 0xb2d75a00374841a2U,
  0x37aa53d236d7ee2bU, 0x37a74df4370e44fdU, 0xb73003e0b5338fc8U, 0xb6ead20637352184U,
  0x3626423037881690U, 0xb62fec71358128c2U, 0x36970050b7cf3d30U, 0x36de4a903718c3d7U,
  0x349d3d60365d3e1cU, 0x3703fb9fb79a10b4U, 0x37649b71b69885beU, 0x361740bcb70cf066U,
  0x36e67f0837992c8bU, 0xb758afae36ed7e04U, 0x373316f1b7d6b05aU, 0x33a4dfc0b7260c06U,
  0x366498b4b6ba37c6U, 0xb797163cb6084744U, 0xb71d978bb712855aU, 0x36c5022635c92288U,
  0xb78cd09ab690d86cU, 0xb7752bf3b719e302U, 0xb60de0d437497f1dU, 0xb51062a6370833f0U,
  0x37153f85b736d952U, 0x37a4040b37b7c0a0U, 0xb6bd79ee37f6da68U, 0x334b9200b7828f7eU,
  0x37040232b75947c7U, 0xb6b9fe3b3727400aU, 0xb74f25963738a2ccU, 0x37d61dfe378df914U,
  0xb6b82fbc35bced98U, 0xb706280bb63af07cU, 0x36ece3e8b5c887e8U, 0xb7b49b91b7b77844U,
  0xb60ecc63b6883c12U, 0x370eebfe363e33dfU, 0xb729817bb73bc7e6U, 0xb744e95d362c9078U,
  0x357f1a68b7f29814U, 0xb73223263701399fU, 0x36922146b80e9d7eU, 0x37743cb63694e292U,
  0xb789743a36584c1eU, 0xb7239d9236e02f60U, 0x37434874b41d1320U, 0xb7320e9b3782c1baU,
  0xb765329e37b8d470U, 0xb6207dccb825dd20U, 0x3735cd15b750990aU, 0xb7a89d8437277966U,
  0xb73902cd369af5e8U, 0x36f752a2377b6098U, 0x375027cab69aee4aU, 0x371e8b6eb781224bU,
  0xb69793a2b50abcbaU, 0xb6d5e24c37a962a6U, 0xb7198c1137443b4cU, 0xb71dcc78b7600b34U,
  0xb6dae798362f7ad7U, 0xb709d64036c84ad6U, 0xb600c818372d616bU, 0x35a73e10360c7020U,
  0xb7695f52370dfa2bU, 0xb76edda4361c253cU, 0xb78bab24b63dfc72U, 0x3811e442b6eb211aU,
  0xb78801a6b4521288U, 0x38236a6a350fccc0U, 0xb7bbf5b7b7954310U, 0xb75353d93783ede6U,
  0x36043018b7be5f05U, 0xb6c9ea92b791c85cU, 0x37403724b748665dU, 0x364758f83696582dU,
  0xb69e1fa0b7006447U, 0x352ec130b65eb149U, 0xb568ca80b6449961U, 0x37810366b79b1d1aU,
  0xb7589b79b4018140U, 0x37ce8e973676b2bcU, 0xb74ccdf4b672052cU, 0x37a9857e36892e2aU,
  0x36aea634b6e85da1U, 0x36e841c6b4163460U, 0xb617afc0b6f16976U, 0xb70f269b37301147U,
  0x376d2c1ab698a87eU, 0x3643d01c361b717cU, 0xb71ad71d370d4dc6U, 0x36d5aeed35aa1540U,
  0x36181910363142b8U, 0x3764456d379a4eb8U, 0xb73bf210b70d66d5U, 0x35ea86ec381b52fcU,
  0x3751024c37368af0U, 0x37040f3db6eb642cU, 0xb787ee5ab615d2dcU, 0xb5e604bc379507a8U,
  0xb5f70c2837758fbcU, 0x3700885b3595cd78U, 0x36ae9f8d374f1784U, 0x3749abb637737f44U,
  0x36bd129ab739fa71U, 0xb5951b0bb667eaaeU, 0x37038244b758a2bcU, 0xb7461e1eb71838afU,
  0xb7700474b4ca8178U, 0x379c15f1b7f02ec0U, 0x381772ceb6a928f6U, 0x3795a8ea367970eaU,
  0xb792095cb6a7eba8U, 0xb69bbed9b639275eU, 0xb769aef9b72c8c06U, 0x36802568b6c6cba6U,
  0x38212370b6a04d2cU, 0xb7346ecfb7cb2c5eU, 0xb68167d0370184e4U, 0xb7012c89374c6c75U,
  0xb4a69c1035faacd6U, 0x35f5d8d0b6217774U, 0x37b3c255b71635bcU, 0xb615943eb56013b0U,
  0x37de171236d042c0U, 0xb76bac6eb609fe90U, 0x35b3a870b72021c4U, 0xb74488f6b5203be0U,
  0xb5bba1b8b6b86971U, 0xb51efa08b5484630U, 0xb7a1509137bf0f1cU, 0xb6d5e677b764a3bbU,
  0x371ad7b036c11e4fU, 0x36591a0cb7db94f7U, 0xb57c5d60b67e359aU, 0x36d039c5b4839e40U,
  0xb5be14403660cebaU, 0xb66f2c36b7c59284U, 0x36de127f355965ecU, 0x36c59330372a8b18U,
  0xb78a2e41359bb480U, 0xb6d0e6b7b6c9c3fcU, 0x36fe5e2c36a18282U, 0xb78d5f5eb75ecbe2U,
  0xb70f5acab665069cU, 0x36df4c3e355bd128U, 0xb7cc676137373672U, 0xb5b4c040b703e9a5U,
  0xb797c06936e1f0ceU, 0x35c54388b729be31U, 0xb72ede62b5d07480U, 0xb69b62d6b69175ecU,
  0x371e746b374a54ccU, 0xb761d4ee34accd18U, 0xb56b02b0379031a4U, 0x3788d562b6d7bed0U,
  0xb813568b35d36facU, 0xb784638db6caae99U, 0xb7c7ecb9380da9aaU, 0xb5db3f50b77f52b1U,
  0x36e582a7351b0d90U, 0xb7b4b05236199baeU, 0xb6a661ee367bd5f0U, 0x3724af06369e49b2U,
  0xb79930503771a525U, 0xb7580b353747d79dU, 0x36bc634234b5dc40U, 0xb640bfccb5ad6f8cU,
  0xb717635535b4c150U, 0x3706c0c6b75c6b63U, 0xb70134113781decbU, 0xb4943fe0b71412fdU,
  0x375f09d037049a4bU, 0xb6c38dea37757dceU, 0xb72340d5370d9534U, 0xb8029f793622ff4eU,
  0xb702b616b7ccddd8U, 0x3647d2e0b6237508U, 0x380910b1b69905f2U, 0xb766ecba366cf920U,
  0x373d3c5037a5e3a0U, 0x372b1d9ab7cd9f66U, 0xb71bb6bcb7a40322U, 0x3755f91eb6d558f2U,
  0xb6d74cc0b6c4a522U, 0x371eed983705a548U, 0x379f7d44b6a10c73U, 0xb7e1d5f9356f3c88U,
  0x36b34b5cb7535c1cU, 0x37984b7836975dacU, 0x3789e1a2b45f6540U, 0xb558b338b798c7a2U,
  0x368c8aca369a2c20U, 0x36f16906b7188e2aU, 0xb6fc7db0b66a02e0U, 0xb66f1302360f2c07U,
  0xb72450a23714beafU, 0x37cb2d3db715466bU, 0x37a32a22b6f59f03U, 0x375f72a1b71ab6dfU,
  0xb7408343363369f0U, 0x371bfa8fb74f8bd6U, 0xb76c5d06b6ce9812U, 0x373fc09bb56594dcU,
  0xb74f5386b6b6ba62U, 0x33c1ed80378a6809U, 0x35592d30b6dfaab2U, 0x363c2232b6d32a6bU,
  0xb6f2a7aa372fd66eU, 0xb67dfda835d32388U, 0xb73e5d09b41fc1a0U, 0xb677c5fab69d3814U,
  0xb7155bb836661c87U, 0x373e0796361782e4U, 0xb707280db6d87508U, 0x371f1479b6f038e2U,
  0x37a7b6c0370f7ec4U, 0xb7890005b59378a4U, 0xb3b59730b7520cc9U, 0x37399dc9370b3341U,
  0x342d8ea437768b88U, 0x35912e98b5561040U, 0x36644e26b7cfd355U, 0xb74b13c7368efbfeU,
  0xb7ef496ab72403f9U, 0x3683be7037d41026U, 0x35ae8804373406ecU, 0x364d91acb7bccd6cU,
  0x378ae57d360c1590U, 0x371332bb36cb4052U, 0xb6d8c746b781ea32U, 0xb6c87ce4b713c50cU,
  0x3625b6f0b78a40bfU, 0x37093a6a3787d415U, 0x370199d2348f893aU, 0x363322f2b724a04fU,
  0xb59a4020b72187c2U, 0x3784c904b7dc79baU, 0x37247c91371eb626U, 0x36891cf4366d2748U,
  0x37477fc8b4792548U, 0x37544a5e3709afeeU, 0x37ac35ce36512700U, 0x3749cfc8b744c259U,
  0x37134dcab794b743U, 0x37c7b5f7373391b8U, 0x364bdb3437ecc3efU, 0x3730ee76373221daU,
  0xb6b5ff12357691d0U, 0xb6e531f03794cdaeU, 0xb60009c4b6a501ecU, 0xb5e0079836887f98U,
  0xb6af9aacb6a3b79bU, 0xb75530393775737dU, 0xb6f9b613b71777a0U, 0x3795c6b6353a4014U,
  0x378d5e99376157faU, 0x372f679637231350U, 0xb795ef013622cfe0U, 0xb77c784a37ad8dd5U,
  0xb7c0625ab7055540U, 0x37464feab70f17e3U, 0x37f2d757b50f79c0U, 0x3767bbea37b3a0c5U,
  0xb720eb103750eb4aU, 0x33b64440b5cd5088U, 0xb6f08ee734b86ec0U, 0x3790579b3693fe90U,
  0x3605ac0c356d8010U, 0xb791c41e3718cdf0U, 0xb5c1f354366e7a28U, 0xb7592d84b700e94fU,
  0x373efbf6b732d892U, 0x37425967b74753a6U, 0xb7491a7037edfc24U, 0xb6946bd8b74117f2U,
  0x362e1a73357d1698U, 0xb73c1498b5b2e9f4U, 0x3703b986b690e1a4U, 0xb7bd9b31b6fb2785U,
  0x37615908367824a5U, 0xb7543916b7562915U, 0xb63253e8b71fdba7U, 0xb8029772b6e0abcaU,
  0xb75c9156b81c5022U, 0x36f304a837d7a293U, 0x369a9bb9b68ecdebU, 0xb71664ac366fad24U,
  0x36af2651378ae414U, 0xb79631c3b7c8e930U, 0xb707f6ae3783d83eU, 0xb730a0bcb7126b00U,
  0xb58c21c0b1ab0800U, 0xb76a12bc3796dbbbU, 0xb6e22c46b7578728U, 0x358f8700b4e782e0U,
  0xb77f8ead32d76240U, 0x3707a7af376d67eeU, 0xb75ad00e36cf01f2U, 0xb78596d8b50c8438U,
  0xb4c12320b7161463U, 0xb70157e2b7182b68U, 0x372aabeeb7117859U, 0x36100b3db72ab184U,
  0x36bd3ec8374bec78U, 0xb7551246373f91c0U, 0xb71f72bbb696086cU, 0xb6e9b815b64f7528U,
  0x37311cc4376a7068U, 0xb7205f58b59ef968U, 0xb7136b0536c86558U, 0xb6fdcf26b68707e0U,
  0xb725c9d036e2d10fU, 0x370659fab660e750U, 0xb771f5e5b730c2ddU, 0x352d813036868114U,
  0xb78431feb7d37b8cU, 0x37178c7d370e71b8U, 0xb68629ccb7a116abU, 0x3788104f36a4c36eU,
  0xb5b8dfa0b678b7d8U, 0xb695d5ae36092796U, 0x369a0578367f15b4U, 0xb6a4737ab7089b1fU,
  0xb6d1d2983784afceU, 0xb79a1a0eb7d3fbfdU, 0xb62c37b4b76c55e6U, 0xb71fae16b75a23c0U,
  0xb677f570374050f8U, 0x338885b036a20d00U, 0xb72e9f2636aa3a2aU, 0xb700c54fb6a203a7U,
  0xb507f76e37399ba9U, 0x372d97fab69c3a37U, 0x374ba59fb74c4182U, 0x3728f6b8368c54e8U,
  0x36fa6500b7407ec0U, 0x3448e440b71a9392U, 0x3709c4a0b74f5807U, 0x378b68bb36b1bc48U,
  0x36bdb984b7626a2cU, 0x3745bfa236e2df60U, 0x37214ece377c39beU, 0xb482ab50b6dabc1aU,
  0x37859ddab705c0cfU, 0x3715cd43b672fbecU, 0x35ea040a366bb84cU, 0x3674903e37cdff57U,
  0x36b26f0cb6fa3f8dU, 0x369fdfb3b8235cbbU, 0xb7b943223740baffU, 0xb725c49236c1a45aU,
  0xb802c6c637210c46U, 0xb6973f04376df8c9U, 0x379d8710375e73a5U, 0xb6356069b6166ba0U,
  0x36b912f0b613aa1eU, 0xb71eace8b7240cccU, 0xb7226c1b37483f4dU, 0x3702a761b7ab6256U,
  0xb6b0c53636f8f5e3U, 0xb7289728b6dfe4c5U, 0xb763835ab5e0f14cU, 0xb6924dabb79070d5U,
  0xb6e7ca88370e3c28U, 0x36e46bf4b705dcdfU, 0xb6a8101c37367826U, 0x376d697eb7585f32U,
  0x37371d36376c5a06U, 0x36871408b5ef89a8U, 0x37a51c06b702aac6U, 0x366d0ac0b735102bU,
  0x357301d0b6a0cce9U, 0x35e45fe036d9953aU, 0x36b31328b70350a6U, 0xb75f2b27b7344d3eU,
  0xb74fed8db7002cf6U, 0x3704a9bd3735b494U, 0x371462a5b648c0a8U, 0x365ef8e6b5984314U,
  0x366b5698b70e0823U, 0xb729634eb7c761fcU, 0xb73bf8713612ac1aU, 0x36f8a72736bc342aU,
  0xb74d5e5436ff1b31U, 0x36d2b4b1b716028bU, 0x378a8e85357942f0U, 0x3710bfa4b5131418U,
  0x36e9f93d378d8e0dU, 0xb619d4a4b6ff1b68U, 0xb69445073692d846U, 0x3730d335b742c9b2U,
  0x37bc206cb710cff0U, 0xb7837996378bcfc0U, 0xb6a4c306b7115a17U, 0x35ccf7783782616bU,
  0x37adcc82b6141300U, 0x3675371db78f844bU, 0xb80766ca370bfa64U, 0x377549bb35876256U,
  0xb72cc50a37d38f00U, 0x374d32e0354fcb34U, 0xb65c8430b7528a6aU, 0xb6c22e48b7197e5eU,
  0x36c14914b723d8f8U, 0x373dbf9436e4e720U, 0xb6fe6d37b6fcccacU, 0x36eb048c371e508cU,
  0x367be65c374e55d2U, 0xb72cd5fcb72d49b6U, 0xb57fc48836de85e5U, 0x373928d1b657f224U,
  0x371aaf5137657ecbU, 0xb608b082b74857abU, 0x35d6c82e37660b5aU, 0xb7298625368bdc78U,
  0x35c6c0c8365d30e0U, 0x372c35dc378debf0U, 0xb7052822b6848504U, 0x3776649037238ef4U,
  0x3731cc93b778b3eaU, 0x36d2ffe4b6831fd1U, 0x370a212c3730c0b4U, 0xb7616ff8366ec490U,
  0x36faf854b7918d40U, 0xb68adb7ab6a698d0U, 0x352949ecb6463a6cU, 0x368fdf1c3754ef4cU,
  0x374a3429b761667cU, 0xb76489b636e511d4U, 0xb65e34c43710273bU, 0xb75e1894b816de52U,
  0x37351e02b76e7a2eU, 0xb403cc803829eb70U, 0xb631e7d93705c436U, 0x37255bfe35b94ad4U,
  0x36e443bc37ba68d3U, 0x3788cf32b773ced6U, 0x35aef840b75f0962U, 0xb784a19cb68f0c05U,
  0xb7506108364cbe7eU, 0x376f1b41368cdd12U, 0x360f7b7ab7429e15U, 0xb7bad1c0b745b90aU,
  0xb72554153632119cU, 0x377f0716b7940815U, 0xb77103acb680dc61U, 0xb76d787f36865f25U,
  0xb6e10f78b7282f32U, 0x35c3bdb836be8214U, 0x35c57328b70c2e33U, 0x3708b09135673640U,
  0xb6e40659349045e8U, 0x36c27b9c360c8470U, 0x3703918eb69e78f6U, 0xb713dd6fb7323a29U,
  0x371b226ab779b2b0U, 0x36f77600b753ea3bU, 0x36ca5322b784a90aU, 0x37e183b4b5bbffe0U,
  0xb6904e28357d78dcU, 0xb682dc32372fc4ecU, 0xb39338803664e230U, 0xb78d4c94b6ff2e00U,
  0xb7f78584b78322f6U, 0x36d8bc80365139a0U, 0xb7290508371cf038U, 0x36c3a84a36e8b672U,
  0xb701f024b6fbf8f2U, 0x36d4e397b707d0eaU, 0xb598b608378011aaU, 0xb703ea6037244322U,
  0x3518cf48b72bd60bU, 0x37f128ed36efa15eU, 0x378b3329357752f2U, 0x368f80f035304d94U,
  0x36654fc036443200U, 0x37aa9ee9b5f8d3a0U, 0xb787680f360fd1f0U, 0xb6f479f2b782c430U,
  0x36cbaa5ab76e923aU, 0x370b20a035fa4040U, 0xb4d7eaf0b76c9531U, 0xb7c6a14bb6a99a64U,
  0x3601dc8c36989d70U, 0x369239eeb60439a4U, 0xb71e4597b71a6228U, 0x3737beab36e8afa6U,
  0xb5007ed6379cd12fU, 0x372fb149b7dde34aU, 0xb72f97f4373bba91U, 0x36da32ef37220324U,
  0xb3a96560b4e72588U, 0x36e0246cb7a01c4cU, 0xb752bad03766bbc6U, 0xb705add236964ce8U,
  0xb5beb5d4370648d1U, 0x38105ab6b7c05adfU, 0x368363c836395eacU, 0xb5ace70e3752aeb6U,
  0xb5c96a9437e4f1aeU, 0xb6794b903777c48cU, 0x37110b92b7800c49U, 0x36beaf76b79dd81bU,
  0xb736d69eb628eba4U, 0x37398d4e374e0d9eU, 0x35ef2ac0342b1db0U, 0xb54a1d3635a15b70U,
  0x3496c4d0375725bfU, 0x36e4559236a9e034U, 0x373dab74b6f4c340U, 0x363ab729b80ac28fU,
  0x369d18543696f085U, 0x37869160374c67d0U, 0xb68c6f1eb71900f7U, 0x37a06b9ab709c272U,
  0xb533040036dff81bU, 0x3718a72036c1bcabU, 0x376382a7b6b59b6eU, 0x374005d3b6b12da2U,
  0x37983524b7a235c6U, 0x37cb5c9e35c77fa5U, 0x373db22c3662058cU, 0x376c6f25b5f62599U,
  0x370dda0db765dbfcU, 0xb60c06483705e8b9U, 0x3757b94ab6c87124U, 0xb729e1af37254cdbU,
  0xb731c14bb659c80eU, 0xb77bdf31b7b43bedU, 0xb7c88a48b6c54eccU, 0xb6b86cb9b7cf3f00U,
  0xb77795fab695dc43U, 0x372db42bb70b5d5cU, 0xb66dafed37a3ce2cU, 0x361d55cfb73658b1U,
  0x368c821d37582b2aU, 0xb65b75b8b6c3e208U, 0xb78d246d341addb8U, 0xb7247fdfb6baa826U,
  0xb69af966b7769d54U, 0x357313a8376cba72U, 0xb72fcd7734ef1df4U, 0x3721bbe2381af9faU,
  0x376a1155b7215134U, 0xb532e6ac36935517U, 0xb7027e593658b1e8U, 0xb57ff004b60cee70U,
  0x3765460a371a76a9U, 0x3703c804353a0080U, 0xb6ef158cb72d483cU, 0xb797d06cb77120c7U,
  0xb6f824af36ca47aaU, 0x376af8aa36959253U, 0x36a00872b65ed62cU, 0x37b1c874b7330556U,
  0xb73f1499b725e030U, 0xb7224033362a801fU, 0x3700108e37520495U, 0xb67439f236114816U,
  0xb6bbd132b7a6f7c4U, 0xb72d2d0eb63ef285U, 0xb741bc9a33aa4000U, 0x35fe4d68b71fc07dU,
  0x3690fce4b6884901U, 0xb4ce02d0b792596eU, 0x36ea6f62b6dcea2cU, 0x36892ce0b7709ec6U,
  0x361e1f28b720b61aU, 0xb6c9ba213787f83dU, 0x359c61e8379bfdddU, 0xb78bc6f5b72dac78U,
  0x36062a1fb78d80f8U, 0xb7b90eb836ed3d08U, 0x37c1809a355696d0U, 0x35cdd7e037d7e590U,
  0xb5d22b60b6bba39cU, 0xb5b16f00b7575b36U, 0x37448da8376363aeU, 0x36812a1c37d8b8e0U,
  0x3784a842b6d5b36bU, 0xb75d667736ace6f4U, 0xb7604085b26b9c00U, 0xb71ce0de373b9a9eU,
  0x35b70150b60a6408U, 0xb71c0112b807ef4bU, 0xb7a7e34eb77ed8fcU, 0x36599dd0375d6866U,
  0xb7162b55b70cde19U, 0xb5b3a72436da6e2cU, 0xb5e29d50b6105e8eU, 0xb78b6565367a4bcdU,
  0x365bd1ecb717006aU, 0x3705c4d4b6b4500eU, 0xb53cece03702f921U, 0xb7a1fc4db70edf2fU,
  0x3691fc1836538ee0U, 0x3765bee6b7db2abeU, 0x359139323718c4eaU, 0x36ccb448b65a27d8U,
  0x368f7adcb5313000U, 0xb6ec0b1a350ef8e0U, 0xb79c4bcd370925a3U, 0xb6aea7943787602cU,
  0xb71964ecb64c51f8U, 0xb706834ab77703afU, 0x3825cdcf376e9c49U, 0xb61f2b86378d79b8U,
  0xb769da7a38260785U, 0xb67c4e18b6a406beU, 0xb7608fa7b6af3a64U, 0xb6d9355336e12b7fU,
  0x35c95c54b6cecfdbU, 0x36b0ce783636f618U, 0x36e8779837107c92U, 0x3765521836d61d4cU,
  0xb72ab0d1379a5802U, 0x36391c60b75170b6U, 0x3819091c34e763c0U, 0xb6cc7318b5490280U,
  0x3757e17637dec63aU, 0xb6ec02fdb7280262U, 0xb70be20e368c4a3eU, 0x35a1254037949716U,
  0xb6dc749d36ac5f08U, 0x36a8c721378ca6b6U, 0x3735621ab6ae2ef4U, 0x370d5eea37df12c1U,
  0xb65c51dcb64681acU, 0xb6a1f323b6b36f4cU, 0xb6b381a9376e9b81U, 0x37ba13ec3500f6d0U,
  0x372a980e37758c25U, 0x362eb2c8b6dbc3c1U, 0xb74db638b6476f21U, 0x37322c90b5f09450U,
  0x36e0de5937d22e30U, 0x3719fdbc3792b52dU, 0x36460fb0b765a0d2U, 0x3692d8c6b7b07252U,
  0x37658fc6349a45a0U, 0xb73e253437087dadU, 0x360c9a90b4181080U, 0x353d9214378f9ab0U,
  0x363ef97e3636c839U, 0x36dfb54036964ec1U, 0xb62babccb6fd2886U, 0x370290e236f79576U,
  0x3795a660b75b1592U, 0xb74ef84c372946d8U, 0xb79f5c7e36f200aaU, 0x37689636b6457200U,
  0x36b21502b70f191aU, 0xb708f7f737d028cfU, 0x380ad91c377dbda4U, 0xb788865ab64c0b0fU,
  0xb7030df0368cb408U, 0xb71b99d6b4d10c80U, 0x3783e2a1b5ae73b0U, 0x3648b43c3790f890U,
  0xb58b84a8b5ab22ecU, 0xb6bae0beb78d63e4U, 0xb6cb3accb6db625eU, 0xb540a27cb622aae0U,
  0x357aa7e0b76ff5f6U, 0x33cc2700360fdf88U, 0xb6c5f5d637583dc0U, 0x372b16eeb6ec0560U,
  0xb6e23eddb67ea7dcU, 0xb79486b036b05533U, 0xb758e74a371d8155U, 0x3569c4a837a644c8U,
  0xb4b347e0b7100ac1U, 0xb6a098003648449cU, 0xb6cd4f16b6cb6b64U, 0xb79a630db68a6d74U,
  0x374f80e9372163caU, 0xb7e20736b81e6405U, 0xb5d4830c369086faU, 0xb7664f793687232aU,
  0x35283cc0b7bc58a0U, 0x37bb2b6f3756e2b2U, 0x381872f8b731ff54U, 0xb7cbf22a36942eb4U,
  0xb7276853b7a5ef08U, 0xb6f846c8373f8e0aU, 0x38281c86377ff376U, 0x36a28bb0b60066b2U,
  0x3798c855b62d29b8U, 0x370550553618d1f0U, 0xb720ae123495b920U, 0xb622716036c7d4f0U,
  0x35ed270a37c322a0U, 0x368245b3b55d5020U, 0xb80bc2ff36939c22U, 0x370800b4b8105935U,
  0xb803bdf93789c206U, 0xb737453cb7108310U, 0xb6d7cbd7b786560dU, 0xb702ed31b7c4a7e4U,
  0xb6dc82ca37de2c37U, 0xb70c216a37874cafU, 0x36bd2d3237411456U, 0xb7114b963743371cU,
  0x379ed8d7b6c5ae30U, 0xb7311744b762874bU, 0xb7be31ec36f001c1U, 0xb7219ad0b433be70U,
  0xb71eb242363c3ef4U, 0x3718b423b77c8f04U, 0x364479e8b7b621c1U, 0xb75bfeffb64e51baU,
  0x3637302eb69883deU, 0xb7222fde356004d4U, 0xb80209d0379fad0cU, 0xb75eda93b763e107U,
  0xb6cad5fb371ab2faU, 0x3739c2cab679ac75U, 0x379cfc8735dc3a6cU, 0x3773c5e43711c31dU,
  0xb79d4a78b3791d00U, 0xb6dea90d36e20bd2U, 0xb6a7e072b504ebc0U, 0x3603a2343715f247U,
  0x372a11c33709ac5cU, 0xb61f46fb3622803bU, 0x36edceee369c6c92U, 0x36b5e176b5e45920U,
  0x36c7e993b7465742U, 0xb7c66614374932f9U, 0x35264940b661662cU, 0xb77ff8e1378d4365U,
  0xb655b6fcb74f7e16U, 0x38230fa1b61826ecU, 0x334670d036c2bd4bU, 0x36f1da40b81e3052U,
  0xb50a8210b7ce90d4U, 0xb765dac236fb44acU, 0xb588725435a29b54U, 0xb6441d5237949be5U,
  0xb656eb2837317522U, 0x37039d2ab67272a3U, 0xb634784cb715b913U, 0xb6f70683b773d158U,
  0xb6ed65f035b12b70U, 0xb6887b8fb71d3c54U, 0x36ce7d7236bebb44U, 0xb7a9e1c6b6da923dU,
  0x37878f22b5a69fa0U, 0xb73d84323721d623U, 0x36adc2c0b5885a40U, 0xb6a47d0eb825f601U,
  0x36816dda3664e50aU, 0x380760cbb73e6f6fU, 0xb7aa06c5361bfa4cU, 0x3729a7eab75447bcU,
  0xb4fea61a371d4aacU, 0xb777f41e37b2dd42U, 0x35f775ec37668bc3U, 0x37595876b7f565d7U,
  0x3679757c369864e4U, 0xb71b3d99b71e50b4U, 0xb72677bb36c1eff0U, 0x3787fea9354ee954U,
  0xb76bfc1a363b44c9U, 0x37b60b73b79ed695U, 0x36ffa10ab7bf61ecU, 0x37d13f21367ad504U,
  0xb62c63b8b6a1e569U, 0x36e414a4b78b42a4U, 0xb78c336db732cad1U, 0xb691e463b5c2b370U,
  0xb6b8d8a5b6b17c75U, 0x3702e975369274f4U, 0x3741f345b70efea0U, 0xb6ae3bd73717fdb3U,
  0xb631a974b6c230e5U, 0x37ae354337a308d8U, 0x37080af037ab7991U, 0xb7b3d94635508571U,
  0x378a6ca233f07480U, 0x374cddec3713a577U, 0xb798459836c362b6U, 0xb6d7ff97b75efc61U,
  0xb768eb6c367c657cU, 0xb74d979eb6e85e03U, 0x35d0ec48b7128202U, 0xb7254984b742aa7eU,
  0x37119f51b7444ca8U, 0xb6946224b755d6d2U, 0x369d63b6b738527aU, 0xb760495f3560d2e0U,
  0xb645cda8b6873224U, 0x373c2c9036563108U, 0x36f56317b71c77f2U, 0x3635cdb8b4702470U,
  0x37668823b71e4ab6U, 0xb60caccab769918fU, 0x3689723cb529b600U, 0xb6a50626365b4183U,
  0x3813dea9b7529996U, 0xb7a6b33c370130bcU, 0xb4415980364a65e4U, 0xb76642043530e380U,
  0x36cef674b6f129b4U, 0xb60fc32636c65f18U, 0x37d4ea4837995086U, 0xb6de837d3782b798U,
  0x360d7a3d36dc1ffcU, 0xb74d372636c04476U, 0x36e1ada9b7d3851bU, 0xb686f718b79c06e6U,
  0xb644494037794b13U, 0xb53ae8d8b53ff748U, 0x34d3df60b4b7aee0U, 0x360e7424b6e9c3e0U,
  0xb69cb786b63646d2U, 0xb744f9e1374248d2U, 0xb6dfe17a37932650U, 0xb5a207403632d50cU,
  0xb6d26ae6b7a1599dU, 0xb6d6b5533767bcedU, 0xb59f7e64b6786366U, 0xb8221c79b7b390adU,
  0x372ab4f6b7c03797U, 0xb6a56f5c36955c8eU, 0xb7e3624c37714168U, 0x36cd724836ad121cU,
  0x369d648ab692c92aU, 0xb70b3413b69dd8bfU, 0xb5fa5a82b7a558dbU, 0xb611e560b751bc1fU,
  0xb72348abb58d9e40U, 0xb748449ab7523f40U, 0x3737c72237cd0848U, 0x377d6403b73ce95aU,
  0xb76c6648b7533dd1U, 0x372969d0377a5b0dU, 0x370ae143b5886fb8U, 0xb5712e58b7079c2cU,
  0x36df53a8b79d3d4cU, 0x377083c2b77bb052U, 0x32c23e00b5f028a4U, 0xb76a0270350ef3afU,
  0x375437cf37507a56U, 0x3722878ab640ca9fU, 0xb73365b5379f3457U, 0xb762c40f35b2b631U,
  0xb58117be35a267d8U, 0xb60b9039b68851a0U, 0x36a77480367aef4eU, 0xb611fe2eb6e7e4ebU,
  0xb780fc4836e1224fU, 0x3522c5c836ede8d6U, 0xb7704622b7151c2aU, 0x369f90e43725490bU,
  0xb688e32eb6c28713U, 0x3715faa9b706ea0eU, 0xb734c79b376b5f79U, 0xb4857918b739d4adU,
  0xb7186772373303b8U, 0xb73c9aab374d6567U, 0xb6a550e2362d764dU, 0x36c043fab767acf2U,
  0xb5496464b6aeb5beU, 0xb4958a7c373b0582U, 0x3705a77c3705e01eU, 0xb5601bec372abb9eU,
  0xb5c5576e35bd4924U, 0x378523cfb799030bU, 0x3725acd036d355e0U, 0x37b14397371c19afU,
  0xb693d75a36388014U, 0x36686e7ab52801ecU, 0x37099076b6e02a6dU, 0xb28675c0b67eb6f8U,
  0xb6792d2337dbc71eU, 0xb70c249a3611da4eU, 0x376c89143686d356U, 0xb70445df3827aab4U,
  0xb7085a6936b0d274U, 0x36dcd75db7370807U, 0x37aa8e09b730a1bcU, 0xb77ae773b7a3d2e1U,
  0xb75d5fbe36bd0d40U, 0xb74813f836ea11abU, 0x37df240ab76cde5cU, 0x37755216b69b0b7aU,
  0x3725c17cb717bab5U, 0xb74ae9783721f81aU, 0x3756eb40b780c445U, 0xb71b6616b7090902U,
  0xb6eae3e337b08b8aU, 0x3739aa04375e3f37U, 0xb76f4f24b5627b10U, 0x36e96e4eb5b8c3f4U,
  0xb5ed8750b81edd74U, 0x37c83a7db6033a12U, 0xb711257c373d6f7cU, 0x369d4be8b6b28b60U,
  0xb594b41636841657U, 0xb7030e49b61e570cU, 0xb6ff95aeb673b90cU, 0xb6ba6dbfb7361d9fU,
  0xb782d0903784c9daU, 0x3554d1e0b657a41dU, 0xb724ebfcb76d685cU, 0x36ccab68b698c98cU,
  0x372b15d5b613d557U, 0x36be0f54b631bc5aU, 0xb6998cd83720078cU, 0xb70b35273594c1b0U,
  0xb73f5c6bb65247acU, 0xb742cb24377201fdU, 0x3726b00837b951f8U, 0x35d84ff0b73c1a2aU,
  0x373d3b0c36e7d747U, 0x355590d03751304bU, 0xb6c161fe36ac584eU, 0xb74d98c837bb5513U,
  0xb782f93336cc7dfaU, 0xb77e57f1b7de7734U, 0x3740d06837d37378U, 0x3778f640b60445f2U,
  0x36d4ada1b59db018U, 0xb3e116c036850384U, 0x370435a6b6315c1aU, 0xb7cb34a3b79abac0U,
  0x37d52b98b771551dU, 0xb71a98d037858827U, 0xb6aaf615b7630b3cU, 0x37264dd5b6e24ab2U,
  0x360baa8c376d2e04U, 0x3701c1efb68bb6a7U, 0x36cd7db2376382d0U, 0xb7962352373b6f1eU,
  0x36db1976b74e64a0U, 0x33b127e037466de2U, 0x37ed0d5e3748881aU, 0xb6c56bcfb603fffcU,
  0xb6129ad236118aeaU, 0x362699b837a6a356U, 0x37976f1ab70b1cb2U, 0x370676cc37c6dd26U,
  0xb5831fa0367ca098U, 0x3692ebc4376e60c7U, 0xb7a3188eb7817bf6U, 0xb634c198b66dbc0cU,
  0x378a4aa9b7338888U, 0x373769d7b50deec8U, 0xb709bb4c371c87c3U, 0x375f879136a5a6e2U,
  0x3658d528375724f0U, 0x3757a6bab4f94cc0U, 0xb5f5adcab6219357U, 0x3780066cb76a20aeU,
  0xb68efbf73640199cU, 0xb6e83038b5763800U, 0xb780441eb78ce6c8U, 0x35ed4d4c36389368U,
  0x379d77bab788ad45U, 0x3571b180b72b406bU, 0x381105c23740cbbbU, 0xb7317de4376505ddU,
  0x379ff75e36e5d0a0U, 0x3698e75e364b8aa4U, 0xb790d17e37969712U, 0xb70d9e3d3738afeeU,
  0x375fdb54b7595de8U, 0x37b74882374de945U, 0xb73c8dfc362ef6a7U, 0x34f755c8b4df3a28U,
  0x37002f2137b56f2dU, 0x3660d070b7386a0aU, 0xb79f298436b2e066U, 0x366b37fcb7ee4ca1U,
  0x36a4544636d46be6U, 0x370f1f33b5cb4bc4U, 0xb7470238368527c6U, 0xb7011cc9368a6808U,
  0x370160af3721ea2cU, 0xb66eaf1cb5619d90U, 0xb73ada0eb6ba27a3U, 0x3711f51436df17e4U,
  0xb51b22c037391e01U, 0x3714385636e3104dU, 0xb73ab1b337c36f50U, 0xb6f56536371b5d7eU,
  0x36267468b6fd31ccU, 0x36000356b7253786U, 0xb520a260b755bb71U, 0xb46b6b50b734c24aU,
  0x37589936b6d7a57aU, 0xb78c7e52b6fa9cd6U, 0xb71f8e5337d4f504U, 0x370a75e23707a400U,
  0x37301f2437d45e05U, 0xb6e07a76b7859aa3U, 0x369b42deb6f24164U, 0x35b160603752e47fU,
  0x372ff87d37358664U, 0xb6959a8236d5775aU, 0xb7057a9937a9cc31U, 0x375112f937aeeeabU,
  0x35de4d0036b38f34U, 0x37201b2e368de9b2U, 0xb7753b4f36dc522fU, 0x3780312337c68a32U,
  0xb65d4bd836aa16f2U, 0xb77628aa376b4249U, 0x35a06d70360d945eU, 0xb72b65cbb683b416U,
  0xb7948193b791473eU, 0xb7dbe789b737705bU, 0x3703a09737a7fdf2U, 0x3672d7fcb74cdb60U,
  0xb762a9d637919b8aU, 0x379edf633792d4acU, 0xb7047aa435cf9a16U, 0x3633f5c835a5ee9cU,
  0x36c8bd6836020df6U, 0x363861a8b6375a49U, 0x37133fc4374f45a0U, 0x3682100bb7989b27U,
  0x375fbee437047226U, 0x3412a290b73c013aU, 0xb64bdb5cb7320ab5U, 0xb7cb6d02b76c6f89U,
  0xb62d9dd8b763dd06U, 0xb76ca2213787164eU, 0xb826f24ab6bce794U, 0xb735ac4db6a13f1eU,
  0xb75a1928b7d18b9eU, 0x37e8656936b3705eU, 0xb79e518e37259604U, 0xb3acd650b7696dcaU,
  0xb6eeabbb37a5b0b5U, 0x3694798d36470198U, 0x370801e6379800c8U, 0x370bf6d33793009cU,
  0xb6a768e0b5d5d95cU, 0xb68e3981b7acf6ccU, 0xb7438a1837f800feU, 0x35bce60eb7ad151bU,
  0x374f11e3371b54ccU, 0x36247cc7b6ca5b4aU, 0x371e9361b4c78a00U, 0x350c34b0b620cc20U,
  0xb7dfb54437bd55e6U, 0x3674df4736ff87daU, 0x3731ac8c3724e058U, 0x3700cc10b554b260U,
  0xb71b023935214148U, 0x371338f4360ce0f5U, 0x37060dd5376417e3U, 0x377b1b88b6d6d74bU,
  0xb66e3098b58924a8U, 0x371b1beab5115e38U, 0xb71b672bb79d2db8U, 0x374c2760b7875912U,
  0x3735a147b6c9d4feU, 0x36150056b72d69ebU, 0x3684719837a07137U, 0xb6325c7cb600ec9aU,
  0xb53759b03749f0bbU, 0xb7ca5da5b7976294U, 0xb76965f4b75aa0baU, 0xb6d37c0ab7319c0dU,
  0xb70f2b90b7c61fb3U, 0xb752aaf735c9d868U, 0x3675f4e4b7315f6aU, 0xb7503184b5bc8618U,
  0xb72d6bb6b722de86U, 0x36ec93a036c4dcb2U, 0x367218143763b21bU, 0x3722017b356cba50U,
  0xb5e90842b6c31058U, 0xb741f7ec371cd978U, 0xb77372d9b708fe90U, 0x37cf9f6ab763998aU,
  0x3747b248b7c963b6U, 0x3645f964b74000fbU, 0xb7439cb3b7de07e3U, 0x36ded6e0b79242bcU,
  0xb78f82223738dc7bU, 0x370ccc11b6ba803aU, 0xb614da4fb72011deU, 0x3770365fb6d89814U,
  0x3750142e372b1868U, 0x37cb99df374334aaU, 0x36830ac5b70572c3U, 0x37000f2e374e4d48U,
  0x36bb2434b745b63bU, 0x337c7900378afdd1U, 0x3657caf2b6c635abU, 0x37a5ea5e3709685dU,
  0x36616e19b71e9cd1U, 0x36088fa835903622U, 0x36b415fe36cf5f94U, 0x379d2fabb68b6d0aU,
  0xb54a1c00374749e8U, 0x37c86eeb36ebbc86U, 0xb7763a0937a61422U, 0x368255dab6145338U,
  0x36b3e7c2b631abd2U, 0xb70fcd1837cfe950U, 0xb64a8f60b80977f6U, 0xb6d5077936172ad0U,
  0xb6c3b46ab6191944U, 0x35a6a1f0b78f312eU, 0xb5aba30c35db4bbfU, 0xb7936f2cb72c97c3U,
  0x36cf84bfb6e095a0U, 0x37391e08b6e10416U, 0x3817bdb6b687a3baU, 0xb688c2b03688f552U,
  0x35005848b7072befU, 0xb68ce40ab41497b0U, 0x36bf96aa37b49a8aU, 0xb6a46a7ab4e10670U,
  0xb6b8fca83716e732U, 0xb789a7fa372c5ecdU, 0x35543ae03707a856U, 0x361a1050b78735daU,
  0x35262a4e371892b4U, 0xb72707f2358c7e88U, 0xb7d1f6b8378b0534U, 0xb7bcd7beb660d6caU,
  0xb544a1d0b7aef8fdU, 0x37ba1d6bb7d0ceb5U, 0x3676eb6db78b51ebU, 0x377033c83635c825U,
  0xb67901c4372a11d2U, 0x37cc34263685c878U, 0x37414beeb6451868U, 0x37a7a738b6147fb4U,
  0xb70b119eb7f5e090U, 0x36d305dc37b84c79U, 0x363010c037821428U, 0x36d049a7b7393dc8U,
  0x375038b7b73ad62aU, 0xb74a9c18358abcd8U, 0xb60d5490b6b3789cU, 0xb79112c1b7cd3bffU,
  0x374f351e3703727dU, 0x3744356a37649fe6U, 0x36f1539c37586680U, 0xb6be112f36ca97acU,
  0xb711563d374693afU, 0x36cd42ae35ee1684U, 0xb6da7668b7004136U, 0xb5b0781634874f40U,
  0x36f2219c35ae6346U, 0xb765c300b68d616cU, 0xb629c4cab67a24bdU, 0xb6e38a8636ee5698U,
  0xb7d4e16a37779b84U, 0xb71f95cf374045beU, 0xb7113f5037c67a64U, 0xb6ff1d1b373ea8a7U,
  0xb74d4d08374b8b58U, 0xb782972eb69410d0U, 0xb73bd20e344cc640U, 0x35722938362ead47U,
  0xb6a72aee368c1ba8U, 0xb747bcf736dbef34U, 0x35c9de3837ae08caU, 0x36aa6dc43764cdebU,
  0xb70d9dd9b4d97f50U, 0xb4c30ea0b7deb27eU, 0xb5e5a06a36036810U, 0x35441be8b5bdaed6U,
  0xb6fd2c23b6d8938aU, 0xb77f16fdb70a9406U, 0x375a263db6830c9eU, 0x360a1ee837168d04U,
  0xb7cf14e4b5ae17a1U, 0xb71df8803680bd86U, 0xb799a3e0b56b5d00U, 0xb6a1469d36c4c53aU,
  0x36dd525cb61b338eU, 0x37381d68b629a7e6U, 0xb68ea71c370cac6aU, 0x375fc544b719f19aU,
  0x375a727ab5fd476cU, 0x367ce55eb68130deU, 0x37798288370f91b2U, 0xb82255a3b643bd6cU,
  0xb75510e8b6fd77b6U, 0x358c5448373c5ae5U, 0xb7ecb0a3b715437eU, 0x36b89ea037be001aU,
  0xb6554a6635041928U, 0xb708680c3654dff2U, 0xb6bf65223632bd28U, 0x37007479b69c188cU,
  0x378e88563634a2a5U, 0xb6d8c3fcb601def0U, 0xb757fd63b66cc360U, 0x370b618db793ef7fU,
  0x3728633fb6414e22U, 0xb58c9af0b73f3e1eU, 0xb711178a375812acU, 0x36211f30b77c65f6U,
  0x376872143763e720U, 0xb78a2874b5819b74U, 0x3752b260b6b2f919U, 0xb6d88859b752ef7cU,
  0xb68c108e374db7bfU, 0x36249c5a34f79f68U, 0x37a9536db717ae71U, 0xb6be8ff6b647b1a6U,
  0x349e25c8b6870036U, 0x363c8b8036317f14U, 0xb6c3dc0e367cb1b7U, 0x373b3739b79d0f22U,
  0x36b58d3f3681956eU, 0xb6496d04359a8f80U, 0x37736953b5cc1bf4U, 0xb5d25f683725e8f8U,
  0xb6a2c3b8b7376e11U, 0xb7058012b7551403U, 0x362d5b6035d62dc8U, 0xb70e9b74b4ae6e60U,
  0x3722659f376578caU, 0xb7a50272376dfa97U, 0xb78c3702366e3c02U, 0x366bcde9b78e5d68U,
  0xb6d1e11836b0582eU, 0xb6c5eca7b787f8faU, 0x37cf9da8b661e4fcU, 0xb714af96b77d2128U,
  0xb697959ab7217068U, 0xb7284bd7b4ee1ba0U, 0x3709e421374526c0U, 0x368c447ab4ee06d4U,
  0x377f474036eff62fU, 0x36cd0e6fb6ccc926U, 0x3768a75f37259634U, 0xb783b36237cc7e1cU,
  0xb6d5fc8eb81730faU, 0x36ad8cceb74533bdU, 0x362358a63673b1e2U, 0xb53bcb86b73bf4b5U,
  0x3700c03cb6b2fa8cU, 0xb6479584370c367aU, 0xb70d5289371927f6U, 0xb655dbdc36f43966U,
  0xb7872ab8b7490fecU, 0x361d4194b71ec7acU, 0xb5a6f560b7be59b9U, 0xb75c39c1b5d70018U,
  0xb53d2518370dd088U, 0x3708446eb7aa4105U, 0xb3c3c2003713daaaU, 0xb60ca7db36420e2eU,
  0x37b5bde136958555U, 0x36c57d713736f0a8U, 0xb73056c4b66d74e1U, 0x36014df9b71d7239U,
  0x335df4c0b736ce4aU, 0x350086603617aa04U, 0xb5849550b64421a0U, 0xb69417a236bde6a0U,
  0xb78da39cb74122acU, 0xb6b4070c37870d94U, 0x370bc62437eac0d8U, 0xb716e62a374a620fU,
  0x36bc5e32b7e139abU, 0xb64c100d36398ae5U, 0xb7b9600eb70864faU, 0xb6d9558bb72e0b34U,
  0xb6f1f43c3713c3dcU, 0x373e3aa6b718069aU, 0xb714ec8c378ee22cU, 0xb7a72ce6b5b68dd0U,
  0x37145530b76cf407U, 0xb4f5f0d8b4904390U, 0xb7518b5ab65a3184U, 0x371d9aa2b71aa11bU,
  0x3480a01836f3c710U, 0x378b792ab71eff78U, 0x37ed1679b6e16013U, 0x370f9067b78e1f17U,
  0x377b78f93798079eU, 0x36cdbfdc36a1f6c6U, 0x372011e3378acc20U, 0x3793051637621e6cU,
  0x37d2bd15b6b33086U, 0x3750d4533755d1bcU, 0xb5a31458b7759e89U, 0xb69d6bb8b6fb6b93U,
  0xb6a06a04b74470e1U, 0xb686fe81b5eec064U, 0x36135dacb5bd2314U, 0xb81bb6e0343cc980U,
  0xb6b3af40b76911b0U, 0xb6a3aed7358a8166U, 0x364f7084b4c6f7b0U, 0xb5ec100837cadbe6U,
  0x36c8d90e37674aa4U, 0x36945e3236a27fc4U, 0x3727d069373e480cU, 0xb695cad4b72e5d57U,
  0xb6330610b6396e8aU, 0xb6822bfbb58478b8U, 0x35bf011eb66248a3U, 0x3688ec87b6b655b4U,
  0x37bd6071355c6d18U, 0x375f7e00374d0abdU, 0x36904eb5b738c6a0U, 0x35d6adb037888461U,
  0x37408f72361707f8U, 0xb782cbf6b65e66dcU, 0x3714aa8136d9511eU, 0xb8011186378a3940U,
  0x3748110bb73bbd98U, 0x3771e4bab661c10eU, 0xb7168224374f19baU, 0x36f0a26a3528af30U,
  0x35c78e5837523f63U, 0xb60b28e037f74e8aU, 0x379a1d4e36fc11c7U, 0xb713386c36563fe6U,
  0x35cc3188b65a35f1U, 0xb65c2324351727a8U, 0xb7108fcdb7de06e2U, 0x37047083b560b894U,
  0xb6a8ebac3552b53cU, 0x376babf0372712deU, 0xb7276bccb692b110U, 0xb6d2f88fb81c9450U,
  0x3625daf0b7145144U, 0x3758c9beb6b5efb1U, 0xb6cc54c8366d1874U, 0xb6ee0453b5cbf102U,
  0xb777d335b538fce0U, 0xb698f248367ba5dbU, 0x36ce427a37491628U, 0xb6a98d18b6b4b984U,
  0xb69d495435017d98U, 0xb82737e6374f898dU, 0x36a36caab77db5e4U, 0x373ab6bcb69ee8c4U,
  0x36ab5c70b7208304U, 0xb708985d36d44bf7U, 0xb6bad4dcb6cf94d6U, 0xb6a9cc8cb7515758U,
  0x36f8fd87361a9038U, 0xb7264ec6b6ad3a78U, 0xb75a89c434cd82e0U, 0x373d6464b6ccbb70U,
  0xb74095c5b690b3e4U, 0x34d3e560378419dcU, 0xb41a85b0b61506a3U, 0x37189c8ab64a5cd8U,
  0x3789d03c361ebfa8U, 0x37369854b604ca56U, 0xb70fe208b6ab19beU, 0xb6ce3e1db743bc43U,
  0xb6c5a537b76cb1b0U, 0xb5a5442836cb911aU, 0xb739b2f137b28529U, 0x3741f457373ec472U,
