
/**
  ******************************************************************************
  * @file    network_data.c
  * @author  AST Embedded Analytics Research Platform
  * @date    Tue Sep 20 11:31:23 2022
  * @brief   AI Tool Automatic Code Generator for Embedded NN computing
  ******************************************************************************
  * @attention
  *
  * Copyright (c) 2021 STMicroelectronics.
  * All rights reserved.
  *
  * This software is licensed under terms that can be found in the LICENSE file
  * in the root directory of this software component.
  * If no LICENSE file comes with this software, it is provided AS-IS.
  ******************************************************************************
  */
#include "network_data.h"
#include "ai_platform_interface.h"

AI_API_DECLARE_BEGIN

AI_ALIGNED(32)
const ai_u64 s_network_network_weights_array_u64[ 5322 ] = {
  0xbd053e2b3c820590U, 0xbe2b68e83d911da8U, 0x3db486b3bd92f035U, 0x3da89454bdc7b2f1U,
  0x3c8724b03e21b9b3U, 0xbe0df91dbd8926f3U, 0x3da2bde23db75808U, 0x3db8c297be215b29U,
  0x3b8e99483d42dfecU, 0x3dbffcff3c243194U, 0xbe00d376bdfc1f80U, 0xbd87f996be3d8f15U,
  0x3e1573b6bd360071U, 0xbc9d7f2d3e20a70dU, 0xbdae187ebe0793c9U, 0x3d64c5cbbc4c2eb7U,
  0xbd9a4ca43dbffd81U, 0xbbd643e23d476142U, 0x3e296a4ebdf6bcd6U, 0xbd454e233dea293eU,
  0xbe4f301a3c79721cU, 0xbde69c203dd7bf42U, 0xbd58f4bf3da37321U, 0xbd76569f3c3317fcU,
  0x3e2bbecdbc00e012U, 0x3c9602e83e05e77fU, 0x3e10e7663bffd976U, 0x3b299d3d3df02978U,
  0x3df60c813e0b136aU, 0xbdf89fb13e1b369bU, 0xbdb541c03d402de8U, 0xbdafec9c3dda924dU,
  0x3c3a580f3e09c894U, 0xb9dae475bc8794d6U, 0xbd56360c3d30c37eU, 0xbe14ea37b7740e7cU,
  0xbe0c7f34bcf7164aU, 0xbb7c91c03d1eb1c1U, 0x3dd9e456bd333038U, 0xbd2c8ec1be0f80e9U,
  0x3de0efbf3d5a1b4dU, 0xbd3ad1e7bdc7097cU, 0x3d92ca133c2f9b2bU, 0x3e030623bbb743c0U,
  0x3d76ceaa3e05dc90U, 0xbdff9396be0b3787U, 0x3c4b549b3dec3d27U, 0x3db3d5dfbe274c7cU,
  0x3e246e8d3c85a495U, 0xbdb37a0dbd5ef610U, 0xbe21a23cbce25b87U, 0x3d9feb3b3d8db779U,
  0xbde427cabe07fa24U, 0x3e13ea063d3622c6U, 0xbcae489f3e162b10U, 0x3db9627fbcd56023U,
  0xbb6c61413cec7c02U, 0x3e38babbbe01fc05U, 0xbda4402ebbdd2666U, 0x3afef78d39b91b1eU,
  0xb7b9585139c86925U, 0xb782b3c437032b00U, 0xb6b64ab13617d214U, 0xb6444edab72445bbU,
  0x3d03caf3bca48000U, 0xbe07e4e4bd82c664U, 0x3da51f7c3e23e981U, 0xbdeb48cf3df41b68U,
  0x3de5ac803cf37e25U, 0xbd851236bda36ec3U, 0x3d574574bca72e87U, 0x3df1f508bddaa6fcU,
  0xbe3f6f163d2a597bU, 0x3baf62abbd5b9e9eU, 0x3e20e4473e229cdaU, 0xbdd1e8dd3d2cc394U,
  0x3da0114cbd77d546U, 0x3d8fb8a5be15a4b1U, 0x3cd3f3fcbe26f7bfU, 0x3e3a9dd63e162c82U,
  0x3e28b84c3cab57a4U, 0xbdc862aa3e130ad6U, 0x3d1c7cdabe220eb1U, 0xbd7b1aba3ce2437aU,
  0x3e201b483d537e48U, 0xbca9f4003df12f33U, 0xbd1861d8bd544d55U, 0xbdfe8801bd0a67aaU,
  0x3e078161bce0777dU, 0xbd9575703cd53111U, 0xbdc21577bd72d60dU, 0xbd711660be33022bU,
  0xbe12e7393d29bf9cU, 0x3dafd4aebbb5cbdbU, 0x3ccc97e63c95cdc2U, 0x3d41c202be2f2ed6U,
  0xbe3c3a16bd7858dfU, 0xbc733d50bd121d88U, 0x3e4145b039fac8f7U, 0xbdbc13ea3a890a85U,
  0x3e1cc875bda07f6cU, 0xbdb515ca3e15197aU, 0x3e7f5e743d9291f4U, 0xbdb42647bc1877efU,
  0x3d6b4fc43dae2e34U, 0x3d80a09b3d86c255U, 0xbd47fbf03debadaaU, 0xbd7093bc3d6141b9U,
  0x3d8e5436bdae664aU, 0xbdb139d6ba745778U, 0xbd9887f7bd9f805cU, 0x3e1c66f93d828a47U,
  0x3d299a8e3e12a113U, 0xbe08f188bd0025a2U, 0x3aee52edbd022299U, 0x3d95322ebd124f06U,
  0xbde8c6dd3e10e5d5U, 0x3c8bc31dbdbca409U, 0xbd36b096bb964709U, 0xbdb7ff1cbd545885U,
  0x3e348c503e209053U, 0x3e213f883df1882fU, 0x3d460e493e6aeecaU, 0x3820054d39846d1cU,
  0x39414e34b80d363cU, 0xb7a1cc26376d73baU, 0x38e5868c37dd2fe7U, 0xb74f93e0394f5cdfU,
  0xbc5274a5bcdd5c41U, 0x3e5cde96bdbe7380U, 0xbcbaee963db9f493U, 0x3c2fb326bd7b1b40U,
  0x3dbb0d9cbd66970dU, 0x3da5c850bc0c65a1U, 0xbdbb0f93bdf3ee0cU, 0xbdfdd00d3e363316U,
  0xbe1038b03d5a706cU, 0x3dd830b6bdfeb322U, 0x3d029603bcdec7faU, 0xbe10b8873dc4a3b9U,
  0x3e369e27bde3bba4U, 0xbdfb165ebb331142U, 0xbdac91a83d86118fU, 0xbdaee327bd443ce7U,
  0xbdfefc09bc6520d3U, 0xbdff10bdbd9c45c0U, 0x3e144d85bdd000e6U, 0xbdc53b14bddf9a2aU,
  0x3c925c60bc6b4bcbU, 0x3d03701bbde9e39eU, 0x3e1af2fa3d3d8070U, 0xbc0603263e21dfd6U,
  0x3dd01a4e3de17b51U, 0x3c216fce3d6e8adaU, 0xbcd8da203c2c2680U, 0x3a267382b9845841U,
  0x3c6edd4bba9d799fU, 0x3b4461a9bb174873U, 0xbad695f2bcd8a7baU, 0xbc077c503d06ea14U,
  0xbc35035dbb0bbe32U, 0xbe18e218bdbe7cdbU, 0x3d8e9723bcdabb0fU, 0xbd51357d3b35a7d6U,
  0xbd9ccdb2bdf832f6U, 0xb7daba68bde2c105U, 0xbd64e02a3d1dce9fU, 0x3a4def0a3d81a8f8U,
  0xbd9837f2bde4e466U, 0xb65fe93d39bd8605U, 0x3777f9d0b9bbc5e7U, 0x399dae833d3b377cU,
  0x3d47ed243d8e6ec2U, 0xbde2665dbc1e74b4U, 0x3d5ffedebdf75d0aU, 0x3a187f19ba2457a7U,
  0xbcbafa5c3cde40beU, 0x3a40ef613d354573U, 0x3a417ed4bd56c4ddU, 0xbdcdbf92bd8b1a36U,
  0xbc0b045fbc13cf7dU, 0x3a8fdc873ae656b2U, 0xbe097dd4bd2cc930U, 0x36adab643a832753U,
  0xb738ef8eb93e97e0U, 0x37323d6e3787144cU, 0x3793346e3732cc1eU, 0xb74da864373d47d3U,
  0xb81dc527b71a0656U, 0x36d13cc836f6b7b2U, 0x37a7f271b6dd8e98U, 0x37804a92b79acb9dU,
  0xbe212a2f3c8fcc26U, 0x3e0d902ebcb6c556U, 0x3db1d24f3dd77317U, 0x3d9920203d73a82dU,
  0xbe4b235fbe239814U, 0xbcd6f07bbd03d8f9U, 0x3dd5526e3d097af2U, 0xbc21297cbbee63abU,
  0xbe0083803dd93115U, 0x3df88613bb5c1f8dU, 0x3e0c7bf8be30c324U, 0x3cfe1a2dbe149772U,
  0xbdce8d323d16c233U, 0x3d416e3dbc28e90fU, 0xbde592043e24be2cU, 0x3e00c4d3be12f546U,
  0xbd7145343beae148U, 0x3c88d0d83e0af554U, 0xbc6aff533da8c075U, 0xbc56493c3c05c249U,
  0xbe37c907bd682862U, 0x3cf87ac83e105550U, 0xbe061bd23d8ce524U, 0xbd94489bbbf1d3baU,
  0xbcab10383c2c187bU, 0xbdc6c3a1bd8f5491U, 0xbd1b82e8bc8586baU, 0xbdccc1e3bd5b9b98U,
  0x3d63b582bd570dd3U, 0xbd9a4c14be030afbU, 0x3dd702593e0494faU, 0xbd2074243e3949feU,
  0xbdbcf01a3e45927aU, 0xbe39141f3dc257f4U, 0xbe0055773a040c03U, 0xbe08fdc03d0791e0U,
  0x3c05b8e3bb347ecbU, 0x3dd492ee3d3fec68U, 0xbd4cbc1d3df0b125U, 0x3dd16afc3d725250U,
  0x3e14a3563d8dd03cU, 0xbcf64e5fbddd9111U, 0xbbb748403e221afcU, 0xbe0483083e1c0419U,
  0xbde46e9dbaad91feU, 0x3d4844e1bdbe6b2cU, 0x3e137a7abe141f5dU, 0x3dea4a753decdf13U,
  0x3b0492b43d520b70U, 0xbc5d1f59bdafb428U, 0xbd2591133a1a3051U, 0x3dcc28c13a854b9eU,
  0xbe020e5d3d1e142eU, 0xbda6594ebd26c639U, 0xbbf2acd63dab9424U, 0xbe1047c7bb1eaceeU,
  0x3da87c87bd1260b8U, 0xbc7adced3df389a6U, 0x398db1bd3d9fa066U, 0x38b737503d0c8e8dU,
  0x36cf7115b79e3dd4U, 0x37a802dd37e594b4U, 0x38066ac2384048c4U, 0x37e644563832317cU,
  0x3c98af1f3d533973U, 0xbdbea614bcd7d082U, 0xbd910537bd9db71eU, 0xbd8b96143e107330U,
  0x3ca4d26cbda6c14eU, 0x3cb97bc6bcb90632U, 0xbc4d4e273d5d0ca9U, 0x3ae1561f3d220606U,
  0x3cf2236ebd739303U, 0x3c878f463c5f1a52U, 0x3d8821e63c7e7bd5U, 0xbc31a6d3bbbfb957U,
  0x3c3da50bbc14ac81U, 0xbb80cc2f3d1416a8U, 0xbc0c235a3c91edb5U, 0x3bd2da63b9e2cca3U,
  0xb9b7694c3b2f2397U, 0x3ccb8c173d52c2bfU, 0x3cd2d1e53c1eac72U, 0x3c989b9d3d9267c1U,
  0x3d9ea0c23ca23e8cU, 0xbc21a7943cbc08a5U, 0x3c80c265bc5d77cbU, 0xbb6d0f24bd2a95b3U,
  0x3cbd9a70bc0f06bfU, 0xbd66514a3c1e2afbU, 0x3d274c3bbcd3b3c7U, 0xbc400c043d31c076U,
  0x3bbfede03ae8deccU, 0xbad43951bd92a23dU, 0xbc35201a3c3f4e3eU, 0x3c7ecea53b9d4e53U,
  0x3c486fd93c81afdfU, 0xbc9b26923cc4faa0U, 0x3c956686b9e80c06U, 0x3c0ba2003b36a177U,
  0xbd15da823ad4e1f7U, 0x3d0a9a7f3a0589c9U, 0x3b1ee3d63a6391faU, 0x3bfb2e2b3c3ccaefU,
  0x3a5a332e3b65cf35U, 0xbcaa82d1bd37dbe5U, 0xbd004580bc80a315U, 0xba38deafbcb1ee1cU,
  0xbd515607bcee9c70U, 0x3c126558bca37485U, 0x3a8e5fc8baea4ba1U, 0x3c17642d3a34a196U,
  0xba08c76f3a692cc4U, 0xbd13e946bc9def8bU, 0x3a5f9624bd450485U, 0x3c865bbc3c5a704eU,
  0x3d797fe13c025a45U, 0x3b016f093c2c6c67U, 0x3bc754933a82b42bU, 0x3cdf86cc3d3dd78bU,
  0xbbee87edb7687b06U, 0x39e02c713a62db2eU, 0xb7e2859a39cd4100U, 0x37112f0eb8894006U,
  0xb85dad81373925beU, 0xb7abce1f353735e8U, 0x37d42fdab6821016U, 0xb604f20a37f8580fU,
  0xbd9a2f323d3d77e5U, 0xbd8829083e007efbU, 0x3dc1b9eabda58cebU, 0xbc5c63793d97e525U,
  0xbd463291be0382a1U, 0xbc87b57b3dd04407U, 0xbe0345cf3d1cd6bfU, 0x3d78f1a73da43b76U,
  0x3de0fe1e3df8991aU, 0x3c38ba653d524ec9U, 0xbd83b214bdf46167U, 0x3daca2593dbfe4a5U,
  0x3e212137bdbd5ef8U, 0x3c4fa0683d92ac64U, 0xbe26ef823e25ad40U, 0x3e0f87a13e1395a6U,
  0xbe107600bd5a10f2U, 0x3da2cec9baa5a6f1U, 0x3de8c6ed3d7d4824U, 0x3c8942f3bdde3488U,
  0x3b7ed5d5bd670115U, 0xbb74cf483cc5cf0eU, 0x3ad07e203e256f90U, 0xbdb487773e133420U,
  0x3dee61e93e227b7dU, 0xbd59f8373d88bd53U, 0xbdb75b5fbd38107eU, 0xbdb778143e135facU,
  0xbdd8fd3b3d928e35U, 0xbe09ae75bdc382f9U, 0x3e32ffa2bdbb6662U, 0x3e36f9b8bd3fddc5U,
  0x3d621de3be0066a8U, 0x3d4f07763e41d765U, 0xbd8871bbbe027371U, 0x3da7b8cbbdaa617dU,
  0xbe0ac39739dc845cU, 0xbc848ec73cbc2d1cU, 0x3dcb38df3dab3fceU, 0xbd35abb6bd077043U,
  0x3d459b5abe02a69dU, 0xbdbbe38c3dc692c1U, 0xbd5ab1eabde29bf7U, 0xb8c94806bd98e13eU,
  0x398106de3d956228U, 0x3b1468823e1108f7U, 0x3da2478b3e02b426U, 0xbbc8eb813e19749aU,
  0xba9d65583d6e4799U, 0x3cae9fe43e35797fU, 0x3e0cc4653e05921fU, 0xbc8210f93c649eedU,
  0x3e27540b3ce79842U, 0x3d934fcabd90497dU, 0xba9995303dd8af92U, 0xbca2735f3a8d882fU,
  0xbdb19687bddca722U, 0x3d2b518d3d0b704aU, 0xb8f37dacbc20c4a6U, 0xb622d620b79a6f9fU,
  0xb8db6ded37ad1fb0U, 0xb8e53c56b8e8f70fU, 0xb9a79af6b94da7b7U, 0xb8e66538b9950d07U,
  0x3e86d7cf3da3d455U, 0x3d3afd133e91756eU, 0x3c8ae5acbcd221bdU, 0x3de8d010be090e62U,
  0xbe1fcc73be06cd2dU, 0x3d0052e2bd10647bU, 0x3ddab4b5bd058cc1U, 0xbe01b19dbcfe6191U,
  0xbe1bf1f03ca7d063U, 0xbd25f5c8bd801454U, 0x3d8a89633d0e979aU, 0xbd615fd9bdaf027fU,
  0xbd8397c03dd9f80aU, 0x3dc0d3233dae00b6U, 0xbd2138a43e1d14ecU, 0x3cdf35143e093236U,
  0x3ddf3f79bd557d12U, 0xbe0d091c3da2ab71U, 0xbdcec0da3dc1f46dU, 0xbdc422003dd9127cU,
  0x3d135b233db9e14bU, 0xbc14d6ebbc89fb49U, 0xbdcf2fce3d306901U, 0xbdf17189bd3448f6U,
  0xbd1899753dce5bdbU, 0x3d3bdbe03d88011cU, 0xbcb3fdc13dd4ea48U, 0xbd90ebfd3da6b231U,
  0xb8e0fe98bb1f15e7U, 0xbdab4cff3e23deadU, 0x3e2cdcdcbd2d27b5U, 0x3d27e5b93d9ffd4aU,
  0x3e08c91dbde3b45fU, 0x3e67ea5a3e0ca283U, 0xbdd6e6e93d3787cbU, 0x3da469513d820af6U,
  0xbc35d300be21544eU, 0x3d3629463e087febU, 0xbe037877bd2ba66cU, 0x3b970472bbc79298U,
  0x3e1707bb3e20207dU, 0xbded0ed5bd9aec65U, 0x3e263e1cbcfd668bU, 0x3d60ba973d2bfc0aU,
  0xbde0f68cbd58a5beU, 0x3da0cd05bd827e9eU, 0xbd92e33cbdf8efdcU, 0xbe0f734dbd73cd97U,
  0xbaaab588be4028dbU, 0xbd659285bdf7e9d5U, 0xbe0218e0bd7956e5U, 0x3d9693643d8b6d94U,
  0xbda5295bbdf2fe53U, 0x3e15c512bb0573c0U, 0x3e22777bbe03de56U, 0xbd5bf882bc9b72d1U,
  0xbe390b3cbd8f0ed5U, 0x3c30e04cbcd51958U, 0x3d1843a7bbfb725bU, 0xba0dd890bd2b30a6U,
  0x3d6d6577b9859d82U, 0x3d1b0a4c39659e0aU, 0x379c22f13d09f203U, 0x38d0aa593e1a9e19U,
  0x3d4e55ffbdb7fc0fU, 0xbc15092ebe40d0d6U, 0xbe01127d3deabde0U, 0x3e1467403d130465U,
  0xbe02a4f73b7c1825U, 0xbe0cb7d03e4a0122U, 0xbd82af603e1795cdU, 0x3dae331b3dfe9f64U,
  0xbdad1c37bdd6d815U, 0x3d74b25fbdc9ede2U, 0xbde103a33dca057fU, 0x3de70a95bd801f30U,
  0x3e2e75ec3d470b0cU, 0x3d965cb53da6e411U, 0x3dcca9d2bde32362U, 0x3d90eea6bc6ec8e8U,
  0xbe1479f7bdddf1d2U, 0x3ca4e1bebe110ca9U, 0xbd2b1cf03d628aa2U, 0xbe08eb0f3b56d067U,
  0x3da8a3c93e28264dU, 0x3d4dff48bd120ed3U, 0x3dd73a85bc6f1906U, 0xbb9ae524bdcd19d0U,
  0xbe1410a13d864304U, 0x3e1e48983d10e88bU, 0xbe01bb7b3d8cccacU, 0x3bebb086bd561809U,
  0x3e2144cbbcb39bc5U, 0xbd27a7debdf4a412U, 0x3dbb69cdbd1aa112U, 0xbdcf5ad2bb4bb3e2U,
  0xbc769f10bd2389f8U, 0xbe42138cbcebd611U, 0x3d810a80be033989U, 0xbe00490abe36cbdeU,
  0x3e0bad83bd7b9f0eU, 0x3d54de22bd8dbdd1U, 0xbddeb7ff3c91ebaaU, 0x3daa0b84bcfab0f9U,
  0xbdd3347abdd90e61U, 0xbe1ba977be522537U, 0xbdb4272a3dccd91fU, 0x3dbd5c543dfc91c3U,
  0x3d647108bdb8058bU, 0xb819208a3e07ca48U, 0x3e2f42cd3db7be32U, 0xbe48daf83cdde3d9U,
  0x3dd88fb1be297fbeU, 0x3e22c6fb3ba92312U, 0xbd4eda5ebdb053aaU, 0x3d7f3820bcfd2f58U,
  0xbe3413c8bcb9c623U, 0xbd1cce28bce6e72bU, 0x3c3238393d07c453U, 0x3de39359be4d52dfU,
  0xbd1e16c33e0e2f31U, 0x3e0764e93dcf78a0U, 0xbdfcaeb63d59f997U, 0x39dd07a93ccd8687U,
  0x3c93806d3d7d60f4U, 0xb790e0b9b8e8e3e8U, 0xb811249b37c88823U, 0xb86a1e6eb82e1fdaU,
  0xbbe6ce4bbe3b7889U, 0x3d746d2cbdf10bbaU, 0xbdfab50ebdfc7603U, 0xbd043150bc73e2cfU,
  0xbe0cd839bdbf14d5U, 0xbd7b9fec3d94c8cfU, 0xbdbb00ef3d0d2e2cU, 0xbdb31feebd9790d5U,
  0xbe270241bd839cd6U, 0xbddc18953e3edbc1U, 0xbe4378123d1a6b4bU, 0x3dd1f0a13dd822c5U,
  0x3d2a816e3e18e76fU, 0x3dc092cdbd41309fU, 0xbc1d3f423e0c29bfU, 0xbd6680f6bda1d4a9U,
  0x3dc1b12c3e2ec7d3U, 0xbd1c1922be153653U, 0x3ca6a8553e078eaaU, 0x3c118fe03e40f7d1U,
  0x3d1ad4f2bcf1ca74U, 0x3d5a47f6bc65ac23U, 0xbdb354d8be25297bU, 0xbe10e7e9bd1dd000U,
  0x3e007423be1f9235U, 0xbe1e86003cfb57dfU, 0xbdb2b594bcbf80b1U, 0x3ddc55b33de8f193U,
  0x3d802af3bde71fcfU, 0xbd258d633d1b3019U, 0xbdf2b8913c1e08dbU, 0xbcc6af40be2970eaU,
  0xbd878fdcbd56b28aU, 0xbdf95b4bbdf4cee8U, 0x3c4927243d590b97U, 0x3d1b5d7f3ddcb2d8U,
  0x3ad9ea653a18e3e1U, 0x3d2c7b643e085b1bU, 0xbe149d6fba0f64dcU, 0xbc4260c23869ee2fU,
  0x3c92d7c23c062918U, 0xbd9dcdd43da5125aU, 0x3c9a6143be128b70U, 0x3d4ac6933d2c03d1U,
  0x3da3a825bd126474U, 0xbd80235839efe629U, 0xbdf3335c3d4068e5U, 0x3ddf63e73af63c95U,
  0xbde74b273e21795cU, 0x3d28b1c33cd64f1cU, 0x3e08e420bc565f99U, 0x3d923de2bd734512U,
  0x3911f7babb08b091U, 0x3add30f9bbef4251U, 0xba8f5bbcbc6bf82fU, 0xbdcf803ebdfee4ebU,
  0xbd6a95763a9cb328U, 0xb96756c936949c96U, 0x39d36ea237f4fb89U, 0x37c3ec4a39f2097cU,
  0x36c307ccb6986e24U, 0xb5e5af983656b4b0U, 0xb80fefd035a5c930U, 0x35e5b000b706d692U,
  0xbc37fefbbe2d0c39U, 0xbe1e31c4bd9161ffU, 0x3e3eeb663d935ca5U, 0x3dd9563dbd983bd3U,
  0xbd4a2ff03dba7f90U, 0xbcccdd8fbcd80ae1U, 0xbdc71521bd5a7a94U, 0x3dbaf5ba3e102996U,
  0xbe77eb97bdafcfefU, 0x3d11bb4e3d693168U, 0xbe0c587bbcf2a3ffU, 0x3d715555bdee719bU,
  0xbdc57f7c3dfd1baeU, 0x3c90be48be1cb7a7U, 0xbd4d4a0c3c754b6fU, 0x3e0c35fbbd4f749bU,
  0x3c88e3f23e075dccU, 0x3de950c23e061d74U, 0x3d8d9c10be0d3f1fU, 0x3cb9a6583d0e1f63U,
  0xbd2adb77bd67534aU, 0x3cd63fe3bde0d770U, 0xbc91a72c3bf65b66U, 0x3ce324d33b833796U,
  0xbe3313eabe004753U, 0xbdf34ce0bd0fd0fbU, 0x3c9168713e188847U, 0x3dbb81893e2cff38U,
  0xbe047b363cef31a3U, 0xbc82131a38157050U, 0x3da92ae3bc61f788U, 0xbe0cc9a1bd9d8883U,
  0x3e12de413cbc319cU, 0xbe2dc0ea3d731e62U, 0x3d282fc0bcb96d44U, 0x3dc41af639c28815U,
  0x3d8a55b53a696050U, 0x3d00300e3d395983U, 0x3d16fa74bc07125eU, 0x3d3b038c3d7b4e9aU,
  0x3d97048a3e24c198U, 0x3d336f00b9341a28U, 0x3e17d4743ce37c02U, 0xbc7e8a0fbcea6970U,
  0x3dab2a923d3b11d6U, 0xbc6c86023cdbf1beU, 0x3c1e59b53e0919e1U, 0xbe15c11dbdc4a537U,
  0xbdef4bc6be056ca3U, 0x3e096647bd986b45U, 0x3d99db1a3e198bd2U, 0xbdda91263c668e55U,
  0x3dae4272bdbf81aaU, 0xbe2acfee3dd2dd99U, 0x3e0399f1bd1508c7U, 0xbd244f94bd156e58U,
  0x3dc30cf83dd6a458U, 0x38da721fbdfa2727U, 0x398d706cbacccb34U, 0x39d87bcc39591457U,
  0x38df583839f87a60U, 0x37856d8237c7560cU, 0x38261f80b6b0e188U, 0x37cebd3bb67b5f54U,
  0xbdd798b9bdc71a27U, 0xbb39ac6dbdf3e62cU, 0x3dc76f77bdaa0c88U, 0xbdc0464ebcee2ce1U,
  0x3c99f611bda8260dU, 0xbd23fa7bbd047213U, 0x3ca582bfbd799ef1U, 0x3e2bac2ebe05bf13U,
  0xbdac58523e04a302U, 0x3de22bf93d293906U, 0xbde95fe43dace396U, 0xbd29a0e53d6a308bU,
  0xbd9421983dcbbdd6U, 0x3e3c3813be0f5b6cU, 0x3d3110ac3df5927eU, 0x3d4271bf3db4b27fU,
  0x3de5fd5bbe0d4645U, 0x3e03b829bba9464fU, 0xbd9d90463c3eabf6U, 0x3e00f2fcbd01e5b9U,
  0x3e0de409bd912ef7U, 0xbe0431d6bc03b2c7U, 0xbe2b315abd42a231U, 0x3de3da213d929381U,
  0xbd1035223bb3318cU, 0xbd8c18fabdc042c3U, 0xbd0ce44f3db66b02U, 0x3d413523bd9a3187U,
  0x3d7fc4adbd72eeecU, 0xbe051c5bbcbca40aU, 0xbdc6c82a3da7ec38U, 0x3e20477c3bc64b5eU,
  0xbe29edfb3e2331abU, 0xbe213ebcbdda6012U, 0x3e078ee5bbea869fU, 0xbdd863133e096a4aU,
  0xbdc13831bb73ae06U, 0x3d90f51d3e265e40U, 0x3d1ce8333debe4a2U, 0x3d59d8f23d59f7fbU,
  0x3e2db0a0bc064364U, 0xbd776ae93e22f43eU, 0x3c22cd9abd35575aU, 0x3e0b4e5c3d1f02a1U,
  0x3e102c54bd565b46U, 0x3e354ee0bc26f380U, 0xbe10ccfebe0a61b6U, 0x3d0362183e177102U,
  0x3e11e171bdc1cb08U, 0x3e0d67e4bdb678afU, 0xbd5c2cac3d842c43U, 0xbc5f86d73b9cdc79U,
  0x3c1cf733bdcbf6d9U, 0x3e14382e3bad230fU, 0x3e32709abe0ddcbbU, 0x3d7cfa603e5a6059U,
  0x3da294afbdc17507U, 0xbd4ae11fbd2c72a5U, 0x3e161c4c3e202c2eU, 0x3a8a47ac3a3dd7b0U,
  0x38a6fc8d3a2d35efU, 0xb880d6f1b8aadaebU, 0x34f854c8b8a80de5U, 0xb9251696b8082419U,
  0x3d0ec415bdc91d6eU, 0x3cf8a527be2980d0U, 0xbdb855293e273f24U, 0x3d7e16673d619d38U,
  0xbde353223de7265dU, 0x3e0a76af3e03bacdU, 0x3d4116163e1f0d5fU, 0x3e31966dbda8183eU,
  0x3de3c30e3e038830U, 0xbdd5e6173dcad540U, 0x3cb9bfc4bd43fa41U, 0x3dc80ec8bb8d44e8U,
  0xbe3894003d0e026bU, 0xbcf73090bd2e8b0aU, 0x3d84002e3cd45485U, 0xbe0ed2e4be073bebU,
  0xbe05cb87ba9c6f82U, 0x3d80b7b7bc26bceeU, 0xbce4bbdcbca08a77U, 0xbe15431f3dbf0964U,
  0x3dae08333dae8c80U, 0x3db56321be27c7d0U, 0x3e0b16243de8dcfdU, 0xbdcb8397bc6ecac5U,
  0x3e2186133d978f32U, 0x3e2f9953bd5a380eU, 0x3e1de3683d7e00d3U, 0xbd200c4cbe3c9090U,
  0x3b4a631f3e0533c1U, 0xbd1550083e32a393U, 0x3d48bca13da1c745U, 0x3a7952913db4d03eU,
  0x3d3d437bbe0e3419U, 0xbda06249be1629caU, 0x3d3cb823bcaf33eaU, 0xbd9a9e393c9d4b7dU,
  0x3cd2b7f3bc854151U, 0x3e1810b33daab349U, 0xbcd27f97bdaf819cU, 0x3dc1bdc2bde84d4aU,
  0x3d6f389fbdfbed89U, 0x3e0fe0c1bd618727U, 0x3e1710b2be29c5cfU, 0xbe36b9483d92cb65U,
  0x3dd814253cf9f052U, 0xbc0088afbe29e071U, 0xbdcee074bc7737a0U, 0x3e1b0c333dfbb1d5U,
  0x3cd3ee973c5b0737U, 0xbe230fe13dc2ce5bU, 0x3d3290813d256cd7U, 0xbd2e44a73d8fa6c6U,
  0x3e19fda7bd9f75a1U, 0x3d921f48bd4332c3U, 0xbdb66f2cbe22d98eU, 0xbdf586763d9e197aU,
  0xbd02c0f0bcd1ef2dU, 0xbdb4e507bdd48e02U, 0xbdb3a7eabe07472dU, 0xbcae4d683da15056U,
  0x39099d633e0dde18U, 0xb87b6bc2b7e03c9cU, 0x38ab519fb750948fU, 0xb88e2348b7f4c798U,
  0xbe62c2e63d85bc27U, 0xbe4d86aebe499d0fU, 0xb92d593a3d877a99U, 0xbe1c0585bd74afddU,
  0xbdc495cfbda664cdU, 0xbe38396dbd3e11e6U, 0x3bbf8a9e3d4a221cU, 0xbe1434393d1f5139U,
  0xbe262e593e030ec9U, 0xbe05a66f3e2572ecU, 0xbe08eac03d99a286U, 0xbe0a026f3def6105U,
  0x3d469a2f3e13944eU, 0x3cc15ecb3db77c53U, 0xbc786dffbd1de868U, 0xbd9f5f46bd80b8c3U,
  0x3dd8be2c3d6ac43bU, 0xbd6c88ad3e38e03cU, 0x3d97db84ba736bdaU, 0xbca1a3ca3e12a94fU,
  0xbe0c334fbd2c84f4U, 0xbc35d9d8bba8a850U, 0x3d85e5563c898877U, 0x3da205d9bc542708U,
  0x3adfab0cbde5eb75U, 0x3dcee371be04576eU, 0xbc8a46543d5f4e24U, 0x3e3484043dc9d62aU,
  0xbcf0887e3bb3595cU, 0x3dcfb8c83d6d5d6aU, 0xbd33c1c43d551599U, 0x3e2f207b3b95fc10U,
  0x3dc5fd903dc8890dU, 0x3e06e1323cd93205U, 0xbcfea3313d6038a5U, 0x3d8ef6d93e1c6562U,
  0x3e3bac0bba4cffdfU, 0x3d6ac2ed3dd49c6aU, 0x3d5b53113e07a7faU, 0x3d5c8ecb3d602909U,
  0xbd253de73d3efa35U, 0xbcfb306f3e0ceb18U, 0xbd9f03833e0dc817U, 0x3d9689313e031860U,
  0xbd2b6a383e0d47b2U, 0x3dc26b1dbc618192U, 0x3dc22572bd422370U, 0xbd7bb19b3df67371U,
  0x3d6abb8b3de9f52fU, 0x3e13a4e43cd1f436U, 0x3dc22f6a3d785de3U, 0xbd6735523e2a30bcU,
  0xbd7d29083e047989U, 0xb99a22153da409a8U, 0x3e03d9813d9d6a17U, 0x3deaecd13b19fc63U,
  0x3a9c2bd9bde21c44U, 0xbd59b6b33d416da5U, 0x3e0314f7bc0dcaabU, 0x3d392e5a3b5e0bdcU,
  0xb829116939a41779U, 0x37d00d643798d26cU, 0x36a9c7e43754cec8U, 0x38983d1ab739d488U,
  0x3dff8003bc8430e9U, 0x3d9173d93d5c8ae7U, 0x3e1fb78d3cd8cc0eU, 0x3d879535bdb7ebc8U,
  0xbe0a1121bdb3a786U, 0xbd6257dd3d101d6eU, 0x3cb8898a3c1b6b64U, 0x3d55fdce3cc51c46U,
  0x3d6400043d1a7178U, 0xbe0854f13dc94253U, 0xbd3977e63e33726aU, 0x3e032c6ebd961f7eU,
  0x3e1d58813e169f3cU, 0xbd84785ebc9a8499U, 0xbd55a1a73d8a12d2U, 0x3ce07661bd517b64U,
  0x3d26f5073cf0a6cbU, 0x3d5ceee7be4583efU, 0xbc5a5e3d3d8b8ba4U, 0x3e361ab33e1feff2U,
  0x3dd4519f3d3f6e09U, 0x3ccbcfbd3d88b058U, 0xbe0a74a03defc3c3U, 0x3e225a3fbdac5bdeU,
  0x3db311c13de94f44U, 0xbdaf173e3dbed2dcU, 0x3dabc839bd8b9318U, 0xbe0fab80bd49052fU,
  0xbc1a2b7abb2f4988U, 0x3dc0a8113d226d25U, 0xbdd26477be076822U, 0x3e08a399bdb779b2U,
  0x3e0badb33e1183f3U, 0xbc4137e33d7120c9U, 0x3e15bb703d899895U, 0x3c0de73f3dfc45f7U,
  0xbb032f0abe3c3fabU, 0x3917f786bd8ad70aU, 0x3ca3b6343e11bfceU, 0xbcb11f92bca0cd29U,
  0x3d4b976c3e10280cU, 0xbe1a091a3ddf0763U, 0xbe003857be490e1aU, 0x3d9dad3c3e30f129U,
  0x3d4312123ddc15d0U, 0x3c0d1e99bd94e0ebU, 0x3d6c63c5bd5fea14U, 0xbe219053bc504488U,
  0xbd38d499be170c07U, 0xbb2244adbb278f79U, 0xbe3fe9ebbdeaf198U, 0x3bc4b132be664bceU,
  0xbe18b1163bdc821bU, 0xbd4c997c3dd54201U, 0xbd9ddc44bcfc58b1U, 0xbdcd254c3d3b27b0U,
  0xbc0177033d8fefe0U, 0xbc565951be23a7a6U, 0xba16483ebd6e0194U, 0xbb658e32be3be1ffU,
  0xbd67bf37bd88afc4U, 0xb80d65a4bde13c23U, 0xb8cf0632be302addU, 0xbd2c80a0b90e0a5bU,
  0x3e0804ef3d449f35U, 0x3cf12b60b9cc4ea8U, 0x3e23dda0be212f4aU, 0x3da35e243e48663fU,
  0x3cf8443cbc828b62U, 0x3e0787c43e305dc5U, 0xbe3adf3a3d840659U, 0x3e1203133cba1b76U,
  0xbe578894be020b48U, 0x3dabb3053cc083a3U, 0xbcc51ad23ba35cf6U, 0x3db4dec3bdfbec19U,
  0xbdd79037bb36e7d0U, 0xbd470176bdf9b611U, 0x3a73395b3d9ca480U, 0xbe1cd2e1bb41de38U,
  0xbdfc4aa13d941491U, 0xbdcc280d3ceff056U, 0x3dca15173ae205afU, 0x3dcd1a4f3cff3e64U,
  0xbd19fa673dcae72cU, 0xbdd27f0b3d50ebd2U, 0x3d1da0c3bdd25a9fU, 0xbcd2872cbdd384c2U,
  0x3c97c3b7bc9c183cU, 0x3d4b94be3e1a0390U, 0xbdfbc71cbde4e9fdU, 0xbdb619e8bd8ae706U,
  0x3e022e963db2b669U, 0x3d2111df3dab6e65U, 0xbe2d3dfbbd56b0b9U, 0xbe198972bdf33bbaU,
  0x3da41e1e3cd7e58cU, 0xbe6358923d429738U, 0x3d4def75be08bcf5U, 0x3d091ba5baa2973dU,
  0x3b0277d8bcd79c19U, 0xbcf7a00a3ddbd9ddU, 0xbe0483a3bb8a5412U, 0x3d96360cbd1daaffU,
  0xbd9554a4be2515c6U, 0x3e1cb7fd3db0cfc7U, 0xbdb9e6e93dfac988U, 0x3e0491a53dbed07bU,
  0x39696fc03df44757U, 0x3d2c503e3bc5b6fcU, 0x3c9ce92f3d17775aU, 0x3d9bbc97bd73d4f7U,
  0x3e297ce03ddb863aU, 0x3bcbf6823aba3208U, 0xbc0635953af4508eU, 0xb89760563d2bedd6U,
  0x3d1e0ee5bd4c148bU, 0xbda45a68bddfd0dcU, 0x3de1c3fabda2ee8aU, 0xbaa077c3be246de5U,
  0x3ddca7503d6217ddU, 0xbd14bbb9379369b7U, 0xba7ad27bba63a3caU, 0x395ee030b9ffe697U,
  0xb8b55fee39338317U, 0xb7f7ce06b889ad08U, 0xb976f0aeb96ca21cU, 0xb8ef353eb922d6f2U,
  0xbda97831bdc3a999U, 0x3d7593913d63892bU, 0x3c8f8b29bda49cf4U, 0xbd864c5cbd977579U,
  0x3d6b325f3c91c9c6U, 0x3e2725b43cce5c25U, 0x3d64369f3d55beb7U, 0x3d00bcd1bdfa634cU,
  0x3d8878563d227310U, 0x3dbb92c7bdbbd199U, 0xbdb1f1dbbd257694U, 0xbe135ef83cf6f304U,
  0x3dff1bcfbde570f0U, 0x3d10788d3e4ceb0dU, 0x3e280dad3df79416U, 0x3d97bca2be0ff21aU,
  0xbd72e3c2bdd7f192U, 0xbd8b4a223cd26a3dU, 0x3dea71aa3e2970aeU, 0x3d6f1d8ebd84cfcaU,
  0x3cf685553dbfe6daU, 0x3d7df1cb3ba912f7U, 0xbbe9ed6dbe079c58U, 0x3c034f93bdf66ca4U,
  0xbda03b80bc5d043cU, 0xbd016022bc9677c9U, 0xbda4a23d3e0d78c0U, 0xbe0e6309bdf6bef0U,
  0xbe2c9f093b2ddd57U, 0x3e01c21ebd9b9c19U, 0x3e00c33b3ca3cfb6U, 0x3e140ec1bb0f845aU,
  0x3e328294bd8f64e1U, 0xbd377bb0bdbe208eU, 0x3d261295bd8c2599U, 0x3e180562bd1b7c96U,
  0xbe270aa1bd1607c8U, 0xbe1227603d380c0cU, 0xbdb89b8fbda35a9bU, 0x3e4120cd3daec861U,
  0x3df74d153de47b92U, 0xbd0f92b63d15d133U, 0x3da3ad043e492d6eU, 0xbdccb1b6bc578fbfU,
  0x3df092033de009deU, 0x3e131f8fbd16b202U, 0xbd8ee2c33dd102f9U, 0x3d360b1bbd945818U,
  0xbdb0c3e43de64562U, 0x3d983a243e1655b3U, 0x3d0892493dcd9beeU, 0x3dc84470bd97b590U,
  0x3deaf0b3bd12a183U, 0x3e06372e3da16bb4U, 0xbdf32eb1be194cccU, 0x3d9b33853de8f05fU,
  0x3d751e09be33ba22U, 0xbd26a60dbe1544f3U, 0xbc0f011b37540416U, 0xbdb15eadbd133e72U,
  0xbc441983ba5057bdU, 0xbe13c26bbc657882U, 0x3804f768bdbac4d1U, 0xbdafbb15bdb4d205U,
  0x38f2c8713d2bd7eaU, 0xbd3906013dbc7586U, 0x3ddcdb5a3a9efcc0U, 0xbd6bbef6bdbd0921U,
  0xbd914c223df16be4U, 0x3dadbda4bdcb4093U, 0x3d85e684bc94c3ccU, 0xbdd0215cbd133e8eU,
  0xbdab06983c8b51c6U, 0x3e32a6b3bd44e43bU, 0xbd92e8643d15df2aU, 0xbdbb6afa3d06841cU,
  0xbd60785fbd816e32U, 0xbd1b9a5abd0b32baU, 0x3ddb8f933d9cbef8U, 0x3d459545be0c4c18U,
  0x3dd8dfa2bca04fb0U, 0xbd519e60badc703fU, 0x3e1b489dbda97829U, 0x3dca48423d95af62U,
  0xbd624ab8be0ad732U, 0x3caa3723be03ba83U, 0xbddee91abe561e65U, 0x3de91d39bd8a5ce7U,
  0xbe4a938cbd4000e1U, 0x3db3a44e3d0a9402U, 0xbddd8d71bc355201U, 0xbe0619b3bdcb1b95U,
  0xba6f909abd94d3baU, 0x3d810b17bdb7fe36U, 0x3db166deba95a4aaU, 0xbb2ef302bc75b392U,
  0xbca76eb9bc1b3e30U, 0xba46302d3badf0ddU, 0xbd5775ccbd7ba648U, 0xb6db22c4bdb3e5c1U,
  0x389ba392bd156f4eU, 0xb7d4373738b9131fU, 0x38c4ed56b60edb30U, 0xb99e4be1b84ebe29U,
  0xb8c0e956ba3d5bdaU, 0xbd0a8bb837beb3feU, 0xbbbee0c9b8b6fb54U, 0xb7f8df98b7dadf15U,
  0x385578ebb885d3f5U, 0xb714b007b9b0fe1bU, 0x3d1325a9b80723bbU, 0xb89af93a36e7d462U,
  0xb6a9d878377d1817U, 0x3869122cb78f2b48U, 0x37b6ad6c38d75818U, 0x3885d3fe38d4c107U,
  0x3917d79b3914c7ddU, 0xb7b8203a39058c10U, 0x36dcf89e37b834efU, 0xb909bfbfb80df390U,
  0xb53adc40b85862f1U, 0xb894e6f0b8221ff3U, 0x352a5b78b78757a8U, 0x3701a17eb4d6aeb0U,
  0x381c7f1838263cabU, 0x36da3d34b7c19465U, 0xb708e4a4b5fc83c0U, 0xb7a5741237da21a2U,
  0xbd676973be4353d9U, 0x3c937a673db45248U, 0xbdd9ea42bd92933bU, 0x3d8ce60b3e212db5U,
  0xbd8c07fabe0495c8U, 0xbd5deb9b3cc77bcdU, 0x3d8238c9be0caef9U, 0x3df411213dbd9abdU,
  0xbdcb9be33d64a9c4U, 0x398f7c5fbd707df9U, 0x3c89af6b3de73a85U, 0x3e336dce3e3bde3bU,
  0xbd4c02ecbd95ec2cU, 0xbce5a75d3d7279b7U, 0x3e231aebbe057235U, 0x3e03b8d43dacae6eU,
  0xbdf0ce2f3e4d3a83U, 0x3d227c60be0371c7U, 0x3d93cb1d3e04930bU, 0xbd61870e3d79b1edU,
  0xbda9e2f8be1ef91bU, 0xbdd0d07abe748c0aU, 0xbdadc2b73dfb49ddU, 0xbe025b7dbd84c849U,
  0xbe651ad4be508f6bU, 0xbe2e3315bde9ba0fU, 0xbdc507acbe10cb46U, 0x3c3f9b8f3d5cc0a7U,
  0xbdf94c8fbd71dfb1U, 0x3e0f1d5ebd6eb8d5U, 0xbe0df5fcbd458790U, 0x3d9f9697bde7690cU,
  0x3d6ed28fbe00746cU, 0xbabe5ba23da481e7U, 0xbca2d7963d5f80ecU, 0xba80254dbe3cf9efU,
  0xba472a3fba784be8U, 0x388c49d03b7be447U, 0x3ddd3760be01b4dfU, 0xbe06b1ddbdbbfd3eU,
  0xbaa6979fbe09154aU, 0xbd5d1b85b91bf0a7U, 0x3c896a5abe0de5ddU, 0xbada18bfbd01ce4aU,
  0xbe15f2c3be157311U, 0xb9470fc0baa457dbU, 0xbdc6ea7dbb051433U, 0x3c1868003b320e56U,
  0xbe036b9f3d15eac3U, 0xbd587858ba1aab7bU, 0x3dbf6d9cbd93875eU, 0x3b1d56773966bda3U,
  0x3df056d2394522baU, 0x3d506d33bd8d43f1U, 0xbd995119b9e9bfebU, 0x3b3a5d203d96df77U,
  0xba4ff37ebce44ec4U, 0x3766d8d4bd763bf1U, 0x386138933887fef4U, 0x3849c84c383eb3f9U,
  0x385f3a8937c3d225U, 0xb80a297737808179U, 0xb75b445038b64a9aU, 0xb7e23a8fb7b31b42U,
  0xbd4a22fdbb3781b1U, 0xbdac0bd93c208839U, 0xbdce949e3de579a6U, 0xbdb3f3fd3d1bac6eU,
  0x3caaf1603d26a880U, 0x3e101e01bdf47feaU, 0x3de43676bdc9df77U, 0x3b2d67bd3e471863U,
  0x3df8b74bbdc3d988U, 0x39b6d175be2b9b6aU, 0x3d76287ebd9c2f8fU, 0xbc03e2ab3d7b78a7U,
  0xbcf04024bdcd863bU, 0x3d4ec4a43cf22c47U, 0x3dfae605bdbc4281U, 0x3d119e083ce0a3cbU,
  0xbe1f4cd5baa6b28aU, 0xbe575967bda231ecU, 0x3d6e7b17bc8889dfU, 0xbe3a23da3e48fbebU,
  0x3d0e7d4dbe0957e3U, 0x3cb1f390bdfa2914U, 0x3d98966b3df876fbU, 0xbe3eb3a43db7eed6U,
  0xbe1e947a3e00d91eU, 0xbe0992e3be1955fcU, 0xbd88bebf3e0d665bU, 0x3c2b90d3bc8e605bU,
  0xbc9ff99b3e19eaaeU, 0xbd89f1b2bdf23330U, 0xbd8f7baa3d6b2329U, 0x3d5f87a5bc845445U,
  0x3e077467bd782923U, 0x3e388e3f3e4bfed0U, 0x3d2f4828bcc80fe3U, 0x3cc2324dbd9dbd84U,
  0x3c4e1a9d3a40979bU, 0x3ddcd70dbdc529c7U, 0xbab8ccc8bdd4635cU, 0x3e0983643e3c0463U,
  0xb965627ebd6e0e6cU, 0x3e159ef23d9636b1U, 0x3e161985bdfde01cU, 0xbdb92999be298aa1U,
  0xbe0d56cbbd3be612U, 0x3dfbc6963e16e0a5U, 0xbd955a393dc3e3b7U, 0xbcc6d6cd3b90cefbU,
  0x3e1d4d03be04e5ceU, 0xbdfad831bdcba1e5U, 0xbd8c15cf3db1d83fU, 0xbb52c8fa3da12e60U,
  0xbde480fc3e0d4a43U, 0x3dc52a763e24bf36U, 0xbe62ee99be36e64dU, 0xbc6e7d4ebe1edb0aU,
  0xbdb7ea1fb9190668U, 0xba818bc9ba0b37ebU, 0xb9f63500bce1e14cU, 0xb9c052cfba58bb99U,
  0x383c6101b8b28f5eU, 0x378fdfcf3892c053U, 0x3769422c3807768cU, 0x38530e6e37b2b682U,
  0xbdc3967fbe05a7acU, 0x3d8ec4f3bc18c59aU, 0xbd5b3f523e033bd6U, 0x3df7acd5be284b25U,
  0xba139cdc3da5dfbbU, 0x3dbd745b3dec9643U, 0x3e12adbf3e17711bU, 0xbca9f392be13044bU,
  0x3db7945d3dd7c82bU, 0x3dbfebc9be2500c3U, 0xbde0825fbc9a611aU, 0x3e0341613e158538U,
  0xbdccd2673d2b90c3U, 0xbdee36e8be34fd1eU, 0xbd9402383b5afe35U, 0x3dbac1443d2a0717U,
  0x3c8afd7fbdff6b4fU, 0xbe31b63f3df3ceecU, 0x3e372622bd76ebe8U, 0xbe006521bd8c31a4U,
  0xbd8c93713d96ec6dU, 0xbd1e6843be2ebf8aU, 0x3d521d71bd136514U, 0xbdbf1a423b9926acU,
  0xbd90f085be3deaa5U, 0xbe0a58f6bd93320fU, 0x3c3005a83df4d413U, 0x3d98a1283cd8698eU,
  0x3d86e9f33e2232abU, 0x3d5f1ebdbd6104ccU, 0x3c8df297ba1c81feU, 0xbbee90113d9af01dU,
  0xbdf6e6103e1912daU, 0x3e0fd0c23d2c2a17U, 0x3e1603243e3c6ce1U, 0x3e0f6a163d5d3887U,
  0xbd435293bd9c4300U, 0xbd411dfd3e0d7c54U, 0x3de103fc3dc8f236U, 0xbd948cac3d1798abU,
  0x3e034d30bde815faU, 0xbd79f26b3cdae1b7U, 0x39d1345d3ca45a87U, 0x3e233963bd4ecbd5U,
  0x3e1f17ddbdf92276U, 0x3c797540bdb47a2cU, 0xbe065b113dfb8091U, 0x3cab22deba5fe51dU,
  0xbd60509cbdce7e85U, 0xbdd7e09c3dbef06dU, 0x3e1a0c76bd33520bU, 0xbaad707e3dc2425fU,
  0xbb9239fcbcbe4bafU, 0xbe2a0608bcc9f84fU, 0x3db6f0fe3983ec77U, 0x3db1e2e53dbbf2f4U,
  0xbaacc4ebbe08723bU, 0xba076a163dd18da9U, 0xb912d0c83d43c497U, 0xb988c6a2b9152ac1U,
  0xb5494c90b99bae79U, 0xb73e052bb6ecb0faU, 0xb863210cb7027148U, 0x37c01bc0b85915d3U,
  0x3d6ce2ccbd9cd290U, 0xbd9119903d256477U, 0xbc9a739fbc6286bdU, 0x3dd00d61bdf502d6U,
  0xbd03d2583dbe66d0U, 0xbe3a20ffbdf124b4U, 0xbdd94bd03d2580a7U, 0x3d86c865be2b7a57U,
  0x3ccdcdfb3df49f73U, 0xba4eec213e3ff087U, 0xbcd9c086bd79f0feU, 0x3e0cfd80be005a3bU,
  0xbe3db4733dceb8b4U, 0x3dce9565bdad2a6bU, 0xbe4b04d1bdc9abe1U, 0x3e3c38583dcbf5a4U,
  0x3d014279bdd14090U, 0xbe3ef4c73de1521eU, 0x3cfc3275bd8305b6U, 0xbdd9d65bbde73d7eU,
  0x3dde31613d89ba57U, 0xbdef8eabbdf1c6c1U, 0x3e1cf7363e512851U, 0x3c215d603c30924bU,
  0x3c775b14bdd84c5aU, 0xbdf0b4b63cb7db14U, 0x3db200a93b012ec6U, 0x3e1a537abdcf62b3U,
  0x3b7065f03d81c36aU, 0xbdafcb7bbe11586eU, 0x3da9db223dbf30deU, 0xbd8c0c233e2725f9U,
  0xbd1e819ebb61b8d3U, 0xbc0f546dbda7446dU, 0x3e06fb8dbc274f7bU, 0xbe2212943d9f4e73U,
  0xbd82bb10bcde5e28U, 0xbc595d75bde3dcd6U, 0xb9bad729be168fd0U, 0x3d350195bdfe1d3aU,
  0xbdb79fc23d466175U, 0xba99dc443dd443d7U, 0xbaac1fc13d8f6426U, 0xbd2186053dc1d4dfU,
  0xbce04b1cbcc0cf92U, 0x3cadc62cbcb2e4a6U, 0xbdc378ec3dc2155bU, 0x3d5c62a8bcd2736eU,
  0xb9af9f86baa3ee97U, 0xb9bd4d103df9a6a3U, 0x3d5ce217bd4ae10eU, 0xbd332a19ba84906dU,
  0xba6e76e4bb082825U, 0xb9a84842bae7225bU, 0x3d976962badd6fa8U, 0xba80a73ebd24d34dU,
  0xb6f97b8fbd268f1aU, 0xba7a8ddfba43563eU, 0xb7e31c67b918e1d9U, 0xb753158a36940a84U,
  0x366c10ec37147fbaU, 0x3735810638124988U, 0xb80e12c63741532bU, 0xb724a565b7c01314U,
  0x3d8cd5eabdb3e138U, 0x3e2fffcb3cad8b9bU, 0x3b8e819f3d5d9a8fU, 0xbe2e3ad93da08032U,
  0x3c476ebbbe2487f9U, 0x3c71b51bbe162db8U, 0x3e3de30bbe50f633U, 0xbdfb604f3d22a954U,
  0xbc8351003db9e1bfU, 0xbc10e8debd8c11fdU, 0x3dc2e76bbd8fa0f5U, 0x3d7afb8d3d103d89U,
  0xbe03ee3e3d2b6366U, 0x3d7498c43e26ce71U, 0xbe0d79d9be26fad3U, 0x3e0bfcb8be4e536aU,
  0x3cdccf8c3d554bb2U, 0x3d9339ae3e04087aU, 0x3de532ba3da934c5U, 0x3ddb52053dafaa06U,
  0xbacd69a2be1575aaU, 0x3e0fac6ebdc9245dU, 0xbd0da51dbd851097U, 0x3d11314fbe1db040U,
  0xbe2277f23e160392U, 0x3e0772363e1dda5bU, 0xbd3c89e6bb57872fU, 0xbe19161ebd3972e1U,
  0x3c92afa1bd2ab53fU, 0xbe033c233e2d9f14U, 0xbd2078543dfb8b35U, 0xbaea02653df34aa6U,
  0x3d5aa0ee3e28f963U, 0x3da485643e3deae6U, 0xbe1db5643dc6d229U, 0x3bd555673e0ebbdaU,
  0xbce532f83db66169U, 0xba976c043d86b0a9U, 0xbd417b1abd78541bU, 0x3d54c2fbb9f9e7b9U,
  0xbddbb4893dfb0a80U, 0xbdc290c13a0ddd22U, 0x3df736253df59444U, 0xbdef3e0d3d7c8649U,
  0x397709603dc4c946U, 0xbe2115cf3dd5ecb8U, 0xbcfd91d8be1493d6U, 0x3b298905b954e668U,
  0xbc2e2f663e0f19ccU, 0xbdcddc8f3ceee309U, 0xbdb95835bdfdec31U, 0xbdbc27773d968c67U,
  0xbdfc998dba9f4fcbU, 0xbdd18942baa6c18fU, 0xbd39b9a6bde2f56aU, 0x38d35258be436f50U,
  0x3801c5ba3c47b008U, 0xbacb78a7bd9bf9b9U, 0xb7c844d9ba0f3e9dU, 0x371b218eb790235fU,
  0xb7ec673ab807c760U, 0xb871e868b7dd40adU, 0xb8b7fe24b87968b0U, 0x36da47e4372d91a0U,
  0xbdfc6249be0aa29fU, 0xbdac24173e378941U, 0xbdda58cfbd4c245dU, 0x3e018e1abd91ca4dU,
  0x3d3e5779bccfb9ecU, 0x3e1f40073d71ece8U, 0x3ddfd4823d9ed073U, 0x3dcc5facbc3cb91fU,
  0xbdbf8a5d3e0fc78aU, 0xbda9f5d2bda0cd31U, 0xbdae6ffdbe035ec1U, 0xbe16c6013e13e24eU,
  0xbdeb83d63d08c519U, 0xbbfb3be43db1fa2dU, 0xbd5712143d22d7b9U, 0x3d9779afbc2e41a4U,
  0xbd37ca7bbdc1967cU, 0xbdb0d4e13dc1d2a7U, 0xbde15d21bdc775e4U, 0xbd9d8cad3dc31a90U,
  0xbddb39afbe055407U, 0xbe00164cbbe43cbeU, 0x3e1cde7e3e0c950cU, 0xbd8f0d723e26cbd0U,
  0x3e18a651bcd4d583U, 0xbdd525143e0a3903U, 0xbdd508e8bdec3f65U, 0x3e1027393d53947dU,
  0x3d6742543e1861e5U, 0xbcdae9323af1ab0dU, 0xbd9fe495bd975c7eU, 0xb8c16f3e3d70ee09U,
  0xbd8135bf3c9aff15U, 0x3ddd4eb93e285839U, 0x3d5452283e1a5533U, 0xbddd5fb03d213264U,
  0x3df2ff6e3e158f3aU, 0xbc3c1534bc043ad5U, 0x3d8f76933c7295f0U, 0x3d5331e43c95a30eU,
  0x3bc22851bd121aadU, 0x3e1659943e11fc1cU, 0x3d6b798b3cab10faU, 0xbc86714dbd35714cU,
  0xbdbe4a753cec9aa0U, 0x3d9f7aea3ddf4018U, 0xbd92f78cbd9dec00U, 0xbdefa88abd7d95d7U,
  0x3c0cda9dbc39cefcU, 0x3b8ff8bd3de9da00U, 0xbd2798483d2d0829U, 0xbd24bb01bd416abdU,
  0xbe0b1b96be354c6eU, 0x3e2d9d2ebe0f3a21U, 0xbe114d393d8e2829U, 0xbde35d953d941bdeU,
  0xbc157fb6bca1537dU, 0xbdcca75fbe2a7f27U, 0xbc45d94bbe270e19U, 0xbb42ee69bb4b3461U,
  0xba9c3d9fbd42adc3U, 0x3941d77ab904254fU, 0x38e3c35f363a6698U, 0xb987e324386a965eU,
  0x3d66677a3dae71c7U, 0xbdc6a8fe3e163e82U, 0x3c1f5dbfbe30a841U, 0xbe2ad31b3e04e5e4U,
  0x3d5efbd0bda22876U, 0x3d9111f4bd65b734U, 0xbdf5b3a63e5339a9U, 0xbe1195a0bd8a57a4U,
  0x3d812addbdfb3a26U, 0xbd9fc707bd00f5c0U, 0xbd2381ccbd19b29dU, 0xbdbdc76dbd5a2ff9U,
  0xbd66240a3daf7700U, 0xbc813a153be21b1bU, 0xbce6780ebd9013f4U, 0xbde85fba3d8e2ab9U,
  0xbdcb8ea1be1a733eU, 0xbc9daca5bdd9fcd0U, 0x3dc38d833e23b376U, 0xbd086d3dbd865133U,
  0x3e5a55a13e3302c4U, 0xbdae91123e0a2da9U, 0x3e0b67fa3e047ce1U, 0x3dc9a5b03e261f46U,
  0x3d448b843e359faeU, 0x3df3e7aa3c16aa9fU, 0xbd7815a4be14e558U, 0x3d8f6315bde45d23U,
  0x3e3c9662be21954bU, 0x3e546eae3dffe45dU, 0x3d02ede53cb6438dU, 0x3d73141ebb8b7784U,
  0x3d626dad3c05efcdU, 0x3e17f946be043070U, 0xbd4040c9bdba01c7U, 0x3c397dd83d2f7085U,
  0xba18317abc98a42fU, 0x3d42464ebb92d0b2U, 0x3d1774e93de545d8U, 0x3d6a4889bd752f57U,
  0xbdfcc7b0bdc6330aU, 0x3e418481bd887908U, 0x3e2ace393d85fe57U, 0xbd7633b3bdde129cU,
  0xbca5f465bda3857cU, 0x3e37f42ebde4935dU, 0xbdb113273d56bf67U, 0x3d3267ef39147003U,
  0xbdd446803df6b6b0U, 0xbdbedb423dc5431aU, 0x395a8063bdeaea1fU, 0x3de3bdb8be21b5e3U,
  0x3a75e1253e42eba0U, 0x3e140dd9bdd5c571U, 0x3e0ba6893d92e95eU, 0x3e14f9053d1ba4caU,
  0x3d8e1ca93d9b9d06U, 0x3db4b5e9be07fe53U, 0x3d4486e9398744b4U, 0xbcb742c536fbeb9dU,
  0xb598eb2437329ec2U, 0xb668c668b6b1b253U, 0x374ed02eb6e823fdU, 0xb7ca7c2636cfcf06U,
  0x3d826253bd199ad6U, 0xbd49f141be5dc6aeU, 0x3d0abf44bddaf8a3U, 0xbd761cedbdd533e4U,
  0x3d3b40353e15f136U, 0xbe0dd6fdbe1ae678U, 0xbc68eae53dad892bU, 0x3d731b423d423394U,
  0xbe0eedc5be059856U, 0x3e26fddfbd14635cU, 0xbcaeb22a3de233afU, 0xbca1df8bbd9e573dU,
  0x3dd049c73df6d0bbU, 0xbd5d032dbd6a6bcaU, 0x3d9cd642bc74236bU, 0xbc8c92413d48ca79U,
  0x3e1274d13e01876dU, 0x3d70e48a3e109ea9U, 0xbe0df97ebdf90efaU, 0x3d57f744bdcb0cebU,
  0x3d5ca0a43e096e1dU, 0x3cc3d4223d541353U, 0xbe211586bdd545daU, 0x3cdf62433da45c95U,
  0x3ce18cf03dd32a8cU, 0x3e1242c4bd722ae8U, 0xbe09f5d8bd177efcU, 0xbdb56b883ddd2014U,
  0x3ddd928abdb9cf67U, 0xbde9010bbdfd3294U, 0xbd9d87d03d649173U, 0xbcb3f5873e16d65aU,
  0x3e2e34753e398462U, 0x3de5d9af3dbca2aaU, 0x3d1e5c89bdf766c7U, 0x3d521b333b7be5cbU,
  0xbaa25f493d091645U, 0xbafb3f13bd10d238U, 0xbb0ca662be44c3e6U, 0x3e2997283d127a00U,
  0xbdae825c3dee0aa7U, 0xbdbe9212bdb02bedU, 0xbe0ec53d3e488cfdU, 0xbe0bd3783c9f0b64U,
  0x3ca1e6be3dc149cdU, 0x3e0e2349be021199U, 0x3d8aa39b3d9196c1U, 0xbbad226ebb396710U,
  0x3e3ea880bd31736fU, 0xbd9241363ddd382aU, 0xbd838d63bd2d59d3U, 0x3e011d313e0804c4U,
  0x3dd10cadbd0af891U, 0xbd5dd2263ddbc0d3U, 0xbc2f3cc5bde211faU, 0x3de1f58d3e218b82U,
  0x3dc2b474bcfc6359U, 0xba3752aebd97ebdfU, 0xb9381666bd8c64cfU, 0xbcb38d2eb9e6a656U,
  0xb8b01fc6b8b1a92aU, 0xb6229950b828a829U, 0xb9397028b915dbebU, 0x38a3b2f23764ed24U,
  0xbe393cbdbcbe389aU, 0xbe169146be0e3531U, 0xbe31b277be1fa8f8U, 0x3e20a3e73db7668eU,
  0xbda425f53e45d5baU, 0xbcb4f6f0bdfecfc0U, 0xbc3ca68bbce97728U, 0x3c9ea75c3daee02dU,
  0xbe101684bbde3beaU, 0xbe1acb11bd06a6baU, 0x3df089283cf78808U, 0xbd8831003ddf10f8U,
  0xbdb014b33d3f9dddU, 0xbc3646c33df9f874U, 0xbdf0a3353dc3255dU, 0xbd36ce7cbe01183fU,
  0x3dac5633be0e9347U, 0xbddab41abd8778c4U, 0x3e1daf4a3d402946U, 0xbd847b1dbdf72cfaU,
  0x3e00d4c8bcd23f25U, 0xbc6aa0583b6a7efcU, 0x3e0416b93a00ae23U, 0x3dca09403dc47608U,
  0xbe0999a3bda6b188U, 0xbcc15e51be0be1eeU, 0xbe15f61a3c8f0d26U, 0x3bd1df833db27a97U,
  0x3d9cfdf03e2aed58U, 0xbe15e1a13df74f47U, 0x3da243773ae4b4cfU, 0xbd6afb133e124d66U,
  0x3e4246a83e0e68bcU, 0x3d75d049bca87b46U, 0x3ca4c60e3de0af4bU, 0x3da8b523bda3566dU,
  0x3e2ca256bd49b96bU, 0xbd59309ebc6db814U, 0x3d2e2fa43b3c7d27U, 0xbbf3bc44bdd5fc20U,
  0x3e4f6c51bc43ffbcU, 0x3e0e4a1ebd07118fU, 0x3c4d59db3dbcec84U, 0x3df6dd5e3d9a2de3U,
  0xb952d0903dec0b17U, 0xbda4cfa33dc727c8U, 0xba47b6fbbdcaf6b3U, 0x3dfdb41b3cbef015U,
  0x3e36584b3e372740U, 0xbdab413b3e413b0cU, 0xbde28dc93df13413U, 0xbe196fa03e16366aU,
  0x3da8c6243d98484aU, 0xbd88ee60b8062fcfU, 0x3dcdbc59bde520cbU, 0xb99be1d03db09578U,
  0x3d3f0bc83d5048aaU, 0xb998025d3e1b4f40U, 0x3d8d38b3bd2c18c1U, 0x3c0b0c54ba271bf1U,
  0x36c1491337ce971cU, 0x3684e701b7128206U, 0xb6102f78b696faf8U, 0x36c3010036c8956cU,
  0xbd3f3da23cc6cd30U, 0x3ddb3359be2d2656U, 0x3e32f724bdad0c15U, 0x3d6146b43cd91a02U,
  0xbe2217243e3f1545U, 0x3da3e5e73bd87153U, 0xbd94cc523e321855U, 0x3e0e8851bdbab687U,
  0x3d19ee09bd91c052U, 0xbd98a7debc043bbdU, 0xbdcde34c3dfdfa8bU, 0x3d51b82fbda4682cU,
  0xbd8caeb13d8c8a52U, 0xbd97167e3ca727a7U, 0x3d6b80723e39ad39U, 0xbd794e283cf592a2U,
  0x3c70dec13dabb42cU, 0xbe346e543bb46b93U, 0xbda9d6053d931065U, 0x3e1f13023e23168aU,
  0x3ddc0ee43d12e66fU, 0x3dbf183d3e3be708U, 0x3de628973e063050U, 0x3e4436a4bcf56eb3U,
  0x3df89022be1aa325U, 0x3e1f2b1cbdd147cbU, 0xbd0673313e1d3428U, 0x3bfe4f84bd8a9cccU,
  0x3e00267bbdaf9abeU, 0x3e122d313d366cfcU, 0x3e10fc40bd91a34eU, 0x3cf9f2ca3dcbe680U,
  0x3d65136f3d2bedeaU, 0xbe278a52bdc9f804U, 0x3be70ba43db34d15U, 0x3cbfc8f6bdd69e06U,
  0xbd6410893e0ebe4cU, 0x3e84ff903d4c8c15U, 0xbd2c0dc03cf25766U, 0x3cb34a2c3e3e349cU,
  0xbe140b91be01abd0U, 0xbc8a28bdbdc3efc5U, 0xbdab919bbd927261U, 0xbe0d10513de94f6cU,
  0xbdd594ebbe269e4dU, 0x3dd92f81bde50d9cU, 0xbe0acc993e0958e4U, 0x3d4afd54be40d498U,
  0x3e429cca3c718e1eU, 0xbceb23abbdaa9134U, 0x3d5d3dc43df624d4U, 0x3e63e3e6bd4f3bb7U,
  0x3e4da9fd3d97db27U, 0x3e12c60f3cfb9266U, 0xbb3233623da562d2U, 0x3e3906873d8f2a68U,
  0x3d42344d3d7102bbU, 0x3d2dd762bccf274eU, 0x3de61f153e1febd8U, 0x3e5d7c883e293ee7U,
  0x38feb61839b08bb4U, 0xb8a2192c38604fdaU, 0x38a3c57b38cbf1c8U, 0xb9134fb7b7c64065U,
  0xbe35a0b7bd8ad287U, 0x3e1eb16bbe2891d4U, 0x3d634f873e2bec1bU, 0x3e35630abc3554e0U,
  0xbe0564d33e0b2121U, 0x3dae06e4bd160bcdU, 0xbe00d23abc42f7c8U, 0xbcaab0cfbd8b2b3bU,
  0xbd9b17c3bc992eccU, 0xbdc8a267be264c10U, 0xbd81722fbe19d49dU, 0x3d006a1cbe0c2415U,
  0xbdf5bac1bca0f80dU, 0x3d83d185bd251020U, 0x3e27e829bdb4946cU, 0x3e1f571c3dd4237aU,
  0x3e1392693e17c046U, 0xbdf568db3e2120d5U, 0x3ccd90b8bd710c82U, 0xbda6ace83d841590U,
  0x3da81e363e3ed8fcU, 0xbdf39894bc9e639fU, 0xbe01b396be06afcaU, 0x3d58d32d3c1c49b4U,
  0x3c77f7963da5c78bU, 0x3e2c68df3d00c171U, 0xbe273629bc8e619aU, 0x3a238df4bde97d50U,
  0x3d1ddc4aba1e58d5U, 0x3d26c5edbe069de6U, 0x3dfa51d8be133379U, 0x3e3cd9293bed7bb8U,
  0xbd8a23703e04b90fU, 0xbe1081c03c2f80cbU, 0x3da789cbbd933b92U, 0x3d84bb09bcf82bbdU,
  0xbe1c4d1fbd722e80U, 0x3e1aa5493ccee275U, 0xbe06cb3a3dd2193dU, 0x3e0b7c8d3ddac46cU,
  0x3dda46a03d488985U, 0xbc91bba93da31dbeU, 0x3e0ecf4d3d77fa9bU, 0xbd9a12d03e2083f9U,
  0xbd4e4a823e1b5dd5U, 0xbcb47249bda63843U, 0xbdcaa1053e2808e8U, 0xbd963fbf3d89ba4dU,
  0xbe002c573d176d36U, 0x3df2e55b3d26fdcdU, 0x3d34b7603e022da9U, 0xbc52ebf43defd7fbU,
  0xbd92e2dabc39d2ddU, 0xbaa15b57bd6b5b8eU, 0xbc9c8a3d3e4bdc7bU, 0x3de35b10bcb95bffU,
  0x3c84329fbe12ceb5U, 0x3dbcc52f3bd2eb33U, 0xbd675b9dba58c773U, 0xba49da8eba53b02aU,
  0x3733f353b9d48a04U, 0xb66db51037c8199cU, 0xb7297532b59cfc72U, 0xb66f4edc358966fcU,
  0xbe226f4dbe1aee75U, 0xbd6bf4dcbb815c66U, 0xbe11d3df3dddfc0fU, 0xbe01a2ff3d0ec50aU,
  0xbdac0117bdfdd598U, 0x3e0498c63cb27cfdU, 0x3dae139d3dae16f1U, 0xbe7211293db50947U,
  0x3dd1ff7a3daa8691U, 0x3cc877333dd17095U, 0x3d84e5143e013617U, 0xbe14d30f3dc8f9acU,
  0x3d9bd54e3d954b29U, 0xbdc60cc13cf55dc5U, 0xbdb935c03d1298c8U, 0x3dba75f4bdbe95eaU,
  0x3e510d08be16d627U, 0xbe1288cebd8464dcU, 0x3df3c664be0bbcb6U, 0x3db0d629be15ef74U,
  0x3da09697bd6f09a3U, 0x3df37432ba7719bbU, 0xbdf72f78bd9b8688U, 0xbd6d7d933db56fbcU,
  0xbd72a65b3dbd1a14U, 0xbe44db363d7a5b44U, 0x3e1aaa04bcc142cbU, 0xbc06cfac3b6cbf50U,
  0xb9740a96be0f6c93U, 0x3e08be5a3e4f8488U, 0xbd5b43a43db4781dU, 0xbdc9b9edbc0b2195U,
  0x3dc5ae883d6fd023U, 0xbd8282a5bdf8269bU, 0x3e0e62db3da3b09dU, 0xbe2c33213da9524bU,
  0x3d4f5fb23d6b8c66U, 0xbe00f13abdb65812U, 0x3e0bd6903daa9f0dU, 0x3c1a444c3d368305U,
  0xbe110a793d17a896U, 0x3d8000433d5e5e82U, 0xbdc4cd6b3cd29e5bU, 0x3d3764aa3d9fb5b2U,
  0xbe1f6b05be34a28eU, 0xbd03d65e3df81878U, 0xbe16afb6bd8a8ccfU, 0xbb954b19bd57d080U,
  0x3b02d3873e126b8eU, 0xbce4d7ad3d806938U, 0xbb146bb43dda039eU, 0x3e44995eb9766937U,
  0xbd202817be11074dU, 0x3da152843e116f58U, 0xbd8f07b73da26dbcU, 0x3d5c59dc3c78988fU,
  0x3de1c383b7cbecf7U, 0x3e285fe8bcfc0224U, 0x3d5ba520b9d408b9U, 0x386aff7cbda36608U,
  0x37e217ceb6b69da3U, 0xb7a57679b7bf9530U, 0x3665c8b6b705b7e2U, 0x3798464837206127U,
  0x3d8fa963be2a1266U, 0xbe1891a93da473ccU, 0xbcfc8d0d3dd80d78U, 0x3cecf338be27babaU,
  0xbda3a4dd3d9aaed8U, 0x3e0341b93e13cf8aU, 0xbcec6fbcbd5515d6U, 0x3d95d7873ca4a9b8U,
  0x3d9b40e53da5181bU, 0x3cef0ef8bccd47f2U, 0x3de0f4d13dae193cU, 0x3dcd639ebcd3b367U,
  0x3d944776bdcbc60aU, 0xbda65d1d3daca8ffU, 0x3e0671873d1bc9dbU, 0x3e0b3332bd165db9U,
  0x3d1d19203dbed293U, 0xbd33851fbda084feU, 0xbd1900d23e145c72U, 0x3e140e8dbdf85252U,
  0xbda413533e1bfaf0U, 0xbe2d69fcbce444e3U, 0x3b0d52adbe2b3715U, 0x3d3424ac3b078f8fU,
  0xbd117a2abce683c1U, 0xba418c333d4e65f3U, 0xbdc6051abe1892a3U, 0xbe0d4639bdd80756U,
  0x3da44dec3e03d018U, 0x3aaf82c3be03987cU, 0xbdae7a21bc9663adU, 0xbdf7a25d3adb6753U,
  0x3e15fca93d826ec2U, 0xbd8d113d3e0995e7U, 0x3ce0f4f4bd72bd5dU, 0x3db8a989bd4be73cU,
  0x3c238408bdf1b9ffU, 0x3e471ddc3de7553bU, 0xbd549670bd21437eU, 0x3e4f7a253e0e8117U,
  0x3e4d880a3e6266f7U, 0xbd9f09f03dd3d2f1U, 0x3e48b68b3e3ffbafU, 0x3ca293023dc3b623U,
  0xba879fed3df02c38U, 0xbdd07d673e18f003U, 0x3e2de96f3ce07228U, 0x3d11c12b3e092da9U,
  0xbde7700f3d4c76aeU, 0x3e1316b03c96ea74U, 0x3d1339063dc1aa9bU, 0x3d30f8bf3e4f919fU,
  0x3d75b4b53e1285b5U, 0x3cb758b4bd537246U, 0x3a7a07bb3dc95fadU, 0xbe0b6395be0bfac2U,
  0x3daeabbfbdfc170fU, 0x3cdcb93fbd98d434U, 0x389d2dc73da1dc87U, 0x392f0629bcdced7aU,
  0xb8d2c09c394de373U, 0xb8daa2e3bd514b2dU, 0xb92385f1b92bac37U, 0xb8968b0db92e92ecU,
  0xbc83a6c43b17fc2dU, 0xbcc333cabe0ce12eU, 0x3d86706dbe1c1306U, 0x3e1a4feebca68769U,
  0x3ca51743bd99ccccU, 0x3d9283ec3cab1b32U, 0xbd9c54873e073256U, 0xbdfe3d9c3ac2ad54U,
  0x3d8eace33cbddc1fU, 0x3dec14373dbdcad7U, 0xbdd55933be229b62U, 0x3dea2667bdf74764U,
  0xbd08e862bdfa99e0U, 0xbe0549523d016fd8U, 0x3e2c833bbe38b0a3U, 0x3d70e8c13d516fedU,
  0xbd92f80dbcf75c4aU, 0x3e0bc89fbdcf914bU, 0x3dbd63bcbd3b6d23U, 0xbdef770f3dd25059U,
  0xbd00681f3d912714U, 0xbd418fd83d99a09bU, 0xbd275990bad5e057U, 0xbd9cf581bdcc60feU,
  0x3db1b45e3c82bf6aU, 0x3d3b6a0d3dc78963U, 0x3da90da4be1f6275U, 0x3dd5647d3e3a195cU,
  0x3d39c647bd0f3d97U, 0xbda328533dea51c9U, 0xbdab23bd3d10585dU, 0xbd7a9142bdd0715dU,
  0x397b44acbe0d7b7cU, 0xbc919280be130f32U, 0x3d78d7473d4a5ad5U, 0xbd2c0d98baebaad9U,
  0x3cfbcbc3ba8fd4f8U, 0x3e260daaba4259c5U, 0xbc56e4e83e1ec3a7U, 0x3d8ed4113aef5f82U,
  0xba6d2079bd9870dcU, 0xbd4aa9ea3d846c92U, 0x3da979df3d4c3461U, 0xbcf722c4b9d4b9d7U,
  0xba44d67abd347d2aU, 0xbd4bc756ba73fc0eU, 0xbd811cd7bd29d51fU, 0xbac8d6c5ba082a4cU,
  0x3db03805bae3073dU, 0xbd83d46d3e247586U, 0xbca5fe55bca1c102U, 0x3d94d0cc3c83e495U,
  0x3d737498ba85ef35U, 0xbb11d15f3df9b0c1U, 0xb98e16ccbd57f261U, 0x3da2d946b9955451U,
  0xba5ce5a4ba87932bU, 0xb5227c09362f054eU, 0xb5ef3ae0b78fe75aU, 0x362dde7836fbb84dU,
  0x35dbc15836481e9dU, 0xb72bbd5eb7691e85U, 0xb76d8841b7a07d0eU, 0x3676b8bdb78dbcc0U,
  0x3e1487443e129d0eU, 0xbd87b825bd5eaabbU, 0x3dd338103d132824U, 0x3b7a81e53b3b5ea4U,
  0xbe26a2a73b21413bU, 0x3d664a0bbe341438U, 0xbd922aa63d10d335U, 0x3e1bdb0d3db82405U,
  0x3e1e7445bdd7e11bU, 0x3e04bee1bd8bbd2dU, 0xbd80c179be08e7feU, 0x3c2ca901bd8b7c11U,
  0xbe08d0ba3e15a31fU, 0xbe37f9babdf1d526U, 0xbdc4f7eabdfd618dU, 0x3c32bee4bde01120U,
  0x3c26911c3da87e6fU, 0xbd4271c0be1b59f4U, 0xbcdce5bfbc9ac2e1U, 0xbdac48313d82f252U,
  0x3d584425bd1d7b4aU, 0x3de95cfdbd399d6fU, 0x3cdf0a5d3d5b97a5U, 0x3dda94bcbd870af6U,
  0xbd065330bbe5df3aU, 0x3d96dd6f3de83071U, 0x3caee2f1be08c762U, 0x3d90a6c63e0d6c1aU,
  0x3dd3f4003d130819U, 0x3c15861dbd2af71eU, 0x3a9ef2b53c92da9dU, 0x3d948a8dbdc1344dU,
  0xbd25ef5a3cae08ecU, 0x398a385dbcb007c3U, 0x3e046cacbc04c2d1U, 0x3db7b8a0bc987eecU,
  0x3c30cb64bc0d87faU, 0xbd85e9bd3cc48faaU, 0x3da3c67e3dcb7fd8U, 0x3b03a32b3d040c3bU,
  0x3cdaffcabe0241b4U, 0x3e092f95bdc766f3U, 0xbcb47d283acd0c0dU, 0xba7392b63ae8dfb1U,
  0xbd97527b3d945f73U, 0x3b1fe2693b0d6b4aU, 0xbdcd50f53b06e0e3U, 0x3a8078ff3cb183e8U,
  0x395f3dd93a4187b0U, 0x3d8a479a39c09e0bU, 0x3ada9d5e3c56ab87U, 0x3ac4773dbcf9ca52U,
  0xbd7fdc38bd63ed17U, 0xbd8582fe3d0ba1c9U, 0x3af91b3dbde6d6f6U, 0x3d87aad0bd01df04U,
  0x3c3dd1753a5dd740U, 0x3adf78153ae578f2U, 0x39381ef438dfcc66U, 0x3a1a826839aae772U,
  0x38c27c4a3929db72U, 0x380b08d2b828b5bcU, 0xb78d709e37bea43aU, 0xb812c7deb7b73564U,
  0xbe3b21e4bd8110bdU, 0xbdc6cf38bdc29449U, 0xbe2fe6953dc54b05U, 0xbe06e202bd3c8a8dU,
  0xba9bb74e3c8f98fcU, 0x3e26b3b83cb88cb7U, 0xbdf7eafbbb94028bU, 0x3da0b6263d10c6baU,
  0xba9307cfbd840402U, 0x3dd05ffd3d105dafU, 0x3d6e39323c9ba261U, 0x3d44598ebcdc6f88U,
  0x3d82cb7d3e170a5eU, 0xbddd179dbd53cc13U, 0x3e0daa97bdb4b3efU, 0xbde87c3e3dec2384U,
  0xbcf2de963d9122ffU, 0x3e13ad313d99bbd2U, 0xbdeee311be0404e5U, 0x3e0f68293dc6bfb6U,
  0xbdaedafabe17c65eU, 0x3d74572cbd98e2ffU, 0xbd084a683dc7b703U, 0xbde8905d3da72201U,
  0x3d21627fbdd2bc0dU, 0x3dfbe285bdd3e79fU, 0x3e4bb9a1bddf19a8U, 0x3d2520e4bb5e6af8U,
  0xbd427bb7bd8d2bd9U, 0x3b9eba0b3b3c0443U, 0x3db3dadd3e08620fU, 0x3e00e8c83de1e613U,
  0x3e2cbbccbdb8e61aU, 0xbdc29af83e0ba311U, 0x3e0b9aeb3d510077U, 0xbe1dc0e1be16f112U,
  0xbe04bfd83d1ce540U, 0x3e19c3a13e1fad03U, 0xbdba5162bdc08de6U, 0x3dbb9c813e2e1accU,
  0xbde65d643d1e3ab4U, 0x3dd3a962bdbc6d01U, 0x3e1cd17a3e34dc09U, 0x3d38720c3e1ff357U,
  0x3d8cec5a3cbb56b9U, 0x3ce33309be1610c3U, 0xbdde181a3d574ef9U, 0x3ac759e5bdd8386dU,
  0x3dcaf0f5bb9ba30bU, 0xbc9f36c3bda96d80U, 0xbc85ec993d61bcf0U, 0x3e0ef3483df1e98cU,
  0x3e50602e3cf173d1U, 0x3d9625e4bd98d5dbU, 0x3ddd0d0ebda875c1U, 0x3e4f97d63e43559fU,
  0xbdcd7889bdc95a47U, 0x3d2de7b23d355116U, 0xb923060e39aa7764U, 0xb97c43373c58e9e2U,
  0x36f1720db804e20cU, 0x37665a90b76d129fU, 0xb8164bf8b600065aU, 0x36fa01f7379fc098U,
  0x3dbe9d2fbdb42d52U, 0xbcb4fb37bc71f0d1U, 0x3d96616e3e1d6a99U, 0x3d93af22bda622b8U,
  0x3d3fbcbf3d237c76U, 0x3dbf393abac8ce33U, 0xbd86bbd1bd98223bU, 0x3e2e7f32bcd01c01U,
  0xbd9c3fc23cd70d7bU, 0x3d0ab6b53d4f0dfcU, 0x3dd34370bd5db148U, 0xbc37c7b23e193b45U,
  0x3d3807043e05e86dU, 0x3e074894bd88c4a5U, 0x3c6dd4be3d2eb3a0U, 0x3dcde884bcaa2829U,
  0xbdb49a53bde0352dU, 0xbe044f843d0be2cdU, 0xbd80bc6dbd3b83c0U, 0x3d856295bdd55929U,
  0x3db5aa3d3bc1de1bU, 0xbdb33f103d5e844dU, 0x3d01cbf53dcf3265U, 0x3d1d8d113d0d1c4fU,
  0xbdc27b05be026bdcU, 0x3e289c78be132dc0U, 0x3e29ac21bc442997U, 0xbba7445a3d2ff8d7U,
  0x3d4d806cbcfe5712U, 0xbe035f453dbf7c71U, 0x3d691331bdb9e09bU, 0xbe085d07bd80c58eU,
  0x3e329bf63d769e1fU, 0xbdcb370dbc013bbeU, 0x3dea385f3e306efcU, 0xbd335d56bdd61edbU,
  0x3d87b0133cd45e23U, 0xbd94a627be11b3d8U, 0xbda9a389bd0a3f35U, 0xbd37ef99bdf210beU,
  0xbe069763b9ddd4adU, 0xbd4685623d241bbaU, 0xbccf7f2f3e2d33fbU, 0xbe07480dbe208667U,
  0x3cb4d46cbddfa696U, 0x3c88181cbddcd85aU, 0x3b4bf0a43cf9a97bU, 0x3e0353f53d088648U,
  0x3cdfdf3dbe2f558dU, 0xbe048f413d8a3757U, 0xbd90e86f3d2cae51U, 0xbe2be27fbe08f08cU,
  0x3d7b46323d555298U, 0xbd8c12643c148355U, 0xbd813d53bd895927U, 0x3d35615dbda9005bU,
  0xbde53016be26a174U, 0xbe1fc552be2f3d82U, 0x3cf84db23a3f6e2dU, 0xbd5fce9cbe2260e6U,
  0xbe0dddd0bd8c3f79U, 0x37fbc2a3be0db763U, 0xb92201c5b856b119U, 0x38da568dbd364fceU,
  0x3e2958e8bda1c455U, 0x3d2dae6d3c9788d4U, 0x3db7085abe0232b5U, 0xbc2489bbbd8b0109U,
  0x3e017f283d1ff0dfU, 0x3d8f7c343b6642e8U, 0xbc8a7b053e3bf1a5U, 0xbcb376ee3d14efe1U,
  0x3dbed711bdfde708U, 0x3e13a3ad3d996875U, 0xbe0f802cbe1567c3U, 0xbe0aa9d7bd0b1aefU,
  0xbda9bdd13d4e013eU, 0x3e1eab173bbf4ee8U, 0xbddbab34bc0a4b8eU, 0xbcbc94fabde304a3U,
  0x3d2d16833c2054e3U, 0xbe1e01073d840022U, 0x3dce07873da0c61eU, 0xbe2b113a3e2f1b47U,
  0x3d81eb11bdd813d1U, 0x3e25d7b5bd1c48a6U, 0xbe3cc2e1bcf0abf5U, 0xbd315981be1544b6U,
  0x3d012c7fbd881f25U, 0x3d4dd513ba309ba2U, 0x3df284e7bd0c381cU, 0xbb58a1a3be39878eU,
  0x3ccf0b19bcf66495U, 0xbc96aacb3d8d6a89U, 0x3ccd6c24bda88640U, 0xbe11d5f43dd5397dU,
  0x3c5f1b95bd6a1c0cU, 0xbcaed9c33cd4ed90U, 0x3dd98ccc3d31daa0U, 0xbe385b71bb1401ecU,
  0xbde2d2ffbac74eafU, 0xb895c6c7bbf243d8U, 0xbe0c84c63ce98121U, 0xbd696e523d443d83U,
  0xbaa9ad82bdf937f5U, 0xbda40d37ba5f3e56U, 0xbdb41060bca2fd27U, 0xbdc698f9be0948f2U,
  0x3dfe70e5ba9f7fb6U, 0xbe0cbc32bce9d624U, 0xbcb1f861ba5a7869U, 0xbd9b164abdef5e57U,
  0x3e2682973d9ccf2dU, 0xbdefe671bcd41ebcU, 0xbd77409f3cc5ee65U, 0xbd963b643d4f82d2U,
  0xbd52b58e3dac7fdcU, 0x3ba34c8fbdfc0745U, 0xbddfd169be069f5bU, 0x3dbb1174bc965f21U,
  0x3d4dea42ba91d943U, 0xb9edfd373cb15b15U, 0xba42246fb8ce31f4U, 0xbaa577ffba357436U,
  0xb9156b8dba85f8e5U, 0x378a31ae3780b81eU, 0xb7b46d1138641e16U, 0xb527a4f037ab4fd6U,
  0xbdf35c26bbe6efbdU, 0xbe51d2fcbdf89a1cU, 0xbde670013d998d26U, 0xbd720b2b3db1439aU,
  0xbd38c056bd882f45U, 0x3d41cb763ce7a2d0U, 0xba2ede8fbdbd70a8U, 0xbdd12a123dd8a555U,
  0x3e207e453d892232U, 0x3e0ecee7bd1ff4c4U, 0xbc9646963e152c92U, 0xbe0c7dd13d8811ebU,
  0xbc5bb769bdd6d642U, 0xbbd242ca3e1171d3U, 0xbe3351c33dbbd3feU, 0x3c34834d3d1dd99eU,
  0x3dae16b4bcd99d20U, 0x3e17de31bc387d0eU, 0x3da29b063d0fdbe1U, 0x3c38af413defeb14U,
  0xbe2f7fbbbc64186dU, 0x3dd45fbb3dfade29U, 0xbd05ed213ce39589U, 0x3dd967cfbdcf2a45U,
  0xbe13f1a43ca69160U, 0xbcc80c053e04c977U, 0xbd94798ebd777e8dU, 0x3e29b3eebc7d74ceU,
  0x3cd250a23dc37152U, 0xbce1f36c3d8511d3U, 0xbe33eef83de7d04cU, 0xbde0e0bc3d9aba53U,
  0xbdcb8d36bdd47561U, 0xbe158c65be00ad50U, 0xbd44a1293c638d74U, 0x3d84f21cbdf519a7U,
  0x3d948f413a9099e7U, 0x3d1510b73dd35e99U, 0x3e0623dabc849e6aU, 0xbd5dd8d4b8d108b5U,
  0xbe2a8154be1de076U, 0xbe52b0febabbdd69U, 0x3e39332d3daa5f58U, 0xbe3050d93ab2296bU,
  0xbe10ae743e14c463U, 0xbcbc0d2cbd2f48a0U, 0xbe34858dbdae6e9bU, 0x3bc6cf673af3dde3U,
  0x3d67a8b0bd67aaebU, 0x3c456f89bdcaba89U, 0xbd0b9f3dbdaec481U, 0x3df755593dc93387U,
  0xbd670b9abdc21fbcU, 0xbb53a3893cdfe9e1U, 0xbd8cf3c43d8867b9U, 0x3a6c3116395c7f74U,
  0xbda3aa2bb9adfabdU, 0xbac1d5b93dd5d2d7U, 0xb7a69ce83da03109U, 0xb89f5310b8cd445dU,
  0xb734f76bb88bd197U, 0xb8a43461b86e7a29U, 0xb80bf7bd357eccc0U, 0xb8e750b3b7aad805U,
  0xbd9b33633e3b7d05U, 0xbd6b8a4b3df84b6dU, 0x3d1b6e43bd14b4f1U, 0x3d1213113e10fda8U,
  0xbd2ae3a83cf93f7fU, 0xbdfae5c3bd4f0aeaU, 0x3e06defabbd1a549U, 0xbdeaff4c3e57acc2U,
  0x3db26da4bd69bd43U, 0xbd75bfe33dcc2400U, 0xbd76da713e1dadbfU, 0x3e25f50dbd3d4ad2U,
  0xbde98c113d1428ecU, 0x3ba72d653cb44026U, 0xbdcb623bbcd94f28U, 0xbe3303c33d0b19dcU,
  0x3d86ae6b3dac43b7U, 0x3d2e9e4bbc0f7b6eU, 0xbda4bec73d2b6f38U, 0xbe22f3abbdaddd4bU,
  0x3e3996a7bcd715e2U, 0xbd954bf83c0ce16aU, 0x3e0886e83c08ea89U, 0xbd8ad81a3d66b6b5U,
  0x3e14a0b0bd6670b3U, 0x3d92913e3e04f565U, 0xbd863027bdb36e96U, 0x3e05018fbdfdf673U,
  0x3d9843513d8d1184U, 0xbd894a74bca22f23U, 0x3e12c68dbd13f251U, 0x3be23d83bd8fbf02U,
  0x3e03776dbb5d9952U, 0x3e1b22503e5cac53U, 0x3d07cd753d2cefd1U, 0xbca3ca8ebd8d2cd5U,
  0x3d0ed4833d330097U, 0x3cb233a4be1ddb41U, 0xbc5c19e9be0bd54bU, 0x3e420a1fbdac0657U,
  0x3d156f2c3e1405b3U, 0x3e272a323d1c4522U, 0x3e09f19c3cc54a94U, 0xbd052ceebcbeaa97U,
  0x3c8f4fcb3e00f9abU, 0x3d87897f3db544daU, 0x3e12e1343bf187f2U, 0xbd831bef3ddc496fU,
  0x3d9a2dc8bcbc4daeU, 0xbe1b4dd0bdfda70fU, 0x3d4d93c63a1ea31cU, 0xbda7a2443cdcc3f8U,
  0x3cfd6a6abdde3315U, 0xbe445e5dbdde0c96U, 0x3dc6f1d13baee702U, 0x3e188bd6bdc50d9aU,
  0x3d80d6b53dc924ddU, 0x3dfa9ab739bccc40U, 0xbcdfef9ebda4af6fU, 0xbcb5f00fbe221bd6U,
  0xbe0373f1bd9ea951U, 0xbe8b7acdbda0813fU, 0xbe1c6c48bdb54b93U, 0xbed64f39bed25e5eU,
  0x3dde77b4bd85d280U, 0xbdd57171bd7979bdU, 0xbc9e19bebdc5ab01U, 0xbd12a04ebd9b7ad0U,
  0x3c3496efbe0d5eb5U, 0xbb693f42bd5e0776U, 0xbba63722be067671U, 0xbd0a3efb3ddb9da5U,
  0xbdd5cf5abd965045U, 0x3d8d8c6a3de64384U, 0x3e0c7ba43d9408adU, 0x3d2ace833c86cb61U,
  0x3d9b653e3e0845ceU, 0xbdb706f33dfa1029U, 0x3ca987c13dfd90f5U, 0x3ca1f5913d9f9a8cU,
  0x3da2f69a3e246d29U, 0xbd3cd8e43e2be773U, 0x3cc408063c20f2dbU, 0xbd8568ef3d2dcc7bU,
  0x3d7fdab93d124d18U, 0x3d7c4a903dab7dbdU, 0x3d4997a83df8aac2U, 0x3db296303e2068edU,
  0xbe5507273e229f66U, 0x3d3dd6da3e294041U, 0x3ded3fe3bd71a855U, 0xbe0173083bd7b47dU,
  0xbc05eb373e0e00c5U, 0xbcefce8bbdce1d7aU, 0xbc2860c3bdc42621U, 0x3df54007be463f9dU,
  0xbdce7186be11e9b5U, 0xbbb2466f3c8a191cU, 0x3d34fe4abe017fa6U, 0x3c1061a13de12727U,
  0x3e130a8bbdefc437U, 0xbdc4db7f3da48af0U, 0xbd6d83afbdab6634U, 0x3c4885b4be1c9941U,
  0xbe53c807bd87367fU, 0xbe179c1dbe1736c4U, 0x3c69ac74bdf6d0caU, 0x3bcd7f78bdd34b9dU,
  0x3b67b1a63deb65e5U, 0x3d5b0a39bc1e73c1U, 0x3cc67bf3bd3bbbe3U, 0xbd974188bd8a8203U,
  0xbe301ae6bdd1932cU, 0xbd8871003e0db235U, 0x3d03a3c4bd99a505U, 0xbe38d9a03e1a5b7cU,
  0xbd058d10bd0295d6U, 0xbe0416d3be11c907U, 0x3e08fd183e3dcce3U, 0x37444a073ded18edU,
  0xbce8d1823e080812U, 0x3c95148a3e0d6afdU, 0x3df597fcbd423eabU, 0xbc7d832bbd22a608U,
  0x38d990563e076937U, 0x3d991ff43d836697U, 0x389f2216389ee077U, 0xb79bdb6238211601U,
  0x3d4bfa303d71baa5U, 0x3d17f37d3e427048U, 0xbd4947c4bdaf59bdU, 0xbe3a36dfbe2ebd94U,
  0xbd23bdcabda2a604U, 0xbc2b9c2abcefa9aaU, 0xbb3872de3d9845bfU, 0xbc7c13293dfccef4U,
  0x3c6e9635bb7dfe2fU, 0xbc44f5fcbdb57c51U, 0xbd907625bdd1f9d6U, 0xbd4f110cbce435dbU,
  0xbdfec949be07bf4bU, 0xbe0809bf3da5fb05U, 0xbcd751e93def1529U, 0x3d90b97f3d616330U,
  0xbb5c50c03d78d5c9U, 0xbdf92324bd9bb066U, 0x3cafe8fe3dcd4f85U, 0x3dd98c783de3d9e2U,
  0x3d215e733c224421U, 0xbdbbffd23e1710ebU, 0x3dd2175a3e167134U, 0xbca6c860be2e4f86U,
  0xbd330b65bbecd26bU, 0xbd820b04bccf6b24U, 0x3decf460bad358b3U, 0x3d3c3d2fbd99095aU,
  0x3e0f0f40be12c563U, 0x3d0dbafdbd3d6ec3U, 0xbb15b840bde9eaddU, 0xbaa3f83cbacd4891U,
  0x3cd01c47bd3df7ddU, 0xbdec4f7dbdac502aU, 0x3cd0b967bd3d81c7U, 0x3d19b93f3dabaa2eU,
  0x3a0b26e6b8c145a5U, 0xbc53411d3aceb4c4U, 0x3a98dbe53a64dc3cU, 0xba502f1ebd33dd0fU,
  0xbe024f7d3a010ca8U, 0xbd7922c7bc481e00U, 0x3da4f18d3a60c666U, 0xbddada3bb8952411U,
  0x3c552439ba90e277U, 0xb98d296039c5e399U, 0xbc2d3e3d3d0c61b0U, 0xb811fa09b76e2bc8U,
  0x38e08efdb9aea5a8U, 0xbc6664c9bd054750U, 0x3cc2fd7cb7e7610aU, 0x3a4fd9e6b89c63ffU,
  0xbd19562a3ab5bb98U, 0x3bd99c6abaad62bfU, 0xbaa03fd0baef2387U, 0xba783a413c911230U,
  0xba816a5fb9b19316U, 0xba5b8681baf50f7bU, 0x37bdcaccb8ecf178U, 0x38a1630db6c0be18U,
  0x38886f2237e472c4U, 0xb6d8e5c636dcb8fcU, 0x37b5abf0374a7666U, 0x364befb837e3c9a8U,
  0xbc12bb323de77dc5U, 0x3e58ba9d3d145291U, 0x3d1561173e3c5768U, 0x3d8fdd3f3d7e18cdU,
  0xbdac4e14bcf67808U, 0xbe038f403d9eb4fdU, 0xbd817233be1a4f89U, 0xbe38361d3d3dfe04U,
  0xbdc54adcbcc59196U, 0xbe00d798bda14502U, 0x3cb40f2bbd2ec452U, 0x3e1e9b343dd69591U,
  0xbd91d50a3dbc565eU, 0x3e2d83fbbca667d6U, 0xbd24daccbc79ab9eU, 0x3cfa27113db3ea65U,
  0xbdbe9be13dc7afb5U, 0x3df3f055be27f9d0U, 0xbe00d5c6bd7eb3b8U, 0xbe2a38ed3bb9f97cU,
  0xbe0da8ccbc71d81eU, 0xbe071a113defe21bU, 0xbddd5bafbd8d87fbU, 0xbdc2eba13dc42dbdU,
  0xbe232f54bdc18fb5U, 0xbdf36200bde9ecfdU, 0x3dd100ec3d4834a3U, 0xbe17fc2abdee8c1dU,
  0xbd80cb3bbdae2b24U, 0x3d83e178bad00049U, 0x3d8fee9ebde60565U, 0xbbb138f43dbfa921U,
  0xbc7338cfbdf5c38dU, 0xbcc58e8cba99236eU, 0x3db196acbe1cc33bU, 0xbe409f34be552591U,
  0x3df3857a3c861bb8U, 0xbe3c3368be32cfc0U, 0xbdece3f9be0d746cU, 0x3dc9f06bbcf72f99U,
  0xbdb13f1dbdc04015U, 0x3d0abc433def5597U, 0x3d3c978ebdd97f93U, 0xbce2d3943e134169U,
  0x3c5627e73c791a22U, 0xbe1deb243e258e70U, 0xbd442ddbbd85ce87U, 0xbccb93513deae733U,
  0x3dffbfd43940e519U, 0x3cf618b6baafb4b6U, 0xbcd570e0bb8c9c39U, 0xbe0250b5b6c2fe4dU,
  0x3762ef28bde8f207U, 0xbd65249a3d891d5fU, 0x386dde61be3e83aaU, 0x3ddf74f53e0bc97aU,
  0x3a02eb97bc796f71U, 0x3a1c6e7f3d2106f1U, 0x372529b6399d8244U, 0xb796efa938697f09U,
  0x33bb2d00b656332cU, 0x356edf00b6b47dd8U, 0x37d7ac1435ec6cb8U, 0xb6e60326b7bddec8U,
  0xbc82bfaf3c0a6ca8U, 0x3cf6aeafbd2d035aU, 0xbe0d7dd9bc76f4d1U, 0x3d2d7b6c3dda3513U,
  0xbd344db8bdc42538U, 0x3d92ab0c3e1e6e1aU, 0x3bace3c6bdbe2910U, 0x3d0e359fbcee7d24U,
  0x3e39d0653dce8bf3U, 0xbe1f11973e4953a3U, 0xbd7ee526be01583cU, 0xbd1ef6e33e0b0340U,
  0x3cf1baca3e3cbcbcU, 0x3de8b7063d3ec895U, 0xbdd96c883d8c3568U, 0x3cff6ecebd4d78aaU,
  0x3dae5be43de758baU, 0x3df595b4be24e06dU, 0xbc999daf3b63e3a1U, 0x3e325cb3be14ae9fU,
  0x3e018ba6bd030937U, 0xbe58e33bbdf81b77U, 0x3c43d5823e13e2b4U, 0xbe153482bdd2d3b0U,
  0x3e1b5f57bd9bdd8dU, 0xbbefcdc0be12d0f8U, 0x3dbf8c0f3ca0a112U, 0xbbd3b6b73e013272U,
  0xbdaed12f3c4a3674U, 0xbe1aafd7bd3dc349U, 0xbe2ef318be067a49U, 0xbdfe2f883d1be725U,
  0x3c5874f33cf6fd1cU, 0xbd0fd9bb3da851b2U, 0x3de403d2bd0ad61dU, 0xbdc01fcc3e1ec3d4U,
  0x3a0a5c8c3e2f63bfU, 0x3d39bdfc3e3218d9U, 0xbcc523383d0036b4U, 0xbde6bf923db97063U,
  0xbe335f0b3d8af03fU, 0x3d830f6fbd0e9b09U, 0x3da0c895be0f734cU, 0xbe4796f3bd84bde4U,
  0xbdc3b0e93d8b4184U, 0x3c517168be2c77fcU, 0x3e20158e3e14f12cU, 0x3e2835963b161531U,
  0x3e308bd93e209464U, 0x3da8b3b9bdaf2493U, 0x3d9ab1533cb55762U, 0xbdd0b2d2bdccd36aU,
  0x3e0b22153e34ab65U, 0x3dd0d4353e0e0e9fU, 0xbd2301783dad9ebaU, 0x3d92f9bf3d0d1ce3U,
  0x3d9d9ec93be0742dU, 0x3dbef35a3d9fc426U, 0xbdbc0db4bd0b172cU, 0x39e86f23399252f6U,
  0x3c4ea5ed3da515bfU, 0xb8bb43db3d467de8U, 0xb8063f36b8c3ec5aU, 0xb9268f79b8668c9cU,
  0x3b4b5a903b4946d7U, 0xbda046eab9a64259U, 0xbb11523a3c441390U, 0x3d8f788fbaec0bceU,
  0xbc9e19af3dd4d33eU, 0xba15270eba842f6cU, 0xbcbc4089ba06fbd5U, 0x3d6c6c65ba9e352cU,
  0x3ca8f749bc8e3683U, 0xba988597ba5d1154U, 0xbaa83ff2b87fde80U, 0xbdbb42dbbd69e352U,
  0x3d890c3fbaff740fU, 0xbcaf324bbe104abaU, 0xbe040ef13dcfe7a4U, 0xba624d44bd556f7aU,
  0xba8c3fdbba7c6694U, 0x3b453586ba5f4aeaU, 0xbaa02745baed9ad0U, 0xb912c3823d327a39U,
  0xb8df0e3a3ab3f738U, 0xb97d986c3d8834e5U, 0x39f5df04b6fb8c74U, 0xb90e88a9b7e5e408U,
  0xb89b901eb79ee6d8U, 0xbc6d309ebac2c63aU, 0xbdaee9693cb3ee4fU, 0xba8a8eebba8c0386U,
  0xba697654bb1a7b0bU, 0xbb182a65bae63a9bU, 0xba2ebd2dbacdaa09U, 0xba866f81b8fbe71aU,
  0xb8c2e3e0ba06c164U, 0xba1f7268b99f739fU, 0xba10922338097a4eU, 0x38843c30bacb5786U,
  0x378f5174b75c717eU, 0xba16297538f93cdfU, 0xb810d89d368f514aU, 0xba0eabc4b9427762U,
  0xba13b3d9ba208be7U, 0xb9f17a65ba73763eU, 0xba8a5911ba22af2fU, 0x38c26f43ba95f992U,
  0x38ede68bba117168U, 0x37b5e90bb65e98aaU, 0xb7b09d78b7c1e846U, 0xb7c6329eb7009450U,
  0x38ef648438b79468U, 0xb7b4d7e736427ac0U, 0xb83a39d438e441dfU, 0x380e3bf4b796aa78U,
  0xb7b1bcba37003736U, 0xb83ff70cb8786e8cU, 0x38397c8b383d9166U, 0xb83d4d8e377ba26eU,
  0x360e369037f3cbe6U, 0xb730e047b79035edU, 0xb6b917b0b6eda3d8U, 0x35f31da83577a5e0U,
  0xb6abd82d36209b20U, 0xb6aabd1ab7417be2U, 0x37a552ea37866082U, 0x3731d876b6bcb150U,
  0xbc9f1ea7bd17c4d1U, 0xbdcf54f6bd39fda6U, 0x3dccaf8dbc67c55aU, 0x3e3597023c996492U,
  0x3da56c9bbcdc96edU, 0x3e302d8bbdad427dU, 0xbd4648bebd08cd93U, 0xbccfca60bdc2712cU,
  0x3e19a73abe492f20U, 0xbd852aafbd811185U, 0x3aeea6283ddfbea7U, 0xbc6a5cf3bda05a4eU,
  0x3d15e2abbe0eb565U, 0x3dbff003bd5ba4beU, 0x3dc23d513e100f5bU, 0x3d4339b93e34d29fU,
  0xbe0e8edcbdd2c06eU, 0xbd5f717b3dc1101cU, 0xbe2360293d2ed128U, 0x3d355a1a3e1898f1U,
  0xbd3e05a2bcef5638U, 0xbdb2db1ebdea9f31U, 0xbc64662e3c66a5ceU, 0x3d9bdd07be108f07U,
  0x3e1849c23d64ad8cU, 0x3da6012dbbd88351U, 0x3d67fb1f3d8decddU, 0x3d8adf5a3d4cc90dU,
  0xbc8c59e33dd1be3dU, 0xbe304924bd2c340cU, 0x3c9c7d5d3d6f0ff8U, 0x3e1d625b3dd7e32eU,
  0xbcab01863dd4a4d6U, 0x3e0bf0553d102a28U, 0x3c46a6bd3d2fc94eU, 0x3d4dd9cd3d1f00b5U,
  0x3e23f44e3e0e25afU, 0x3dcce4373d9d6647U, 0xbab8a9423db3b44aU, 0x3e2323fd3d950edcU,
  0x3d670d023dc129bfU, 0x3d1ad4c7bd1d0a69U, 0x3e38a58cbca6a8d8U, 0xbe1fed96bd5fb358U,
  0xbd3baa57bdd69bd2U, 0x3e0f47b3bdfadfbbU, 0x3d5cd7313dc5fec0U, 0x3c2637cf3d0c4200U,
  0x3e324f223d09a2cfU, 0x3e3c9c653e55c0d5U, 0x3e45319fbda00ff6U, 0x3dd8a5a1bd0ef69dU,
  0x3e45a4e53e0266deU, 0xbcb7cec33e36b8a4U, 0xbdc4c6753e343580U, 0x3d7b0350bd0642edU,
  0x3ddc0e383ddd5531U, 0xbddde7b53e1c55d4U, 0x3c512a8db9af6ef4U, 0x3cfa34723c414be6U,
  0x388b4cf13986dd98U, 0xb877dec4b76d10cdU, 0x37c3ada2bc4a56cbU, 0xb8971ad3bda99c2fU,
  0xbd1a9048be05272dU, 0x3e50d6c8bdc8474fU, 0xbe6d5e41bd7ad147U, 0xbc8e233e3c286a48U,
  0x3d8de8853e119b57U, 0x3db94a4a3d7faca8U, 0xbe71a7b13d4559c6U, 0xbddd7a6dbbe3b3afU,
  0x3ce379753df7ef15U, 0x3c19dffd3c8115dfU, 0xbe1c1dd4be2bd850U, 0x3da894ffbdc8eabfU,
  0xbdf825bf3dd5f8f6U, 0x3db7980f3d0b32dcU, 0x3e153893bd975b8cU, 0x3e1c2634bccfc2a5U,
  0x3e1868acbd17f6cfU, 0x3da0b13c3e1086a6U, 0xbc2a6075bba70f95U, 0xbe11282bba84591eU,
  0x3dcc3048bd91fa54U, 0xbdea07da3cc8e494U, 0x3e089953baa992aeU, 0xbdbbe637be4dfa1eU,
  0xbd49249f3d731129U, 0xbd6533bcbe12e9ccU, 0xbdf800ee3dcb1176U, 0x3d5b322fbdd7d209U,
  0xbd7e655c3da06e02U, 0xb9a0fc0d3e0f0e28U, 0xbd936c4d3da078ddU, 0xbe0a3077be029f55U,
  0x3c4cfd333b976ec4U, 0x3d86109ebdd75b9dU, 0x3da7de0f3cf8cf6dU, 0x3dca63883d120fa1U,
  0xbd6ab991bc818c17U, 0x3d3da17c3de7c72aU, 0xbce40a983a698263U, 0x3d82bf91bdf43cf9U,
  0xbd490edbbe484d23U, 0xbe204d16bdc4a6a6U, 0xbd77b7633d402956U, 0x3de58584bd9b69a8U,
  0x3de87fca3dcda953U, 0x3c97bec03cec9d16U, 0x3b1590ea3e098c0aU, 0xbc156d01399eabebU,
  0x38c74ddf3de6ec67U, 0xbcb84e1ebddc0e32U, 0x3d8eff9939c65568U, 0xbe244e10bb641e1dU,
  0xbd4097443a1266b4U, 0xbe0861933c80bcc4U, 0xbd961338bdb63453U, 0xb63fc5e4be0e7ae7U,
  0xbe272e04be27aa35U, 0xbc673f923cd0235dU, 0x37f557dabb41c0a0U, 0x3872c1d237f68b2cU,
  0x36412b90370fea9fU, 0xb74e9b86b6f687adU, 0xb78e2aeeb72017abU, 0x374a3f463872e7a0U,
  0xbb0478303de3be1eU, 0xbe04d9b13e24f872U, 0x3e114119bdacea0dU, 0x3e52b8b5bb2dcfa2U,
  0xbd653675bda34764U, 0x3dbced193e191b83U, 0xbdfd2fd7bd228710U, 0x3db8ce3d3dd3ebb5U,
  0x3e1beee7be006803U, 0x3d03bd363d52fc13U, 0x3c2e3d833e3146c7U, 0x3e2aa28dbdbbd077U,
  0x3cacf48cbd06edadU, 0xbc9d73a53dbf6cbcU, 0x3ce944be3d569d3dU, 0xbda03f9c3d20a2a0U,
  0xbe362a2dbd1b1f75U, 0xbe1a23e2be579005U, 0xbd323385be4775eaU, 0x3e144bdfbdb2b021U,
  0x3dc792073d99a46aU, 0xbd6c1cce3d51b92cU, 0x3c24ca963c60a5aeU, 0x3bd4e30dbd2f4504U,
  0x3dadaa793c4678f6U, 0xbd93b3443d29345fU, 0xbdcd24e73d737783U, 0xbdfa90963e116277U,
  0xbe1a31d93dac4520U, 0xbdb9f6493dfb087cU, 0x3bb958d13d5eb567U, 0xbe50fe82bde74973U,
  0x3d0a69b1bdae9f8dU, 0x3dbc6683bc939d11U, 0xbd88efd93d2e2972U, 0x3e038792bbdec5abU,
  0x3d4c1bd8be0de8b3U, 0x3d6ed5083e3652e5U, 0x3d1d68bebdc8f91dU, 0x3cc2a8b8bdee1171U,
  0xbe1bd4483e08bdf7U, 0x3e0d2e673d0b90e1U, 0x3e1bffbd3de46987U, 0xbc4573f3bde0077bU,
  0xbd8c6a083c9be305U, 0x3b9fddc0be125887U, 0x3d8273133c6a555fU, 0xbe2317193d859c62U,
  0x3d8c506ebe16e264U, 0x3d8894273b07bdb4U, 0xbe315ba1bd5ec280U, 0xbe185722be1d4cfeU,
  0x3c4b00903d5e0201U, 0xbd584eb8be5aa870U, 0xbd50ea82be46603dU, 0xbd0d7405be0fc3f0U,
  0xbc3016403d646d02U, 0xbdea337ebd177f26U, 0x3d70da00bd91570dU, 0x37d356cf3b9835baU,
  0x3d2ef5073db28ac7U, 0x3ea6105a3e9c1a44U, 0x3f0cb4933e8cbb90U, 0x3f0d59323e9f1514U,
  0x3d84fe6c3de670e3U, 0xbc7b6f723cd7c26fU, 0x3dcb152dbb378a03U, 0xbdb916f43d0d467fU,
  0x3db1936ebdb4e759U, 0xbe09019ebc89a19bU, 0x3e5612613d05a99dU, 0xbe39ff89bde8e77aU,
  0x3e124fa43d86dc94U, 0xbe1411fcbe1425a1U, 0x3e02d0ce3ddb66e4U, 0xbdb3d5dc3df30f7cU,
  0x3b0e30ebbdecf942U, 0xbd2985bf3cae7258U, 0xbcc0b41ebe4b5a00U, 0xbda470fb3d461e2bU,
  0xbdf81c1e3daae87fU, 0x3d692e47bdb66ab3U, 0xbdfd2f903df1cbbaU, 0xbd7ce737bd60f170U,
  0xbe0d1a8abe06e98fU, 0x3e194f77bdb1b2ecU, 0x3e1759e43e54246aU, 0xbd4e0add3e04adb9U,
  0x3c6178afbce5fe11U, 0xbdb4c8253dd5c0f0U, 0xbc69cd27bdb3c4c5U, 0x3c0a5644bae1f360U,
  0xbd7b23cc3d922e41U, 0xbe013e3b38f8b854U, 0x3a2bdbd9bcc6c880U, 0xbe053eedbca735a8U,
  0xbd95d9c4bd0e520cU, 0x3ca37c5a3a06f13bU, 0xbe3741fbbda07b89U, 0xbd3454583d6663a8U,
  0x3e1e050c3a15f430U, 0x3a444db73c087f4cU, 0x3e2e20683e36de5fU, 0x3d31f9d93ad69cb5U,
  0x3afe12d83d1fa670U, 0xbcbd01053cd673a9U, 0x3b5504743c51327dU, 0x3d2ec5343e2329f5U,
  0x3d7b74413e1a873fU, 0x3d9c47e43e4b5873U, 0x3a04468e3a432f03U, 0x3a580c7e3ab11f67U,
  0x3c21af603998dbdfU, 0xbd8a0e833922ff7cU, 0x3acca91a3aba331cU, 0x3a10e53b3a4c43fdU,
  0xbc5d24c53ab69dacU, 0x38cefbab3a8a2bf7U, 0x390a06e038c0970dU, 0x39709dcf3d728cf3U,
  0x3a4b4a5b398442b0U, 0xb66810d5b8069c3cU, 0xb77bcdd6b7da8584U, 0x37acf8b438932812U,
  0x37d7beb4b7992fa7U, 0x36db27eab790e41aU, 0xb862bc3f35a1a130U, 0xb75faf72b7e95a78U,
  0xbe1701493d6cc719U, 0xbe2379de3c6ebf9aU, 0x3e170e21bcdab32eU, 0x3e4507b83cfb0688U,
  0x3dab4ea1bd05a572U, 0x3dfab141bd9bba57U, 0xbd65a4793e0fce37U, 0xbc8a48afbc5fa45fU,
  0xbcf558a5bd8c9aacU, 0xbdbd4f1abe248c4aU, 0xbd525385be1922d8U, 0xbddabcfc3b98da6fU,
  0xbbe9387bbdaacb9dU, 0x3c21abfdbd15d7acU, 0x3d0168a2bd24bb3aU, 0xbc8dd0e13de80a05U,
  0xbe0fce57be26be2dU, 0xbdc68d9dbd391179U, 0xbdfb7edfbe03bc2eU, 0x3d4efcb6be1d936eU,
  0x3d872a643d945689U, 0x3e03d3723dc100a0U, 0x3e49246a3e023555U, 0xbe4c69893d507f90U,
  0x3d67efe1bd908a4dU, 0xbd1caef43de71f76U, 0xbe489b793df29cf3U, 0x3e03c1103dd09820U,
  0x3e3109143e23796cU, 0x3d9ecf053c3769a1U, 0x3da21490be08ecb4U, 0x3d63a764bdab79dfU,
  0x3df7e6d9be24cfbeU, 0x3b64b7b03da86c55U, 0xbc7d719e3de4c5aeU, 0xbdc9383b3e095573U,
  0xbd07b49ebde968d1U, 0xb8f89a72bb97e1b4U, 0x3b5d03343e02de81U, 0xbdf529c13d280964U,
  0xbd7442afbd0876eeU, 0xbe334f17be2d64a4U, 0x3e0d4f1bbe2ae3c3U, 0x3d829c883e27ae71U,
  0xbdd94a8c3d8079c1U, 0xb82f1f64bb9e6611U, 0xbd30961e3e38d4e1U, 0x3ce2245e3d41dddaU,
  0x3dc656fbbd935e51U, 0xbd9c3a37be1eb655U, 0xb90331eb3e21a903U, 0xbd6a115e3dcbee98U,
  0xbbbf9c6bbd9bf31bU, 0x3e6273743d65fd40U, 0x3e53d21e3cb5169dU, 0xbd7cc04b3d8a80e5U,
  0x3d1879ac3d1b00b8U, 0x3d9aa6fb3d849519U, 0x3621e8d6bd84a15cU, 0xb51ddf72b55bb85eU,
  0xb58ef017b720c046U, 0xb6e003beb698ce2cU, 0xb45267c0b649945cU, 0xb76458a8b5197018U,
  0xbc4e80ca3c810f5eU, 0xbd83d5d23da88ff5U, 0x3d79963f3d489649U, 0xbc89c084bc30355bU,
  0x3e255752bd9baf68U, 0x397dd9983c4db6d4U, 0x3e36f25b3c8c5a3bU, 0x3dad9ed43d09e803U,
  0xba100bd2bc8770baU, 0x3cce8b8dbd39607bU, 0x3c23e320be038861U, 0xbda7a0e8bd3b72d9U,
  0xbe095647be20a86eU, 0xbc7086b93ceb0b7fU, 0x3d9c76dabdc64d3eU, 0x3df5cfee3d58b70bU,
  0xb6c83f9e3c883a67U, 0x3d3223aabdd30780U, 0xbd07c5df3dc3e590U, 0x3d0e107e3d2bfaceU,
  0x3d30a2f2bcce69bcU, 0xbce1e4d3bd965657U, 0xbe0dcd02bd61b981U, 0xbd4612ddbe307563U,
  0x3b3fef85be0aa20cU, 0xbe05ed56be203507U, 0xbdea1ee1bdfbdf2aU, 0xbbd1ef473dc87815U,
  0xbc89fc493d1bc1f9U, 0xbe11ce47b637a002U, 0x3a485375b6c186a8U, 0xbd9201f93a3795caU,
  0x3d7d6e813a8f249bU, 0x3d9af6323d9c5c28U, 0x3d19bd87bb89934eU, 0xb8069a28b9fa2cbbU,
  0x38f49401b70c9349U, 0xba60a9f7b80f6190U, 0x3a0c459eb99178daU, 0x3c1e68193d6e487aU,
  0xb7353a36b9051ab5U, 0x366b7b1cb861fe19U, 0xb88e86133cff4e39U, 0xbc995f57bcd8b54fU,
  0xb706a835ba91392cU, 0xb8e32a0fb79e5894U, 0x35d13b4bb898e8e8U, 0x38cd1bb2b6db3be5U,
  0xba95e397b5cd29e8U, 0x37276024354c6400U, 0xb5cc0ec1b6850397U, 0x380e397838149d36U,
  0x34cc86b8bc8db42cU, 0x38a0bac73878a53eU, 0xb87a5e79b882576eU, 0x365e40f836f0f1f2U,
  0x34176c40b802cad1U, 0x38f439543913ff20U, 0xb84823043849e516U, 0xb81a0ad0b7e0731eU,
  0xb8b214a236aa2d4cU, 0xb8de7a16b87675c6U, 0x390771623733292cU, 0xb9097607b83ad308U,
  0xb8d1bdd6b9ccdf81U, 0x39a03534b838b431U, 0xb724e770bdb11687U, 0xb61d517838377dedU,
  0x388a27dabd728d1bU, 0xbd4513dc381a1789U, 0x3c82460abdabbadbU, 0xbd6aa3c6be196414U,
  0xbd825a46bd901890U, 0x381efda0be06da52U, 0x3d01389bbdd10165U, 0xbd0c0c663d59c932U,
  0x3e128c2bbca5b82fU, 0x3df5dd49bcbac214U, 0x38871645bdb8150dU, 0xbd9ad70ab6dd4aaaU,
  0x36b6471f3d508849U, 0x377cc1873d289ba6U, 0x3c340913bd21f327U, 0xbdb85cea3dbb7d7dU,
  0x3783f01a3d8d5c72U, 0x368dd41538103c87U, 0x3d1a3791370b6a62U, 0x3767031837242b00U,
  0xbcbbbc47373a3e5cU, 0x3722391bb76fc3d7U, 0xbce00cfe3c786a16U, 0x36d799513d9ad836U,
  0xbc146178bab9cbd7U, 0x370329bc3749a18aU, 0x36da86c637e3dcf5U, 0x36f64fd63730ea45U,
  0x3669213235fbadb2U, 0x362d967435a81a9bU, 0x371da7cfb6aa94f6U, 0x3648c480b76c169fU,
  0x37201ec0b7279a3aU, 0xb79415ba376bcdd2U, 0x371abd87b7a5855eU, 0xb727872237807fbcU,
  0x3735ef323704538bU, 0xb558a78c3705adc7U, 0xb6e2996ab684bd33U, 0x37a638f437eae4a2U,
  0xb74006913790ded3U, 0x37d007c2b71cc444U, 0x339a57803545eeccU, 0x3733fcbab720ff78U,
  0x3742e3d636ef5cdfU, 0x367561d33683a966U, 0xb5051ff037984009U, 0xb73b5c71b691a4eeU,
  0xb690e99337ac3f16U, 0x36e4cd583630e628U, 0x37a2c5053714236aU, 0xb8068d2036886022U,
  0xb5b05becb7411c7cU, 0xb71f1b1db748d721U, 0xb7b5c13237111df0U, 0xb60ca18237a63e59U,
  0x35fcbe923468ca40U, 0xb6320bd0379c26e3U, 0x36689199b648dc30U, 0x3783c94b378fadf9U,
  0xbccf6b853c58e6b0U, 0xbdd656533e28635cU, 0x3cb171bcbda6c4adU, 0x3dcb04d6b91e8ee6U,
  0xb9e0649439a2fce6U, 0xbc88f5cc395d3911U, 0x399faf6238b58a52U, 0xbd93bf623929c5c2U,
  0xbd251272b9cddc01U, 0xbc46df883cbb8182U, 0x394fd55ebcaca72cU, 0xbde2287d3961082fU,
  0xbe04b1ffbdacbbcdU, 0x3d1a74a239b3e335U, 0xbd33d7bb3ce8bf17U, 0x390ce9d3393fc0edU,
  0x3984df313902c741U, 0x38682e153966ef40U, 0x3803f4063888e094U, 0x395160f73914c00cU,
  0xba272c6939873addU, 0x38db6b3cb94e451aU, 0x38635c6038b563b8U, 0x389ece7238c63fb5U,
  0x3920817738de9a00U, 0x3936903639762989U, 0x3965ce823944e178U, 0x39138dd4393ca006U,
  0x385c5d0f39148410U, 0x38d13cd638b03e14U, 0x389810553963ff6dU, 0x38de0813b6db4588U,
  0x37d051a638aa9b04U, 0x391a26f035b3c1c0U, 0x39217d5038bc87c3U, 0x384c0e1d38da0e3aU,
  0x39239377390a928cU, 0x3969442838bb06a5U, 0x392ad5a139669249U, 0x39480fa538ed2272U,
  0x389fd96e39847583U, 0x37c3e99cb7afb4cfU, 0x390f35e537cd302eU, 0x380622883920a6ffU,
  0x35ee4ca038666018U, 0xb7be39f4b6db5946U, 0x366ddafe352bbd40U, 0x3717576238db505aU,
  0x380c42dcb67ae026U, 0x3734974ab7b21daaU, 0x363bf2ba3839ddbdU, 0xb737c8e037ddaa87U,
  0x382f2d6a35970f70U, 0x387427ccb765f665U, 0x37e1240438b627fbU, 0xb80ce307b6c7457eU,
  0x3801735f363f8048U, 0xb65fe208b7cdb9a4U, 0xb7f3417e37acc392U, 0x36d1a57537a65692U,
  0xb4fc59f0b67d04d0U, 0x37a0f25eb59b351eU, 0x37bc1c0ab80419dcU, 0xb72cdabf35aed7c8U,
  0x3c255bae3daf2c77U, 0xbce4f8b63dec848dU, 0x3e1b1e34bd299359U, 0xbe1ef1b13d90776cU,
  0xbe09cbc6be23bbf9U, 0xbd9e2438bd9e80b6U, 0x3e165916bc91872bU, 0x3c671dbd3d9d41ceU,
  0xbd5e79573e2cece1U, 0x3d1dcf023d1d06dbU, 0xbd1165553ccba192U, 0x3de547a6bd804f4fU,
  0x3e1539da3d22d063U, 0x3e05e11e3de2c8d3U, 0xbc8b09433e01aa1fU, 0x3b22e2183d95efffU,
  0xbd51d408bd3d404aU, 0x3e256efabda34614U, 0x3cdc8563be0e1492U, 0x3e5fe1103ddf3194U,
  0xb95e2bff3ded3e84U, 0xbe1904353da313a7U, 0x3b5fdc963df919eaU, 0x3e06b7f7bc589491U,
  0x3d3a92efbd7c5394U, 0xbaa602db3b520b53U, 0xbdb0c6b43d62d5feU, 0xbdbf43733df38455U,
  0x3db7ff62bde28f43U, 0x3e3e5808399d0514U, 0xbe2288443d40c970U, 0xbcea1cd23de0cb5fU,
  0x3cfa477a3d618ea8U, 0x3d1a38873dbc7f6aU, 0xbe09ae103dc5ab57U, 0x3c449261bdfc6f92U,
  0xbdb27ed43dcfd9ebU, 0x3e35ba72bdd3e66aU, 0x3e200c2b3b7aad87U, 0xbc5bbc47bcecf286U,
  0x3d3b76ecbd99512aU, 0xbe0e4ee8bdd12c39U, 0xbcf9b860bdd949c5U, 0x3ca440703e13e36eU,
  0xbd41e2b93b64bbceU, 0x3de50580bd0e5295U, 0x3e04c614be1681e2U, 0xbdf523f4bde06c11U,
  0x3de10fa5bd1f5f61U, 0xb8022f66be1e174eU, 0xbe0e8a59b833a31bU, 0x3da070e8bb00b5a2U,
  0xbd88dc68be453822U, 0x3db6f1483e1b0461U, 0xbd77edc23d65c66eU, 0x394afba23e20ddb1U,
  0xba680595bd0edf98U, 0x3bc8ff1b3d149c6eU, 0xb952fe293d77049dU, 0xb9d3762f3d3baa2bU,
  0xb626e650b980cf05U, 0xb7d90494b803435bU, 0xb8b54ce6b85261e7U, 0xb81663cdb8a9a2d6U,
  0x3dc60d2c3c0e176fU, 0x3d0c6f413dc111d3U, 0xbe149fd13e0e931fU, 0x3de1fd3abde8e680U,
  0xbdeaaed73dac9211U, 0x3bf139b7bdb9b547U, 0xbde8808a3d5a8c42U, 0x3dfc6cc63dfbff13U,
  0x3d6e64bfbdb68cdaU, 0x3dea68ff3e18138aU, 0xbdafd059bc465219U, 0x3ddf856e3e0e074bU,
  0xbd3ccaaa3d203e51U, 0xbe24f197bdf3c272U, 0xbe0e77e43dae9e99U, 0xbd360342be610a87U,
  0xbd1ae4903d6a0bacU, 0xbd390af93e4598baU, 0xbe3e7f89be5d50a0U, 0x3c8a96d03cfe5a3cU,
  0x3d9f11bfb8a949bbU, 0xbd7d96333d2c9e43U, 0xbb164a2abdcc4b62U, 0xbe041fe93e0f114cU,
  0x3d3a920abe08af7eU, 0x3d34947dbe293f06U, 0x3d2706c9bde78085U, 0x3d6d8a8bbe1804ffU,
  0x3d56dbbb3b243a06U, 0x3db0d3c8be37508fU, 0xbe19e6013d8e461aU, 0xbdbb6b943d0bb7b8U,
  0x3b64393abe0d6d23U, 0x3da8044f3df9a166U, 0x3c361bd63e0c3b25U, 0x3dc96a76bdfd722cU,
  0x3e1d4173bda59d9dU, 0xbd0abcd63d8cd769U, 0xbda5c8a5bd96a5f9U, 0x3da6d4c2bd50f9beU,
  0x3c222f0d3d8f4b3eU, 0x3df6d5263df8ad1dU, 0x3df867c13d6b3a66U, 0x3a21d2643dda958aU,
  0x3da98b733b1532a5U, 0xbe21e1843b074c80U, 0x3d452a103d723941U, 0x3a83676abe12995aU,
  0x3de5fd5dbe09aff8U, 0x3d8d0ff73deff9bfU, 0xbde614a7bde163aaU, 0x3ad8ad89b9f88e4cU,
  0xb919261dba0c615dU, 0x3e098de2bc7c4b5cU, 0xbd9526403d7de331U, 0xbd37351e3bcf843cU,
  0xbc10f88dbd563dc3U, 0x3d946dc7b81d356cU, 0x398760fc38cedb89U, 0x397a50d739406200U,
  0x39737887385297daU, 0x3943fc03388e791eU, 0x3967111739013497U, 0x38c4161838cbb626U,
  0x3daaed583d507dacU, 0xbe1d82d53cb3ad99U, 0x3e2975c8bcd11aa0U, 0xbe4a38b0bdab293cU,
  0x3e265f983b419b5dU, 0x3d6a2e0abd6402bbU, 0x3b119e163e2fa8d8U, 0xbbf065c73bff221fU,
  0x3dcfc1703d1c8575U, 0xbc8b1d99be01b1d0U, 0x3ad9a1d33ce5e19fU, 0xbe0023ef3c54e0e9U,
  0x3e0db04fbdeae65aU, 0xbe0790c8bc475710U, 0x3cc2d50d3e11a951U, 0xbdebf190be0ed764U,
  0xbe2873cf3e132ad1U, 0x3e45e5403e042e22U, 0x3e19ebc9bdc62b41U, 0xbc88f7113cbf5426U,
  0xbd8d7b2fbd63116eU, 0x3e127228be0f557fU, 0x3d42363cbdfc2b38U, 0x3d2958003d0fa057U,
  0x3e0ce701bdd5840eU, 0x3dbebdd1bd74c2faU, 0xbd8c59983c8fbffaU, 0x3dad3945be172e2bU,
  0xbd8d6795bd4a9ae9U, 0xbd91f63b3d07b06cU, 0xbdfbe0fdbd240547U, 0xbda8e0313e28832eU,
  0x3d0b2f83bd7fd87dU, 0x3df4e36c3dbdaf18U, 0xbd6856263dfc7318U, 0x3dd8b40bbc2fe865U,
  0x3d9d87db3e063874U, 0x3e12ba383e2a9b12U, 0x3cb1cedd3dab51e5U, 0x3d1640e83c06a914U,
  0x3e13f892be265a17U, 0x3d487765be0ec5f9U, 0x3d9b65e93b9edf34U, 0x3e08e316399f78edU,
  0x3aa006ebbd8de7e8U, 0xbe03b8f23df9308bU, 0x3c7e5106be2df5a7U, 0x3e07bcd3bded9e9dU,
  0xbe0011853de61bf3U, 0xbdb1d8553e210125U, 0x3dcff6b73e141180U, 0xbdcb7751bd7415fbU,
  0x3d46efb93c0a3ce3U, 0x3d8477143e1f24b0U, 0xbd68f622bdcb5404U, 0x3e0deea9bdbd7511U,
  0xbd8b2b803cebeb77U, 0xbdb61638be10bf0eU, 0x38a7da3e3d28e683U, 0x38a10932bcb4d99bU,
  0xbd01ec9f3829dcdeU, 0x3477de00b7bcca35U, 0x38226e79b739bd00U, 0x372192823763cbf6U,
  0x3e1ecfce3dd9fc38U, 0x3da8e8833d2d1bbcU, 0xbe09f98b3d71f7c7U, 0x3dc949c03cab088aU,
  0x3d3bf1013e2b3152U, 0xbd69c04ebe42c929U, 0x3dcfb64fbde79159U, 0xbe202f1a3d64d78bU,
  0x3df2d931be016814U, 0x3e05168bbd7bd0a6U, 0xbded7613bd9ca054U, 0x3e29b3083d2b67cdU,
  0xbe1bd0f0bd664b6eU, 0x3de80f7d3dd709d8U, 0xbdd416803dd57d99U, 0xbdd0819a3cc6edb0U,
  0xbdc268603e1e0a6bU, 0xbe415337bd73a956U, 0xbd31771ebdc8fa86U, 0xbcc94700bcaecd38U,
  0xbda429333da26ad2U, 0xbd7447b3bce78e65U, 0xbd88183f3da85a6cU, 0x3dbb120e3ce3787bU,
  0x3ca1c7b53d381101U, 0x3d93a4e3bc426872U, 0x3cb58857bd0d802bU, 0x3d4354103d05a7c9U,
  0x3b50cbd63e227142U, 0x3dce5a32be0728cdU, 0xbd937cb2bcb160d4U, 0xbe411187be1145d4U,
  0xbe1aa0503db3bba7U, 0xbe6340adbe4a70a9U, 0xbcd37f3dbd15c051U, 0xb9647fdfbe192f1bU,
  0x3db727f1bdc86e07U, 0xbd3d4714bdb5b6d9U, 0x3daee506bb118c59U, 0x3e1c3fbdb9c21035U,
  0x3daddc4bbd6b8226U, 0x3d87c249be4d619aU, 0x3e0d1a18be3366a1U, 0xbe047314bdbf6f90U,
  0x3dce0c6c3b9e90aaU, 0xbd2b7a66bd625c16U, 0x3da2dbb73d8a7adbU, 0x3ddb3d3c3dc31002U,
  0x3e070104bb03653aU, 0x3e0dd2f6bd28dc70U, 0xba612c41bb78aa4fU, 0x3e24c2343cfa7755U,
  0xbd0997f9bd94c183U, 0x3e3471f13dedae6fU, 0x3e6d34ebbd6f3b13U, 0x3e20fb23bdc7cbceU,
  0x3e2ce7293e1a2fd2U, 0x3a00324c3d72e876U, 0xbb3118f23d8cbebfU, 0x38e854da38d47e25U,
  0x38e292d038606b2aU, 0x3901aa2c38f5c784U, 0x39a1cf08397edbf1U, 0x39179c1739785498U,
  0x3d4327d7bd32bd98U, 0x3d15d7203dcf2112U, 0x3c42fcd13d851ac3U, 0x3db5ace8bde731f9U,
  0x3d8d4d063dc4025fU, 0xbdab34be3e55c350U, 0x3d7d19293e1b246fU, 0xbdab969dbc5b4dcbU,
  0xbdb904be3cad56c0U, 0xbe315abc3d3eb291U, 0xbd06a7febd9e3fc7U, 0xbcaec9ea3b3ee9aeU,
  0xbd245ecbbc9b7213U, 0x3c46feddbca23b89U, 0x3d4230c03d5486f0U, 0xbe1a7d13bd35763bU,
  0xbccfa321bdf02a81U, 0xbd953219bdcc61e1U, 0x3dd42fc13e4ca3c0U, 0xbc38d053bd39d1fcU,
  0x3e3a728ebdce8e5bU, 0xbe04560f3de92b52U, 0x3c2853bfbdaf866aU, 0x3d8dd068bd307b04U,
  0xbde12669bde43770U, 0xbdcd24efbe3b1ed0U, 0xbd00d2dabe1bcfc4U, 0x3e28eccd3ddf17b7U,
  0x3c3db9b73e305530U, 0xbe14324bbdb8e44bU, 0xbe169e303e020ff0U, 0x3d75dcef3df28681U,
  0xbe1207973d33c0b8U, 0xbe267e11be36648fU, 0x3e19a5e5be0dec5bU, 0x3c8166663e2875cfU,
  0xbe227c77bd82a49eU, 0xbd835124bda4a964U, 0xbd9f9671ba43264eU, 0xbd1bc66c3e07ee17U,
  0x3d24a5a33db39a46U, 0xbc8d814b3c8a4358U, 0x3db637afbc02aedcU, 0x3e2bcd96bde964e6U,
  0xba59091bb9af0e4eU, 0xbc4ab81ebe0b0186U, 0xbe135effbd6893dfU, 0xbb89dfd03cd68e87U,
  0x3d4abcab3cd0e17dU, 0xbd446a7cbd972ed2U, 0x3e025cdabdf30403U, 0xbcc597a63cd7e9e5U,
  0xb961edc8be140292U, 0xbd724f22be30b5b8U, 0x3d9c56be3cf2e0c8U, 0xbd7b326bbd61c2d2U,
  0x3dee91223d8601d3U, 0x3d976e223e1948f6U, 0x3cb9ffe63cf5f9f6U, 0x3d89a645bae8584aU,
  0x3d3d1a2c38f906ceU, 0x391e2c7339199831U, 0x39ad84b2391ad624U, 0x39070e4539a61072U,
  0xbd9fba46bdec0cbeU, 0xbe129d13bc8dfb42U, 0xbe3530aebdf5d06eU, 0x3e12be6e3e04c1ffU,
  0x3d21c7c03e1b6f42U, 0x3cc3400cbdc4b330U, 0x3cf4b17cbc284b9aU, 0xbe2e5b2ebde314bfU,
  0xbd327e15bcaee8cfU, 0x3c8d10b43d384769U, 0x3d16266e3e220ca4U, 0xbbeb2a773d6817d4U,
  0x3df9d5e03c6113b1U, 0x3d50f16ebdcd2e5aU, 0x3d57f9e3be076d69U, 0x3e4487793dee8814U,
  0xbd84fbc73e2b00b7U, 0xbd544e893ce7a197U, 0x3d8080ddbe1ac50bU, 0x3e0a61cebcc5ec4fU,
  0x3d8d0cb93d57609fU, 0xbde7f5c7bdf127c1U, 0xbe137dc1be164228U, 0xbd25ff7c3d738c77U,
  0x3dddf8a43d9d470cU, 0xbd6f9b653bc92221U, 0xbe2c71593d969195U, 0xbd8d148abd96424bU,
  0x3d81da1fbdcc7135U, 0x3e6e34a6bda2c589U, 0xbda2b575bddbe725U, 0x3df39b69bd07a433U,
  0xbe0794023cc3f11bU, 0xbe137021be26f0a1U, 0xbdba04673cd76d91U, 0xbad087d3bc001badU,
  0x3dafc7ec3e1ce64aU, 0xbe21f553bdac9b09U, 0x3db977083e2970d7U, 0xbdee707c3e3233c9U,
  0xbc51fd00bc734ff9U, 0xbdeed3923d8e3559U, 0x3e31b30a3e093672U, 0xbc7884623e195bf7U,
  0xbe21312b3c274186U, 0xbdd0e4273d7ea86eU, 0xbe5fe3fbbdd7a6faU, 0xbe17f28cbe419156U,
  0xbd919bc5ba646eeeU, 0xbd00eb9ebd9ea60bU, 0x3e1ad7e5be229f5eU, 0x3e01e07fbcf28ab1U,
  0x3c7ef2813d643992U, 0x3dde28ebba24afe3U, 0xbdfd610ebd290337U, 0x3c5f2b413ddc55ecU,
  0x3794eb04b6b8195aU, 0x3c7e8db8b9dd20f4U, 0x37351539b81d613bU, 0x36e4af9e37c36c3eU,
  0x3747e634b7413314U, 0xb918036537b1fb63U, 0xb794262b38384270U, 0xb6db0f4a3718234fU,
  0x3d7f51c43c7d7d5bU, 0xbdda556e3e939ceaU, 0x3e83ca5fbee2cef8U, 0xbe9132763f4526edU,
  0xbe89e1f2be35df44U, 0xbc1d2969bef2bf76U, 0xbf0680bfbe3f6b2fU, 0xbf01c7c2befe9151U,
  0xbe07c992be2c02beU, 0x3e2a7a86be97f8abU, 0x3dc1c3a43e294b39U, 0xbec9a49abd18c0dfU,
  0x3d94bdadbe8a0c6bU, 0xbe4196d63ef62e2bU, 0xbf13259cbeb2c136U, 0x3e5ce5a53d5ac49cU,
  0xbe856ad0be30781aU, 0xbea39c403ebbd631U, 0x3e80138cbf337037U, 0x3f1ab692be300da6U,
  0xbc38e7e43c9e8550U, 0x3e4f38d4bf4832fcU, 0x3ea6bc8c3f7253f3U, 0x3c73e0eb3db8bdd0U,
  0x3daa59f8bd32a579U, 0x3eb34c613ece7625U, 0x3e4ab59abe496f9dU, 0x3ee9a1ed3ee26cddU,
  0x3dfc4adcbb056258U, 0xbaf139173bdf5cccU, 0xbe1f033bbac82743U, 0xbd5076023b90808eU,
  0xb80152913673c5f9U, 0xbd436e9ebc82342cU, 0xb96f1299bca91aceU, 0x3e1cd79dbcb20c4dU,
  0x372057cf378442dbU, 0x36956eb0b576ee78U, 0xbad7e46433c1bdf0U, 0xbc8ddbc13832472eU,
  0xbb24ece6bda991feU, 0xb72bab42bcf68205U, 0xbe52da9d3ddf2bfeU, 0xb9eb285a362e4ce9U,
  0x3dd28426bb3ed5d0U, 0x3e2e91e5354273b1U, 0x3e51744cbaa1e7c6U, 0xbdc50b3fb8e0cc5fU,
  0x361c53f1bdde64f5U, 0x36d32b84bd57e6d7U, 0x3e0fabd93dd8c7d4U, 0x37756cb737affefaU,
  0x35835dc435edf8dcU, 0xb7de34c2bda83876U, 0xbe049a09bd8df9d9U, 0xbdac0c6a39a711fbU,
  0x387056473cf9f9dfU, 0xb4e7f820ba85d530U, 0x38edaa413944fc23U, 0xba340d9c3a9a03aaU,
  0x336215c0b6737959U, 0x3bb41734bcb13267U, 0xbd10defb371271b7U, 0x359c66d33b564918U,
  0xb4d56bb2b86ca625U, 0x3cf743ebb6c2f508U, 0xb95c80e336034505U, 0x391090d7bad3e801U,
  0x35d91aa8b8c9f725U, 0xb9ac53453bad96f3U, 0x3c117600b704bec2U, 0x3ccdcc56350702f5U,
  0xbc859f8eb9ee3c0cU, 0x371e3e063c97bdffU, 0xbc941ead3c5e0d5aU, 0xbbc09b07ba44b175U,
  0xb5d8ab523b4e72c6U, 0x35b2fdc8ba04d337U, 0x39821c1a39dfe3c6U, 0xba0ee1eb3d4dd46dU,
  0xb92e79c4b631f338U, 0x3b81e1e0bc304955U, 0x3c4b5ae7bbbf26b1U, 0xbbab17d53cd5428cU,
  0xbe12b36dbc4231fcU, 0xbb32bd173aa1026cU, 0x3d9effb8bd44ba6bU, 0x3d071eb1bd89502fU,
  0xbc4e75a0bdc1b5cbU, 0xbe65dcfc3c4b0ddcU, 0xbdc217b5be016467U, 0xbde9ac153dd2af4eU,
  0x3e14b107b9b944b8U, 0x3dedfa5ebc86c1fcU, 0xbbb0db283e040556U, 0xbad301853e1a402dU,
  0xbe0142e93d1e7a0cU, 0x3e050fcc3e4ddb5dU, 0xbca8ac1c3d666336U, 0x3de92c3034878b78U,
  0x3e0ed687bd573adbU, 0x3dde3e89bc4e1d8cU, 0x3e2aea14be01703eU, 0x3d1c25c0bde99373U,
  0x3aa8ea2f3d985393U, 0xbe01da59be5661e2U, 0xbd39a5553e1de5e6U, 0xb8dad50bbd8c6386U,
  0x37e03883ba4dcdf8U, 0x3a030ac43d5c3e3aU, 0xbd2f4842be1e67edU, 0xbd904bb53c236becU,
  0xbac4f411bdf90c0aU, 0x394d0be238b2fcd0U, 0x3d4e29ceb8f8c729U, 0x3d72c50a3e25d13bU,
  0x3aebcaa1365f4e1dU, 0x3c6f4c71bd36f27fU, 0x3d6027da3ac786d2U, 0xbe2b572dbdf5afb9U,
  0x3a11017ab8900be3U, 0x3e2104eeb759dc2cU, 0x3d089fdc37330e74U, 0xbd4d8b4138fbf354U,
  0x36758ea2bdb15ee4U, 0x3c37ac1dbd308479U, 0xbe07164c3ca71c7aU, 0xb8ac72853753125aU,
  0xbc5e893f3ad34df4U, 0xb70683763a6299c9U, 0xbdd55e323e11de06U, 0xbe1fa38a3bc09945U,
  0x36836e44bbcaf58fU, 0xb62d8f78bdebe958U, 0x3d9cac10bda790e5U, 0x399ee6a935daad5aU,
  0x37b7d718b6a4198cU, 0x3dec3bcdbe1692e0U, 0x3ddea3543dc9f6a2U, 0x35f381d6bd0961e9U,
  0xbe078228bd2b636bU, 0x3d3461b8b8bc7b4eU, 0xbd7a065e3a3d959dU, 0x3e10dac73d4afdc4U,
  0x3e2cc3a43d6f6b3cU, 0xbbed45cd3e256023U, 0xbd9c64693d6502d3U, 0xbdb54ed33ac480f8U,
  0xbe1c4bacb83cf206U, 0x3d833b6d3da3e3bfU, 0xbd90cd6c3db0250eU, 0xbe822c413e4b2e7eU,
  0xba860bd83e6100c3U, 0xbd0c8d643dc48f42U, 0x3e12c3633ca3dc8bU, 0x3ada73013abd58fbU,
  0xbd9dce44be00e150U, 0xbd8426b2bc0ab8abU, 0x3d925a0a3e57e87bU, 0xbd079f57bb1ca363U,
  0x3abc5a43bd890ad1U, 0xbaf53ad03cf14affU, 0xbddd06d6bdf1bf94U, 0x3c954f8abde49eb1U,
  0x3787aac3b786c942U, 0xbc123bab3e222a5fU, 0xbdea34d0be085ce0U, 0x3da8abfbbd103296U,
  0xb73f49a0b9920db9U, 0xb73ae75eb6f6b734U, 0xba9f07a6b9066630U, 0xba0d1174bcafa3e8U,
  0x36316aba374ee27aU, 0xba377e31b400e210U, 0x3d3291f0ba879658U, 0x37ddbe213bfacc20U,
  0x36d7462ab925f28aU, 0xbab363493601ccb1U, 0xba2341f2b7249ba0U, 0x3ab8d48cb7055c0dU,
  0x32baa180bb04946eU, 0x3570fdb8bd8882faU, 0xbb202e6cb7f672dfU, 0x3929c2d6b3afd100U,
  0xbdf3eea1bb1738aaU, 0xb7cb7a81390f8230U, 0xbc2e84333da2e5a4U, 0x38d3bc183a487d7cU,
  0x37ac50f4b84efc03U, 0x3752eb75bae7d9c4U, 0x3982a6d33d8aa274U, 0xb8db4086b725a1b7U,
  0xb8c5999935426e60U, 0xb7be0286bd602236U, 0xbd215a54395dbd7cU, 0x372f59b1b91952cdU,
  0x3d88dcf93e49a63aU, 0x3e665bcf39997a60U, 0xbdd37410bb7c9d6bU, 0x3dabb42ab9fbeaffU,
  0x3d83f73c3d800ea7U, 0x3e2ea9e0bce49eb0U, 0xba1529e83994b669U, 0xbc506b193e1ed4daU,
  0x3e15efcf39620996U, 0xbe248b8abc84896aU, 0xbe209a7e3a02b82dU, 0xbdd2faabba08653bU,
  0xb52f9b03be0db7c8U, 0x3616bd52be219ddaU, 0xbe5107b4bdae36d1U, 0x3d69b26ab6c5d628U,
  0xba22b281bdc55367U, 0x3d50be95bd8616d1U, 0x3e1919a0bd85b94dU, 0x3baf03783d7ff48bU,
  0xb888fbc33dd1ea9dU, 0x3dd793cbbe0bda57U, 0x3ced717e3e63bb74U, 0x39c7eae0b45d2130U,
  0x3881c2c239d84f6dU, 0x3e27fd36bcbf847cU, 0x3e0f7e2ebd4d9c99U, 0x3a892cb03d8fd213U,
  0xb8a1e0d237d0584eU, 0x37cdabfcb77d9214U, 0xbe468800b855de9fU, 0xbdaafe473e1829e5U,
  0x3639397238bb3c84U, 0xbd60e5db365c5d1aU, 0x3df9a3c737be5c1eU, 0xb95baa583dbd0a42U,
  0x358368c0b76fbc36U, 0x36501d883659e38dU, 0x38a96dcc363506a7U, 0xb9112f6a349d8b54U,
  0xb72f0c0637441318U, 0x3c572480bcabe70dU, 0xb8b3579e381ebf13U, 0xb937237837eb8c57U,
  0x3e0a8496bd33f210U, 0x36f1361fb9025708U, 0xbd80b93ebd574fa6U, 0x3c2b71c4b7ba37b8U,
  0x369b7ecaba09b27aU, 0x37f7ba3bbe08f929U, 0xb8f957d6bd9bbc7bU, 0x3753df25b6d78bf4U,
  0xb7c494a2b730e349U, 0xb84d6259bc82f377U, 0xb7ef612fbd0ccb0eU, 0x3866ec0e3b2150e1U,
  0x3e5b0395bdfb1382U, 0xbdef5f7dbc476648U, 0xbc9effedbc5302e7U, 0x3d33eda4bd845bd3U,
  0xbe1d4a4cbdabd63aU, 0x3e6d64b6be6370cfU, 0x3e754d0bbe47d003U, 0x3e1a830abd284752U,
  0xbcbe95a03df793baU, 0xbe0f1d3bbdd22ad9U, 0xba9d5be9ba42459eU, 0xbe00c0193d529772U,
  0xbdc206bdbe05c871U, 0x3be27670be295753U, 0xbe2d7c4b3cf354f8U, 0xbda88f493b787dafU,
  0x3e5eaa2fbd7835e6U, 0x3e219e4b3dba2987U, 0x3d0d15f23db3048bU, 0xbcae56963dfc7479U,
  0x3b365eb73deaeef3U, 0xb90a5e053e53ea83U, 0x3dd74d883d8d4b49U, 0xb8f76b933e30de60U,
  0xb874c798b9d10b9aU, 0x3d769ee43e40b7d1U, 0x3cb94e743de9d3ddU, 0xbe12ba3cbe034bd1U,
  0x3b2967acbb867db1U, 0xba12320a35c32b76U, 0x3dce66ccba2cbb07U, 0x3e345f31bd6ef3a1U,
  0x3ccfd1193e0c6df9U, 0xbe0e93d13e4ddeb2U, 0xbde85d993e1247c3U, 0xbe25faa63df935b0U,
  0xbe33ffb2b6564f90U, 0xbdba098b35da581dU, 0xbdf91026b57c1208U, 0xbbae7e2abb88a54aU,
  0xbd820bb6bde672c7U, 0x36271a44bd173876U, 0xbc8fcaf73dcf6756U, 0x37b2067ab9ccf378U,
  0x3dd3a0ac3e130ff1U, 0x3df2e83ab9485c2dU, 0xbc98952abb223c67U, 0xbe3e11f836eaba74U,
  0x3afe9249bc05eec0U, 0x39ae04c0be74b649U, 0x368d001abdac0cabU, 0xb63f025cb69958ddU,
  0xb803e5843604160eU, 0xbd3528043b7b3e91U, 0x3ab4377fbbf050c6U, 0x3c405c7634600480U,
  0xbe1ec5bd3e2a1716U, 0x3dee1bebb7453eeaU, 0xbe443b1aba07a8f6U, 0xbe0fbb7bba72503dU,
  0x3e441a07b488c5b4U, 0xbc3b07bc3d7b96afU, 0xbd48ebd93d240bb0U, 0x3d9db7963d8be5e4U,
  0x380c5bdfb5411d30U, 0xbe2b49773e0ece74U, 0x3d4dfccc3682e60cU, 0xba34ce36b9271cffU,
  0x3e51151abe3b29eeU, 0xbe248df53e201b30U, 0x3e47c26bb5aae4cbU, 0x3acd9a75b6977852U,
  0x3e1d61843da2d500U, 0x35285ab63a9dc684U, 0x3d0034adbdd78c70U, 0xbadde53e3812a1f3U,
  0x3b2047d5be17a574U, 0x33efcaf03b6cf7acU, 0x381d90453d977f99U, 0x36a58e1f3757f43eU,
  0x35a94c28b73aa263U, 0x386a44a6be638046U, 0x3c66aa173c196c1bU, 0xb4bef228baeb5968U,
  0x3dc4f175364f05caU, 0xb6f69e3b36d23982U, 0xbe4dd932ba6ec5e6U, 0xba4bffb83ceb6b82U,
  0x3d9113273598d18fU, 0xbe2c98ac3e29781eU, 0x3e0bf65d3d124448U, 0xbc103934ba4ba3e9U,
  0xb723b8f336cffc38U, 0xbd0a10e4b8b55770U, 0x390a7c1f365ec0afU, 0xbe18d9a2b6e4ef3eU,
  0xb5c3114cb9f7a7c5U, 0xbc85f945bb033248U, 0xbe22ffc13d88689eU, 0xb6eec6c0b6df0c89U,
  0xbe65b20c3dc02b46U, 0xb6dfc890362636a0U, 0xbdd385853d7d8e56U, 0xb6a039d736a8e3aeU,
  0x36e13535bd0f9afbU, 0xb67406da3e0d0ed9U, 0xb820c576bd5aded0U, 0x36ac1830b80c9143U,
  0x368c73a036c7785aU, 0xb74655273e2cb6f7U, 0xbe240110b8028e9aU, 0x33e7ccd0bb0e9a0bU,
  0x3cec00d7be06c0b2U, 0xbc9715a33c977195U, 0xbe42165f3d39a225U, 0x3a018cdcbe284db8U,
  0x3dcac981bcc75f81U, 0xbdc3c34dbe1710afU, 0x3da0f45bbab68f90U, 0x3d8e60873dfc84b9U,
  0xbe04b39e3dd16b48U, 0x3e084db2bcef1b1cU, 0x3d8d772dbe1ff880U, 0x3d8132403db62585U,
  0x3dfda0f8be055c94U, 0x3c2180a93b87a203U, 0x3e06eb573ab2db01U, 0x3dfaafbd364829adU,
  0x3e1e4fa43dd42641U, 0x3d67a7f3bd667a11U, 0x3d317e13bb874ce7U, 0x3d26cebb3e16c4feU,
  0xba8b759a3e09e391U, 0x3d472f4ebd0cd84cU, 0xbe0b25a63e41cb66U, 0x3c1497003a42ed51U,
  0x387d9adab8aedd6aU, 0x3caad9f7bd516975U, 0x3cd58a733de492bdU, 0xbdec28e2be383163U,
  0x3e0d8ce7be50e078U, 0x3de103bcbc6164deU, 0xbe4196e63b8ec056U, 0x3d9a96883d382332U,
  0x3d01b0a4be39e9fbU, 0xbe5101d73c2c31e6U, 0x3d9a06a73bd2eeecU, 0xbdb962853df48ca6U,
  0x3e4ab54b3e1b5836U, 0x3e074004be4c2da8U, 0x3d199e8e3dc42d56U, 0x3dd01327be463ce6U,
  0x3d957d4ebe4c43e5U, 0xbe0dc435bd652299U, 0xbe06d4a2bdab2302U, 0x3b696c103b2128a9U,
  0xbdb0946d3e05c78cU, 0xbd21af733cd019a4U, 0x3e69001bbb83891bU, 0xbda68fa7bdde34d7U,
  0xbae63c8b3da247b2U, 0xba07a9ffbe03cc7eU, 0xbdcf2c1a3ddb19b8U, 0xb65349c8bc84a16fU,
  0x3407977c378a012fU, 0x3df0416a3e0e422cU, 0x3e38672d3e345593U, 0xbba11b62be025effU,
  0x3e4d0d693de1628bU, 0x3e5e4406bd33bfabU, 0x3cae94923a9606e5U, 0x3da00025be7b170bU,
  0x3d5927793e16b13fU, 0x3d9ef2283e3d49d9U, 0xbe3b2d463ca7ae7aU, 0x3b882933bcc284a5U,
  0xbe2b5f4c3d2bd3bfU, 0x3bd07f9dbb9a298bU, 0x3e102b76bdcd3112U, 0x3df47938bd3c920bU,
  0xbe4371743de5828fU, 0xbe1f29343e5fe990U, 0x3ccd7cf33e55e3cfU, 0xbd9a30ff3be766baU,
  0xbcffacb23e78cb15U, 0x3b60e8adbdd48f59U, 0x3db86e8cbd8bbc87U, 0xbd69f0f6b9919361U,
  0x3b218d603de883ddU, 0xbdaaddb73d12a962U, 0x3a89dd32bd812b9aU, 0x3306dd7ebe04b1a4U,
  0x34a7c8c8b65f370aU, 0xbc9718b5bd377880U, 0x3dad5e7f3d283a40U, 0xbd9ffac2be2bbfe9U,
  0xb5906d4f39cb2c49U, 0x37f1e229b6ee3e06U, 0x3e508f3ab81ae624U, 0x3df16346be3f5668U,
  0xbadface2b768ce05U, 0xbd96507339b681f3U, 0xbe1fa6903d198573U, 0xbe0ac9203d174a5cU,
  0xb6e0e4aa3247dc00U, 0xba30b45bb7066a4fU, 0xbc7ae105b63b9a32U, 0x36b02f08b7b34d2cU,
  0xb5074a683b0f4bf1U, 0xbd1cf05ebd935df9U, 0xba747a683498721cU, 0x37a5a35937217ddeU,
  0x3e03acf0bd874b56U, 0x34ec42f0badd6a2bU, 0xbe44ef96baccd2a2U, 0xbb07f3e3b7e01494U,
  0xb76fe9833e2fed41U, 0x370827ecbaad7f2dU, 0x36a86912be2ae393U, 0xb7e621a6b72bad3eU,
  0x3712b89eb608931cU, 0xb6525974bac15cebU, 0xbad2e81d3e0ccbdcU, 0xb5df2326bb0d2eb8U,
  0xbd3520dfbe1c7d9eU, 0xbe23035db894a652U, 0x3d8f06bb3d06b38bU, 0xbc059c4c3d352848U,
  0x3d95df6abe2d302cU, 0xbe0ecf753d511d5dU, 0xbbebe2fd3b4cbc81U, 0xbe17083b3cb40b0fU,
  0xbe5a555ab7bc03e6U, 0x3e18c74cbc9fdd62U, 0xbd77bc453a81ffbdU, 0x3e8029ddbe2e8bf3U,
  0xbe24f3f33d2c7421U, 0xbdc6a9213ded10eeU, 0xbe0a8a81bc7f5cb1U, 0x3e0984eab587f37cU,
  0x3da67a66bd376f41U, 0xbd25c8e43bd73849U, 0x3e012be0be3159faU, 0xbd8500233d9ddfc6U,
  0x3ab7aeed3d50bb1dU, 0x3d8d350cbe534cb7U, 0xbe3a5e463d6fd7feU, 0x380efc663a174379U,
  0x377b3b04b6a07cf3U, 0xbd1ed01f3d8a1251U, 0x3e217bda3e39e09cU, 0xbd8b99213e33e1ffU,
  0x3e1bc77a3e50ebd0U, 0xb983aa1b38b6f150U, 0xbdc96e9cba7c8dceU, 0x3d89ebc73c931d16U,
  0xbdd860083d77c2e0U, 0xbcb6c912b93aa6daU, 0x3e3d5d44be2bf4e6U, 0xbd8c45c3be2d90b6U,
  0x3d9275c5392c48eaU, 0xbe2608f5398d2befU, 0xba2a9b2b3cebef10U, 0xbc081b993c9b608aU,
  0x3c8c70413e1f44a5U, 0x3e3fdaff3cc79cc6U, 0xbe1bbdd0bdf72f12U, 0xbd9c8ee9b52523c4U,
  0xbd1f53d1be712d78U, 0x3c114ddab7d4b530U, 0x3bb381933e129029U, 0xbdddb9af3ac02dc9U,
  0xbb08f49c3b67d8c1U, 0x3e2068e6ba117709U, 0xbdd885133d83ccd5U, 0x35f2f5c03df72fb6U,
  0xb8e3beb3b8aed262U, 0x3db592d73ce0071cU, 0xbe23bcdd3e147802U, 0xbe2309683e0c3978U,
  0x3cdd0bc3bdcd3067U, 0x3da45b813e0c9198U, 0xbe2feffdba26bc7aU, 0xbd6ae3193cd6a4e6U,
  0xba25e2eabdc6bcabU, 0xbe5788a4bd5e6412U, 0x3d74ae3e3d80132fU, 0x3db138bdbb12b1eaU,
  0xbd2a1365be0d1f8dU, 0x3e4417e03dc9de74U, 0x3d916dc23a22c26fU, 0x3d60d4a7bc6e90d9U,
  0x3d6105d03d125317U, 0xbd9d39963d9135d1U, 0xbe658d1a3df55e25U, 0xbd56bb67bb944af9U,
  0x3c22e7af3d555ab1U, 0xba59bd0a3ce9cc91U, 0x3e3c745d3c68a74dU, 0xbe6cd436bd663677U,
  0x3917c68b3d71f655U, 0x3dd49fcfbe4d1d80U, 0xb9bfcdf03e05d4dcU, 0x38db767dbda4f420U,
  0x382392d238e85545U, 0xbe1c55cd3e169e1aU, 0x3e34ec49be46dd54U, 0x3e2898c3bdbd9824U,
  0x38277ea23711ec7aU, 0xb706c1a6b7817af6U, 0xbe10a40f37106043U, 0xb71781afbcb0ff77U,
  0xb76a3ee8b65443a4U, 0xbbb3bfd03dbe09cdU, 0x3b9651da3512067dU, 0x3d9a47a0b7da43b1U,
  0x350a0ed037250e22U, 0x35cabb80365643b2U, 0xbd150fd9b70156c3U, 0x3de04a6d3e0826caU,
  0xb5d5c7463d3de28fU, 0x333301a0be2b109aU, 0x3e41c38f37f38bcaU, 0xb7c2598c374da0bcU,
  0xbe1f012ebdb98790U, 0xb7d01ea3b870997cU, 0xbdc0cca4be08dcc8U, 0xbd458c8f3d2625d1U,
  0xb81cfb4c3d899a60U, 0x360469173d808f3dU, 0xb86a1be93c859e67U, 0x373c978eb715106aU,
  0x375c047db7de666eU, 0x3dff20eabaacaa7aU, 0xb81a889a3ceb4aaaU, 0xb809d9363e1f1742U,
  0x3d835e533e082395U, 0x3d8a4df0b486f990U, 0xbcc393ab3ca70225U, 0x3dd46344bd96afd0U,
  0xbe3bf4193e1ef524U, 0x3e3ea8173e1482edU, 0xbe55e5493c88f8deU, 0xbe4aa12ebe4da4ceU,
  0xbc43778835ba9353U, 0x3d31608239ca3512U, 0x3d4309ed3cef3959U, 0x3b28c3c43e42b5a6U,
  0x3d9934043e1bb1adU, 0x3d283019ba782ce0U, 0x3e6ae74a3aeef8b9U, 0xba918b28b86963aeU,
  0x3e37e3733e055580U, 0xbb3b3b783db532b6U, 0xbe205ee63d8a4657U, 0x3cdec2543aa8d91aU,
  0xbb1cebf6be2fc33cU, 0xbe38142bbd0a683bU, 0xb8ec3343be781656U, 0xb28bf100358b004eU,
  0xb70dc4c937ca0a1aU, 0xbe4b6b683e681888U, 0xbdc15e79bd7b391bU, 0xbdfd8fcdbcb0c797U,
  0xbdafe435b6422254U, 0x3e1357c13885aca8U, 0x3daa6414bae3fe63U, 0xbd7f30d23dd75ccfU,
  0xba91ec6a3e2eff24U, 0xbdb69006bd1e31a7U, 0xbb34b880bd3f8812U, 0xbb095c983d69805bU,
  0xbd0e8e13bda9f40dU, 0x3e15a0d2b42b3284U, 0xba5fbc05b70961f2U, 0xb797bc9dba927ed2U,
  0xba2d7d5ebaabcd82U, 0xba224e05be39e54dU, 0xbdd388d23e2159fbU, 0xbde2c1ffb6021506U,
  0x3df54a833e38c00eU, 0x3db607d7b926c60fU, 0xbe228a543e34fe89U, 0xbcfbb1333d5c60beU,
  0x36b413a038cd0033U, 0x3b19fb27bdd29a51U, 0xbd1ce3cfbc2d2f39U, 0xb9b73b8fba168aefU,
  0x384d4581b7c0e4b0U, 0xbe0111dcbd7aaba7U, 0x3a2f7e86be734a9fU, 0x3a8e53d7be394b7bU,
  0x390615723911baddU, 0x379075bcb867d943U, 0x385ff03437ff5eaaU, 0x3699e6b5bd99944fU,
  0x3760504db7704b4cU, 0x3e44c1eb3cdcce9bU, 0xbde8fdd83761a6a9U, 0xbe14797e3e55335cU,
  0x383a85403d8bf0f4U, 0xb8e7059fb72a29dbU, 0x3deb30a5b6ff6b08U, 0x3e5f2657b76b02c3U,
  0x35fb5dccb7f4b518U, 0x367fcee8bdfcfd1bU, 0x3d9dc58137aef92dU, 0x3e430db33576a68cU,
  0xbd8ba090b52b78e0U, 0xb72c05903d6471f4U, 0xbe3a6a3dbd63fdedU, 0x3db9ca09379c34fcU,
  0xb7fe4d863c7300f1U, 0x37433b523daa1590U, 0xbd8dcb64bd07ce4fU, 0xbc9f8c89b678a2d0U,
  0xb8286fd0b662e7fcU, 0x3911b129bdd997b7U, 0x39ae441c3dce7da4U, 0x3700db823e1254c8U,
  0xbd6570ff3c9f6578U, 0xbe1319d1be00bb29U, 0x3e55b5513cd4986aU, 0xbdecfdae3e420af6U,
  0x3a8a96e73c9cc5aaU, 0xbceace883e47c4aeU, 0x3e1dfddf3e151660U, 0x3de9a0bc3da4f9fcU,
  0x3e2a663c3c6a0943U, 0x3e2b31703d5af922U, 0x3dfdd3f5bd19f60eU, 0xbd80045dbdaa0ea2U,
  0xbe38bb7dbe70120bU, 0xbb94fce23d6b5b63U, 0x3e0035113e1cadd5U, 0xb9c557d0ba8ade57U,
  0xbd8ea0c63e0f4430U, 0x3de30588bd42073fU, 0xbda0a6b23da9c6f5U, 0x3d0151ab39927e0fU,
  0xbb594b56bda589eaU, 0x3d01b0163dd40a60U, 0xbcb6a73ebe5954f3U, 0x3dc2e9a5be2bdea4U,
  0xbd6597e73a9f0453U, 0x3d2295933d567794U, 0xbe1ca0073e05745dU, 0x3e152ab8bd806b7fU,
  0x3da32b5eb92e528fU, 0x3e2aacbb382b6209U, 0xbe2163803a132c18U, 0xbd0a28f93b75e4e3U,
  0x37188f8eb6f84343U, 0x3dfae7adbd32081aU, 0x3d725220b2aa3780U, 0x3d7a8ccfb8f4e5fbU,
  0x386be98e39ba0f4cU, 0xb702e890b6d90b2bU, 0x3d8435b0b6ee2f18U, 0xbd9ba1b2b733671aU,
  0x36ae4005b2b127e0U, 0x3559a2d4be29bd49U, 0x3d0027353893bb90U, 0x3a2559343729f105U,
  0xbdbf8631bdc6c26dU, 0x3de1866eb9a93f4dU, 0xbdaec700bdd4370eU, 0xbd24347539d77b43U,
  0x3625d0b0bd45c170U, 0xb7ec5424bd8b0e75U, 0xb6f85c443d239ba9U, 0xb8caa74c36c1f2aaU,
  0xb9067592b7a05286U, 0x37e77d703e257094U, 0xbd3e1a29bcdf9bbeU, 0x375d4c4cbd650445U,
  0x3e4ad5293d5d6748U, 0xba40da823c8e4f2bU, 0x3e0cf4b9b9a08ecaU, 0xbdbea5093e29ae00U,
  0xbd9c70f63cc72c5aU, 0xbe110428bbfc048bU, 0xbe4a6d07bbb79aa2U, 0xbdb0dc993cca8ca8U,
  0x399ec9463d414d71U, 0x3dc87fd43d22e5daU, 0x3d4b6b81b69099d1U, 0xbd83d3c6b702f3b9U,
  0xbda3a9f73e014ce2U, 0x3d3823a23dccb377U, 0xbd2a68dd3e4b6071U, 0xbce5fa8fb53934f4U,
  0xbe65f561bc93075aU, 0xbca41f24bd9b21e0U, 0x3db43b68be1384f9U, 0x3e0fa6a7bd3b1d91U,
  0xb704f6a2bd9f3d36U, 0xbbd7ddebbd4981e1U, 0xbd2c7650be15516fU, 0x378f5ebeb585a96bU,
  0x37d5483eb7a93b7eU, 0xbe2d39363ddbd935U, 0x3d613a173dfbd8b8U, 0x3d0f086b3c6a62d1U,
  0xbdc5d5cbbd358f5fU, 0x3db8d4763a03caf9U, 0xbe31e94abca4d98eU, 0x3da9b4f43da62f5fU,
  0x3e0cbd2ebd15fd8aU, 0xbcd80d293e05dc13U, 0x3e4e3facbd8298d2U, 0xbd8f8aff3dd524b8U,
  0xbe11286e3de517eaU, 0xbded60e0be14df43U, 0x3d91d3513df8828dU, 0xbd693a49bd4c9690U,
  0x3d363081bd57a76cU, 0xbe541d533e0b0fd0U, 0x3de478fd3e6a1fdaU, 0xbe1bda54bae67ea6U,
  0x3e1731213e52bef2U, 0xbd97aee33a59037fU, 0x3e55f7cbbdfe1174U, 0x3dba962fbe5c3868U,
  0xbaac0577be378efaU, 0x3d4ac71dbde62596U, 0xbd67832f3bc07eebU, 0xbb80962bbb956817U,
  0x3795a9a2361020adU, 0x3e13fc4d3e33a9d1U, 0xbe151a2d3df972c2U, 0x3e1e7c203d6fd1b7U,
  0x37f221ce3586e89aU, 0xb514c1aa39209f9fU, 0xb92c6e65b7dda007U, 0xb68334ae3d23ebd6U,
  0x37916f5438029fbdU, 0x37707f29b63e52f4U, 0xbb8001253585cc3eU, 0x36333cc4b9b28cc5U,
  0x363b693c38f0fc48U, 0xb68297c0b7096a98U, 0x36f1a0f2b6ff1a66U, 0xb996fec8357e2335U,
  0xb629c20035b83ad1U, 0xb6571ad9b8aa5012U, 0xbab49522b6be21a5U, 0xb98a823836d0d957U,
  0xbdaa8fe035ca6fbdU, 0xb7214e02b98606d3U, 0xb7a729e0b9becebbU, 0x3d3154e3bcacc7c5U,
  0xb79541c0b718a02eU, 0x374305d335b13dd9U, 0xb970ee4cb9b636cfU, 0x394910b2b6d621c8U,
  0x38b9294a37f8bd2aU, 0xb9200413b9ba8ce9U, 0xbd4dd7f9b98dcc91U, 0x3709cc49b8659332U,
  0xbd6fa447be14930cU, 0xbda9276cb9a897e8U, 0x3e1669e33d18fbe2U, 0xbd5ea3e1be2a54efU,
  0xbd7183053df80f3bU, 0x3e2ddcccbe742a69U, 0x3ce74e16be4cf154U, 0x3db839203e28b03dU,
  0xbdaa213f3dfea392U, 0xbdf2b4a439b5fce2U, 0xbe1b1c883d6d6e34U, 0xbe1c68083b716f5eU,
  0x3c8565873dcdbba5U, 0xbdef3cfcbcae7d44U, 0x3dc873463dbe3621U, 0xbe41e472b6c0dcdeU,
  0x3e307c40bdcd1a39U, 0x3ca99b163d364b14U, 0xbd2fea503dcb2e67U, 0x3dd76eb0bdacd025U,
  0xbb4c3cb53e790dd1U, 0x38f593ccbc039838U, 0x3d8e2f163d1558b9U, 0x3aebcded3c2111f9U,
  0x395c0ce83a96460fU, 0xbb82d62d3e4d108bU, 0xbd691565bb537a8aU, 0xbde00554be090788U,
  0xb62a526836b75f9cU, 0x37889046b617f3d4U, 0xb58de100b4ccc7a0U, 0x35858c38b7563324U,
  0xb72858f8b6b3222bU, 0xb62c318eb80906b5U, 0xbda0e0b1369aeddaU, 0x3d0970e835120280U,
  0xb5cff038b75caeecU, 0xb6a3d4b4b6c2a554U, 0xb787c952b507b218U, 0xb709bbfd3d4685fcU,
  0xb772f8013785cbb1U, 0x3d03a5b5369a2cf5U, 0x34c2f624b7795240U, 0x3786eca4b3dd8e80U,
  0xbd972ce5b71b38d2U, 0xb62a8b00369a1389U, 0x36193fcc3681f9c6U, 0x37beb556b73f3f58U,
  0x379533dcb7310b5fU, 0xb709e4c036771538U, 0x35beaab036a46716U, 0x36b0412b37e01729U,
  0x37aea1bbb7762817U, 0xb6e66ad4bca2f2daU, 0xb72046cdb6e0db57U, 0x36a27088b58cbd8eU,
  0xb90d26b7b89bc95bU, 0xbd4e9850b9a47fe3U, 0x3c151683bca5a73eU, 0x3d2a2b10be152e19U,
  0xbd28052a3dd4bfdaU, 0x3de30bb3bde92b0eU, 0x3e1b1fc43b659d9dU, 0xbd0dfe1b3dabe495U,
  0xbc7efaf0b8acadcfU, 0x3d8028cfb8dcc345U, 0xbe3f09f7ba65f196U, 0x391235193dd9d2d1U,
  0x3873605bbe1ee1b4U, 0x3cf95eec3e74f854U, 0x3e061ab3ba1fe1dbU, 0x3d7ed4a8353080eeU,
  0xbe149abcbb8ca63cU, 0x3a305e723a21c035U, 0xbe00cb5d3e66dba6U, 0x3dd40f71be08ebccU,
  0x39c2e62fbd63c2ebU, 0x3d8ce5cb3b8430d4U, 0x3dadb928bd73fa3dU, 0xb9045b20370068d3U,
  0xb85def1ab907e76eU, 0x3d4a8a593cd8dd6dU, 0x3e7ad4a43df0b0bdU, 0x3e51a078be58b677U,
  0xb786d34a36645dd0U, 0xb6f0a726b74cf950U, 0xbe0820bd36348558U, 0x351b1df43cacba33U,
  0xb63a0cf0b74973d3U, 0xbaa94500b620f00eU, 0xbe1c7b80b60a7fe0U, 0xb98272ea3e1b90ecU,
  0xb660380c35ff885aU, 0x34e8d8e0b78fe8aeU, 0x378058ee3708097cU, 0x3e429448ba1c7becU,
  0x379111c636c07457U, 0xb6198563bd1ea5d0U, 0x3dfa36cd36f07344U, 0x3db1ab98b68765f6U,
  0x3c6e2cefb6f0d395U, 0xb72cb5ec3cf58589U, 0x3d608d17bccfc4bdU, 0x37e3eebdbda23251U,
  0xb6c377ccb78888bcU, 0xb7900008bac88951U, 0x3d0defa8bcfaca9cU, 0xb5825f003769fd86U,
  0x3563485035e30e00U, 0xb70b63d3bdcab2a1U, 0x387f15eeb66bd338U, 0xb691258a3df45783U,
  0x36619f76b394b950U, 0xb5ea1b783758a753U, 0xbac2f848b4ac2636U, 0x35083d54bab3bc51U,
  0xb5e113d4b78673ceU, 0x35827466ba995434U, 0xbaa6ca7fb590bd38U, 0xba86e24e371d17a6U,
  0xb698fbaf378fa902U, 0x36accd003583cbd0U, 0x35b0af80b74678acU, 0xb7ea31d93420d990U,
  0xb64b9ed0343acf87U, 0x358194aebaa2a7fbU, 0xba7de9ea369c36e9U, 0x3702b3dcb6095f96U,
  0xba962fc5b582a1a4U, 0x3768daad37aed24fU, 0xba624ffa35029dd0U, 0x3701cbef368651acU,
  0xb7e85a48ba7b51beU, 0xb514147eba6ea60eU, 0x35754758b55cd5e2U, 0xb715c5db35b25a21U,
  0x37853a2d34e47c60U, 0x35f7b620bb097adfU, 0xb48916d7b615abb6U, 0xb6c2d898b57cbdf6U,
  0xbe27d4463a4b1de0U, 0xbab274e3ba05cda0U, 0x3db728043ab0304cU, 0xbd68e932be5469c2U,
  0xbc55eee43cd964e1U, 0x3a2858d8bad5df10U, 0x3e689213be3f4a98U, 0x3a13fe09bda395b3U,
  0x3a538d2fb6e41a7eU, 0xbe5c035c3dab62afU, 0xbe78f676396d6e62U, 0x3b0ad191bde025daU,
  0xb632cdcc3ceacbbfU, 0x39719c723ade50f6U, 0x3e0fc1b23d1f1da1U, 0xb74f25d539c11304U,
  0xbc89143ebe3cffe0U, 0xbd8142c5370a8339U, 0x3d87a7f1bbf77fa1U, 0xbd0ea39d3790c9fbU,
  0xba20720fbdc59febU, 0xb455c938bc24420aU, 0xba8a32133db1184cU, 0x365d897db51b97a0U,
  0x34beeab0b7a67b7cU, 0xbe21ca6abe45c63aU, 0x3a947764bde09b2dU, 0xba8fba7c3d9d85ddU,
  0x3dfdb2323e2daa60U, 0x37b2956338e01780U, 0x3d6137d2b718ba64U, 0x3c42bd683e02b2d0U,
  0xbdd2f417b8a14329U, 0xbc1fd976bcd4a168U, 0xbdc656cd3a866482U, 0xbe09db93be4160d5U,
  0xb89e5306b5040a20U, 0x3ca3eb4037b5e19eU, 0x37fd109734dc1914U, 0xbe1d3b0ebe1e878aU,
  0xb6861eae3e084badU, 0x3e5b8f60bda0f7e6U, 0x3d714f9837f3fbc6U, 0x3dc6754d362379a0U,
  0x3dfcd544bddea63fU, 0xb705a2f13dc30967U, 0xbb6753d6be10b7b6U, 0x3e01cfdcb747ec80U,
  0x36f8732bbe576209U, 0x3dcd3794be081ce6U, 0xbe11c0c0bd92795bU, 0xb6c447ea3dab9cbcU,
  0xb5fe4d6e369b407aU, 0x36348e6db9ff5d50U, 0x3e50a2623a9035d9U, 0xbd1ea472be11cdc2U,
  0x3bb41027bd411b8aU, 0xbd76b619b87e329cU, 0xbe4177ebb85b8b15U, 0x3e00d46dbdfd2568U,
  0x3d8b1209bafcaef3U, 0xbd22a4633df437bbU, 0x3e232045bdd4f83dU, 0xbde2c5eb3dd4c0deU,
  0x3a9fcfcab6b8ed28U, 0x3d26439e3da81eddU, 0x3c5f2db4b7b2327cU, 0xbb653cc5be44c876U,
  0x3db2315cbe1c8e58U, 0x3e10805bbd80bbe3U, 0xba034d713e62ac5bU, 0x39907028b54ee088U,
