
/**
  ******************************************************************************
  * @file    network_data.c
  * @author  AST Embedded Analytics Research Platform
  * @date    Tue Nov 22 08:39:13 2022
  * @brief   AI Tool Automatic Code Generator for Embedded NN computing
  ******************************************************************************
  * @attention
  *
  * Copyright (c) 2021 STMicroelectronics.
  * All rights reserved.
  *
  * This software is licensed under terms that can be found in the LICENSE file
  * in the root directory of this software component.
  * If no LICENSE file comes with this software, it is provided AS-IS.
  ******************************************************************************
  */
#include "network_data.h"
#include "ai_platform_interface.h"

AI_API_DECLARE_BEGIN

AI_ALIGNED(32)
const ai_u64 s_network_network_weights_array_u64[ 27723 ] = {
  0x370ba9c135b03062U, 0xb709ed76354479b0U, 0xb70c5b58b757dde7U, 0x36c5043db777f639U,
  0xb7645f06b6cbab11U, 0xb4c3cfc0b65a8f7cU, 0x3636eb14b783e264U, 0xb70a020ab7182ef7U,
  0x36b15a7cb50f5248U, 0x35f80330340a3210U, 0x37168658b706cfb0U, 0xb7806a92b3df4460U,
  0xb48fc16e36930f16U, 0xb697609ab73aa5c8U, 0xb3cd5a2035df6aecU, 0xb71aab7d374060f9U,
  0x37a36312371d2a4aU, 0x3722ed74b50a4b90U, 0x34b7c9d0b631a253U, 0x353e1e98b710e67aU,
  0x34a7458035870878U, 0xb7039df8b6e57dd4U, 0x371eb333372139c6U, 0x36480668b6f8df78U,
  0x35d88e7c35976cfeU, 0x37496dbcb6bfefdaU, 0xb72814c63722494cU, 0xb65445ecb73aa64cU,
  0xb78b8c28b6d889abU, 0xb5dd2617355c499cU, 0x373a4b1ab610f202U, 0x362e17e7b70dfa2bU,
  0x362db90ab608c6c5U, 0xb776b14cb5601d78U, 0x3602dc9737047685U, 0x35ac1340b5f89ce2U,
  0x3666646837c99afeU, 0x36ce30eab78c3bd5U, 0xb62e0e77372a4e2cU, 0x36d4f596b69ea6bdU,
  0xb5da7022b62c879dU, 0xb6969bf9369dfcf8U, 0xb718e35c36c45adaU, 0xb6953c5036b78290U,
  0x368b06d83719f25aU, 0x367e581d376d5556U, 0x37275d2cb608a1e8U, 0x37397aa6b7266611U,
  0x349fbda8b6d95f35U, 0xb7168a81b6dceffcU, 0xb6b56bb735d7190aU, 0xb7383680b553e810U,
  0x360d70d8b6f1555dU, 0xb6c528c437378e13U, 0x341299c036a8ab5cU, 0xb67cdfe837091665U,
  0x3742eebbb4d68fb8U, 0xb6127e5ab66eb126U, 0x36f41848b4d5bd80U, 0xb6e366d0b6fe29f6U,
  0xb6288e343719ea58U, 0x374ba91cb719b29aU, 0x3545b0d0b4e2eee8U, 0x36e921be366d5ec4U,
  0xb699c5e237196e7aU, 0xb6a401f8b7032620U, 0xb7185a3db64fa98aU, 0xb6bf7371b4a624e8U,
  0x366891b636ae342fU, 0xb5d10988b70f2051U, 0xb5d8cfc0b67cd794U, 0xb68caa543586a3c8U,
  0xb6381b9ab62c7160U, 0x36d72eb5b718987cU, 0xb62a586a370f0e88U, 0xb69a6b5f36a47ec5U,
  0xb6f4429eb3a60d60U, 0xb4893250b64917e5U, 0x36300db2351d960cU, 0xb6b667a0b6ee9987U,
  0xb6e87bee36993a74U, 0xb6737222b74da890U, 0x36f011fd36a14810U, 0x36691e5036a50550U,
  0xb5aea160b5924b78U, 0x353a5588b69e4dfaU, 0x36b1ee23370bb8e0U, 0x36b388e834cb13b8U,
  0xb786f97cb72ab6fdU, 0xb68f1f9fb555b360U, 0xb68ae9443706da0eU, 0x3737c709b4358050U,
  0xb6a9a342b6a7dd1eU, 0xb74591b8377e7eefU, 0xb335c700363b03acU, 0x36a400383735df22U,
  0x369f345cb70630ecU, 0x35bf2b30356b7740U, 0x363a953836b07042U, 0xb5cb10ce3638f208U,
  0xb63dfc0537811f66U, 0x36a68bf537599e1aU, 0x37910cfcb63ad860U, 0xb54594d236d0988aU,
  0xb6046722b66e8cecU, 0x365baa70b70d3836U, 0xb5888216358a99f2U, 0x36f5433a363ea92aU,
  0x366f9a3e36830a86U, 0xb68b0960369c690aU, 0x34fb312436a204deU, 0x36d9fabb37314540U,
  0x375aa2f6b71e00e6U, 0xb77096c035986f48U, 0xb6b51c9437b1f81dU, 0xb6853448b687ff03U,
  0xb6081b15b5201fd8U, 0xb703d52135e6785cU, 0xb650e977b7001781U, 0xb7303d6c36d72d51U,
  0x3714415d3782030dU, 0x372676ac37285fd6U, 0xb60ddeecb722e3c2U, 0x36d8f348369017ddU,
  0xb617f1f636187c7eU, 0xb5832058b6841918U, 0x36166bca363f5c07U, 0xb4b37df0b6d83d71U,
  0xb7341ef636e2dfb6U, 0x37085cfcb6ebcf2dU, 0x371a90a03662f709U, 0xb74b527ab71788b4U,
  0x31f57800b7945dacU, 0x36e51e14b7392defU, 0x3689fcde3556e7c0U, 0xb72e3dcc3694b414U,
  0xb78f400cb587c624U, 0x356a9b98360a56d6U, 0xb77ffa9ab6ff6983U, 0xb74db388b78de9dbU,
  0x35c43182b7666670U, 0xb73f8f3db675290dU, 0x359fffc0b6d458dfU, 0x3709e5f1b67ae3c4U,
  0x368f711cb72d8488U, 0xb638b5dc36e0ff25U, 0x34870050b67b8308U, 0x3767ec7ab731656bU,
  0x36bcfc7c36d44ba0U, 0x376b95d834a77eacU, 0xb707849c3684a363U, 0xb698e6cd360ef7efU,
  0x3495df20b67fae6cU, 0x3569ab10371c4e12U, 0xb6eaf13636f777ffU, 0xb6b5b542b6f19d3eU,
  0xb6b11175360dd665U, 0xb6e38535373aad86U, 0xb5b8baa8b75c0a07U, 0x3783b8ecb723e7f0U,
  0xb6511742379f44c1U, 0xb79185dd364cb610U, 0x36adaa26b71c4f44U, 0x367f8966364528a6U,
  0xb7be4c06371efa34U, 0xb717adde37302985U, 0xb6754ef0b67242dcU, 0xb730e11cb6b466e3U,
  0xb62c1ea0b78cde82U, 0xb70cc3ae36a71367U, 0xb72eca8cb7429b97U, 0x36ccf99836dbec16U,
  0xb63e941336889fd5U, 0x36b03a35b6955faaU, 0xb6afb6e136204994U, 0xb78df7ba335cec00U,
  0x36c96ae2b6c8dfcfU, 0x353f58af365fedfdU, 0x3699f28c36a48c8cU, 0x371964123734b792U,
  0x3649831bb6e24926U, 0x369f6ec136867e8dU, 0x36bb6ad5b5870450U, 0xb507f6a8b4ebd9c0U,
  0xb6e37906b66df6dfU, 0xb70f6ceeb73f1048U, 0xb704fbec3727d1c4U, 0xb6c7f0a237ce984aU,
  0xb67251ce378bd821U, 0xb613e43db709a43cU, 0x366cdf7836c3e2eaU, 0x32989880b60cad50U,
  0x3709a8ce369956d3U, 0xb723160ab6f17000U, 0x360f5c6f36a7f36aU, 0xb7004587b725294cU,
  0x3648ead4b73d3a14U, 0xb6a5ca8d36637edcU, 0x37359dd6b6822c0aU, 0x378bef5836655818U,
  0xb636f78cb6126bc8U, 0x375513f7369c9754U, 0xb6a9730c37bd4497U, 0x35c2f978369693a1U,
  0x36f9fb30376db81eU, 0x373769f9b6f4759eU, 0x3730c373b592757aU, 0xb70572b2b735372aU,
  0xb59baae4b6d51c9cU, 0x36ff8a473710ba34U, 0xb2dfab00b6ca7d7eU, 0x367a611cb707a35bU,
  0xb5059d8c37115b88U, 0xb6b05a1db6f7273eU, 0x35af78e8b71a6b7bU, 0xb6767781b730ab0eU,
  0xb741ca66b6964680U, 0xb67977b43622e0d2U, 0x3725f16eb71db1f2U, 0x362df874b670fd7eU,
  0x37792ad536f3cae0U, 0x370703513680cb35U, 0xb59b7d4cb3fce280U, 0xb738134c372b1564U,
  0xb68ee8d0b303ab00U, 0xb709e70836691cccU, 0xb5ee070fb6161a22U, 0xb5fc53f43750ada5U,
  0x37231debb78a5eb0U, 0x378b751537276beeU, 0xb710624bb60bcdcaU, 0xb549400836864387U,
  0xb704f6bd35fd57f8U, 0xb79d8bbdb28c4a00U, 0xb71fc87e36cf8831U, 0x376c6a413647a0a0U,
  0x37365ad035e19306U, 0x36fe7b9ab7087987U, 0xb79433d337372230U, 0x3634d1943728d476U,
  0xb74ec89136903d75U, 0x36a2083bb6b618a6U, 0xb74f2e1033efef80U, 0x351762c8370630f0U,
  0x369454b3358a91ecU, 0xb7092dea3547f6f0U, 0xb63fe222b7243212U, 0xb61fdca837302f04U,
  0xb662f1bc34d489d0U, 0xb6feaca23700221bU, 0x36c074fdb5a7e66aU, 0xb3f4554035c9a2c8U,
  0x37045570b6369aaaU, 0x35883904b682ae12U, 0xb68a0292b60f757aU, 0x366f3d0237185481U,
  0x3711b2dab7205333U, 0x3721e9bcb6551798U, 0x36fa2d1ab79d3d7bU, 0x372e7d0c3618b668U,
  0x368f0ed4b61a9c0aU, 0x3642331a373cfb91U, 0xb69a9e80362f37baU, 0xb7208b0ab3e74c00U,
  0xb68a91f23707c68aU, 0xb6205aa6361ebe68U, 0x373cb0c73473e4d0U, 0xb608cc89365c1b35U,
  0xb68ab39ab77b1e8eU, 0x3656468637a732a9U, 0x373d90cb36e082ceU, 0x3791dd50b6352030U,
  0x3780fe4bb4c82840U, 0xb68b13bcb74e2efcU, 0xb70db91ab76b00b2U, 0x3722a0a436d7f6f0U,
  0x374408ea37183918U, 0x371f66ad36e63ec5U, 0x36d6cdba378a7ffcU, 0x372bc8df36823e42U,
  0xb5d7358036ce1e89U, 0x3736a000b58f6e7cU, 0xb51b4548369b544aU, 0xb684e5eeb6a08df0U,
  0x371f59bc366f7abfU, 0xb3950300b70ea595U, 0x36bd21403778ad69U, 0x37565e8236963476U,
  0xb4d087b0372eb7f9U, 0xb73cc9ffb67017c9U, 0xb6a68eeeb5baac88U, 0xb714e201378f562cU,
  0xb6bbda3bb6881289U, 0x3726884a368cec9eU, 0x368051aab4e42e8aU, 0xb6c26c7cb6bdf4e2U,
  0x36e5f433b4c660f8U, 0xb69ed95bb5087778U, 0x3749ddeeb67b0e2eU, 0xb747f24835de8c28U,
  0x36a8bbcab6845e44U, 0xb6e1eeda369c9ef1U, 0xb697eaee371f632eU, 0x37b3c946b6300622U,
  0x377bd7c03728a610U, 0x36eeba0db77fa668U, 0xb6fed8e23536caf8U, 0xb6ba2054b6d32fccU,
  0xb5c14f983712c92bU, 0x368462e3368fc7f4U, 0xb5a743a4b5df0014U, 0x3685f5e8370968c4U,
  0xb7127fc2b43ac948U, 0xb6f0a3a5378e3863U, 0xb73088cc35feb819U, 0xb7018c8d33bd6d20U,
  0x364be333372233abU, 0x37696f6b365b0134U, 0xb773545f37295ac9U, 0xb44995303578c9d0U,
  0xb77e2c94b68d2c0cU, 0x370c01e736ff8eeeU, 0x36d34f9ab76bb27bU, 0x3679735636b50cf1U,
  0xb7324d2eb687bf0fU, 0x3737f346b6eaa44fU, 0xb71ed493b73ea56cU, 0x36543a2636a24cbdU,
  0xb6eb9275361825dcU, 0xb78b7405b56ea580U, 0xb7892c1fb6faccc2U, 0xb7810849b4d4d5c8U,
  0xb6847749370b10c0U, 0xb630770eb63abf05U, 0x370e8dd636b4a0b5U, 0x374d5c90b59bb9ecU,
  0xb6b44dcdb55fc848U, 0x33d811c0b70af383U, 0xb57dc600b675c965U, 0xb6848b9eb69294c4U,
  0xb73fa75936c3a4dcU, 0x372bf0a0b608df8aU, 0xb7140e14377837cdU, 0xb788e015369ed686U,
  0xb669aade345a30a0U, 0xb45de4a0b6693bd0U, 0x338ce458342fa000U, 0x374f9a8c3519a2c8U,
  0xb62e399cb75b12b5U, 0xb58c1f2236554d6aU, 0xb71249c03647a8cbU, 0xb705a150b53b0ab8U,
  0x3746f12eb59dac34U, 0xb4c07756360aa0e6U, 0x36e6b296b712a05aU, 0x36ce4cf4b4712aa0U,
  0xb570c728b4ed71c0U, 0xb7297421b3a2e9c0U, 0xb6db553bb71c4d8fU, 0xb4a07c50b717d9bbU,
  0xb68847b4b5fe2082U, 0xb6bdea43b4eeb408U, 0x372efd26b7072842U, 0x36f45dfc3712a424U,
  0x36f539ff36ab12e9U, 0xb66d3563b5847c7cU, 0xb6d700a437085740U, 0xb686d271b5eb7476U,
  0xb694e890b67e551aU, 0x37240984b606415aU, 0xb586b734b6f26d35U, 0x369137f0b68d4d2dU,
  0xb707be8a37344c54U, 0xb71214bbb660ef00U, 0xb638a078b6e1b3beU, 0xb70994f03727c961U,
  0x37285192b5d16a4cU, 0x370a0552b7001dd9U, 0xb707d8003700b798U, 0xb5eab4883605ed80U,
  0x35b53adcb740863fU, 0xb630190d368fc534U, 0x34fb8290b74c0d0fU, 0xb37f5140b2f8b100U,
  0x34e20490b73161d8U, 0xb7eec370b694be76U, 0x35785430b6929aeeU, 0x3707fde1b6de2ed0U,
  0xb6683650b71d2919U, 0x377e466836278c72U, 0x36e4683ab4452858U, 0x359c0e58379e8715U,
  0x372d849936d7eb91U, 0x3793ac19b4278600U, 0x36f1ceaab77e25fdU, 0xb6d44cdcb6b3ff8eU,
  0x36b379aa372d54dbU, 0xb5bb8120b72ac3d9U, 0xb764a514b696477aU, 0xb7346f2035bde388U,
  0x370cbbe83544d3a0U, 0x3715cae93530e8a0U, 0x372a04ceb6f088c3U, 0xb42f0fc0b68fadc5U,
  0x35e23c1835b46e04U, 0x3763a1e93459d560U, 0x361caa7ab49279e0U, 0xb7b01328b72761a6U,
  0x36d93d4b36555164U, 0x36a6c57e3722f743U, 0xb6eb7f0cb5f492f8U, 0xb71345483754d51fU,
  0xb713c078b685e759U, 0xb6887aec363b3036U, 0xb73eb40fb5df7360U, 0xb71664233717b0a6U,
  0x36b1c8b637097a2fU, 0xb62c1dd2b76c42f4U, 0x3645d5c7b714651dU, 0x360d2e1636abf1bfU,
  0x3665fa82371ca285U, 0xb73381c435b21fd8U, 0xb5c3b0d036c7a925U, 0xb665c7273653eb4eU,
  0x36b60ad7b7458e4aU, 0xb7268f703761db83U, 0x3731c322358e1616U, 0x36c91bee36a0b546U,
  0x37011718b66e51abU, 0x35ad93d43792142fU, 0x36dfbb9d36318fbeU, 0xb76ffe62b74f463fU,
  0x3605ffef36be1ff0U, 0x372f16b43646be1eU, 0xb623393cb7038038U, 0x35f79a403525e5e0U,
  0xb6f95708b47dcfe0U, 0xb6daee283736702dU, 0x37957a87b6192426U, 0xb574176d3759fdcfU,
  0x37012a1fb6c96a3bU, 0xb7cde49bb6f5592bU, 0x361a1a7cb716ca23U, 0xb6a6fe82b6a1aec3U,
  0x2e16c000b6d0c525U, 0x3486a5e03493f6b8U, 0xb77e58903696df95U, 0xb57feeb2b5d180a8U,
  0xb7370871b7348b5eU, 0x3622b7d636fbb211U, 0x35d87970b5d346acU, 0x37255316b5e31bf0U,
  0xb6b18ae2b6651657U, 0x372b52d7376c0328U, 0xb71cf50bb59b9c30U, 0x368ab35a3529d2b8U,
  0x37575b90b699ae57U, 0x36fad904b6945c75U, 0x363217beb6a1d204U, 0xb72430f8368d68d4U,
  0x36a583ef3614bce0U, 0x3681b3b6b69df920U, 0x3540184836a35379U, 0xb690f53c352333acU,
  0xb4f7173436d14bf5U, 0x364044acb4c92280U, 0xb7186c8436958374U, 0x3632b5b537333e32U,
  0x367b6dce37016c76U, 0xb536c030373b02d9U, 0xb7bfdebfb6b002b3U, 0xb69b474c35f94698U,
  0x368cc57634d91d30U, 0xb70885b4b7178b39U, 0xb70168b2b61e1e7cU, 0x36194e74b787848bU,
  0x3650468e359b6d88U, 0x3711ba2b342578e0U, 0xb671d4ca37905e0fU, 0x368ab35a3776f915U,
  0xb6a008f9b6a1fba1U, 0x374feda8b65f4c44U, 0x3654cdb6364e3decU, 0xb65eea4fb70286b4U,
  0x370cbbe83776d723U, 0xb6c12aa4b6fcfe3dU, 0xb6eb3cfb35ba168aU, 0x3696e3cbb6a123a7U,
  0xb7380d1eb59ab470U, 0xb78807ebb5c0584cU, 0xb71a28bc37e3fec2U, 0x36692144b6f9c9acU,
  0x34df8c40b6b65135U, 0xb742b3a8b632d6c2U, 0xb6b7fb34b749e85aU, 0xb71c6c63b61fc670U,
  0xb6a40305b6f3b40aU, 0x36eecd02b7049864U, 0xb788a613b7008343U, 0x37b870a73620c551U,
  0xb72a7f0db6b42bcdU, 0x368385b436b182d3U, 0x3501a5b8b75258abU, 0xb5f13664378c0c25U,
  0xb61be8fe36aa8671U, 0x37206e963609cec4U, 0x376b4e3bb6e34e08U, 0x369ad665b6400accU,
  0xb6757ec7b65eb87aU, 0xb624685337a3acd7U, 0xb64a6978b620fddcU, 0xb6ba9ba937627ebdU,
  0x35c878c634b7f390U, 0xb708ec5ab783ed11U, 0xb4c7dcb836696bafU, 0x36beff173699cb92U,
  0x3707db0d369d981aU, 0xb6dfc08cb5981d8cU, 0x36b6ca90b6204930U, 0x36e6da3c36e50199U,
  0x36a25c07369b4477U, 0xb56368f5b620fddcU, 0xb26d180036fc326cU, 0xb68e57b4b72d32a4U,
  0x365ad891b64a1f2dU, 0x36e7931336fdfdd9U, 0xb6069848b64f1008U, 0x36dd716a361f63d1U,
  0x371447b337648be4U, 0x355253f83723ba2aU, 0x3735e836b74db4bbU, 0x3717751db7a20009U,
  0x372e4d0c357a4040U, 0x3789cf2b36738ab7U, 0xb676864735ed1a84U, 0x3741a3a4b70d14a4U,
  0xb7037d33b74a7c06U, 0xb6a5fbbe372693e2U, 0x3701013436118796U, 0x3625dc5cb6ac3767U,
  0xb717e434b3cf4780U, 0xb750b2ae354c3db0U, 0xb4e59114b3d5d1e0U, 0xb6e8c091365fe476U,
  0xb5c13b00b73dbff3U, 0x36b835c435f6cd38U, 0xb6f588a4b78a6314U, 0x3756b18a37be6952U,
  0x350cd158b5577af0U, 0x3648ff30b657b8d0U, 0x3585fc48b6b18f08U, 0xb6a968e2b686ae0fU,
  0xb6ba06e03715c490U, 0xb723ab0a37339ed4U, 0xb730552cb5e882d0U, 0x36116e34b61dec7cU,
  0x37039ffbb5df6e38U, 0x3716f86636375554U, 0x36db20ea37044ba7U, 0x3585d75436b85e19U,
  0x35391fe8b777aa27U, 0xb56f78e8b735bd3eU, 0x36cb83f43645c38cU, 0x3768c4fb3669683fU,
  0xb73eba2cb71b3b96U, 0xb70797a1b6e053bfU, 0xb690669ab612cb32U, 0x373a643e365ff70cU,
  0xb6f11681b719fee8U, 0x37059162b6f364a0U, 0xb723eadeb50293c8U, 0x36ea4dffb6356ca0U,
  0xb6dfb24bb682de32U, 0xb5cd83c0b71a41bdU, 0x370dd5ffb73c61e1U, 0xb5455500b5bd8f24U,
  0x36449798b659f2b4U, 0xb39dfc40b781c022U, 0x36ce8f28b4274b00U, 0x36a55883370cedf8U,
  0xb68af43836ed5620U, 0xb6d73086b71e101cU, 0x36d90324b73c2e00U, 0x3611c807b391bf60U,
  0x356ccaa8b6a1390bU, 0x36becfb037491686U, 0x375db6b9b6a047b6U, 0x360dccd234c87c30U,
  0xb653eab335a0a0f2U, 0x35a41008b73897c4U, 0xb68aa391349044d2U, 0x372a09f636335826U,
  0xb743904ab70886d6U, 0x36877d7036a068bbU, 0x371d797eb792ae03U, 0x3738d6763586fd2cU,
  0x368358f8b59cf1d0U, 0xb67d9696b625ef1cU, 0x370a65fb36797dd4U, 0x35b20690367e084fU,
  0x370f468836c245adU, 0x348c0ff0b6e16a06U, 0xb724686037a1bc66U, 0x36dbb13db6bb8eceU,
  0x35804854b70185d8U, 0x3722f860b648d039U, 0xb7555988361b082eU, 0x35be464a368340d6U,
  0x35b1b44435ab1804U, 0xb6516f16b69dadc0U, 0x36120125b6a1dfccU, 0x36c4e52536d55367U,
  0x368fdaffb641a730U, 0xb59c8728b6bd2b8cU, 0xb73a9e3eb6be88f3U, 0x3780a43f3686a528U,
  0xb71ec68ab791811bU, 0x377e055d3607023eU, 0x36e1b4e4b60ae87aU, 0x36f592c8b623c284U,
  0x360f8b133781afc5U, 0x357d949c360d00a5U, 0xb714b3c8b722cc43U, 0xb73330eeb72fff5aU,
  0x35ba148036b5a41bU, 0xb642d57cb71fdcceU, 0x35e3eef0b6f87454U, 0x36d1f9ae37376ae1U,
  0x371f3a7c373416b4U, 0xb6f6eff5b48869a0U, 0x370eee52366cc7feU, 0xb7307a2ab732f5dbU,
  0x37a25c5fb7096956U, 0x36b5f45336ff2706U, 0x375277ffb669e6acU, 0xb71df7653672a5abU,
  0x362b72c4b6825a08U, 0x36b4ac3e3650bf0cU, 0x3508c30033967080U, 0xb6f4832cb792d738U,
  0x35a2603c357d2980U, 0xb61f4f10b68d2920U, 0x36d398eb350ab938U, 0x363a3ed435ca75c8U,
  0xb6b5834535c5d180U, 0x36d2b0653734bca0U, 0x35da8d84358f15b0U, 0x369271e6b690ff2cU,
  0x36c1b592b5ba3298U, 0x3752a72236d13959U, 0x360924dfb6400d26U, 0x35aaf498b6f73a56U,
  0xb6ad1678b664c47cU, 0xb58e86eab2fa0100U, 0x36506bc4b3fce440U, 0x36afb964b70700b6U,
  0x36b87e93b739dbe0U, 0x3610e844b6a01a54U, 0x36917e2f364ae91fU, 0x372f4c20378f63e6U,
  0x342b7a40b6a1b0f6U, 0x35705728b643a00eU, 0xb6a85fb6b707d53eU, 0xb4d5f2a0b750a126U,
  0xb66dc727b6a5cc7aU, 0x36115d48371fa466U, 0x36f1a825b5b8b928U, 0x36a3e03cb63911f0U,
  0x36ce73e736e3f198U, 0x35caf04433b55420U, 0xb6b8b19c36b383deU, 0xb6c1ba92371a05bbU,
  0xb5bc3c04371c8d22U, 0x36f5675736cdf94aU, 0x361782c236f7a087U, 0x373b4f7636d7e59cU,
  0xb612343e34dc0ea0U, 0x3732d3fdb7046e40U, 0x36f7383a3693f6d6U, 0x37094a80376a9ae4U,
  0x37740c862c600000U, 0xb6191fd0b6ee411dU, 0xb4ad80083684032cU, 0x37a417cbb731aeb7U,
  0xb68e5a4ab71edbe4U, 0x3610ead037257696U, 0x37011736360b5604U, 0xb6b17550b6acf8a6U,
  0xb718a4c8b66adc94U, 0xb76e5c66360c66eaU, 0xb21fb000b349de00U, 0x37387d29b67ee80aU,
  0x338e6e00373fe54dU, 0xb789de1035968784U, 0x376a352d3773f69cU, 0x36a68df1b4e84b00U,
  0x376fc768321fb000U, 0x369638f833c57b00U, 0xb68a069d36cc4016U, 0xb6cfac64b735dca2U,
  0xb5ca10983799a75cU, 0x36f44a56b7331ca0U, 0x34d37370b6ff21d5U, 0xb42f4360b61cd05eU,
  0xb787376eb539b8a0U, 0x3652b488b793f023U, 0x3731614e36a6760aU, 0x37013762363ba805U,
  0x359b541837056e68U, 0xb6a31c5c3629de90U, 0x362681c4b743e478U, 0xb6d233beb586596cU,
  0xb59505a636885222U, 0xb703577cb64c7c99U, 0xb2ad258036cfdbd5U, 0xb7622f9c3639781eU,
  0xb6c9d53a37a32183U, 0x361534f437439f65U, 0x373d5e78b7360b42U, 0xb704ae33b5aeab20U,
  0x348e84a03678f726U, 0xb6d9efbc36433040U, 0xb63e795fb48e84a0U, 0xb6378a0635b6ca07U,
  0xb75715d1344b0d82U, 0x36551a2133e4cba0U, 0xb58b8d783726e055U, 0xb73e39e8b796b262U,
  0xb7ac083eb702d617U, 0xb598212436c56c47U, 0x369629b5b6e00670U, 0x3608031837877fd0U,
  0xb6539e00b67b41bcU, 0x35ae8f60377bfc3bU, 0x317a8800b6d2588eU, 0xb68d135eb6dceac7U,
  0xb692cf8cb734e7baU, 0xb6ddb6a23604e2ceU, 0x36b4642c36d17ff8U, 0x367e4606b6ce73e7U,
  0x370f966f35fda2e6U, 0xb68345a8b6fa5193U, 0x369733aeb434f7a0U, 0x36729f0c37adbb41U,
  0xb73a7ed634ea69b4U, 0x36c1be03378cc86aU, 0xb6c72d653697d35cU, 0x33ab1ac0b73e45e7U,
  0xb609677034bae550U, 0x367454ae3560a1c0U, 0xb558c620b4c60560U, 0xb21fb00036ae3f46U,
  0x370e6620b72bc738U, 0xb731614eb6fe5b88U, 0x362be330364866aaU, 0x378003ea36ea7c10U,
  0xb6ae580c35d21132U, 0xb6c6c645b69d9457U, 0x35bcea9c36fa6c46U, 0x35f492f8b2e1fb00U,
  0x371494e537be7bd6U, 0xb75e46343685aeceU, 0xb6bb1cee36bb5ff2U, 0xb7035acb354088b0U,
  0xb726b8e7b6b17550U, 0xb64ed86e35af62c8U, 0xb6a3e294b50cc6d0U, 0xb693efd82def0000U,
  0xb5113a583746d713U, 0xb6a2bb81371f5e68U, 0x37ca617735b7bad8U, 0xb6fcdd8c3513e258U,
  0x375d61eeb71ec4ccU, 0xb6b987d8b6e3fbc0U, 0xb73ce92c37d31baaU, 0x3734b663373026c6U,
  0xb6a1e1e3b5aa7e70U, 0xb67a14d637167bd8U, 0xb69c7b3836139a00U, 0xb6e15c16b6588d4cU,
  0xb558d528b61676f8U, 0xb63b8846352bef38U, 0xb7150004372e65a0U, 0x35ed5e503724c3acU,
  0x36be13ab373b3c2cU, 0xb66d55dcb6e4488cU, 0x36f1b449b6e47e9eU, 0x34edd1e0b67e7392U,
  0x36763970b6116554U, 0xb4a14e1c369e019cU, 0x374e5250364582b4U, 0xb6b12774366f98a4U,
  0x3781cbc8b6af33a3U, 0x3773651db77be69cU, 0xb6937b94b6b6d7f2U, 0x370803bd36ff3c1eU,
  0xb72a4237b5080704U, 0xb54ea7c036c9cbc1U, 0x364518a3b3169180U, 0x36b8ece4363b1b67U,
  0x36bfdfd0b786f9e6U, 0xb7001ade3494c680U, 0xb700afa4b5a385a8U, 0x36dc9c0eb739f0c9U,
  0x367fac43b6fd6e66U, 0x36bc5a31367c3f7cU, 0x366d2830368e2326U, 0xb6fbc4bd36519996U,
  0x367ab92cb621b37aU, 0x36284bbcb6504288U, 0xb6fc013bb719a071U, 0x353de90036ddc99cU,
  0xb6103fe0358e84c2U, 0x373f099036ef926fU, 0x35a353dcb7047e34U, 0x33d573a0376884aaU,
  0x3404e070b70a3b59U, 0xb51d33c1b673511cU, 0xb5c78d30341a66a0U, 0x36e5d660b73b9ebeU,
  0xb6f31069b50811c8U, 0xb689db28b5173cd0U, 0x36f375de37938727U, 0x3578aa40b6f01a67U,
  0xb6a211d6b687337eU, 0x3609ceea371a7c5cU, 0xb64a5660b6a7b8c2U, 0xb782a4b036dc7e48U,
  0xb58e84103696719aU, 0x361325b8368dbc52U, 0x371b0cdeb58dc476U, 0x3607bfdcb6b4a1beU,
  0x37395aaa3732900cU, 0x3702f6f6b6fb9200U, 0x3666847235b0699cU, 0x361b0a6bb6e0da0fU,
  0x37828c6137dac39aU, 0xb64e8ca0b6064975U, 0x369225f9b536bfd0U, 0x3612be803726a34cU,
  0xb504c2c8b5bcd8ccU, 0x368c4606b58cfd1cU, 0xb6b4c1fcb53815bbU, 0x360c2ee83408cbd0U,
  0xb72e1f1a374e1b20U, 0xb692329db7181393U, 0x351e570eb717ffdfU, 0xb65a5bc7371715f0U,
  0xb63e707c36bd1d1cU, 0xb6c43da3b749dd73U, 0x36d5d334b6903ac5U, 0xb541b71eb5548230U,
  0xb62d2db0b7185270U, 0xb6f36fa6366cb5ffU, 0x37949edd353416b0U, 0x366e02d1b6f09621U,
  0xb5b26e38b700182eU, 0x37111487366cdc59U, 0xb70e5be0375ec37cU, 0x3778aa42b6163488U,
  0xb6f2548e36a57068U, 0xb6c399ce373aea7eU, 0xb741233cb6e3c1b9U, 0x352be6c436c458fdU,
  0x378ed304b743250aU, 0x365ccb6636b41298U, 0xb73b7cc33643cff0U, 0xb78dc948b6f4dd2dU,
  0xb6b69758369c8130U, 0xb7752e29b60b2f2aU, 0xb4bcace0b5416e6cU, 0xb7326486b6e4da20U,
  0xb5fd71d0b626bb36U, 0xb7864a983688525fU, 0xb364cf00b5f86e29U, 0x367970a4b77ced8eU,
  0xb7cbc82c35289c50U, 0xb37d63003505abe0U, 0xb4e2c75034f88b60U, 0xb680097033b63cc0U,
  0x35fac0b536564549U, 0x364dbed8b658c6d0U, 0x3629c16437188365U, 0x3654e20337116ebfU,
  0xb5c9fd6eb6016134U, 0x362443b8b6b37b24U, 0xb74cf51cb73ac311U, 0x3603a3a4360214bcU,
  0x376bb678b70c570dU, 0xb6ec3f7ab6c220abU, 0x370585acb69e70ccU, 0xb5bf75a034bb0cc8U,
  0xb789ef2cb706e317U, 0x371ac75936615244U, 0xb6bb8a98368c56e4U, 0xb6b87282b72aaaa3U,
  0x3754a34836b5dbc9U, 0xb6c82269378f94e4U, 0x3773b03db6b27803U, 0xb7295e7eb3ab74e0U,
  0xb724d2d93776a3ceU, 0xb77c8cc1369418c8U, 0xb5b57dc435c8a032U, 0xb6ba1943378028fdU,
  0x36c467dbb6e9d673U, 0xb6af33dd3713528cU, 0x3794edda36def7d7U, 0xb640cc24b73361d5U,
  0x368303463666c3c0U, 0x345882c0b429c9e0U, 0x368018f736e0012bU, 0xb71ed558b72bb45bU,
  0xb580645e378651e9U, 0x367f1872b6aa44c6U, 0xb5f1db0ab415af40U, 0x3793799036decb22U,
  0xb6f2df1b371390e4U, 0xb781c9bbb4e060c0U, 0xb7609d9335b49642U, 0x36bd0fa8b6d75a3aU,
  0xb613422c370f149dU, 0xb656b782b59f3698U, 0x3623e84cb715ad32U, 0x3708cb4a362ff8a3U,
  0xb6f0699237724193U, 0xb56f64b0371a7395U, 0xb506a978b69fcbc6U, 0xb662d729b6f776a0U,
  0x3790ac8536e50a58U, 0x36189a9636a05f21U, 0xb6bd64fbb5908198U, 0x35538eb0b7214994U,
  0xb7813b5eb6e6077bU, 0x36c0a4f7378568aaU, 0x36cd97f8362666e2U, 0xb59bcc30b634b01cU,
  0x36648a24b6afeaa6U, 0x36a39cb2b70ee3b2U, 0x3725e68cb6065b70U, 0xb69055c23700e59eU,
  0xb69546f435f031d8U, 0xb6a0949eb723610aU, 0xb61b1df13714e8e4U, 0xb6a547fa3694900bU,
  0x373b50b537014064U, 0x36ff463a34ed0110U, 0x36c27ee4b6d08b49U, 0x374fdeeeb719d60cU,
  0x36b5578f36562920U, 0x368db2173706534eU, 0x350f2320b6d715b8U, 0x36c552b434fd2730U,
  0x366b0ea3b6c59fb9U, 0xb724fd60b5e1d1b0U, 0x36c798ed358e0d6bU, 0x341049e0354636b0U,
  0xb772a124b651d340U, 0x3746dae53369e260U, 0x378ee18036af5ff8U, 0xb71a459f374285fbU,
  0xb69c0a3134038c00U, 0xb6d738f8375b6d40U, 0x34298a8036e4cc38U, 0xb3aad578b5b7b198U,
  0x3700334a361d5b0eU, 0x36b64dfeb6672d0eU, 0x3516c6b03734134aU, 0x3640e2733632ac69U,
  0xb73a5e3c372df490U, 0xb7439d6db6845eb4U, 0x36ce73e73616f25aU, 0xb60811d436a57f99U,
  0x3782886eb4431da0U, 0x35ef958c373b5c2fU, 0x3624ca7c36aabb55U, 0x373312a236946ea5U,
  0xb66e2810375682f5U, 0x3651c708b59bdc0aU, 0x364f7bc4b7242a38U, 0xb6b2b611b6fde262U,
  0xb62b8da8b6c5d256U, 0xb6e8f8beb743d513U, 0xb6818a98b5d92d1aU, 0xb64a2014b73e4ba2U,
  0xb5799698370b2d40U, 0xb722c64235844794U, 0xb6bbb836b708fa58U, 0xb6a87819359e69deU,
  0xb60eb4cdb428f620U, 0xb75a1ae3b62342c0U, 0xb6fdf66437345d7cU, 0x3577f48036c3d9b0U,
  0x34581d60b629232aU, 0xb7787f7cb73aa67aU, 0xb5249858b749d528U, 0x36a8f9b5365891d8U,
  0xb65838c436a972beU, 0x3737dc44b63229abU, 0x3017a800b6b199aaU, 0xb7581b58b6fc5d1aU,
  0xb21fb000b6143ca7U, 0xb6847418b7747db2U, 0x368e447b3746f878U, 0x36b30c4ab74c10faU,
  0x371238c337079aceU, 0x3694afe8b628a7a4U, 0xb66dcf01b65cb716U, 0x36130756b6face96U,
  0xb6b5dd64b5f269a0U, 0x345277003798e511U, 0xb624214435f1c8eeU, 0xb541582836f89776U,
  0xb6f12626b70748dfU, 0xb6a16c383704e5c3U, 0xb7413c2a3705228bU, 0xb6ef9f1c36ceba35U,
  0xb709dcecb727626aU, 0xb6403b0a3690387dU, 0x3629c15c358693a0U, 0x36330b0e37045245U,
  0x378dbec8b61cdd3cU, 0xb64b735cb5908ed9U, 0xb7726372b70fcc87U, 0x37024757b63861d2U,
  0xb66f142eb5f6b618U, 0x37839f1136c60c44U, 0xb7105393b418f5c0U, 0x33270220b6bd1eddU,
  0xb65499523720d0b1U, 0xb4e505f0b707008dU, 0xb7239d60b4599fe0U, 0x37101ad8b6c420b2U,
  0xb6d97e3b3708c07aU, 0xb435d19cb6e70c57U, 0xb767c5be34202b04U, 0x3700140db50a2e40U,
  0x35e0f72c36ea4cdeU, 0xb7384c1436c277f8U, 0xb6c8db3cb5cf7464U, 0x37039ee4b7151365U,
  0xb74226193662c453U, 0x3625ae7bb6a88eb2U, 0xb78db9ac3721f50eU, 0xb6f46e13b7401e5aU,
  0xb643ee63b7444c81U, 0xb70d5937373a1d7eU, 0x3640574eb5b6beb2U, 0xb56d0a90370935a2U,
  0x3652dd71376df2f8U, 0x3702fc4cb6f75592U, 0xb44d2a2837355431U, 0x3645578bb6dc361fU,
  0xb6c0289a371b3bcbU, 0x31eb8a00b6b2219eU, 0x36986be836212a08U, 0xb7242218b50578d8U,
  0xb751638db61f02f1U, 0x376f8a1b36af4473U, 0xb74fe376b6a49ef8U, 0xb725ab7e3792980aU,
  0xb4694b3036e11a79U, 0xb39403c03677d2c6U, 0x36b81343b72d4fe8U, 0xb670c2d0b5b64cf0U,
  0x3583d6e0379583feU, 0x36e709bc36073950U, 0xb74f740db72ca04aU, 0x36ec104c37901ebcU,
  0x3749c03db6a2b9e6U, 0x3681dcbc36630e28U, 0x36d576c4b66269f8U, 0x3727107035b9b538U,
  0x36bfd3b037256d19U, 0x3672ddeeb6d9376aU, 0x363d753fb4afc990U, 0xb662e356b744b7deU,
  0x36e2db30b760b7e2U, 0xb70b641eb75a4900U, 0x3732d577375d6c7eU, 0x36a137ffb6d83008U,
  0xb6850817367acd8eU, 0xb744ec35b685f46eU, 0x37016bc435c31a42U, 0x370c8752b78cf587U,
  0xb6be077f3633aefeU, 0xb70c7370b6c74170U, 0xb762ca6ab57af0acU, 0xb639150837258812U,
  0x37850773b6a5be2cU, 0x36067000b71b0484U, 0xb6418318b77d1fe6U, 0x349b2a80365afb4aU,
  0xb54421d8b6649f40U, 0xb734892ab7038b96U, 0xb7485eb3b775c934U, 0xb31d2640368f2f78U,
  0x36051a48365379fcU, 0xb6b83203b6e7bf4cU, 0xb700625836f3b0deU, 0xb721fcca36e0f4e0U,
  0xb729fdd2b685fa30U, 0xb71262de361273b4U, 0xb620e6cc36f070baU, 0x3380f94036dd4a03U,
  0x367f716436a0f844U, 0xb662b52836bc325bU, 0xb704b9dcb75480f6U, 0x366fef55b64dd474U,
  0x368fe000b6ebc1bbU, 0xb66386e2b6309a0eU, 0x3670616435e250c8U, 0x372cdf3ab77192aaU,
  0x36d8ea1c36bc022aU, 0xb71a84b2372087afU, 0x3685a0bd36f2e0f3U, 0x360a3e6436d7361eU,
  0x364f25383700cf7dU, 0xb63c2f70b70f367aU, 0xb78999a33791a7bfU, 0xb712964bb70168acU,
  0xb7413013b54ed262U, 0x34619fe0b6969941U, 0x3642fe963793aef2U, 0xb6ec046e35c877eaU,
  0xb6843def361136a8U, 0x37157753b7041c19U, 0xb73a4dc6374396e3U, 0x36703d2636ade235U,
  0x363fa0f2b5ee946aU, 0xb7329868b6cf1ae5U, 0xb6866e2036d16546U, 0xb7a17a8e37267998U,
  0xb5eb0b5cb6914c2eU, 0xb646553a34940402U, 0x371e7d39370c8858U, 0x371a78963747ce32U,
  0xac00000037466166U, 0x36fdefeeb700fe3dU, 0x37358998367d961cU, 0x3725129fb67ec151U,
  0xb7139353b4ebd340U, 0x36f3ccd1373dc4b3U, 0xb61934b2353c73c0U, 0xb7479630b66a2a66U,
  0xb70ff943b6f4b6c8U, 0xb6927521b736df55U, 0xb5d8f812b6ed5545U, 0xb6fb86d83674e964U,
  0xb72c00adb4947f1eU, 0xb7029fc236904e86U, 0xb6b4a7fa350d7625U, 0x36d8b34337021f34U,
  0xb6b54a3ab6b6c6dcU, 0x36f931063783588fU, 0xb67c97deb6e2525cU, 0x37ad0f55b67c9a86U,
  0xb73dffa2b6010778U, 0x36a399713771272aU, 0x37886b30b52dcf90U, 0xb70b673b371c6190U,
  0xb680d400b6a5d283U, 0x34cfd040b6908e4aU, 0xb69b951e35fa2768U, 0xb58804203725188aU,
  0x362dece6b75874b0U, 0x36b9a84235893170U, 0x3515be50b683092dU, 0x36896f00b5e7c432U,
  0x3790a6c63449e3a0U, 0xb680841936b0af0eU, 0xb5cf1c24b6fbfd3dU, 0x37128351378a3ee0U,
  0x36103784371f9f5dU, 0xb627d0743642590dU, 0xb630408cb5efcd38U, 0xb4769130367dce57U,
  0xb727b7b436ac749eU, 0xb692b428b72e2322U, 0xb6636cfab66dda94U, 0xb731e932b74523b7U,
  0x3608d213378bbbfdU, 0x372e80ae373e9cb8U, 0xb72637ec35db26e8U, 0x348dd9c035e0f974U,
  0xb6302a563677f158U, 0xb6adcde5b6bf0357U, 0xb73357c43674bdb6U, 0xb4e3ad46370b9215U,
  0x372fc0ce36dbade9U, 0xb70da27c36346b0eU, 0xb6b49e40b780caa1U, 0x36b78798b707ff16U,
  0xb682270eb6aad871U, 0x36d11b52378b4d2dU, 0xb68218fd365877d1U, 0xb58befb037634a56U,
  0x363ccefe36f211eaU, 0xb60177e2b6e20c1eU, 0x36bd5e78b53a7030U, 0xb63e9240b678ea66U,
  0x3692daa0b69e2348U, 0xb51b30b03696ee66U, 0x352c6b28b68704b3U, 0x36caa5a2b77a3a74U,
  0x352ec260b6edc253U, 0x35af6f5cb6fd8cd9U, 0x350078f036e80052U, 0xb70a2298b563af70U,
  0x362d07363643e180U, 0xb721723736ee42b0U, 0x363c90acb7053824U, 0x3607ad28b6fca59aU,
  0xb525f69036510994U, 0xb6f8e8f6b6c2fbddU, 0xb73f60e0b61a15dcU, 0xb5f9c6d0b63c3c20U,
  0x3789f82ab6c10c7bU, 0x374176ea35ce7e92U, 0xb720464eb74619d2U, 0x358295883701bddcU,
  0x36156b18371502dfU, 0x3741e97a3602469cU, 0xb78dbd15b7099b7eU, 0x35e37b7b36978f57U,
  0x35afb72034aac33cU, 0xb6bf8ce436fe8effU, 0x36f5e49e362abbecU, 0x3772b76e36d15ce8U,
  0x373995fab37c31c0U, 0xb70d4ba2b69e1cf6U, 0xb6858e85b73ded55U, 0x37370e0837212c0aU,
  0xb476dd7037030594U, 0x3713916fb4608c40U, 0xb72fcd60b7895d77U, 0x3692b7d73732f68bU,
  0x37305252b734493dU, 0x36a434e8b61aba58U, 0xb626e660b731c522U, 0x35a1d8b2b704304cU,
  0xb6e9e16ab6b82ac8U, 0xb5b3e3f4b78ff6cbU, 0xb71029ea36f304a8U, 0x373331d036e38d9bU,
  0xb6516828b67895f0U, 0x371e281db6713838U, 0x36c40177b7117edcU, 0x374466013711db60U,
  0xb6b78a16b4ff17bcU, 0xb719debcb70ecb14U, 0x35c47d0837199f28U, 0x373d501036b7ce3fU,
  0xb6600200370d6735U, 0x3733ab7c369006cdU, 0xb732c7d2b4dcb030U, 0x37051a19b5cd21b6U,
  0x3649292f360a3d70U, 0xb63e1e14b7a4e754U, 0xb73ef51a366eaa9eU, 0xb6389ce436a0a1efU,
  0x36adb5fbb6fcdd86U, 0x375ee33c36926d9bU, 0x3420b850378f19c3U, 0xb6e06824368c5979U,
  0xb6ee7936b5f6ab84U, 0xb6d2cdff36f36377U, 0x3717c5b437890f67U, 0x36d58313b6b9cdf1U,
  0x348de4e0b6448a9cU, 0xb795dc6fb7486d20U, 0xb625b640b73ea4dcU, 0xb6bf6947b664fb1cU,
  0x36784fec34c292a0U, 0x3771afbe370fcc4cU, 0xb6c0c70db7379702U, 0xb6a7cc5736ad3026U,
  0xb65b86b8b5fe8218U, 0xb778013cb72d52aaU, 0xb750eac836a61e0fU, 0x346bc9c03648088aU,
  0xb6c04641b5fc9790U, 0xb49ad2ce36e00670U, 0x3717ffdc364c9b0fU, 0xb712da54371ea486U,
  0xb6f7dd22b6598fb9U, 0xb6a37a4634a64f20U, 0x36c142beb6ec3d19U, 0xb791c371b6a80ba3U,
  0x36baa520b6a66ea1U, 0x365aa5d8b71e19d4U, 0x3702d05db6551a21U, 0xb4422aa83516dc58U,
  0xb6af1082b59231f0U, 0xb6b58ab5b7740760U, 0x378f85ff368e7cfeU, 0x3728268f36a8b730U,
  0x369b2b5cb7017744U, 0xb583bc383460bd20U, 0xb600fda9b6b3da19U, 0x35ff11a43723396cU,
  0x364897d0b7033b0eU, 0x37326a6db71de71bU, 0x375ade9c36c77f9bU, 0x3718b70a3705cb29U,
  0x36c9016a37416be0U, 0x37818f313514e3c0U, 0xb671ccb036ecd418U, 0x372372d935c6c280U,
  0x3676c9fbb7462654U, 0xb70ab89e36b17550U, 0xb64b8ec635031084U, 0xb727bb6a363fe0d8U,
  0xb612ff1a36a1fc2aU, 0xb68ccf4f37152cf8U, 0xb6fcb380363d9b0eU, 0xb6b7ffff372c1e28U,
  0x36ca1100b5b67160U, 0x3726a108365f50ceU, 0xb684cbb43707e2a2U, 0xb6b59d5836d09f37U,
  0xb57b36b23789a4d4U, 0x37761f44b7092250U, 0xb7365fdcb6bfc6f0U, 0xb78b55bdb70f54e4U,
  0xb6a507b3b60c764dU, 0xb63ccfd8b71285fdU, 0x34dcfe70b726a447U, 0x360b50f03645e6c6U,
  0x368c86ce36ecf421U, 0x3719b83ab7023b32U, 0xb703ec363731e99cU, 0xb6b2ff483668b2e8U,
  0x371b1f94324b1200U, 0xb65f0be4b70ef8f2U, 0xb655897436dcb763U, 0xb74122543745132bU,
  0xb39158c036fea44aU, 0xb5bed43ab6da13cdU, 0x369436c837081d6eU, 0x35accb4c37346b19U,
  0xb73887433731d3ecU, 0xb713afae36a5c79bU, 0x36095194b50aa210U, 0xb7154fa13435c71cU,
  0x37442559b5e0e77cU, 0x36af410a37214a2fU, 0x35108c5036f7bca2U, 0x3583b4cab68c02daU,
  0x37042fc3b690dc97U, 0x36bac25235f90704U, 0x3707905db7626434U, 0xb6b93ff4b6b7451cU,
  0x36dff9f936bdef31U, 0x34c89a9036d8b5e6U, 0x3695e42335570cd0U, 0x32b0bd40b71c1aeaU,
  0x36c89748b4aada10U, 0xb711039936b86f23U, 0x37272d48b79fc2e0U, 0xb7452fe9b5be82f0U,
  0x368361023693388aU, 0x35e9cd08369b292aU, 0xb59f3ad4b6ed818bU, 0xb7968782350b48caU,
  0x37847af4370d6066U, 0xb6db8c2d37677f0dU, 0xb7883584b544f100U, 0x351dbe4036cab5b6U,
  0x36a03b8e372ffe13U, 0x3500ee8bb7816266U, 0x36bbb7e0b3834d20U, 0x36646998b48a62d0U,
  0xaeba00003614a57bU, 0x36b3de4836a58c92U, 0x3623ac3636b20cb8U, 0xb66b7300b59231f0U,
  0x36a5dcbeb669fc5cU, 0xb713d436b7119b4eU, 0xb6cfe7b4b70333cbU, 0xb689883ab68ab35aU,
  0x3744f57c35d01f62U, 0xb6505a6837260af9U, 0x3654fbbfb596ac04U, 0x3736a1eab72c9923U,
  0xb741d1ed36c9b176U, 0x372769b4b69912e3U, 0xb6298764352d9624U, 0xb69c13cb36d8f368U,
  0x3708640c37246099U, 0x37010d65362048dcU, 0x37346e4fb614cf8aU, 0x370af96437ccdbf6U,
  0xb7dee08db6903f10U, 0x3506d9a0b784566cU, 0xb6fb308534a0dfd0U, 0x36a4052136998056U,
  0xb6a9443b363abe2aU, 0x3713d22634760790U, 0x3630c398b6c7682cU, 0xb651fe6a35eb4760U,
  0x36c4feecb73e4f2eU, 0xb78060d837775915U, 0x36ab2b863593b554U, 0xb3015e60b6638a64U,
  0x33ac5210b7cb43f3U, 0x369c430f35f1c538U, 0x35eb099ab6790810U, 0xb7454994b601f322U,
  0x3733abd433962110U, 0xb7a365bab6ca4470U, 0xb6f6179436c01acaU, 0x372215ceb6ea6697U,
  0xb631b3a036750034U, 0xb6f3f0cd35328154U, 0x36c697e3b70c4cd0U, 0x3691083d36bb18b9U,
  0xb6b870b5370d715aU, 0xb6cbcad037d1c012U, 0xb5bfbd80b72cfc15U, 0x37055855b618a616U,
  0xb6ebeef0b6b7685aU, 0xb7104f7a364c3400U, 0xb784e891b763e714U, 0xb6fa8afc367d9320U,
  0xb6a68c2c3698e648U, 0x3648dd42b69385eaU, 0xb74f8fedb702b77cU, 0xb657fddc35afef14U,
  0x35afee68b6e949ecU, 0x35f354ac36d2ae22U, 0xb72ee26f3710f444U, 0x36d6fc3b36a5e455U,
  0x36d0596fb759dea9U, 0xb57cb9c0b74f4d9dU, 0xb6e1f881b61faa40U, 0xb50bb9cc371757fcU,
  0x36ca63f636ab876bU, 0x350d7b883743b693U, 0x373d615e36a13cfcU, 0xb795df30b70b4d0dU,
  0xb6be9edd371ed7d2U, 0x37054bc6b6bb3c10U, 0xb77f9f28b6f79c46U, 0x36b28865b7a27a50U,
  0xb6fc1800b7668c85U, 0x357f4380b708b43eU, 0xb70ace2036831440U, 0xb7b86e6eb6019786U,
  0x3506b25037348dcbU, 0x36ee635d373b2825U, 0x36e3b02ab693a7a9U, 0x3707e3623767f694U,
  0x36780a6e374f4091U, 0xb65b511836c76ff6U, 0xb62016aa3685a1bdU, 0x372a5719b7278c7aU,
  0xb6649ca3371d92bcU, 0x367a0c2436dba14eU, 0x36bc4eb8b58f269cU, 0x36d14b553600ed40U,
  0x36a251f0364452c6U, 0x37286ff6b5b26e16U, 0xb6ae31f7368a3953U, 0x378f86a236edc306U,
  0x378a5ad6370449e8U, 0xb709d9c8b678c940U, 0xb7111b5eb63c0c74U, 0x36d67c7f372f2612U,
  0xb6f162e4368da87cU, 0x37311328b64b5cd7U, 0xb6a6773a3566fc92U, 0xb623c06937190e9eU,
  0xb6b0e970b5a0bf88U, 0x370d2c3036dc8d5fU, 0xb67375c0b60a26b4U, 0x3689aea6b68d19d8U,
  0xb721cfe8b6938017U, 0xb7723e83b6ce7a94U, 0x373bf5f0370a1c56U, 0xb4a70f383784f3feU,
  0x37041f36343569d0U, 0xb6e79eb6373b1aa8U, 0xb6561df436d6aadbU, 0x35db4ea8359d9be4U,
  0xb782d097b6d9818cU, 0xb6e4177035a72f38U, 0xb6a26cbe378b9f37U, 0xb709b0deb51d48b2U,
  0xb6fa91ca370ddc3eU, 0xb6a1567837d84363U, 0x36dbfb6136f1ded6U, 0x3761e38036e13443U,
  0x3554fcbc376397f8U, 0x353758c8360cbf4eU, 0x36ad2419371f2ee4U, 0x373e908ab6e6f79eU,
  0x368b8d353701ff99U, 0xb6809960364ed4c2U, 0x3647c6c23610458aU, 0x3611d63cb6a623aeU,
  0x37059768b47917f0U, 0x370731ef366005e8U, 0x36447736b72aebcaU, 0xb6aee80ab6c5924bU,
  0xb678cefbb6931d45U, 0xb6eac08cb61870d4U, 0x3716c037374bc582U, 0xb6eca6b5b7217e15U,
  0xb572c190b71e4bdcU, 0x3708ea80368a5396U, 0xb6c43f94b638fd3eU, 0xb78924a53718ca86U,
  0x3638485636768dc4U, 0xb7450a9c372f3f90U, 0xb49a6e40368ad48aU, 0x3709b6f83722085eU,
  0xb780c174363c63caU, 0xb7747b003528d3ecU, 0x3733ba6437127743U, 0xb71a3d1936985232U,
  0x367a88a0b6a1f007U, 0xb74f70e9b53e35b0U, 0x373147f0b667b7ccU, 0x36b5545f376a95dbU,
  0xb761e76bb5d42b78U, 0x371c245f34309ce0U, 0x34a3c740b700abb2U, 0xb71cbd0db71012f1U,
  0xb60fa79ab698c31eU, 0xb548eba83397b080U, 0xb674d6ad3430b820U, 0x372d4ce5b7361908U,
  0x35da9d7036e5ee57U, 0xb73ec2b5b7825a91U, 0x36b900f4b66ed87cU, 0x35ad7348b577f9dcU,
  0xb712ac10b52c32c0U, 0xb6f14f5db5d10378U, 0x37384a7eb71b05bcU, 0x36e9f02fb58485f0U,
  0xb63d2e3434c09e06U, 0x3689836a35f26680U, 0x361f03e4334de700U, 0x37203f4a375ff1f6U,
  0x367d7bfa3480c5b0U, 0x366558aeb6cb60e9U, 0xb4ad56a0b6c3e624U, 0xb786fd7cb6140124U,
  0x3586795cb6db652aU, 0x35f587bcb5dcfa0cU, 0xb2f54580b52df8ccU, 0x358010333655d7d6U,
  0xb49f40f0b785fd98U, 0xb6c92152b6f5b270U, 0xb5cce8c037440180U, 0x358cfd04329e4280U,
  0xb7146413b60e66f6U, 0x3651c09036dae9c9U, 0xb7600bd1368b62f6U, 0x3752d891b74987d4U,
  0x329e3480328f3700U, 0xb618b21eb5f05258U, 0xb61d21a8b7369518U, 0xb7381536361f46c6U,
  0xb741250cb6ac713dU, 0xb339b580b73aead6U, 0x374a2f97b69ae855U, 0x3745f42cb70cbaefU,
  0xb6ba95e8b72840f6U, 0xb4f496b033f6b7c0U, 0x36f651a731f40780U, 0x371f01d436550918U,
  0xb719421a363b3f66U, 0xb71dd20b3493dac0U, 0xb707f7fab6b41545U, 0x36ba7124b72d7700U,
  0x333b864036dafe10U, 0xb6ab52c3b5fc2d98U, 0xb6b7b939b64359d4U, 0x368a22f036650bcaU,
  0x363cc3bd36fd070aU, 0x36d44806b6e04644U, 0x3604c84e36fae806U, 0x369b1e0c36341b30U,
  0xb6e55c3a370b1f7cU, 0x36ceb2bc36a32ffcU, 0xb733389636ace6ccU, 0xb703825bb6ace76eU,
  0x36b1f628b7055f7dU, 0xb7338603b6173164U, 0x365a877bb71ac7c8U, 0xb74dbefab7322095U,
  0xb74fe36137714b0cU, 0xb71fede6b63aaf18U, 0x36a24c9b37299be6U, 0x35992b4f3708bcaeU,
  0xb63be8e0b690a323U, 0xb607efd8b78f70bcU, 0x3671331936eb98b8U, 0xb74af02e36f20541U,
  0xb71317afb74e68daU, 0xb63c82c536eebaaaU, 0x36fee838b59bf858U, 0x36c7dd8db6517006U,
  0x3742391fb692e10aU, 0x36b3e2573716fbb3U, 0xb6796f6ab6916082U, 0xb64cb46cb7386cecU,
  0x36c7b815b6e86867U, 0x3785ac74b7c8b2b4U, 0xb7c1da20b708aba1U, 0x363aa528b7092e80U,
  0x36b29f7636827820U, 0xb6c407a1b64f632aU, 0xb3547d80b71d2a4bU, 0x36232df636e4ea0bU,
  0xb73127943742ff9aU, 0xb6f84a1537cfcb5eU, 0xb6d06ff036db1479U, 0xb3b2fc40b5ec57a8U,
  0x353e31a834f307a0U, 0xb6e9db04357bf3f2U, 0xb6cb41df36f2fa30U, 0x343baa30b4969250U,
  0xb78f19c0368d5a21U, 0x3795e2ff37194bc7U, 0x3682739236cd7bc3U, 0xb59aa24ab5d3f990U,
  0x368e07d1360e4e51U, 0xb5beab4ab6de0305U, 0xb7155675b708e635U, 0x363aa944b5bf3ba8U,
  0xb4875960b1c59000U, 0xb753354134ac36d0U, 0xb67bdd7f362cafc3U, 0xb6de56efb7332f29U,
  0xb657d38c359e71d8U, 0xb40b1580374ca568U, 0xb683dff03729eab7U, 0x36623dd83782e2bcU,
  0xb6448200b6ba12f9U, 0x36f4ee7eb690770aU, 0x3691f8be36410776U, 0xb6c4da90b7485f1cU,
  0x3697441cb6f08457U, 0x35bc83e8b521a9e0U, 0xb6f4a77f3581fe74U, 0xb758e1aab6ea633aU,
  0x360a4c20b6d30088U, 0xb5158c7cb716c782U, 0xb639faa0b748c1baU, 0xb661bceb3608185cU,
  0xb6b019fb373b1d48U, 0xb687afeb36b233d4U, 0x3771ecc6b63eb9e8U, 0x362e0ac4b6acc7deU,
  0xb508c64cb682f34eU, 0xb71c77743683ebe4U, 0xb730161f3792f799U, 0xb6305efc34c5ef40U,
  0xb68dafd0368c7924U, 0xb64c067eb62f2816U, 0xb5b17ac0b6e22208U, 0xb708607b369b79cdU,
  0x35626990367344f3U, 0xb7106839b537b7ecU, 0x370b5cc8b15d8c00U, 0xb71d5222b68b7870U,
  0xb77334f335548dc0U, 0xb671e293b6ec9114U, 0xb6ef1c4bb703d0a3U, 0x366bd809b6d85abcU,
  0x3654398c365709daU, 0xb624d60436936b16U, 0xb5bd77aab6a12b74U, 0xb651228c3689760cU,
  0x372aa200b58b028aU, 0xb6090c2c35e0f7beU, 0x37b6b6e9b68d186eU, 0xb661726cb67900fcU,
  0x36f0a21f365211a2U, 0x368a61ceb6d577f6U, 0x3599dbf9b6f454a9U, 0x369e1c82b5905ea8U,
  0x368d2a88b6233fd4U, 0x364842f7b73a0d94U, 0x378ddae2b72dda04U, 0x365c96f9b71b5508U,
  0x371d609cb70864b7U, 0x3743798bb7074ab8U, 0xb5f63c36b775e67aU, 0x3609ae1237455ee6U,
  0x37050708b74c936bU, 0xb60179be372df564U, 0x345ec0c0b6b06bd3U, 0x2e2c0000360dd7bcU,
  0x36bf37cd37112cdfU, 0xb46bfb3035a1ee48U, 0x36379971b628b574U, 0x35416780b6ba8e91U,
  0xb6ab270ab69a5c20U, 0xb6f757a43662587dU, 0x371fbf8c3792dd99U, 0x366a069cb73b4f99U,
  0xb7c1a7f03730f642U, 0xb6d5e6e0b6a8b116U, 0xb646d257b67a9134U, 0x367969a836862366U,
  0xb76334e4b70edadcU, 0x36bbd9e8b611dc70U, 0xb755296f342b4dc0U, 0x37cc7290370c0e32U,
  0x36a4f60736ff2c9bU, 0xb6be5bf3b5da5242U, 0x3637e610b7a1b3e7U, 0xb5b40808b7320f01U,
  0x36b70cf03714bf54U, 0xb711bb1bb51f69f8U, 0x35d252b8b6a1d743U, 0x339e30bcb62442caU,
  0x37864c43b63f77a3U, 0xb6778f58b4972290U, 0xb5ca3dccb7a38723U, 0x3611d5f4b7789a58U,
  0xb7259744b5d2bd70U, 0x36d8d8a135f705a6U, 0xb59c500cb5cdcd8aU, 0x364a266e3688a676U,
  0x36d30a5b36ac3836U, 0xb61ee75636b29dd7U, 0xb740bac0b32c1280U, 0xb6a405a036a71892U,
  0xb696e734371a8246U, 0xb57cfe30b74762f3U, 0x369e2de3b5c28e1cU, 0xb6b80afe36fe0403U,
  0x3610b774b5177be0U, 0xb79e1f623790e923U, 0xb65f8705363a3bc5U, 0xb5eb5ba8376d4f28U,
  0x37539350362a811aU, 0xb71bbf1d36097f5cU, 0x36cc0454b6e7430dU, 0xb6ab5c57b6e8131eU,
  0x36a816acb671da58U, 0x3106d000373ddc2aU, 0xb38f6e003640f19fU, 0xb1f5e580374c6fbaU,
  0xb74961e1369d2d03U, 0xb793854fb345e300U, 0xb6a48178b670e358U, 0x366e415ab688d7c3U,
  0xb7473e773724d5d8U, 0x36a812ebb609a8e9U, 0x370ca6cdb5575188U, 0x3656071cb6a4e567U,
  0xb67128d8b6942aa6U, 0xb731d49c3719b11aU, 0x374017a0b5215750U, 0x36f900e1370147a8U,
  0xb73fbed2b73be7c6U, 0xb6f15724b7269bc0U, 0xb5efb4ecb39b3eb0U, 0x363ff4eeb697b3b9U,
  0xb7057678b6fde29eU, 0xb6ebfd4e36eba949U, 0xb6122b2b36567ce1U, 0x35a9227832884e00U,
  0x36e7bf2cb624a88dU, 0xb67b250eb6bd1488U, 0xb6ddee49b69c4cd6U, 0x34ebc380378f0d32U,
  0x369c41a336400911U, 0xb39ce600377de293U, 0xb74d86b2b5b68588U, 0xb71eff42b725c361U,
  0xb708e26cb79676e5U, 0xb56decfcb5cf9b4cU, 0xb6ae5db2b5897b64U, 0x35bdaad8b78b8791U,
  0xb1e4b800b629d568U, 0xb6a319c2b6233b20U, 0xb69dea08b718f352U, 0x35d6c07eb71d0439U,
  0x371d3b473772df90U, 0x3695f4163658c394U, 0xb682fcc63653b7c7U, 0xb5bd2946b68fa0dcU,
  0x36532916b704740bU, 0x372188b837626f4fU, 0xb5b09aa435a72d10U, 0xb58c10a4b725bb77U,
  0xb725e6a4b7089360U, 0x36b80cd1b68c7de3U, 0xb73f4aacb721d057U, 0xb6dfdc00342ebb80U,
  0x36d0acb4378f1b62U, 0xb64b7176b7d9adc6U, 0x3593c468b71818c4U, 0xb48a9f3036e9fd77U,
  0x37038d0cb61eac55U, 0xb7031334370aca92U, 0xb72063c3b726c792U, 0x3636f244b6f363f9U,
  0xb781e21bb66fd855U, 0x37c56dacb5d28752U, 0xb71b3da9374bdeb6U, 0x36e599fc3725778aU,
  0x3699112436024171U, 0x36a06b2036393657U, 0xb704e64cb70a7a92U, 0x37339883b6ff9505U,
  0x372533d03610dbd4U, 0x37114ddf36479b70U, 0xb7a4bc44363e2964U, 0xb70ca43cb7a2d53bU,
  0x358a335036491850U, 0x371f2b44b6945488U, 0x35c97b70b77419f8U, 0xb70a524e3663006cU,
  0xb6f29319375e5aa4U, 0xb6921d0a3720614fU, 0xb5ef1990b6154ddaU, 0xb705db04b74dc27dU,
  0x36bf2d2db76c4cbfU, 0x3661ac7535e64108U, 0xb6e554bab6397a69U, 0xb744ecbe378f8220U,
  0xb6b86576b739654fU, 0xb702427ab68ff15eU, 0x3775815ab60af1e6U, 0xb7246aabb71def44U,
  0xb70cb38eb64a4dd0U, 0xb4ffe0ba37187293U, 0x3627a47bb6be1969U, 0x35890826358ebc70U,
  0x36ffb732369e04ecU, 0xb587904c3717a2f4U, 0x373fbe3e369876f0U, 0xb660d6d8b50e84e8U,
  0xb5b966c433b51480U, 0xb68fc7d3b6b732d1U, 0x36e48bdab70aa1aaU, 0xb608966ab6b59044U,
  0xb6d1d28d37312228U, 0x3746294037032d1fU, 0x373f3967b73a7114U, 0xb6582b3c374cac29U,
  0x3737ffc2360116a8U, 0x35b89550b7156e16U, 0xb5ee81d8b6350b40U, 0xb67d60b9b6c59fb1U,
  0x34447cc0b64fcd6cU, 0x35f0691cb739c309U, 0xb68a2e01b6596260U, 0x377eaabbb781ab70U,
  0xb6b04868b71780fcU, 0xb614a4e2b6b79a8eU, 0xb6957a5db78d82c2U, 0x3382a94036dcb250U,
  0xb452fe30b733af7fU, 0xb6fa1866356d3704U, 0xb70ec9c3374bea80U, 0xb5052270364c2b2dU,
  0xb652259db6cd18c2U, 0xb6fafd2635009b20U, 0xb68c775c369278daU, 0xb6ce365835257a38U,
  0x36613f6135be6ac6U, 0x345191e0b5263d80U, 0xb3898e10b6fdc46cU, 0x340a106036a8fa4cU,
  0xb6432aafb74620f6U, 0x373ea14f352c6d10U, 0x359cb8d4370b4654U, 0x3624dc343730b1dcU,
  0xb5ddd288b7263adbU, 0xb78ac52cb6f8a9bcU, 0xb6f161a736caba5cU, 0xb72b7d11b6b514e8U,
  0x374b00fbb62fb187U, 0x36f1088cb6b4fe47U, 0x373db03437093806U, 0x379cfe9f36788750U,
  0xb70c3dbeb6de3986U, 0x36b3ff5bb723b974U, 0x3702dc8e36b33fcaU, 0xb6b559d4b7351fecU,
  0xb6ab1136b418e0f0U, 0x35299310b6316b42U, 0xb6f9a85d35217ed0U, 0x37e3e96bb68a4897U,
  0xb6d045a23622486cU, 0xb6dc3999b7b77ae7U, 0x360cf6f8370e38a4U, 0xb52f7658343040e0U,
  0xb5e21018b6bcfd08U, 0xb6f5fdb8b6fc1088U, 0xb70411e1b4f2fa90U, 0x36a7f27ab60caf09U,
  0xb6965037373dd928U, 0x36702c9c37d34479U, 0xb5d13780b783dbd3U, 0xb7a949583620fc81U,
  0xb660cdfbb74e2e2dU, 0x355f78c035ae1724U, 0xb46160a03713913cU, 0xb7805d91b703a702U,
  0xb35bc1c0b631a970U, 0xb739f22136ac7b9bU, 0x36a412f4b6144e67U, 0x3644487536418ac5U,
  0x361c96d63757b47bU, 0x36ccafc9b6911930U, 0xb6b110aab6abf975U, 0xb6ee4a0836af73b5U,
  0x378703663692d506U, 0xb71dc37e36961d40U, 0xb7388012b6e5c41cU, 0xb610ae88b70d7146U,
  0xb6982ca2363743c6U, 0x366d16aab7036e7eU, 0xb6f9ba54b60f79f4U, 0xb5b19338b6b6b79fU,
  0xb6e523fd37624d54U, 0xb5d0f5b2370a8d92U, 0xb66736e2369cc01eU, 0xb7b08df635c12fe2U,
  0xb68feefa365ca274U, 0x35daf37036a53098U, 0xb7124bfb370cd992U, 0xb608b406b73c99c6U,
  0xb60bd10c371d92bdU, 0x366d1b2a378715bcU, 0x3749b5fbb6f31610U, 0x377620c7b6d71e30U,
  0xb74955b036f6a6dcU, 0xb6e1d58435887af4U, 0xb6df6dba377afbe0U, 0x3719a18db70acc69U,
  0x360ee0b43667baacU, 0xb734955eb7e34d08U, 0x364de38cb7066adcU, 0xb6f0393d3703e43eU,
  0xb59197403490dfd0U, 0x35acf85e365662c8U, 0x345a93d8b78fda6eU, 0x3637ba74b6566b40U,
  0xb7116bfdb7447491U, 0x37295d7c35e4f41cU, 0xb6b2a3d9b7849eceU, 0xb75bb9e1b6727cd3U,
  0x37327b7436fb84b2U, 0xb5f95bd036aebbcbU, 0xb750c1dbb4b04fd8U, 0x372108b8b5f8f8ccU,
  0xb704afa7b73366c2U, 0xb63fde92b6824876U, 0xb6e53dfc360ad428U, 0xb71481dfb6ea5920U,
  0x37020841b7a0f833U, 0xb78e33df364ef438U, 0x375d32883681b638U, 0x3755380e36988dccU,
  0x36665025b71d1e78U, 0x365b3282362661b2U, 0x36102d99378013a9U, 0x36ca6d6437348aabU,
  0xb68468de3759a750U, 0x36178e7936528dabU, 0x369313ceb5a4efd8U, 0x3763271cb69d5002U,
  0xb4a11210b711f57bU, 0xb73d4dbe373221bfU, 0xb730a44f36d6d338U, 0x361c1fdb37162298U,
  0xb4c50460b6e7e70dU, 0x37356923b52d824aU, 0x36953d86350186d0U, 0xb6f380f636432720U,
  0x36deb9dbb6a805c0U, 0x36a8932233ffc130U, 0x362e602036ee1beeU, 0xb4c120d0b708d4daU,
  0xb6cb484836e71d22U, 0xb72d8976b68cb0b4U, 0x361e718836a21f1eU, 0xb605e90c36cf0b8bU,
  0x3605846ab7099838U, 0x3723aec436e9f39bU, 0xb6901042b713cf97U, 0x36ac91cfb68cd356U,
  0x376adb98b3f24ec0U, 0xb706aa0e3690c805U, 0xb67a517836bf8d4dU, 0x36baa1d7b63e7cf4U,
  0xb71db62e3701ecaeU, 0xb720dcf035cbcfbcU, 0xb6a7c32fb7098dc6U, 0x3715fa8a372144d8U,
  0x36d05377b78927f5U, 0xb59c9c8eb7475405U, 0xb6e5bc8cb7090da3U, 0x36aa932db61c8c3dU,
  0x3684b3e4b52b7f64U, 0xb74e2b0c368ca5c0U, 0xb79a9422377ff9c9U, 0x36708eda367d476cU,
  0x35f5632436934836U, 0xb7112bacb6bebb08U, 0xb6fd4eb437266ea6U, 0x36a614a736f54748U,
  0xb731141eb7928a18U, 0xb5218ef036a6e61aU, 0x35905a00361d6ae8U, 0xb72bd5fdb70d4b2eU,
  0xb506e160b7334838U, 0x36ed5c82371026a4U, 0xb50d8338374cd148U, 0x35a148a837899ffaU,
  0xb66adf92b5cb0936U, 0x3637697c377f8eecU, 0x37877632b6c97b16U, 0x35e36cc036bf6c5eU,
  0x358751e8b6f07c39U, 0x37031c39b7961952U, 0x355f99e8b7741f3cU, 0xb723369b37075c02U,
  0xb7013fb0b6c6adc5U, 0xb5c74974370978f2U, 0x37802bc13731f728U, 0x35b856f236a0511eU,
  0x3778c39db706390dU, 0x374fa4a3b71cfd22U, 0x373c00b0365850e7U, 0xb7297e48b573b0e2U,
  0x354fe7f8b6b05ce1U, 0x36d26bfcb6b6235eU, 0x36ea7b513696fd50U, 0x36b5a930b6afd325U,
  0xb736e828b5e5347cU, 0x37521ae336bf4208U, 0x368d99a035730420U, 0xb777dcdd367be0c4U,
  0x363e0fcc368ad0e0U, 0xb5cf7358b6ca19feU, 0xb795964235d34d00U, 0x3668a6ca36c9d1c9U,
  0x37215ab4b72e2504U, 0xb53e21e83700dba1U, 0x366cb494b728397aU, 0x36307c8cb6fe6032U,
  0x371e902435734110U, 0xb6a6bf09b68bcfe6U, 0x35b646aeb5d50ffeU, 0x355b0c50b632092eU,
  0x37382feeb60cc67cU, 0x36a3a516b78798a8U, 0x370044f5b6865d7aU, 0x365d1864b7c04211U,
  0xb6b6772137030b58U, 0x368c696ab69c98b7U, 0x376ecc42b5861e28U, 0x36eeb88eb59acf78U,
  0xb6a088313742ae80U, 0xb6ba4fd8374afaa8U, 0xb6fdade8b7a191b9U, 0xb64cee7437675c8bU,
  0x36204184b626ef02U, 0xb729c30c36ebd5dcU, 0xb607c58636fc6419U, 0x36fa2eb3b52a74a8U,
  0x3554fb0036283789U, 0x35d0c8b0b78d067aU, 0x378d6ecab6b7bcb5U, 0x37350ffc3706f4caU,
  0x37201a24b6fb3bbbU, 0xb645258e3719bd6cU, 0x36b3b864363df314U, 0x36b5dc3a35ab8e90U,
  0xb571bbc03710669aU, 0x36321d4eb7026e3cU, 0x34aec150362a60e8U, 0xb6db17fd377dec2fU,
  0xb5c868fe33f3ff40U, 0x35b0605cb719ea18U, 0x36cdeeaab4abd410U, 0xb6b874b2b3109e80U,
  0x35b08b40372bfc3fU, 0xb6aa795eb5a02232U, 0x359bc020b4f15f20U, 0x36f10cde3738301fU,
  0x374f0098b5886740U, 0xb6e918b3b73d060cU, 0xb732fb26b7011497U, 0x3699655736a01850U,
  0xb53fdcd0b629eb9cU, 0x366605a0376b551eU, 0xb6ff2b37b68e4d6aU, 0xb5abf6e0378346caU,
  0xb6ab1e673713191aU, 0xb730454eb79588bcU, 0xb6d2b8c1b50e2580U, 0xb6c8d12b372b6920U,
  0xb671390eb77d3173U, 0xb71c52ec34a31760U, 0xb71369adb691e174U, 0x35bb182037427aceU,
  0xb6d0380137174c16U, 0x369c6a4eb6a8fa4eU, 0xb605407c3701831dU, 0xb5cf3c8ab50df944U,
  0x3790abb8b60fcd30U, 0x3703f776378b9380U, 0x37000f67b776338aU, 0x35df88a0b42a38d4U,
  0xb692c240371e279eU, 0x3580cb90b6f1fc7cU, 0x345718903621b83cU, 0xb59cb080363408c0U,
  0x3724801cb60ddf84U, 0xb61a1a00b6fe2e9aU, 0xb512bab8378f1076U, 0x35b4d2ccb6f74b32U,
  0x371c2827b57cde7aU, 0x36bac836b6fd3ca7U, 0x373e635f36cac1b2U, 0x36cfce79b76ee154U,
  0x3785b5c537869d18U, 0x36f8cf533401d420U, 0x3733e3b6b31b3f00U, 0x3630801cb5f1f6d7U,
  0xb5445f9c377d6995U, 0xb6564d7db6d2c608U, 0xb75b791037392ff4U, 0xb6813fd6b6d4e487U,
  0xb310f480b643c570U, 0x3714642636a7b80dU, 0xb68ca5ba372247f7U, 0x370b6e4c3680faf4U,
  0x36ee7bb437192693U, 0x36c224c83691fedfU, 0x3743974b377690caU, 0xb5bea084378212acU,
  0xb6268a5eb6813464U, 0x3775b0f536b41d80U, 0xb734296b361c2145U, 0xb65892a3b659b1caU,
  0xb649cd8836280692U, 0xb5aaa924370cb523U, 0x370094a3b76268afU, 0xb71e624fb78162ffU,
  0xb5c589f436ebf5e7U, 0xb63c7642360d905cU, 0x377a0d52b65db74cU, 0x36d040313764ebcaU,
  0x37334dfe3552ef03U, 0xb63c75243701d1e2U, 0xb7187980b7aec684U, 0x368f55043721039fU,
  0xb5817c86b7832b5eU, 0x37451815b3f05140U, 0xb75cc5263702031eU, 0x37396cdeb64f7bb8U,
  0x3774b32a359272fcU, 0x36496c15b7473a6dU, 0x3749abd73699b2eeU, 0x3656377d35d9e408U,
  0x36f1578c3743fadaU, 0xb70a631c37122af3U, 0x3686463636fb0386U, 0xb65fe61f376211e7U,
  0x37304e7236e9bdd8U, 0x37207a703706e026U, 0xb6dac6b4b6dcb544U, 0xb690471036cd92c2U,
  0xb178c080b5d59dcaU, 0x368e7d8cb487fcc0U, 0x369b221dadef0000U, 0x368b1129b60917a7U,
  0xb720a81736aca510U, 0x36bdd8173686c652U, 0xb6f6b58e354721e2U, 0xb73a1cf0368cb81aU,
  0x36d81f8d36826122U, 0x37158782b72748a0U, 0x36eae814b6ffc69fU, 0x37011d4bb6480c14U,
  0xb3834d2036ac640eU, 0xb635b01e3700ba7dU, 0xb6db296b379b6292U, 0x3608aa403706bc6aU,
  0x34698720b6207b10U, 0x36c98e07b6a82562U, 0xb70e0660b74bbeb6U, 0x37215070b67e4606U,
  0x36fa14c136a35a6aU, 0x36db366db6cff8f2U, 0xb793693db62512a0U, 0x35a82e00b642af76U,
  0xb775b4ac36fb2b14U, 0xb6778a34b626559eU, 0xb77e930b3743dc0fU, 0x364238c4b6cc6fc1U,
  0x3548f56035d89c08U, 0x368befcfb6e63e6aU, 0xb754f39e3603f8f0U, 0xb691ab4a37345eceU,
  0xb651e3d2b688b7cdU, 0xb6b13d06365bd62cU, 0xb613239a365ff78cU, 0xb57298d4366c8abeU,
  0xb6b5639db7146a0bU, 0x364d633c35f8b8fcU, 0xb67736b13721cb83U, 0x37348db0363bb008U,
  0x37177344b73f4b48U, 0x3558d34cb6598fb9U, 0xb70f569bb651502dU, 0xb575d009b705832eU,
  0xb1844000b513a0e0U, 0xb68f13c834698720U, 0xb6f9997bb70b0c26U, 0x36bea7e3b6d38161U,
  0xb78b8f41b6d6a2afU, 0x3793aca635b88f4eU, 0xb6fb2621b786404eU, 0x36541152b320f580U,
  0xb48b4930b705721fU, 0x3688b7cd37141e5eU, 0xb63e8e3cb64800dcU, 0x36f212b6b6f32ca7U,
  0xb60334023689163cU, 0x35db756736dbe9b6U, 0xb688a0f136330aabU, 0xb3834d20b6e7ed29U,
  0x3406c560b721c4ecU, 0xb7904c6db7306ed8U, 0x360db76cb5467ae8U, 0xb6245b56b688f128U,
  0xb70a2fab36b80adcU, 0x376d5d20b6b32917U, 0xb737cf47b5c5edf8U, 0x3682187c35c22d48U,
  0xb626c0ccb70b0c26U, 0x36bb3956b7028835U, 0x34117f30b5d9601fU, 0xb3834d20b6225c7aU,
  0x35dd1682b78f2464U, 0x35c0d48a37260ab0U, 0xb5fb98523702929aU, 0x37778b2fb6db276fU,
  0x3607056e36dbdbc1U, 0x36e00670359d844cU, 0x37974f35b6035d6cU, 0xb605faea371755e0U,
  0xb3ca7000b72db98bU, 0x3760d6d136c8a0eeU, 0x3691cca7368138fcU, 0xb6ae8cf9373e9d0eU,
  0x36d151f9b6be491eU, 0xb50ba99034892ce0U, 0x353222e8362e32b8U, 0x3689163cb47c6fb0U,
  0xb30a8e203692b00eU, 0x363c6da8371bc95dU, 0x373cf7beb4b9c6a8U, 0x355220d0b6b3a976U,
  0xb634c977b75100dcU, 0xb68c004636c7c43dU, 0x3613ffb5b6dc25b4U, 0xb64d7e1236acdadaU,
  0x36a3577037201323U, 0xb6f0698db70cd25fU, 0xb6a69688353d97e0U, 0x37d1b804356ba78cU,
  0x3714cf4ab716b5f4U, 0xb6666ffab6be05b0U, 0x360a3ad6371a5e72U, 0xb78f4f35b72eb870U,
  0x376d5d60b59a6ee8U, 0xb775a8bd32119d00U, 0x35460d9036312b24U, 0x358f27ecb2722900U,
  0xb6844400b6b7e32cU, 0xb6d5942ab6bb08edU, 0x377ba7003597a978U, 0xb68d2e1bb6b26082U,
  0x36f4ba24370e9d48U, 0x372b511eb14bd000U, 0xb6c4e46337348ff6U, 0xb72533b436090acaU,
  0xb61d1670b6bfc877U, 0xb6eb0557b5ad7ce8U, 0xb630f10fb78633e9U, 0x370864163742300eU,
  0xb6c13e4235e099a6U, 0xb48ef970b6e3faccU, 0x3619218db72c93adU, 0x3689460ab733b316U,
  0xb767792636fed039U, 0x3511d456b57b3768U, 0x36b8fbe036a4c468U, 0xb7067fd036ca3cf9U,
  0x3528f2d03728e2b4U, 0x355081e035a95580U, 0xb70876acb72ca585U, 0x3693d5f3b6eea2d3U,
  0x36141398b72c83a2U, 0xb6b4baa835e37a5fU, 0x33a8316037aef49cU, 0x36c0cb40366884b8U,
  0x373be34a373655a4U, 0x3716e333b7212365U, 0x37735b5a3723facbU, 0x36bad844372a66a8U,
  0xb6572688369441faU, 0xb70a5df6b67a5cfcU, 0x36f0f8cc371f3eb0U, 0xb71f596ab689a1edU,
  0x36c7b9bb360a72b5U, 0x34e4390035e2ad30U, 0xb56a78a8358c72d0U, 0xb5bc496cb3cc7bc0U,
  0x352f2d61b6580214U, 0xb4ccc8a035e0adacU, 0x33a29440b6eb75caU, 0xb707dad3b7725b2bU,
  0x36f2f20436a17b65U, 0xb6564058b72af13cU, 0xb5ec6c2437962e4aU, 0xb6be9563376601daU,
  0x371610f0b703b95eU, 0x3498256036843d4dU, 0xb71d0add36527980U, 0x359fec38b794921fU,
  0xb7618eb335f26858U, 0xb6af3c82368ba6aeU, 0xb711b97a35d54c3eU, 0x37053706b7439596U,
  0xb78918d036f422b9U, 0xb75d12e9b7a38520U, 0x366cb54bb6d19a99U, 0x3685d36ab6c1186cU,
  0x37226970364dcfdbU, 0x353b6580b61be850U, 0x36139619b6a1fc8cU, 0xb72a1b273746ecb5U,
  0x36bc67373622a8b0U, 0xb62eff67b6fabee0U, 0x35e5e430b72508f0U, 0xb6ca953bb7165434U,
  0x36f57c80b657b408U, 0xb6a45d50374320c2U, 0xb6991cb5b794469aU, 0x332e3b80b703b104U,
  0x36862866b7720a4eU, 0xb6ffff4e371be8abU, 0xb6d457e2b5ae2d52U, 0xb6f236ea36ab06acU,
  0xb61e11da377c1ac0U, 0x35e5d6c0b726c914U, 0xb755054eb70b5202U, 0xb7362328b5e7ce14U,
  0x3787988236c4e923U, 0x37103b3c37574232U, 0x35079aa0371f255cU, 0xb5f0a21db72bddadU,
  0xb6dc0c8eb737d4dbU, 0x341f93d0b73603c6U, 0x368cd1bf370f7586U, 0xb72256ec37096886U,
  0xb6d2c3e8373d4bbdU, 0xb6849974b29eff60U, 0xb723001437874c94U, 0x3697b86e37e2c199U,
  0x352b4e14b7820b7dU, 0x37811469b718a076U, 0x34eab6d0b7390bdeU, 0xb635556a370105caU,
  0x3797ce04b5e38138U, 0x365e482e3685fafaU, 0xb684cfb536bd625bU, 0xb6891f56b76fd248U,
  0x35e0637e3700a35aU, 0x36fe5f6c34c2f870U, 0xb628f9d5b5e8ff58U, 0x32af7e00b692afb0U,
  0x36c06dceb655324eU, 0xb6286ed6b70f3a78U, 0xb61bfb42b606e7a4U, 0xb6a20ea436b6ebc0U,
  0xb73cb68d36e5a67bU, 0x36b159c9b72910d0U, 0x365a0f2435f68e8cU, 0x3687de0036b91653U,
  0xb52366e8b4efb640U, 0x36b2b42ab6ea7929U, 0xb78b542936168ab1U, 0x36d98310b5d43198U,
  0x36e794df369bc786U, 0x3666616435dbc856U, 0xb54e5cc8372c7af3U, 0xb6a9d1df36bd616fU,
  0x369892f2b5c44bb4U, 0x344763c0b70669ebU, 0x3667a30ab6378556U, 0xb6cf1bf43750ba5fU,
  0xb67c4f2b35930544U, 0xb71a4966b561141eU, 0xb617e0a335d674e2U, 0xb613a25eb54b333fU,
  0xb6a18025b76d1214U, 0x363e96303731d997U, 0xb76b5addb7204a43U, 0xb727267f36b8be3dU,
  0x353d8290b618fed8U, 0x35f44b50b71b0308U, 0x3705d0ffb740cc8fU, 0xb7a26b673590bf24U,
  0xb73d95f5b72ed566U, 0x347654a0377c2da4U, 0xb79ce584371cd1b4U, 0x374626a2b6be6214U,
  0x3708499c36d185d3U, 0xb6e3ac5e3665fafaU, 0xb71a0851b60601e2U, 0xb758aa7237391d0dU,
  0xb60df322b76d0b64U, 0x3702da3e35e4a720U, 0x372cd3cf3680a3b6U, 0x35a83ce5368ab478U,
  0xb733bdbe362357ccU, 0xb61b880936e691b2U, 0xb6087ae2b6a48f71U, 0xb62c2448b6398698U,
  0xb6ab5222b74392b8U, 0x3667b948374f668eU, 0xb7375f2835bf350cU, 0xb71576de373a6931U,
  0x360a43183568ba04U, 0xb6c8c24db58f3e68U, 0x344afea8b796b96bU, 0xb76db558b71a01b4U,
  0xb6fa9c96b5d461d8U, 0xb68805b6b6af3442U, 0x3660142a368593e4U, 0x35ec5b803537b8d0U,
  0x36502b66b73d2c33U, 0xb6c16dc4b791d062U, 0xb707c954b60a0330U, 0xb4ddc9b837996cf2U,
  0xb6b44dc0b603b8e4U, 0x346c9b4037413f38U, 0x37614efdb69c5853U, 0x3795205736e571e9U,
  0xb6ec806536f51e07U, 0xb5922d90b79e4babU, 0xb7366f5fb657d519U, 0x3697e8bcb601e08eU,
  0x368e655cb70955b3U, 0x35d1356830acde00U, 0xb73bf97635f15d10U, 0xb5bab178374c4453U,
  0x376d48c6361ce82fU, 0x36a1aa883793a321U, 0xb68bf7e4b67e3dc4U, 0xb76c37bbb6c473d5U,
  0x36ebf67ab7191c79U, 0xb68d50f8b6b8076dU, 0xb6b70a92b5ef992aU, 0xb74b841bb745b78cU,
  0x370d7df7b6a835d9U, 0xb6bd4d2eb68bf1f4U, 0x3692bf10b5ed0852U, 0x371ca784b6713166U,
  0x363fee2436231470U, 0x37788ed6b5db0598U, 0xb7306b74b62e785cU, 0xb714cc5eb7320836U,
  0x3708b9273738123eU, 0x375246cdb696e77eU, 0xb7472378372f61a6U, 0xb6df83ee34c3e9d0U,
  0x3755ec8c35efaa28U, 0x3787cf0136bd54adU, 0xb7363423b6e1532fU, 0xb71415353729f230U,
  0xb6f26c2e33ab7980U, 0x370964a336ee9168U, 0xb74400fab5a198e2U, 0x377a3fb8b7489b3aU,
  0x35ee34b43712aab4U, 0x363a333bb6ba9c0fU, 0x36a4ea6db692f9b6U, 0x37cc8563b6dacbb9U,
  0x3693e7803791003cU, 0x36d72fc936b10e6dU, 0x36e4651eb5382340U, 0x3497f1c0b638442bU,
  0x36d5985e378d7485U, 0x367b979ab68e511cU, 0x371f258a3471cc80U, 0xb790270fb6fc5768U,
  0x3646b4dcb5637160U, 0x3614666436ff5288U, 0xb70cd80737063cc0U, 0x374c21e737161394U,
  0x37b680e8362d8596U, 0x36f31cd1b538ce1aU, 0x370fd35135477194U, 0x30ec6c0036585d4bU,
  0x36aba5a0b7d10559U, 0x377a8b85b6f8b48aU, 0xb6290e17364a1b96U, 0x36ac0cbb34a584e0U,
  0x347e4a6436a62526U, 0xb6144a88358023e8U, 0x366a1e1e37a528d9U, 0xb70f8b61369e1c14U,
  0xb6b2cfd5b45b5a3cU, 0x378ca178b713e603U, 0xb6ce979a34f2a170U, 0x3707823ab69f1122U,
  0x36b9403236fc6f22U, 0x363738e035ce9d6cU, 0xb6cfa092b563d8e0U, 0xb60100f6b55246f0U,
  0x370fcdf0b4f746b0U, 0x364c2a82b5bd148eU, 0xb6c50c583726a7efU, 0xb6f15c71370c4974U,
  0x35e2ed6e36aa77dfU, 0x3791157735daf9b0U, 0x362fce67b6d1b5d3U, 0x34e177803669f891U,
  0xb48420d0b6f599e8U, 0xb70ffe0d360c344cU, 0x362cb2d7374f1b0cU, 0x373bb6fc3629642cU,
  0xb640cca637086567U, 0x368787bcb61cb99aU, 0xb270960036f63a8dU, 0xb50e4e80b4959110U,
  0xb6ca9add370d46b7U, 0x348a628035ce48a8U, 0x34d88000b63faa9cU, 0x365e01113589456eU,
  0xb6021a80b6aba1f3U, 0xb7755a58b76a4f70U, 0xb6293396b6e2538cU, 0x367ec820372c7612U,
  0xb7070bd135cd6c44U, 0x36d074ceb68f0ff7U, 0xb7148495355f1740U, 0x370dbcdf3760bca5U,
  0xb5916936b6404561U, 0x35bbc584b6ec7b7aU, 0x3771022336a18540U, 0xb65347b8b62bf4c2U,
  0xb6349771373e2ff7U, 0x36b8baf4b7178818U, 0xb54ef86437d284cdU, 0x3693d0c8b5ffbdffU,
  0x36cbae37b6cbe95eU, 0xb6a081a1b78f0d8aU, 0xb7098b10b638c050U, 0x375c13e8b4d8e6c0U,
  0xb54a9c48b6342d56U, 0x371cf1a0b71df084U, 0x3423320034798600U, 0xb644a532b6a58fffU,
  0x373c481cb6c68526U, 0x35b5792cb6fbf0d6U, 0x3706b46f36d2adc0U, 0xb6911634b7041119U,
  0xb6fcb9a33621a108U, 0x35efbd003733ca26U, 0x376ccc64b76d61a8U, 0xb6ac6fc636c55695U,
  0x3701fd46b48b5640U, 0x36b8979e34d445a0U, 0xb60fcb18b766b4a9U, 0xb70ff653361996bcU,
  0x36bb225136cc104cU, 0x371f05c4373c92bcU, 0x370ea754359ffe58U, 0xb7802ad9378a2986U,
  0xb557add0b37190f0U, 0xb74bb22bb5923450U, 0x372d4a6a36633063U, 0xb6a0b267b6de9dacU,
  0x36dac1a7b58fd69cU, 0xb72faf3e37229488U, 0x36fe20d6b71676c2U, 0x3736708636bb5e0fU,
  0x36a14c35b59a48a8U, 0xb43e788036ff0b20U, 0x37069bd93630e54eU, 0xb6c7a2a0b73c3360U,
  0x374567df36f92110U, 0x360bb7b0361c1ce1U, 0xb5b90b64b72577c7U, 0xb704658e372a4ea4U,
  0xb60d2f20376acf16U, 0xb61b7104b5635ac8U, 0xb5ede23434a4b420U, 0xb70f87793624f6bdU,
  0x36b24f0236bca9eaU, 0xb63386a4b62b02a5U, 0xb68ea6ad363fc500U, 0x35c4cdac373f99a9U,
  0xb686d481368fd9f9U, 0xb700307036bde3cdU, 0x37194ff7377c20e5U, 0xb52daca4b70f6c3eU,
  0x36f78510b786db7bU, 0x37212460b703cf20U, 0x37048906b6937b7fU, 0x370052cf36a4f585U,
  0xb78ee85db78a5f1fU, 0xb67809f4378d785bU, 0xb731c77e3734ed5bU, 0x372c2141b68de441U,
  0x3660859237313063U, 0x36b12ba4376e5dadU, 0x36aba98336570598U, 0x37509d33b6537ba8U,
  0x373cb72b372201d6U, 0xb44200f03689def1U, 0xb705b658371c65e9U, 0x379230bf3601ae5bU,
  0x37656f9f356dd9b8U, 0xb6a660fc37043526U, 0xb60e0247b78caaeeU, 0x36ca06c4b6dd6b30U,
  0x365a7eb8b1b33800U, 0xb681db0b35d12a18U, 0xb7268f8b3338f100U, 0x3726d557b46b60b0U,
  0xb7c15322371465f9U, 0x37838198b6b3d194U, 0xb6e54d8e3790b865U, 0x36aafa0fb3a7f700U,
  0xb6a2e84237350d8dU, 0xb714de7437156e94U, 0xb56bb890b6a38672U, 0xb7ca8682b50c82d0U,
  0x3603f6a436b5973aU, 0xb7dd485836f9b8bcU, 0xb5716eb0b6f84144U, 0x36c979443792d26cU,
  0xb571ca49b6b16bdfU, 0xb706fcffb5ac0a0cU, 0xb669e7dcb785091eU, 0xb33c3580b79c3addU,
  0xb3965400b79843a1U, 0xb72ba378b63c44e9U, 0xb5ae0ecc372a1f3dU, 0x3696cbd934b96830U,
  0x3712ae35b5724800U, 0x34ba0ce4360a50daU, 0xb50d81d0b6b31fc4U, 0xb5f50528b71bacb2U,
  0xb6191d86b6c0a9daU, 0x35ca5996b70f9931U, 0x34c6c450376e7cecU, 0x36ed6614b6c35066U,
  0xb6c438a0b60dd832U, 0xb730445f36f8dcebU, 0xb781abe0b5aa1de0U, 0x37100f45b619c52fU,
  0xb73367c5b62ab520U, 0x3722418136336652U, 0x370c038b373691e0U, 0x3708a8843649379eU,
  0x36c98852b69a3869U, 0xb7a619813672707cU, 0xb5770f17363c39efU, 0xb7212c6b34385710U,
  0xb6bd601eb745f736U, 0xb6df7d943777752eU, 0xb62a697633c06240U, 0x375ffe35b6cc23edU,
  0xb3da6040371765b0U, 0x36a89d5d35f0965aU, 0xb5b8ad683134a800U, 0xb719895236a391aeU,
  0x3737be07b6551a21U, 0x37a433ecb6999cd6U, 0x3569b04436cfc988U, 0x360bc2d8b6ecfc01U,
  0xb62f35dc3615b481U, 0xb5f97466b59231f0U, 0x3681d6d4b6ad51acU, 0x365be8e1b5a86cccU,
  0x376e103436f1438eU, 0xb48ac30037095360U, 0x376e5a9bb6383528U, 0x36e2b5c836fd5806U,
  0xb6934784b6b5af9aU, 0xb69a803134128800U, 0x35d97621b76f7857U, 0x345b62f0364b6704U,
  0xb741e023370e8554U, 0xb681c92ab6501d40U, 0x36dd287637431996U, 0x378ec4edb7a312b8U,
  0xb6e6e1deb7121591U, 0x35344c9436c42578U, 0x36560c8736e7066eU, 0xb6afcd643778eb9dU,
  0x37210182b64e29d6U, 0x35faf46836c3391eU, 0x3731614eb606c1caU, 0x369b8c0e32b89d40U,
  0x3697cccd37197d31U, 0x3626f63db741f4e5U, 0x37622807372d2a55U, 0x3670da84b72cd532U,
  0x369e2920378aa910U, 0x371f084537303c5fU, 0x3615d68836aafa04U, 0x372566bfb5115250U,
  0x36b5009336b527ccU, 0xb6a629923507b10eU, 0x312b8c003725f1c7U, 0xb5c314b036deaa7eU,
  0x3607ffef37266de4U, 0xb6dbed963629e41aU, 0x36b90a6fb7897e1cU, 0xb719d62ab6c284c6U,
  0x36112355b6db403fU, 0x3689868f37093aa0U, 0xb65ce1bcb69ca36bU, 0xb5f48cb43622f878U,
  0xb7377078b77de312U, 0x35c648e8b66a53deU, 0x370d956eb653ab10U, 0xb66fe7beb69d815aU,
  0xb692469eb6e5efdeU, 0xb72cfb0635f04792U, 0x36d498fc373e30faU, 0x378318feb7308526U,
  0x360f15deb7308139U, 0x36b23ef4b6f1038bU, 0x373d740f3709962bU, 0x3697f2cc36b292b3U,
  0x3617aa7cb6244510U, 0x36363c2036853d1fU, 0x3651a7283729d2a8U, 0xb6cb6269367d5a44U,
  0x3731614eb681cbe1U, 0xb6b9619cb648991bU, 0x3699480835b65820U, 0xb7177b64b7387facU,
  0x3783045e35480c10U, 0x34e397e0b7096a8eU, 0xb6191fd0b60cedacU, 0x3373b8203500b138U,
  0x376b4f2cb7422c24U, 0xb4ebf480b741086dU, 0xb71dc509b7811cf4U, 0xb6b48bc6b7097c09U,
  0xb720cdee34732df0U, 0x37053b98b7441cdeU, 0xb6ab0f22b75d3913U, 0x3594604c36e27854U,
  0xb6258944b6fa6ae6U, 0x35995ca8b715d342U, 0x3666356cb65dae54U, 0xadef0000b6e598dfU,
  0xb4e459003714dfebU, 0xb630da0db669354dU, 0x36278d1bb781e9f4U, 0x3697cccbb7353106U,
  0x366ee594b65f3388U, 0xac900000b5ea2130U, 0xb60c390937220ba9U, 0x36becc3a378774f3U,
  0x37c0279bb6346b8cU, 0xb3a0fe68370e1b5aU, 0x33834d20b6a2a0faU, 0x375838e43726b939U,
  0xb738d46ab7998cd0U, 0xb73735de363617d9U, 0xb680bab0b42ca9a0U, 0xb3b3c4c0b7928220U,
  0x35eca257b3a07760U, 0x3688cb7cb62d5009U, 0x35c555c036bb713fU, 0x3726fd0c379f1477U,
  0x373abb9eb6a54a5bU, 0xb5038f60b6045e4eU, 0xb7396520378e9b93U, 0x36b869b2363de818U,
  0xb71e63a634e44340U, 0x369e3054372298cdU, 0xb5037148b63283c5U, 0x356e34c0b6c5becaU,
  0xb70b5f7436c876d3U, 0x3690822e368bf81fU, 0xb651b83a35976ff6U, 0xb76b04a536957387U,
  0xb6fb66bdb6c6e772U, 0x34444c98b5d65a26U, 0xb6856d1fb7041e6dU, 0x357ef79037516386U,
  0xb6b950ce364b5eecU, 0x37131798b5562b28U, 0xb3a87ec0b631b4b3U, 0xb581921236be37c8U,
  0x3693df073676b8ccU, 0xb4ca4c9c36c96ab1U, 0xb5bd256e36a5656fU, 0x36b4ec0e371a501aU,
  0x367a57e6376a53d0U, 0x379e194736c4ade2U, 0xb69fc9d4b7089116U, 0xb5aa730ab5909970U,
  0xb6bf91a2b708711cU, 0xb5d03098b690c7f8U, 0x348e84a0b7db3adeU, 0xb6df25f837409976U,
  0xb576e88ab72fe0ddU, 0xb71aed6a3732dfc0U, 0xb6d4dea735b1f0c0U, 0x356af1e4b57ada9cU,
  0xb5d4f4fc369eaca9U, 0x36538f0cb682b2b2U, 0x359a6ee8b60070c0U, 0xb4e097e03799a927U,
  0xb63deac5b5ae4154U, 0x378c8698378adf73U, 0xb604d18d3700433bU, 0x3702fffab59c9578U,
  0xb6df241a3647b3a6U, 0xb6c6d71ab729a087U, 0x350f3b30b6a6322bU, 0x3608686a35d108f4U,
  0x3722bcc5371f1becU, 0x362b35fbb7260f30U, 0xb5d0e474b57187c8U, 0xb6c85ab5371b8649U,
  0x3705dd5c36dc25b4U, 0x36db1130b7740518U, 0x36169cddb785e56aU, 0x3611a93c35cfc920U,
  0x36967672b6fe52e8U, 0xb4e02300b6d9c343U, 0xb6bb5ff2b73be400U, 0x36b126963632413eU,
  0xb6ce73e7b64e79e8U, 0x36bc754e366ca9d5U, 0xb771a170b696a746U, 0x37460ed3b70bbe9eU,
  0x3687fbda374e2bbdU, 0x31d6dc00b7472bcaU, 0x3718c03c371ac742U, 0x356ae22036fb7159U,
  0x35310080b6d908a8U, 0x3729c1e6362379a8U, 0xb6ec4df635b73000U, 0x373f1492b78ec53aU,
  0xb70767593795ecbeU, 0x3686daa2b5c2a3e0U, 0x3676a0c236bdac2bU, 0xb672845eb6d5b1baU,
  0xb70a25cd37af21dcU, 0x3692def536e7fa1eU, 0xb60e76acb720e170U, 0xb76782a23712b37aU,
  0xb74defd8b6684b50U, 0xb71ccfd636eba681U, 0xb77d1bca372884e2U, 0x3702c25836020070U,
  0x35aa1e9ab6cdf94aU, 0x36f2f621b75844b0U, 0x375e043035879f8cU, 0xb6abab58b70cbcceU,
  0x36e7ce7bb6dc09e9U, 0xb73e5ffe34d1e5eaU, 0xb6887444b61c18dcU, 0x378940d4b659a4e8U,
  0xb1a9340036f9d3e8U, 0xb6092372b6b0bb06U, 0x3796166834feaf80U, 0x36e5ed86b57644e7U,
  0xb699e89f359231f0U, 0xb5c05b38371b7d22U, 0xb597081835ea2ca4U, 0x35dbd8643559ed8cU,
  0xb6d8ede53748e733U, 0xb7157b21b73d5524U, 0xb6b93d80b6798a8cU, 0x36d5c85e30e99400U,
  0x36a3fe723603da85U, 0x3709055836800db8U, 0xb6398ffdb6397ba8U, 0x36c7f40e34cb99f0U,
  0xb712c65e3701e9c4U, 0xb420d6003725b2d4U, 0x3729df28b6191fd0U, 0xb546fef0b6b2e7c2U,
  0x37056e6836230bd2U, 0xb7323ae8360b757cU, 0x3791881a36f6dbb1U, 0x2c980000b6807122U,
  0x36077234b72b65d4U, 0xb77e6a30361f2b34U, 0xb6cbd0beb6632732U, 0x36dc9fa0b6b8be8eU,
  0xb4ba0f60b4422700U, 0xb6e1ab08377e5960U, 0x36e62c10374d4b21U, 0x374af5e0b607bea4U,
  0x36e587dc36f3ed6cU, 0x37446eb3371abe1cU, 0x36dc25b436e7ce7bU, 0xb50ccda036c824eaU,
  0xb76cae71b61d0415U, 0x3640aa00b6e17f1fU, 0x3735ca0134d4da00U, 0x370c7de6b6884c74U,
  0xb792bfe6369b1eb0U, 0x35037904b75cb085U, 0x35f60474b611e310U, 0xb5eca2f03701078aU,
  0xb5a07cee37001e50U, 0x36be000bb79582efU, 0xb72a25acb77bca63U, 0xb72616af3790da74U,
  0xb6f708a4b60e4640U, 0xb690439eb7169d1aU, 0xb545da583685a7aaU, 0x34aa0f70370edce0U,
  0x358f250ab6e00670U, 0x363a020cb707c670U, 0x37485e3db6e00670U, 0x33f8448036e156feU,
  0x36a5783037adc6d8U, 0x36d21cd333fce440U, 0x35950b2c318b8c00U, 0x36a20acb355e916cU,
  0xb624b6fcb73fdb3bU, 0x3711188235f58890U, 0xb62d36fb37b33de4U, 0x3671fca737108271U,
  0x34b2c4d0369777c0U, 0xb62892e435f1584cU, 0xb66f3f40375966dbU, 0x3696c599b72e2046U,
  0xb668d4d4360e2d7fU, 0x36585ab835595158U, 0x36baa4c4b6cf854aU, 0xb734eaf03777f60aU,
  0xb78974a7b79700b0U, 0x373c6a08b6c89fcaU, 0x36bc4c0bb70cdc22U, 0x325f9100b5b1ef04U,
  0xb59ff660b5c09cf0U, 0x36a3619cb6c424fcU, 0xb6b57eb43762f90eU, 0x37642f60b6fcbe7cU,
  0xb73774bb36cd8e64U, 0x36596736b6c61fa4U, 0xb58bfb00b786d5aaU, 0x366d3112b4728240U,
  0xb4f05918356e2a78U, 0xb70ff7a3355893f0U, 0xb69fcf5436121824U, 0x36b07c0b37798fe0U,
  0x379a797a368a1d65U, 0xb6be03e637065c8aU, 0x35926de0b79709b4U, 0xb6488de83694a702U,
  0x35da0e203646c8efU, 0x35cc8e68b6b79d0eU, 0xb627f339371aa9cdU, 0xb5c9f048b54c1060U,
  0x36c5a51eb49a6740U, 0xb6a31bf034ae21a0U, 0xb7925c74b66f3f06U, 0xb7762694b76e2800U,
  0xb73d9422368cfd8eU, 0xb730ee3e36f1ce3bU, 0x37822eb4363f35acU, 0xb74a4baab7454852U,
  0xb6b99a13b50f1dd0U, 0xb5f5ae78b6c9e95fU, 0x3700367534fb2ec0U, 0xb71e9af8372c945eU,
  0xb54d8b1fb6e69f8dU, 0x3720f54db69d9d08U, 0xb6ab6ef9b5b1c168U, 0x338e11a03740aebeU,
  0x36b062203623a434U, 0xb507be8b376e5015U, 0xb70273de372b0562U, 0x36827182372ceb5dU,
  0x37174aa4b6b76d1cU, 0x35f7496836cfdeaeU, 0xb6ea3406b63131b3U, 0xb787a80ab7c312d0U,
  0xb77082e6b65198cfU, 0x368e9914369b63f4U, 0x36c78fb535dc25e8U, 0x372926e23615b8e0U,
  0x366d4905360c9de6U, 0xb761316ab7c0fa2cU, 0xb719de8c369e8e8fU, 0xb5accd773747cbd5U,
  0xb738fe2a37429350U, 0xb5b0e210b6bfabc4U, 0x3790026036a024eeU, 0x3680a3bcb63e70edU,
  0xb603814c3614bb94U, 0xb76bf206b6107308U, 0x359767d7370019d4U, 0xb6a54450b6f7759cU,
  0x36df70cbb36bd700U, 0xb673602036b81410U, 0x36fe67a535b7fe9eU, 0xb7b364263740b890U,
  0x374ae53fb7550a7eU, 0x371f39ceb70239c7U, 0xb6081076b65fbca0U, 0xb741b756353a2738U,
  0xb6e8f228360808b7U, 0x372c227e35f2eee8U, 0xb6e164e236f8f478U, 0x3501795836d78928U,
  0x36d909a937101e04U, 0xb7076afe37854e84U, 0xb5dd31ecb685bc1aU, 0xb63fb97034fbd678U,
  0x360545e3b62e2414U, 0x35d36430b728db66U, 0x36e3c8ce36b8623bU, 0x3661f426b6195ee8U,
  0x33e49930b6d324c3U, 0xb4c4bb50b6986892U, 0x36a5f4dfb68ef7ceU, 0x36039efc36d52404U,
  0xb55c1438b7bf0fb4U, 0xb6849fb9b6d05177U, 0xb72853cab7172a79U, 0xb70df0e93783f907U,
  0x374035223672d0dbU, 0x35a40b90371fcd24U, 0xb683c9fcb6e3c43eU, 0x36631680b7557510U,
  0x378903b2b713307cU, 0xb62804aa36f729f5U, 0x364a43e0371f05dcU, 0xb6753c8537d8b08eU,
  0x362a3630b6845204U, 0x36f241d8b6b5c6dfU, 0xb69e040635b12b30U, 0xb73ab657369107d0U,
  0xb6e552a2b64200a6U, 0xb7827718b59cde58U, 0xb642194ab69f8ee7U, 0xb5181750371a6f78U,
  0x3682bf74b70fd147U, 0xb69b63bc36d4b3aaU, 0xb6d1c56d37784c4fU, 0xb704886a368933fcU,
  0x379ec2b6b6ed6fccU, 0xb710f4feb71ddaf8U, 0xb76ff1eeb7184022U, 0x35e6a2e8b70d2b1dU,
  0x368cdb6835e21c08U, 0x36b110c8b78bcef6U, 0x37425dd8b619766cU, 0x36b6cc3b36f773aeU,
  0x3625d33437604208U, 0xb68f68da37133aacU, 0xb4e60990369d4e0fU, 0x35dc3570b69ea0c2U,
  0xb4b8e23936fd34e2U, 0x360f6b243746aeb5U, 0xb759bfe2b76663d6U, 0x3781c0e2b6e830e0U,
  0xb7016de2b6781ac6U, 0x375adaa137783a70U, 0xb62a18c7371dcac6U, 0x371d15a2b62c2dd0U,
  0xb7ac083e37324cc6U, 0x37ae7e9eb68400f0U, 0x35e1cd00b6c6018aU, 0x3734549a3700470eU,
  0x3781aa793794924aU, 0x370616feb73dc967U, 0xb5f5e5e136b4efc6U, 0xb63d19003679bbb2U,
  0xb71ab11bb7a338d4U, 0xb4fa1b20b78dab09U, 0x36417b643633162dU, 0x36ca559e35d6597cU,
  0x3691c3a3b5b6c007U, 0x3726b147371385a7U, 0xb74ec6bf3730d1f1U, 0x36de693db6b2eb58U,
  0x371cb5aeb690a531U, 0x36fc454ab3d40c40U, 0xb58c1fe8b479a0e0U, 0xb65407aab6952240U,
  0x364f6930375f6172U, 0x360a9898b59a2bbcU, 0x3654db3c36f5c53aU, 0xb681534cb4958aa0U,
  0x36c65d85b721a453U, 0x35a4fdbc3604f9ecU, 0xb55a79f8358d5ee8U, 0x3625b1ddb6ddfc2aU,
  0xb6a23e50370d2939U, 0x37a274b7365020eeU, 0xb70b9b63b73a8235U, 0xb7ca60c4b69c5a86U,
  0x3742ca2fb408e2c0U, 0xb72c6801368d28a8U, 0x36169c6037107b90U, 0xb6877fa436e58556U,
  0x34b8400435caad94U, 0x36f0b4443726c973U, 0x36c3882136f26072U, 0x36487ba7b72117b2U,
  0x36bed5cab657be9dU, 0x36366985b6b6e773U, 0x370b5e603749e577U, 0xb609fb3db55ea4d8U,
  0xac9000003719ffa7U, 0x373d528b37134dc4U, 0xb4be0500b780c32cU, 0xb722cdcf3714cf81U,
  0xb7693cfdb6aaf51dU, 0x35ea2161370d4d54U, 0x3415af403698eb70U, 0xb50b4010b6801fcbU,
  0x34285c303681c72eU, 0xb70f6972b6c023bdU, 0x3731e257b631bbfaU, 0x34d6e894b65648b8U,
  0x379458c1b5447413U, 0x350c86c036211068U, 0xb5eea278b46fe760U, 0x3748bff3363f1ca8U,
  0x378e3878376cffc9U, 0xb64191aa370c96a0U, 0xb780910d370aee66U, 0x37326608353e7e34U,
  0xb6424298b6ac690cU, 0x362f8a2bb73474bcU, 0x351938e0367a5606U, 0xb6d50d7b37032186U,
  0xb585282e371305beU, 0x37306cedb775f919U, 0x36e6e57036920d81U, 0xb6ca76e036782186U,
  0x36ae19a2b734892bU, 0xb61413dfb46c5a40U, 0xb6b9f0bc351b4c32U, 0x363f70a8b7998228U,
  0x353a374836ac44a6U, 0xb7a24367b6dcbc44U, 0x3593ce5ab71bb4adU, 0xb75c7853b4f79f90U,
  0x37274c94b716aef7U, 0x3679b7dab72b995bU, 0x36f3efcc37c10862U, 0x371735a436151154U,
  0x36e7252c376a0516U, 0x360d2299b55878b9U, 0xb6b8729c36f4101cU, 0xb55b161436b32a7cU,
  0xb64ddc7ab6220de7U, 0x36bc76d536b8fa5fU, 0x36b9b6f7b5cd34e0U, 0xb6f4d0c4b78f4dfbU,
  0xb76c1081b6019e28U, 0xb77537b736a08e33U, 0x37109b7cb781872cU, 0xb73aab2736fd4811U,
  0xb6c66436b78b68c8U, 0x35dc7b94b5aa9cf8U, 0x360c455bb498b490U, 0xb7d0810e346e1a18U,
  0x378f53d1b46d0d20U, 0x372d314b371a37d0U, 0xb5b261c0b7236593U, 0xad3800003742e4a9U,
  0xb7752eea367cf090U, 0xb53acc84b6017dc8U, 0x370c02143683a6deU, 0x36dd25c136aa213cU,
  0x36ee8e7cb6474426U, 0x3716c714b550bf34U, 0x356fdb70b5665770U, 0x37031c1ab6379296U,
  0xb61ca9c6374f4062U, 0xb739c8f2b6db4a84U, 0x36306ae4b70896c5U, 0xb5009780b7249e42U,
  0x377d6210b6e2a5bbU, 0x36b3f21eb788b9bdU, 0xb4cd7290b7012392U, 0x37267155b7221eb2U,
  0xb65db770365c72f7U, 0xb6500e70b731c508U, 0xb70e8bd737192101U, 0xb6a91afeb6a9f26bU,
  0xb6cb6f5c31e27200U, 0xb6de7c58b6b88bccU, 0xb5adb33ab6e2d552U, 0x36f2d942b6ee7b32U,
  0x3438d37c3734c0b9U, 0xb6bd5a58b70a8a1aU, 0xb5210e6036208174U, 0x335283003600e066U,
  0xb6efcf7f36c61c95U, 0xb645c182366b0eb8U, 0xb4c8c4c0b5524628U, 0xb666cbd6b6ebf772U,
  0xb5b93a603700333dU, 0xb58422903721e3b5U, 0xb606c534b706e10eU, 0xb6c0db5fb76fd74cU,
  0x371bfcae37c30ab9U, 0xb550f520376c57b6U, 0x368a9c16370f488eU, 0x373d81c8b6fb33a6U,
  0x35e0b988b7106b00U, 0x37442da6b77c20e1U, 0x36e61e67b7589a30U, 0xb5d10ad0b6875b1eU,
  0x37738583361e5025U, 0x3710042c37470e71U, 0x372ff116371e6340U, 0xb7a1106cb508c068U,
  0xb3f09704b7330029U, 0x37bc8c4735faf520U, 0x37032d0436f0b0ecU, 0xb6adbbb136444fcaU,
  0xb6e6be1ab7188db1U, 0xb678c580b629a48cU, 0xb707f01f34e99108U, 0x36a55a88b5927fd8U,
  0xb62211acb6122623U, 0xb65af91eb700ae23U, 0x3502da9036fe65faU, 0xb74ee50236ecd6a6U,
  0x3753f1d7b5f6e3daU, 0xb78fb7f83682a970U, 0x3609b5553714413eU, 0x35b267803606f726U,
  0x36c4afe53615a25aU, 0x3702f180374feca5U, 0x35b3a238b524ad9cU, 0x3722e84c37093abbU,
  0xb69e4a78b64ea6c6U, 0x34a05f20b657c5dcU, 0xb693baf1b73ad380U, 0xb753f93fb693e7e0U,
  0xb70686a9b7744666U, 0xb52da0383647c76aU, 0x3622a66d355ae648U, 0x361b8aea35c30cd2U,
  0x36300d3c33c09980U, 0x368dd8dab4f3e890U, 0x373954da373f6be1U, 0xb69796adb73b4042U,
  0xb79e94aab710a298U, 0x368f6c8e37557efeU, 0x352b9f6835c58bd8U, 0xb6d70e5bb7198888U,
  0x3630f0de37135aacU, 0xb6c036c536ab1e87U, 0xb688c0da365503bcU, 0xb6f8108cb6f6378aU,
  0xb7453dd3b6cfb8a1U, 0xb735795335f82754U, 0x35a4912036bcca81U, 0x3598cca8b6ef0fc9U,
  0xb6b760f5b7365026U, 0xb711b75eb6a755dfU, 0xb701d37eb64f710aU, 0x362af1d2372a08faU,
  0xb5234680b695cc45U, 0x370a5226b6bf1fd4U, 0xb3df2680b6ed6086U, 0x367466c336dfb333U,
  0x370fc72f3693d237U, 0x341e0690371500c0U, 0xb6d8e55cb68294b6U, 0xb4909db0b6ba7796U,
  0xb7477353b59cbc20U, 0x3721e4e43688259eU, 0x3739b42032e5e600U, 0x340e3d2036ac4bc3U,
  0xb3fbcac03749dbaeU, 0x35964790b6312936U, 0x3752224b3685b844U, 0xb6c433c3369ee4f8U,
  0xb7476b66b61805bcU, 0x36907d8e364967ddU, 0x36852e4e36db95c6U, 0xb742e808b50e6548U,
  0xb74f74b8b69b0ba2U, 0xb7153270b6b76a12U, 0xb5a38d3834ce1e9cU, 0xb64ed4d6366c2b16U,
  0x36dae370b6af5d42U, 0x366504ecb7304264U, 0xb6e2919ab7352e6eU, 0xb7423ef1b78264a8U,
  0xb5e647943602a87cU, 0x369544d5b7e341bdU, 0xb5fe2037369c853cU, 0x373ebd6237290679U,
  0xb58fe8a2372af1eeU, 0xb501fb88343d6044U, 0x37916ce736b00514U, 0xb6a48585b6eadc22U,
  0x36b2994f362c34dcU, 0x37097f0c3629014fU, 0x36cb29aab5cc2bb8U, 0xb6590ce8375f822dU,
  0x3786f7db36821de4U, 0xb6f24b5236bd6659U, 0x354c3380b68ec40aU, 0xb52ea3a0b71b18a4U,
  0x362558ab36a9a20bU, 0xb6b199b8b6a05b72U, 0xb73ce3923691078cU, 0x3788464d36ec1773U,
  0xb60d544d374653feU, 0xb7751f41b66bcae6U, 0xb55e07f0378c3ad8U, 0x36c57e5eb64d4d32U,
  0x36db55acb5c3942aU, 0x377df530b6839a02U, 0xb53a0b3436fc6675U, 0x361715d8371e15feU,
  0x367e606036ae9826U, 0xb666c2cc36dbb1e5U, 0xb77f53e635692d30U, 0x37210084b62067c4U,
  0x359dd230b7a1ba5bU, 0xb61d1c7eb63ba2d6U, 0xb62f40c436b3fb56U, 0xb73667cb35c39698U,
  0x36bd573c3635c087U, 0xb67f033cb6be661cU, 0xb6c4b77c37082c9aU, 0x369e024635b72452U,
  0x378397d137427436U, 0xb661a798370de7b4U, 0xb600e6b0b7325548U, 0x3708b3b234a003a0U,
  0xb64d8d60b5da7bb0U, 0xb6dfdbf23625c3dfU, 0xb6be74a0b44a9520U, 0x366dc0dfb768385dU,
  0x378880dfb70749a6U, 0x3657ced0b4d7ad30U, 0x36d2465ab6ca311eU, 0xb73aa631b4a096e8U,
  0xb4cab488b40b8140U, 0xb649a6a236e694f5U, 0x358fc960b55ada40U, 0xb6a03f1a36f97fd2U,
  0xb730010837023605U, 0x3719a40636bd7520U, 0x3694492c3691fb89U, 0x372d5ec1378937b2U,
  0xb6a7c6cc361ac80bU, 0x36a13d20b4b1f188U, 0x370ff632b6ab67eeU, 0x3737ec06b72472edU,
  0xb721d21e37236270U, 0x3777d269b5fce270U, 0x367b982236a7f701U, 0x3775219fb620cd26U,
  0xb69f3c3eb62c1ac6U, 0xb5dd4bd435f4ce44U, 0x3735638a37074575U, 0x35a917703689520fU,
  0x35a3668bb60d81baU, 0x37589890b61565c4U, 0x3750c10a36f27dd2U, 0xb6eef3e4364f954cU,
  0xb72a3f6f370772fcU, 0x363dae9c361c0196U, 0xb70bf25ab696fc0cU, 0x37319870368ca662U,
  0xb53732ffb6860a18U, 0x350edd343686a039U, 0xb631125036d2c1bdU, 0xb71c50dc3635e98aU,
  0x377cf092363eed88U, 0x372cea5e379a490bU, 0xb54fa48436d72d5dU, 0x36a21fdc36564750U,
  0x35699c053730cccdU, 0x344c664037488fcfU, 0xb6b1aef8b6f8f8d7U, 0x36872b613652e73eU,
  0xb66ba5aeb6eae7bcU, 0x351a1aafb48b1770U, 0xb707cbfbb69a0c8eU, 0x377bb6ba361a3964U,
  0xb69bf486b6c7896fU, 0xb6eaba81b6f5ca80U, 0xb6420614b661d79cU, 0x36bc3d78b7164609U,
  0x35d7a5f4b6694390U, 0xb7134ec13790feb5U, 0xb7924410b70d75feU, 0x36a5fe033601c922U,
  0xb71d86a4b719c682U, 0x3538fd603739e20bU, 0xb6beb598b67666f4U, 0xb67a737436b9d017U,
  0x36d7e19e3742d795U, 0xb6946c4a371f1360U, 0xb6f2cf14b7253070U, 0x369297173724bd57U,
  0x36b116d7b72114d0U, 0xb6f7455b37785f2bU, 0x374d4904b6894d71U, 0xb7003718b70de428U,
  0x35af5648376ca512U, 0xb5a834a8b78266daU, 0xb69062cab689b493U, 0x378c89c9b7844228U,
  0x37011167366d299cU, 0xb793724935d7d928U, 0xb6aef81634d522b0U, 0xb6b6b69336ba754cU,
  0xb5a5e39436484894U, 0x375ae9c9b70e3426U, 0xb6c75ff436d233f2U, 0x37129ca5b62d4980U,
  0x364c8a8037de1f41U, 0x374e33ea370819d9U, 0x372aa11136b8c090U, 0xb320ea40362317ccU,
  0xb68442eeb31b9680U, 0xb70d4b84b537d4ccU, 0x36bc60e2b670300eU, 0x368afafa36c238c3U,
  0x3738a452b604f187U, 0x36158c50b5f94907U, 0x36ae7526b588b772U, 0xb736b448b633a44eU,
  0xb704176035506878U, 0x3708a76636e2bdd1U, 0xb4b827a036f53896U, 0xb6c7f6fbb78038b3U,
  0xb70bab4a36cfac66U, 0x363dd667b51de4e0U, 0x35f1c179b54ed356U, 0xb6f5e28ab52d68d0U,
  0xb685e9ecb7a94dc0U, 0xb7623c8e36feb5c2U, 0xb6866080b68cedecU, 0x368f6ddeb66c3150U,
  0x36824ab1b65a805dU, 0x372e814835583a70U, 0xb709a12ab7824406U, 0xb6451038373629f7U,
  0xb7038c5ab7913f55U, 0xb1fe5800b4eeecb8U, 0x3620f4f4b72d5164U, 0x3735a95c3543a420U,
  0xb70c8026b5722a70U, 0x371bfd70372e73a4U, 0xb7c0f4b7b6e6e4ecU, 0xb5a62e2836e1802aU,
  0xb588bafab6df16e8U, 0xb6bef66db4f67e40U, 0xb7818a98b731ea69U, 0x361d6b0436b91744U,
  0x36a37b2db6687b94U, 0xb6e81ebc362d0758U, 0xb68acce0370691e8U, 0x367de170b77ad579U,
  0xb6d1d311b63d4f0bU, 0x31fa0b00b72f5ac3U, 0xb6cc423cb731acf3U, 0xb659c620b6bb5e43U,
  0x3724218db73e1147U, 0xb651a6f0351b0138U, 0x34004cc2b694e955U, 0xb582aa763559a26dU,
  0xb63687a9377bd19eU, 0xb70dc38d3733b85eU, 0xb61d6237b78aaa29U, 0xb4aea93036770be2U,
  0x37193541374a906eU, 0x3657cefe35643c10U, 0xb6776dd9b6f113dcU, 0x370554dab736a6b8U,
  0x36d71453b6120a1cU, 0xb6edbdca378d7509U, 0xb4ed2b603653ee4bU, 0x358bd7c83746e7d7U,
  0x36f7f87c359afa18U, 0x35a0f0e836544770U, 0xb4e2cbea367fcdb4U, 0x36b337ed3708c97fU,
  0x370bc6a0b61b241dU, 0xb6f92d56b749df9bU, 0xb63f5500b4f2c538U, 0xb704e246b6b53db5U,
  0x37262e173721846aU, 0xb6089f0e3760e256U, 0x36530ac036ab19caU, 0x37329e8ab707f6f8U,
  0x370f9ede36eb4f11U, 0xb65508b4350b5bfcU, 0x36a5303d376f61c6U, 0x368155de36db2005U,
  0xb74b69d037428358U, 0xb6bcf1733729f269U, 0x36bf7a38b6196089U, 0xb705484cb6a88e60U,
  0xb6bb5129364bcca2U, 0x36270612b745e740U, 0x3665ff5cb76d5fdfU, 0x371fb2b8b7003203U,
  0x36438dfcb717218fU, 0xb5a45610b7408c5dU, 0x36f83c18369d2d1eU, 0x378a731db71aef01U,
  0xb61c2277b7802370U, 0xb707a2df355da93cU, 0xb72dc7c4b7098a8eU, 0x37166f5ab7070327U,
  0x35923370b7195d97U, 0x377e6a8c37234d26U, 0x363574fcb6e7e73aU, 0xb409cd8036d5adbeU,
  0xb694e30236d43c39U, 0x368aac3836c58f7cU, 0x3673cef9b7a10acdU, 0xb5fdc74836ea03ecU,
  0x3736fd62b608d63eU, 0xb6d4bdf636af71e6U, 0xb5d0a9f0369c6268U, 0xb4a7d840b703f79fU,
  0xb7b0cf52372d6596U, 0x36d8d4003645ae63U, 0xb6881a4ab70a4774U, 0x3750be66b69671d2U,
  0xb7550d53b666ea80U, 0xb6f5fb96b62873c6U, 0xb613380b363423eaU, 0x36e046ee3757ccb0U,
  0x36d2a050b5c82a70U, 0xb693be9537000d12U, 0xb69eeb24b6f8cc1dU, 0xb5e9c4303595de9cU,
  0xb70eaedbb617ca8aU, 0x36abb5b0b5ba4ff0U, 0xb68b004436e2963cU, 0x374528f437576b80U,
  0xb7238228b3a13040U, 0x366b82a9b795971aU, 0xb62f6d7c32e89c00U, 0xb71a9ab0360b1d30U,
  0x373ae9e3371a9078U, 0xb5e523deb6917a1dU, 0xb7232a5bb789c46fU, 0x36e08ca836fbe984U,
  0xb7822810372ab1aeU, 0xb62b4b8eb705952cU, 0x36bdf64236f32bdbU, 0xb710909436958d0cU,
  0x35f85faeb3ea7100U, 0x36f4bb4eb5713680U, 0x369f86a6373ad325U, 0x36f1965136e145d9U,
  0xb6c9f9dab69c7062U, 0x371b10f235de8dbeU, 0xb5c6d1aab7693885U, 0x359c81b4366bc0d1U,
  0xb685e7ae34d60690U, 0xb6a475343818ccd6U, 0xb6c57889b6e64482U, 0x381b6f18b6f54837U,
  0x37873aea36bb5ff2U, 0xb6adf67db70f72baU, 0xb665f45d377b7b41U, 0x3631cd4636c22eaaU,
  0xb781c9ec373239aeU, 0xb79707fab19e6680U, 0xb7ea03abb656585bU, 0x37295582b7271c4eU,
  0x3780761cb57008b0U, 0xb62f942bb62037adU, 0x36fc553136b22d83U, 0xb652ef4cb761ac34U,
  0xb58a88a6b4b4b480U, 0x36a38a1ab6836808U, 0x36bb0b1437451c5eU, 0x35a7c8cab761d7bfU,
  0xb6a7f1e636a85a6cU, 0x35165f2c36c6d2b8U, 0x3634a96436d9a155U, 0xb60bc84f36a3aa8bU,
  0x366612eeb64765f4U, 0x3729ea3a3665b95aU, 0x374f71e9b716d595U, 0xb72a3dc736b51209U,
  0xb738d46ab709f0bcU, 0xb6b71245371c26a4U, 0xb7002aa63734bdf5U, 0xb6925d933683efdcU,
  0x359a6ee8b60a4d28U, 0x370f5f253614c31dU, 0xb6afc012b5640800U, 0x3729f8b43738a648U,
  0x3391cd803717e726U, 0x355d8bb837139afcU, 0xb70a138836d762bcU, 0x35d21900b7014dfeU,
  0x36b2b598b747098cU, 0x2c90000035714260U, 0xb74d88b6375b04d2U, 0x369967103701e1b1U,
  0x3635fe15b70cb64eU, 0xb7a9279cb74fd274U, 0xb5dcfaa0b62ee670U, 0xb7062e55b77f8ab8U,
  0xb6c55263b6843b3cU, 0x378c32dc36f2ece5U, 0x3458af4036b9b166U, 0xb6a5ad5935b10284U,
  0x36d8cb1837a3e825U, 0xb685f1ee33b5a960U, 0x363745dd363b9635U, 0x36e00670b68cb12dU,
  0xb6c0fc7c3798eb4eU, 0xb7a0fadb36d9679cU, 0x369f68a2b7874f1fU, 0xb6eb3bb03675d9a4U,
  0xb48b4210378d7485U, 0xb6da668bb72e953eU, 0xb6896dc237186e74U, 0xb7363b8234cb8928U,
  0x3543ca7db706ba71U, 0xb61dc3bf376d0584U, 0x36a80decb69e1946U, 0x3701b3fab72b7c92U,
  0xb668405cb5b4e2f0U, 0xb6cbc6e6b3834d20U, 0x35ce35b0b69b067cU, 0xb69a907036225f62U,
  0x36725c44b73f18ccU, 0x35eef118b68f5eb1U, 0xb6a05b9bb736ffdbU, 0xb74e1721b46298a0U,
  0xb632a74036464938U, 0xb72a4b883686d9f8U, 0x37691dd2b6af5ff8U, 0xb7ae99d1b5500588U,
  0xb7ae4228b692e466U, 0xb7341020b5ee9e87U, 0xb3334f00b5e345a6U, 0x36f40c36b70c521eU,
  0xb7832614b60f4c30U, 0xb66fa3a4b75ade9eU, 0xb6c838d0362e1a67U, 0xb58e75d835c5b388U,
  0x374e4ec73702873cU, 0xb6980206b5b4b3d4U, 0x3566769436cd8c90U, 0x37470f3b3629228cU,
  0xb5dcfaa03584be6fU, 0x3729f644373e39e8U, 0x2def00003758d67eU, 0x366042ec3474a3d8U,
  0x36b1755036f23a23U, 0xb6659d2e368ba7b4U, 0x369433be378d7643U, 0x3721507035f08132U,
  0xb680bbce3618c1e7U, 0x374a261936ef9af8U, 0x376f42de369e6af0U, 0x368041a1357e2732U,
  0x36abf75b336dd280U, 0x3762b191b3204800U, 0x365bd5ffb6b31aadU, 0x37020a2eb77dd143U,
  0xb728c976b6a96af6U, 0x378d748535f8fa50U, 0xb5ac61f8b6f90ba8U, 0xb7454bbe370581faU,
  0x37285b40b73f13cdU, 0xb6cfd5b93596f5a0U, 0xb61414bcb6975fdaU, 0x368436e8b717e51dU,
  0xb71cb0c1b6a57ce2U, 0xb6e5654336bfe8b4U, 0xb7332378b6acf09bU, 0xb4e578a033e25100U,
  0xb784f6cc36be407aU, 0xb7d045c4b70e9f9eU, 0x37a663ebb688de1eU, 0x3736f20b34507400U,
  0xb7600fb4375ae428U, 0xb679a98db4ec4630U, 0x36a96fb6b6ee2c04U, 0xb67e87a635816c7cU,
  0xb6ecf0a7346b1b20U, 0xb7186030b5a320f0U, 0xb6019709b6dac4acU, 0xb6ab6ff1b763d469U,
  0x35cea0dab6f12231U, 0x368a130b36fdc822U, 0x375b8c1fb6bd3989U, 0xb6297bc4371adeb4U,
  0x375f809635859284U, 0xb6283272b6f83704U, 0xb60003f0b6249204U, 0x36c73e9fb6c89853U,
  0x37143184b5e25f74U, 0x360fcaa636feadf2U, 0xb6f5010636a60a6cU, 0xb77e149c36e3b119U,
  0xb69b545eb77e7e52U, 0xb782c2093690ee68U, 0xb59f0808336a3200U, 0xb6f24008b712e5d6U,
  0x3690b33d371ce70cU, 0x34840210b5539ac4U, 0x3509fc20b5bfe154U, 0xb77b015637059d54U,
  0x373411b135fc4218U, 0xb724027db68c9614U, 0x37421b98b6f597f7U, 0xb60ba9b437299208U,
  0xb65a8aa2b78d1320U, 0x368f7cda3693ce7cU, 0x373cb0093653c9b6U, 0xb66da394b72f7627U,
  0x365e1000b5d0a48cU, 0xb5fd94e835a967d6U, 0x361ace3cb729fbf5U, 0x331777403607424bU,
  0xb687bb3836a25dc6U, 0x363ccfffb2127200U, 0x35d38a86b5368030U, 0x369e0468b6f11433U,
  0xb6430f75b6fb2ef0U, 0x377a8856365cd702U, 0xb61f5720b68fd558U, 0xb705e554b6d7a5e2U,
  0x367d570eb6e9e077U, 0xb705f14db50fd6ebU, 0xb58f8ed436048d46U, 0xb67af998b5dd79b8U,
  0x34042d8836b6a059U, 0xb730e490b7179b3aU, 0xb579e9b83531eeb8U, 0xb710cab636124850U,
  0xb6aab460b6ff7c50U, 0xb6b58e28b63a445cU, 0xb59fc690371a9ef7U, 0x35d245f0b79c8dbcU,
  0xb707d5c736d391feU, 0x36096cb0b5d4a42cU, 0x3720a65a3711fcc8U, 0xb73c709233e515f0U,
  0xb5f7b5bf36d0630dU, 0x36d11a20b5bb3594U, 0xb69bd8ceb5938990U, 0x3703167cb62f9ffaU,
  0xb4428700b7098996U, 0x3774d57534c6b130U, 0x368c0f9b374539bcU, 0x36e075fbb684feb1U,
  0xb686897db6b5583bU, 0xb5a23f70b6689fe8U, 0x365506d437c99746U, 0x352cbeac370f30ceU,
  0x3727a023b6cddf5dU, 0xb6edfa4ab5d14468U, 0xb753cb85b66c479dU, 0xb6cef593b621c078U,
  0x35822ec037831ce4U, 0x37769114b7427116U, 0x360d8d52b6b6d651U, 0x34ee2220b65f0798U,
  0xb7481c6cb6e880c7U, 0xb648e4cc35d44168U, 0x3683e4e0b74304f4U, 0x36570681b6e0f00eU,
  0xb50c00c8b640d2f0U, 0x35bb4960373b04c1U, 0x3791b4aa3613c06bU, 0xb62ce263b6793c1eU,
  0x3564d070372e10c0U, 0xb718ba17b6e27c3cU, 0xb65336dc350cecb0U, 0xb73acd0836318380U,
  0xb72e9bb636e21640U, 0xb6254006367bfc4aU, 0x3649a8adb5d123b0U, 0xb7156528b68f607bU,
  0xb6fd30efb7208546U, 0xb670f57eb63c207bU, 0x3701b2753747629aU, 0x365702acb66b6fdaU,
  0x36fec8d7b689f31dU, 0x35bb242cb700ec26U, 0xb58e9c88b642c294U, 0x3761e8dfb608bfe0U,
  0xb6091502b6906f5cU, 0x3744e92cb6b96b35U, 0xb757384e36c673bcU, 0x3784cd1836816947U,
  0xb54aca4c3778c620U, 0xb644b568b74099c1U, 0x36129e78b615d5a4U, 0x37201654b62647eaU,
  0x372be47737201370U, 0x3701c390b5f1d280U, 0xb74640c4b29ef700U, 0xb6552edeb63d6cecU,
  0xb61d0d86b76132feU, 0xb5b0fcd0b55f4808U, 0x35e7b29ab68ce2abU, 0x37d14da4369f1d97U,
  0xb739435237222f76U, 0x36534a2db6ba7458U, 0x36b12b2a348bbf70U, 0x36e628acb7199ac1U,
  0x3712e678368e8032U, 0xb72f8ebb37525cffU, 0xb5fc5440360290bfU, 0x3606f29236f3a948U,
  0xb459f90037302f98U, 0xb66164ff37206b58U, 0xb6bd9fb936e33546U, 0xb744da023738c175U,
  0xb7925c49372db113U, 0xb537e55436f41be2U, 0xb652cb4d36b1aa4aU, 0x36f33ef53695d569U,
  0xb77bba8d37283ae5U, 0x364ef06f3617d472U, 0xb651fc21b44ba164U, 0xb6f37e6fb762ab74U,
  0x3503de72367e9044U, 0x368535deb622a9caU, 0xb67377ba369274b8U, 0x377b0865b699a5b0U,
  0x373b694236aec8f5U, 0x35a4359636c43ce8U, 0xb5fb4b67374a23c5U, 0x3551a138b78e9a2eU,
  0xb77b344e36f7177dU, 0xb70df48c37897b3aU, 0xb6a0065d3636877eU, 0x34f9ea80b63704b9U,
  0x376ab2aa37031808U, 0x36b0a112b623b11aU, 0xb6739effb3174300U, 0x36d5e7c936513300U,
  0xb7089a4eb638bfa8U, 0xb6861af6368a7790U, 0x36be108036bf5b4eU, 0x36f9a80336134731U,
  0xb48475e437952aacU, 0xb608cbc535d84a36U, 0x37146262373eb014U, 0x3733a49fb7831f5eU,
  0x37ae6829b78f12c1U, 0xb6ef957a372c438cU, 0xb747c46a331f5680U, 0x34032c80b36ecc30U,
  0x37343553b670a796U, 0x3725556bb696ca9eU, 0x3425bb40b420db80U, 0x35d4942436736beaU,
  0xb5c7c430b296aea0U, 0xb6ed9bcab4481320U, 0xb51fc24837668395U, 0xb6c7ebd0369e473aU,
  0xb6c4599bb68dcab0U, 0x374292a4b7409f3aU, 0xb35c3980b7205749U, 0xb73e4123b6b6a426U,
  0xb5a49e18b7c98a6eU, 0x35726110b704f1acU, 0x360c2a8235e9a634U, 0xb45aa6e0b70f8664U,
  0xb78837ac36b58680U, 0x3731639ab718a70aU, 0xb62850a136ab4cd2U, 0x3699076eb77e3432U,
  0xb6d43d823600f16cU, 0x36fff4633733d0f8U, 0x36c0ef9336190ff0U, 0xb63d8f52361018d6U,
  0xb6a6332db704bc46U, 0x372630ea36464c99U, 0x37428cd0b707820fU, 0xb486db5035ef589cU,
  0xb6fb6c3a3761d65cU, 0xb62b4aacb71ef4d0U, 0x366b88a0b6b95856U, 0xb639b2cf373e98e8U,
  0xb321920036fdc034U, 0x378ad9db367021eaU, 0x3772faae36ed2ac4U, 0x378f60123670839aU,
  0xb72adda7b774f160U, 0xb7cc3d05370f03d4U, 0xb736563437372e76U, 0xb6c7262634be9cf0U,
  0x344793b8b6b2d730U, 0xb2a29e00b6ec84faU, 0xb6e39d7137838360U, 0xb6ee24923683d223U,
  0x3795d49bb69f3f9dU, 0x37056794b71fb0b5U, 0x37330c1e3586626aU, 0x36b135e6b7419bc4U,
  0x37077179360a5a10U, 0x37122c9ab70e12a2U, 0x378d5401361cff44U, 0x3743edbc3681206bU,
  0xb68e04ef35f3ca00U, 0xb604e4f2b7272bc6U, 0x375cc9a0b71f6bb8U, 0x369259cc37317726U,
  0xb640081cb700cfe9U, 0x36703bceb69bd1f2U, 0xb6928d4c378cb5e5U, 0xb6fd7f78b6f96948U,
  0x374307763787415eU, 0xb66159e836b42c98U, 0xb6713240b682630aU, 0x35bc0e6cb541dcc0U,
  0xb34b8000b7013a62U, 0xb714c069b7036f46U, 0x36c20569b7448c76U, 0xb7ab96b735c83992U,
  0x36829d613413d6b0U, 0xb731e257b6b41ddcU, 0x37127e36b653b8d6U, 0x35c5f253b73042fcU,
  0xb737f1d5338f54c0U, 0xb440b22035830ff2U, 0xb60163b4377c7775U, 0x36e4664935a0e48eU,
  0xb757d762363fe7d0U, 0xb6afa765b724e038U, 0x35a1b048357a1e50U, 0xb6a1c912362c1472U,
  0x35a952b43735e59aU, 0x36f713193612cd6fU, 0xb6ef9a3ab731641eU, 0x372cfaa2b67c1cc8U,
  0x33afcc40373a5f64U, 0x3715572eb5adee3aU, 0xb5d5c90cb6a22c8dU, 0xb5f837f8b718ac82U,
  0xb6c1733cb56b42d0U, 0x366d09a4372ba5b8U, 0xb71734f43799a90aU, 0xb70f16d2b5331080U,
  0x3651e6a6377b4ce2U, 0x37751efd37373a32U, 0x3654f22eb73debfcU, 0x36c1ee3937595038U,
  0xb5c97020b6c0eecdU, 0x36fe9de0b70bc5f6U, 0xb6eb7b6836a2bdccU, 0xb6ce73e736a57d2eU,
  0xb6fc8cd6b4502f80U, 0x3714f305366140ffU, 0xb744a300370f54f0U, 0xb5c8c588b583b4caU,
  0xb71452623796b262U, 0xb6f97805340f28a0U, 0xb5b8bcb2b7347c20U, 0xb68a0fecb70c2b25U,
  0x3707f4aab55e7ac0U, 0x36ec3609366395f0U, 0xb738d46a360ac924U, 0x3431e630b6e860beU,
  0xb78cdee6b72df12cU, 0xb7679b9836d04b3bU, 0xb5cf5d00b700c77eU, 0x350011d8b6d0ce48U,
  0x37066bfcb73385a5U, 0x368b141eb6f6d25aU, 0xb6c55e22b73671f1U, 0xb6f257063707be7eU,
  0xb712345a36a5e370U, 0x35a5ff92b706bc01U, 0xb73395563636cef4U, 0xb70cf778b659a670U,
  0xb6bc9b20321fb000U, 0xb6bff81b35b8fb68U, 0x36b6cfccb579cdb8U, 0x371720523745347aU,
  0x36892052b6940f6fU, 0x36a5318835cb0c03U, 0xb787607737709080U, 0xb6fb942536a1f47aU,
  0x370eb253370eb94cU, 0xb716b528b6ff4ad3U, 0xb6bd9fbe3586c7d8U, 0x360f2118b6ae03baU,
  0xb6e96167b707315dU, 0xb5fab7e0b51b9270U, 0x35af146836946680U, 0xb6e0067036460b67U,
  0xb6460cffb6c9a2deU, 0x36fcafd6b589c7c0U, 0xb74c4f1e356e9fd8U, 0xb66a3a0e36a7c8d3U,
  0x35dd7fb83540c034U, 0x369ddd20361fc7dbU, 0xb7460846378087acU, 0x372a2933b63c1968U,
  0x366a05c8b5000bf9U, 0x37133b3ab5093938U, 0x360aea683692ea8dU, 0xb60c783cb681ca34U,
  0x37040a05b651532dU, 0x348035a034370ea0U, 0x37930113b5b31550U, 0x36f830f9b607cd08U,
  0xb77ced4ab624593aU, 0xb69a43c8340af5c0U, 0xb665948cb72fd1deU, 0x3743d10c348614f0U,
  0xb4c14a18b70b06b3U, 0x3750b2e837257d1cU, 0x3717084a36d476f4U, 0x3669a81fb6d9d33bU,
  0x365c8510369037beU, 0x363bfb2835b3e5aeU, 0xb73e3ea1367cf9faU, 0x3762307c34b0b828U,
  0x36044164b640e27cU, 0xb32ceb00b7311e34U, 0x34e8d178b69410a9U, 0xb7adccf8b700a51eU,
  0xb788091736209535U, 0x3695a85fb6830a3eU, 0x33fce440377606e5U, 0x36e0e700b7878f7aU,
  0x36cfccce375376aeU, 0xb66f139036d1ecbaU, 0x3786dfd9b726783dU, 0x36f373c536934812U,
  0x3686daa2b71315a1U, 0x33bc5100b6f61bddU, 0xb72257f037191572U, 0x364eecc0b6fa7486U,
  0x36d5fe2c370ade8aU, 0xb4c55ea0370a4f3aU, 0xb45e19a036ed818bU, 0x37011b06b504aa7cU,
  0xb658459cb6c55260U, 0xb6f96c6e373c47eaU, 0xb7726bd2348812d0U, 0xb6946e67b6eadaa1U,
  0xb63a95b837d8f169U, 0x35a29ee836b08f84U, 0xb733b882b79e16b6U, 0x3659272b35a9700cU,
  0xb7933a13b6e9a845U, 0xb416c0e0b5219ab8U, 0x3775486036892cf2U, 0xb51e25b02d000000U,
  0xb743ff99b6941c0fU, 0x3695f26436f8b445U, 0xb650898bb4e5f8c8U, 0xb73db33f37175e04U,
  0x3491197036e0a312U, 0x37cac8a636f17059U, 0xb4491018b6eb3f4eU, 0x373e38e4370bff6dU,
  0xb5cece7c370fedc0U, 0xb5c22c52362b6fa2U, 0xb788510636b6bff9U, 0xb7665c94b729bd0eU,
  0x372150703795bfe9U, 0xb698d96ab61b0a4cU, 0x375c635d3730246aU, 0xb70f69ad3691df68U,
  0x361bdab1b632ab20U, 0xb21fb000b6f523c4U, 0xb4f0733036924e90U, 0x36bb413a370b5891U,
  0x3628a0bab7224e02U, 0x36c00bdab6b86946U, 0xb6e9737c378b871aU, 0xb754dad2353a1580U,
  0xb679d3a4376a66b6U, 0xb72e3c9eb72e418eU, 0x36464c9a36b8841bU, 0xb68034a2b7e10707U,
  0x354fede235931d3eU, 0xb7a08f77b761e76eU, 0xb5c187e4b6ab19a0U, 0xb721c589b633fb63U,
  0xb79c4f60b69912e3U, 0xb6bb5ff2b6991501U, 0x36d610f4378cdc79U, 0xb71efc4e3692ab4fU,
  0xb551e4f8b5ed9b6cU, 0xb70a568a36b17550U, 0x367367f83796775aU, 0x36c08b5035114c5cU,
  0xb6694179b6bc367cU, 0xb69a01f8363fae30U, 0x373b7db8372e46d4U, 0xb5c4c9e6b708ec06U,
  0xb3fb75c036bb5ff2U, 0xb6142cddb70b258aU, 0x3625adfcb3834d20U, 0xb78caa9235aa2f04U,
  0x34e15aa3b6dd3b68U, 0x36fe65e6b72577d8U, 0x3694d20cb76bf900U, 0x375c42ff378cc801U,
  0xb64bfe59b58addb0U, 0x370e1b8c3476c770U, 0xb724375a370752ffU, 0x35805bc4b6c89f3aU,
  0x367d5069363cdfdcU, 0xb68b5fa136e2eddcU, 0x3630b9fcb75920d1U, 0x36af9e27b795f6d4U,
  0xb6c643243701ecf5U, 0x37d297b23726ca95U, 0x36bc8254358c94aeU, 0x3689163c36f3f8ecU,
  0x36b77c7c366af89bU, 0x35ff84a836f99182U, 0x35f616b2b73ff345U, 0x378afdbcb6444adfU,
  0xb782f6ecb4ece240U, 0xb7a087ed37019442U, 0x374d94bfb68bd641U, 0x365d4a60369fbd34U,
  0x368e7cf0b710adb9U, 0x360ec708b5994058U, 0xb700485c369bb8ffU, 0x35d4bb16b63d4498U,
  0xb6b96208b61b7becU, 0xb739fbc73643313eU, 0x3690dd8336551a21U, 0x35eff5ec3683890bU,
  0x3731e99c3703c2a7U, 0x362456fcb73ed96fU, 0x37713fa6b70f1f18U, 0xb6b820cc37575b90U,
  0x3719756435534208U, 0x360e6dccb64b17bcU, 0x370ac29eb72cabeaU, 0x369d815a36d0595dU,
  0x3749a85036a783b5U, 0x3694e35236280706U, 0xb5ba50e8b71a1f2fU, 0x36cbebddb58cc86aU,
  0x367d9570b6b01e34U, 0xb71c2dc5b48a62d0U, 0x3611a1ceb70d9cc0U, 0xb60d2476b796b262U,
  0x36fde183b3921f58U, 0x35724584b607ac56U, 0xb6886f2e3751bbaeU, 0x369c5538365300a0U,
  0x3554dd94363b6378U, 0xb6f98109b73e39e8U, 0xb628ee8036626532U, 0x36c2e114b6ff265fU,
  0xb78a7b8d369e38a2U, 0xb70db7fd3722a418U, 0x3762fce836a30d2dU, 0xb68b02be3706d0d2U,
  0x324192403681e8d3U, 0x371c2540b6ec5c54U, 0x369c6115b6aa766dU, 0x36fc829236eca5f7U,
  0xb6a98af8b7c33f6eU, 0x377ca538b72dd139U, 0x36bfcbb7b4074900U, 0xb6b1cce93775f823U,
  0xb68f217836390a54U, 0xb73e45e735b40200U, 0xb69adb9e3580bc08U, 0x37978a2a36beaec4U,
  0x350082f036cefd6aU, 0x363b45d0b3979410U, 0x363398c936dc4ea8U, 0x37004d8eb74af063U,
  0x33dd08503743f6a5U, 0x35455ff036bead22U, 0x36a35f2eb720a2b6U, 0xb5f9e28cb60b8a84U,
  0xb4ec113835cc553eU, 0xb76299bf36cc2b21U, 0xb6429d243532db50U, 0xb6a08e37b6cdf94aU,
  0xb68983fab6bb5ff2U, 0xb70f40183658b030U, 0xb4d95fd0351258b0U, 0x35aca348370b92a2U,
  0xb78d1dd4350b63f8U, 0x37905925369ca5bbU, 0xb58ff0cc3740aaf8U, 0xb6aaf222b70ac724U,
  0xb6b701d0366f0a3cU, 0xb7039aca370be289U, 0xb70de5e336d16da2U, 0x3716038236d3bacbU,
  0x309ab000b73e0cbcU, 0x3748302ab5b9abd6U, 0xb6d52c493783408bU, 0xb6615a5eb73d314eU,
  0xb696c24ab5d3fae0U, 0x3750bcf0b58e3030U, 0x36d4a482367dc544U, 0xb6b46434b74e784cU,
  0x373f0b40b739e725U, 0x3791ff6b36e67376U, 0x3762f2373628829cU, 0x34d6dee0b687ec50U,
  0x379212fdb62e394dU, 0xb785bf9b3788b405U, 0xb6193769b738200cU, 0xb61b14e8b6714becU,
  0xb6f44c543684feacU, 0x36b89c5e371bbbf7U, 0x35c33140b75b7152U, 0x349d7430b7085a32U,
  0xb6c36eb6b7781108U, 0x370552a436638a26U, 0xb5b635e6b598e2b4U, 0xb64c2825b79560c8U,
  0xb54086b0b71bddb2U, 0xb6a929df32b24e00U, 0xb7171485b7074fa3U, 0x33da9680b69348c7U,
  0x370248c3341690c0U, 0xb722d0a236b198b1U, 0x36a96f52b47058c0U, 0xb79030fe34ae2e50U,
  0x3519b170b7020826U, 0xb5fb1c88b6194f66U, 0xb720b33a35c28528U, 0x377bf5d0360237bcU,
  0x358a3abc343b0a60U, 0x37156e9fb78ca896U, 0x3606a84c373769feU, 0x3620435bb71fc4faU,
  0x350c60ac36ed5ae1U, 0xb6840c57b6adcf6dU, 0xb70142e4b69ce216U, 0xb49c1a28b72b6a11U,
  0xb7075f91b612a178U, 0x37357bcfb696ff56U, 0x36f72ec2b73ab557U, 0xb6155c04b77ea81fU,
  0xb53dd4f0b73a4d06U, 0xb6679e94b713194aU, 0xb7bd441936216b54U, 0xb59aec24b7902c55U,
  0xb71e9ec9b66b121aU, 0xb706f324b78b57d3U, 0xb71f1614b3fd3790U, 0x362a95acb722f8bcU,
  0x361aeec0b6867d20U, 0xb58af90a3694fbc4U, 0xb6ded872b739cad1U, 0xb6c3251e3682ca7bU,
  0xb712914cb7167609U, 0x3612c1dfb6e10092U, 0x358e27c8b68e68ceU, 0x3750390bb6b401c8U,
  0xb4d3a9403593f908U, 0xb707880ab65ba030U, 0xb5e49d24368a1408U, 0x3728098db71bc525U,
  0x34b36e80b5dc5cf4U, 0x36f819aab72c5d3aU, 0x371bd7e73610b3ddU, 0x36a2c845373a18b9U,
  0xb6d70d10b76f82fcU, 0xb644c006b6fcd143U, 0xb715f01bb5c2ca0aU, 0xb61e12503791b3bbU,
  0x35da9cecb7025aeaU, 0xb789ce7337102cb5U, 0x35b70707b63c7c78U, 0x369117d03674cc38U,
  0xb45615d0b4bed03cU, 0xb6a2507f368709b0U, 0x35afcff0b60d7a98U, 0xb737a85a36b315c4U,
  0x36074afe36797e20U, 0xb70b189037dff3f1U, 0x370322e836ffc7e6U, 0x361faa99b6a0dfcaU,
  0x3686fdf8b65a06ddU, 0xb78901e3b7522a64U, 0xb7195df3b5ea5502U, 0xb72aaf6f363bb247U,
  0xb6c3a3f0363ae365U, 0xb70ee1e4b79169d6U, 0x3704083036e863ecU, 0xb613b054b66cb50fU,
  0x37093292b5eefec0U, 0x359ba11c3719ed24U, 0x36ca400db62f8446U, 0xb6090ab035991214U,
  0xb5b1d472b40c2dd0U, 0x3734048436cf7be3U, 0x33c10fa0b63f8aecU, 0xb71fa14db671dfbfU,
  0xb706cc61373b8802U, 0x36b6abe9b67bcb24U, 0xb7084f1b36c50f33U, 0x372df9a8b683aa6eU,
  0x36b0683835a2db26U, 0x37711cfc364beb44U, 0xb6a5924ab6d6db7eU, 0x36174f4db7430f18U,
  0xb6cc046c373766a8U, 0x372932ef361fbbb0U, 0x371c585eb45a552cU, 0xb5df39e0b5fde4f0U,
  0xb78bbf10b77fec70U, 0x3652065e36d42fe0U, 0xb6bedeca371a749aU, 0xb6d33830b72c794bU,
  0x3750547c3690a609U, 0xb4e78b143639465cU, 0x3716d6a6b5845fa0U, 0x36ed334d37511894U,
  0xb756d92ab62b377fU, 0xb755af3db6a270ecU, 0x3697ce1336635f10U, 0xb602982036b319a9U,
  0x3712cf2436d37231U, 0x34990db0b6047b0aU, 0x369ab086378cb9f6U, 0x35c9001236acc8edU,
  0xb7e412c6b5424070U, 0x37259d89b62a89a3U, 0x370ac5db3722e446U, 0xb5fc2840b6f41c8aU,
  0xb69995f4b6d5cf53U, 0xb75b5570362483d4U, 0xb647f365b6846306U, 0x367faf0835bb6ed0U,
  0xb6ec548d372b5494U, 0x378e4b2536a1a048U, 0xb668dde6b5221e22U, 0x372c5b3236d270a3U,
  0xb78e1c863703ae75U, 0x35900844b7963f96U, 0x364975fcb683ba80U, 0x3757e127b6f67170U,
  0x351be708b74a55c6U, 0x37454937b7194d49U, 0xb53439c0b70397fdU, 0x360e5888b6450092U,
  0x371a7fc037b76668U, 0x360f5653373dca8eU, 0x3721cb48b76df698U, 0xb6a33c4f37002e05U,
  0xb6f34580b7097067U, 0x36e760a536dcc3f6U, 0x3690bc1a36fd5db0U, 0x3719fd60372fb3faU,
  0x366ea3d636cd8362U, 0xb6a2048d374dc329U, 0x36048016b703ebdaU, 0x35d174333737dd1aU,
  0x3695bc88b5168608U, 0xb6d49d3e365fc4eaU, 0x365c22e9b5eed4d8U, 0x358d5ea837349c42U,
  0xb4bb6100b74ed03cU, 0x3698fad7b71985bdU, 0xb73bbdfdb5988e86U, 0xb64c9c043686c86aU,
  0x37025ace35937432U, 0x3725f41cb76ff23eU, 0xb6dc1279374f7b88U, 0xb73f824c351c1020U,
  0x37276f053697f030U, 0x3680985eb781ed3dU, 0xb5ea8225b784c656U, 0xb74fe2eab72e4811U,
  0xb1784c00b68977edU, 0x36bd90863746c406U, 0x35fe73fc33c565c0U, 0xb6df69efb6d3ce9bU,
  0xb755d167b6fe578bU, 0xb796a569b71b4c26U, 0xb709612e36dd1ca9U, 0x369517eb357343b0U,
  0xb7124a203762f45aU, 0x36194cdfb6dbb85dU, 0xb6e8ae3ab73c61dbU, 0xb73999f135254340U,
  0xb6ca05ccb496f3e8U, 0xb7924f6eb50e7e70U, 0x370d53b53651bfeeU, 0x373f7ec53749a2fdU,
  0x37b22627b74983afU, 0xb77c046a36b36ec2U, 0xb74b99ff35db4b10U, 0x362e6c48b5e0a9a8U,
  0x379c28d137185071U, 0xb705c53c36b6aea8U, 0xb6fcbbfa35f9121cU, 0xb4e870f8b7a01046U,
  0xb6ad577ab74198f9U, 0xb7962c69377b98c4U, 0x3602db7cb7006943U, 0xb6871830361c2060U,
  0x35f37a4836a552faU, 0x36998401b79447eeU, 0x3601500ab7349ef2U, 0xb4e2a3f036d2718bU,
  0x36ae0cb43588473bU, 0x37231243b6240584U, 0xb7b6493ab6e1a233U, 0x370bfe2bb6d771c0U,
  0x366da2fc36beb438U, 0x35424ed8b7898f67U, 0xb5bfdfdab707084eU, 0xb5d81610b6c1eaaeU,
  0xb611bf12378d0b28U, 0x3700efbdb5acda48U, 0x36d68809b6b5833aU, 0xb633dee5b5bbaed8U,
  0x33fd17e036970a5cU, 0x3620cd673758ea21U, 0xb75393a9366f36ecU, 0xb78d15e436ecf188U,
  0x36a1bb82b6eca081U, 0x37024c09b77f9448U, 0xb5e1c1a63769603cU, 0x32606600369285e2U,
  0xb6534f7c359550f0U, 0xb6246259b610e405U, 0x3634e1adb58c495cU, 0xb70bebb1b603cd76U,
  0x36d4069b361eb323U, 0xb749866636aeb6c3U, 0x341a0f103709ad53U, 0xb684eb63b71d11f6U,
  0x36bd9420b6ae82edU, 0xb632f2e037284278U, 0x36a6cd92371e4213U, 0x366c9fd736ffa32aU,
  0xb777f3f736b35a1aU, 0xb76ef58337dbf826U, 0x370f7232b668bf43U, 0xb4feeaf0b72ea492U,
  0xb69b34363547ed10U, 0xb4b07a3835e71748U, 0x3748cb793774841cU, 0xb7138bac359409a0U,
  0xb5b2b608b5d0d53cU, 0xb71b0c96b5ab4886U, 0xb7964f62354a2098U, 0xb3a04280b5c3cba6U,
  0x36935760b76c77aaU, 0x34c11ba0b6de1c85U, 0x33d1c8e03567b6f8U, 0xb60d28e037634de1U,
  0x3661d2ae374476a9U, 0x36e823df3638c4c0U, 0x36ef54073724fed6U, 0xb3503e0036324338U,
  0x36ba0e62b7724af2U, 0xb779fd66b72aca64U, 0xb71f12d1370b10daU, 0xb63a1714b720e0ceU,
  0x3696954636004c60U, 0xb7431740b78ae48cU, 0xb6a5dc10b602057fU, 0x36f88b47b70e46d6U,
  0xb742d877370a3025U, 0xb71a0b38b663dd49U, 0x36c821a934716ae0U, 0x366830a036c860daU,
  0xb6b50e30378db136U, 0x368d4e3bb7346096U, 0x374700f6365a35faU, 0x370f75563693d6b6U,
  0xb48e84a0b7081565U, 0x3685ec22361c331cU, 0xb63a2361b734f9ccU, 0xb7630a9db5b78330U,
  0xb6d7f2e23645d2e0U, 0x358c0ae0b7be6a8eU, 0x3604b97fb734bad8U, 0xb6889ff03583030cU,
  0xb59e0618370d327eU, 0x343a3630b71dc19cU, 0xb7362382b72e38adU, 0xb750a08336452158U,
  0xb691d562b72a1d72U, 0x362651a7b6b3badaU, 0xb7012edc37747c22U, 0x37065296b57b8150U,
  0x35f4b27234cd69a0U, 0xb56b6970360ff128U, 0x36daa173b71380eeU, 0x36c7698eb6190e0eU,
  0xb728c9fe3403b2e0U, 0xb77479c436e58addU, 0xb72d294035334010U, 0x372015cc3722a4e4U,
  0xb4e45d40b5f75ac4U, 0xb6aeeb56b6d67718U, 0xb5bed68b36b82b66U, 0xb6b669c6b6819440U,
  0x366b4120b7700c02U, 0x377bc496b65d81ccU, 0x3580429c37d84cd4U, 0xb5fdd081b674e10aU,
  0x35dae9ac3671ab48U, 0xb709139a36f3e538U, 0x378e5ab1b6493fb2U, 0x358fb615b73849adU,
  0x35849226374f707bU, 0x36687474b68bba8cU, 0xb66a54b636b47808U, 0xb5c46434b641182aU,
  0x360daa6437399988U, 0xb6b4652336fed15dU, 0x3720954eb60e8358U, 0x36551a21361e56f0U,
  0xb6c6893eb7149086U, 0x373e38e436bf64ceU, 0x357abac6378ebde5U, 0xb68bc0c4371627eaU,
  0xb4fb5910b2c7c700U, 0xb5eefc44b629b929U, 0xb60866e436bb6060U, 0xb72762c8b39fe420U,
  0xb61e2f31357983b8U, 0x35375c80b78cc28bU, 0x37399e27b6b1ca51U, 0x36c344feb6087c88U,
  0x36b653ba372bc455U, 0x35bb951436eb96b4U, 0xb68a475eb78e155bU, 0xb71a68e6b631f02cU,
  0xb704719c368023d5U, 0x35f7e3f03731f4baU, 0x3743ab30b7146a4bU, 0x34403e60b59b8454U,
  0xb7298a1537022476U, 0xb73d9f4ab61d26b9U, 0xb6f1c0e03691735eU, 0xb69c5e2136e7e37aU,
  0x36f626c7369b80b4U, 0x35fe01323536690cU, 0x3652090eb4e3cac0U, 0x3795cbcab6391dd4U,
  0xb6adf69436b79f23U, 0x377ba52ab7156aa8U, 0x35d703e8336771e0U, 0xb63346e03692e492U,
  0x3713a67db7477a12U, 0x35814f74373bf100U, 0x37079ff0360b6f50U, 0x363565ddb6f809f6U,
  0xb6ce5f7c37821f40U, 0xb703c51d36914ff7U, 0xb78a399ab6551a21U, 0xb6b5efc7b782a677U,
  0xb7336962375be9ccU, 0xb5eddfb8b734ce20U, 0xb6e35f4737342b52U, 0x37acdbf7b51995c0U,
  0x349c14a036ac22b0U, 0xb6185ea2333bd940U, 0xb68ba402b6e70940U, 0x36136192363f5172U,
  0x36b5dfa5370b69e2U, 0x37316e84b6539ac8U, 0x36bd852835bb43f8U, 0xb5f00900b5da1d68U,
  0x36b9864837890bdbU, 0x368e2212b692cd90U, 0xb70c5dfc34434820U, 0x3729e32bb72880d7U,
