/**
  ******************************************************************************
  * @file    network_data.c
  * @author  AST Embedded Analytics Research Platform
  * @date    Thu Jul 29 18:55:12 2021
  * @brief   AI Tool Automatic Code Generator for Embedded NN computing
  ******************************************************************************
  * @attention
  *
  * Copyright (c) 2021 STMicroelectronics.
  * All rights reserved.
  *
  * This software component is licensed by ST under Ultimate Liberty license
  * SLA0044, the "License"; You may not use this file except in compliance with
  * the License. You may obtain a copy of the License at:
  *                             www.st.com/SLA0044
  *
  ******************************************************************************
  */
#include "network_data.h"
#include "ai_platform_interface.h"


AI_ALIGNED(32)
const ai_u64 s_network_weights_array_u64[ 688 ] = {
  0x3d1fd0f03d8099f1U, 0x3d803b7f3d869e9aU, 0xbdaf725cbddca0fcU, 0xbda21982bde50f68U,
  0xbdc8898bbdd86892U, 0xbddeb11abc53c933U, 0xbe23bf163dcae003U, 0xbd9e09f9bd8bd0d2U,
  0x3e5cdaa8bce7fd3fU, 0xbd75b46bbc77f5d9U, 0xbdb9fac23e191fefU, 0x3bbfa13fbdbfdb58U,
  0xbe1c0a77bd32da57U, 0x3d2439543d59d166U, 0x3df0a79abd7831afU, 0xbbeb43973c6cd305U,
  0xbde722a7bda31d5eU, 0xbdaed9333cc10d6eU, 0xbe14f71b3e5494dcU, 0xbe1279733e51d02cU,
  0xbddbcae93db3f91eU, 0xbd8030eabd6f0884U, 0xbd8f4996bab77394U, 0x3c932794bd666c27U,
  0xbdfdea92be3550c3U, 0x3ddb68cebd5e7ac5U, 0x3db936353e342218U, 0xb9b8296c3d2ffc3cU,
  0x3bec6540bcb9b03bU, 0xbc00a5d13c0628a3U, 0xbd9023593e0423dbU, 0xbda6221bbd3b0258U,
  0x3c84fee0bde0043aU, 0x3db3d5c8bca65a33U, 0x3e0c0b933d896cfcU, 0x3e14d3523d735c44U,
  0xbe43fcc6bd44de90U, 0xbda913b9bc7e30dcU, 0xbc1f1aa2bdacc0d8U, 0x3cabbb013b90f1dfU,
  0xbddc8d53bdc05983U, 0xbc780866bd087477U, 0xbd91e13dbdb1ae14U, 0x3df43df93c14b113U,
  0x3cbd71333d5b5623U, 0x3cb8882e3cf85a6eU, 0x3e31dcd3bdd05260U, 0xbc27858d3c16e840U,
  0x3e376fff3ddd7fa9U, 0xbd880a3cbd12f80dU, 0x3cdb35c63a9c1d7eU, 0x3d5090aabcbac0b5U,
  0xbdcb4285bd06f8b9U, 0xbc6e65203e0aa6d0U, 0x3da484fdbe46b3e2U, 0xbe27c677bdece343U,
  0xbe0435bcbe19be56U, 0xbdfcc8f6bdcbcdbaU, 0xbd30ebf8bd6b021aU, 0x3dbed9343e19a4a6U,
  0xbd35e1983e3e659aU, 0x3d4df04fbd750b79U, 0x3daf5a323cdc0448U, 0xbca05c583d8346b2U,
  0x3e18ab26be18426dU, 0xbcfd506e3de06f76U, 0x3c880b7dbccfa261U, 0xbb2d3b88baf7943cU,
  0xbc81ac8f3d8229bcU, 0xbc9687e9be17fe8dU, 0x3cb4b6963e1b8d30U, 0xbdad8d3cbe15dd64U,
  0x3d3d6d7bbd0b60aeU, 0x3e16d91c3dab69c8U, 0x3e1e2be63e1590a5U, 0x3d9876273de69ec2U,
  0x3cf54be83bbaf0dfU, 0xbd2f5cbbbd7eaa1eU, 0xbaa02b2fbbb381acU, 0x39a271923d1ca721U,
  0xbe33bababe93d4f1U, 0xbe070293bd9c8854U, 0x3db258b6bdafb006U, 0x3df84499bb744ca4U,
  0x3d9877a13dd8f575U, 0x3c580b0a3baf2470U, 0x3cc3c663bd82f690U, 0xbe9172563c185e01U,
  0x3d9625bb3d8e5dc6U, 0x3d2def7b3d66ecccU, 0xbd0bd1383d6521ebU, 0xbddbe965be5386d0U,
  0xbdaaaa3bbe032babU, 0x3c90cd513bcf87dcU, 0x3e0966863dbdc759U, 0x3c2b93bb3d9670a8U,
  0xbe321f5a3e0c5dd2U, 0xbcdc497d3bb6c531U, 0x3e00187b3d9cae07U, 0xbd640258be03180eU,
  0xbcaab0ce3c51061cU, 0xbc84129ebc7458d9U, 0x3d381cf73c5ce775U, 0x3c38696c3d32eaf8U,
  0xbba3c5003d8b7eaaU, 0x3de467c83db5d0b4U, 0x3e0f8cefbd8e203dU, 0xbd433c843d909146U,
  0x3ce5169f3e0bead3U, 0x3da56b49bd2f36c5U, 0x3d87b308bceaf251U, 0x3c88dd0c3cc8f4a7U,
  0x3da64dbcbd991735U, 0x3b14fb663d3135faU, 0x3db9db563de4f60fU, 0x3d8e1e0cbcfaa1e4U,
  0xbc93c6cfbdf18ab3U, 0xbe211309be1c0783U, 0x3cf02789bdc1efa8U, 0x3e3c65113e317059U,
  0xbdaf9d353dac4408U, 0x3d6ea68d3d6114f7U, 0x3c2062b63cda3f08U, 0xbda0e976bb506982U,
  0xbd0bd3e0bdf9000eU, 0xbe4fd9243bd65b1cU, 0xbdc78dd73e8d1d0cU, 0x3dbda66a3cca6414U,
  0xbd4bb42cbd895149U, 0x3e02f8e0bd5210c9U, 0x3d96dfec3e0e52caU, 0x3cb1ca783d738db7U,
  0xbd884f47bcb19cecU, 0xbd979bc8bd75a55eU, 0xbdbeb3e6bd3cd04aU, 0xbd05b461bd915170U,
  0xbd66b9883e879017U, 0xbe47e73cbb2ec27cU, 0x3d722bddbdbc10abU, 0xbd68b7bd3d24c261U,
  0xbd89d847b9c00a15U, 0x3cdbf87b3cb58105U, 0x3d87f753bc362316U, 0xbe1e1ba73cf89146U,
  0x3d3d08c5bd9b9f63U, 0xbde72053bdaad48fU, 0xbd2fa9c0bd78b2ebU, 0xbdb8dda4be3c1a24U,
  0xbd9b4735bd0ac81bU, 0xbdb35abc3d094500U, 0x3bbe8468bcc6f1c9U, 0xbe1c5bb6bc5fb4a1U,
  0xbd03a7e9bd78dd9cU, 0x3e1efaa5be1c658dU, 0xbdda24873da4fe54U, 0x3d09acadbdadf150U,
  0x3dc85ff5bd9c7a3bU, 0x3d4bf1123d10af1cU, 0x3d82c8c03da49d24U, 0xbd3a36623d5de9fdU,
  0x3d48286dbdd54997U, 0x3ca9c2ddbce0d9aaU, 0x3dcd32d2bbfd7a95U, 0x3d0f38703cbcf3b6U,
  0xbca947de3b3c296dU, 0xbdc6666abd2b8869U, 0xbe091d94bcf2ae37U, 0xbde4744f3eaeac90U,
  0x3e026d483dfd5c69U, 0x3d84cb8f3dcf7b55U, 0xbd09e97bbb3b6b7fU, 0xbe37fe22bdfc0c54U,
  0xbdbb7b29be573b55U, 0xbe58e443be3f382eU, 0xbd965651bdcd2e9bU, 0xbba238cabd247b86U,
  0x3e87e76d3dd24549U, 0xbe15093cbe297d4bU, 0xbbabc667bd6dc0d1U, 0xbcbdf087bd04d071U,
  0x3b1b0c3ebb45fa33U, 0x3b842efc3b5d62cdU, 0x3b7800b5bbb1c7b3U, 0xba8152b43a65652aU,
  0xbd9edbbebd64a1d8U, 0xbdb8b5bdbd85437aU, 0xbd4c3076bc84c437U, 0xbe1dd96d3d47c191U,
  0x3de736cf3c8ec201U, 0xbc2c75a13c07fa2cU, 0xbd6e93d1bc922afaU, 0xbd29b444bdcbf454U,
  0x3a2061623edfe56cU, 0x39feffd83e8bf4a3U, 0xb8059b7a3ad87c8fU, 0xbed86eaebf308d7fU,
  0x3b2a02f0bb3953e8U, 0xbea7fcbdbec0beb8U, 0x3e9f31733b023e36U, 0x3b219d5fbee1454fU,
  0x3b2b5f14390b8db6U, 0x3d75e8c3ba079b29U, 0xbd1995393d07342cU, 0x3b43b12b3a40e483U,
  0xbf39b9b2bf3b13a5U, 0xbf3705cdbf385fc0U, 0xbf3451e8bf35abdaU, 0xbf319e02bf32f7f5U,
  0xbf2eea1dbf304410U, 0xbf2c3638bf2d666cU, 0xbf298252bf2adc45U, 0xbf26ce6dbf282860U,
  0xbf241a87bf25747aU, 0xbf2166a2bf22c095U, 0xbf1eb2bdbf1fe14cU, 0xbf1bfed7bf1d58caU,
  0xbf194af2bf1b3886U, 0xbf16970dbf17f0ffU, 0xbf13e327bf153d1aU, 0xbf112f42bf128935U,
  0xbf0e7b5dbf0fd54fU, 0xbf0bc777bf0d216aU, 0xbf091392bf0a6d85U, 0xbf065fadbf07b99fU,
  0xbf03abc7bf0505baU, 0xbf00f7e2bf0251d5U, 0xbefc87f9beff3bdeU, 0xbef7913bbef9d414U,
  0xbef1b864bef59490U, 0xbeec5099beef047eU, 0xbee6e8cebeea035cU, 0xbee18103bee434e9U,
  0xbedc1939bedecd1eU, 0xbed6b16ebed81a01U, 0xbed0e150bed511a4U, 0xbecba524becd67d0U,
  0xbec67a0ebec813deU, 0xbec1ff3dbec3c628U, 0xbebbff49bebe5e5eU, 0xbeb6519fbeb8f693U,
  0xbeb0d165beb46c78U, 0xbeaba856bead0b8bU, 0xbea64b2cbeaa0bd4U, 0xbea0743ebea26daeU,
  0xbe9b590fbe9dfe31U, 0xbe9679d5be98d58aU, 0xbe90d38ebe9336acU, 0xbe8b0726be8e10deU,
  0xbe85683ebe884324U, 0xbe812fecbe827c83U, 0xbe764766be7bb3f5U, 0xbe6bb879be6fe26cU,
  0xbe5f382ebe65d130U, 0xbe550703be59d714U, 0xbe4ac2a6be4f7322U, 0xbe3f4814be446fd9U,
  0xbe3364c8be39bc5bU, 0xbe29fce0be2f4d19U, 0xbe1e0e70be244f32U, 0xbe15d3fdbe1ad662U,
  0xbe09dabcbe0f9409U, 0xbdfd715abe040fbbU, 0xbde6f173bdf25150U, 0xbdd0e719bddbbb8bU,
  0xbdbd27f9bdc65237U, 0xbda836f5bdb26ed4U, 0xbd926d98bd9ca50eU, 0xbd76ea6dbd876fabU,
  0xbd500693bd623bb8U, 0xbd228fa9bd39bc74U, 0xbce6c7f8bd0b7e14U, 0xbc987150bcbe083cU,
  0xbc07d7d9bc5ae390U, 0x3b19ebecbb22ba73U, 0x3c5756cc3c049f9cU, 0x3cc9c9413c9f7ea2U,
  0x3d10363a3cf544d1U, 0x3d3d6bb43d26d1fcU, 0x3d60b5783d4ecd72U, 0x3d89a9193d78f23dU,
  0x3d9e0ac73d92e176U, 0x3db484d33da7e02bU, 0x3dc6dc1b3dbcc35aU, 0x3ddeaae43dd3e8beU,
  0x3df1a6563de6f180U, 0x3e0411b23dfe4759U, 0x3e1013903e0a84d4U, 0x3e1ae2713e14e083U,
  0x3e23211c3e1f3f29U, 0x3e301c8f3e29d885U, 0x3e3aa2eb3e34db7fU, 0x3e4465aa3e3f592fU,
  0x3e509d943e4a0adaU, 0x3e5c8c6e3e5509e8U, 0x3e63eaa13e600015U, 0x3e70c3333e6a97b2U,
  0x3e7c7c4d3e753de9U, 0x3e82c53d3e809f41U, 0x3e8895b33e85bc9fU, 0x3e8c66363e8b0602U,
  0x3e9388f13e908a02U, 0x3e996bd13e96177dU, 0x3e9e48353e9cd0aeU, 0x3ea2d1543ea18d3bU,
  0x3ea9c7f53ea7500bU, 0x3ead0c623eab69d4U, 0x3eb361763eb1d2efU, 0x3eb859ce3eb69b46U,
  0x3ebf0ef73ebc0310U, 0x3ec41ec03ec11c37U, 0x3ec9868b3ec6d2a6U, 0x3ed035413ecc7445U,
  0x3ed456203ed1a23bU, 0x3ed9bdeb3ed60660U, 0x3edf25b63edc71d1U, 0x3ee48d813ee1f98eU,
  0x3ee9f54b3ee74166U, 0x3ef052533eeca931U, 0x3ef4c4e13ef3569bU, 0x3efa2cab3ef778c6U,
  0x3eff94763efce091U, 0x3f027e203f01242eU, 0x3f0532063f03d813U, 0x3f07e5eb3f068bf8U,
  0x3f0a99d13f093fdeU, 0x3f0d4db63f0bf3c3U, 0x3f10019b3f0ea7a9U, 0x3f12b5813f115b8eU,
  0x3f1569663f140f73U, 0x3f181d4b3f16c359U, 0x3f1ad1313f19773eU, 0x3f1d85163f1c2b23U,
  0xaf978a6e9e759972U, 0x81a7687c97a1ab9dU, 0x7ca8a3666374909fU, 0xc2a4816f9d737982U,
  0x6f83847f9d9f9791U, 0x6b79a26b777c9b77U, 0xb5a3779697518b9aU, 0x919d887abdbab698U,
  0x8c86b170979273b7U, 0xaf947a757b687465U, 0x929a8c8da1909298U, 0x92819062727c879eU,
  0xa4b78970a088918bU, 0x6e91658aa49699aeU, 0x80a3967f9d838b6cU, 0xaeaf8378ab5d8571U,
  0x68a88b8eacbd897eU, 0x7b89b27e8a8c679fU, 0x97b29b7a9679948bU, 0x95b658a494967b93U,
  0x9e7c8f78807984a0U, 0xa0afa68f996989a4U, 0x86915f938e9d8690U, 0x768a9090aa7c7875U,
  0x89b573837d646083U, 0x72a959a5b1b49195U, 0x926ab16688897893U, 0x708b768e6e8f94a8U,
  0x717ab3a596a06c98U, 0x74737794c1807472U, 0x7d9b88758a7d798eU, 0x7da7958b7f8d8598U,
  0x8d79838f8a7696a9U, 0x65778a7e748e9c90U, 0xae80a2926f9f648dU, 0x8381719a988f789aU,
  0x8c949a9f6fa473a4U, 0x8a6eab7b85948691U, 0x797ea388c2a16d6fU, 0x929f7371838c6f9cU,
  0x89a37792a1a38d85U, 0x8d7a73867f6b8d9aU, 0x827c84727aa98c95U, 0x9178a9798fa38e87U,
  0x81937f96a2878596U, 0x76a08473619e917aU, 0x8164b38f8c8a968bU, 0x70869e96a49a6d76U,
  0x8787977ba2986d8cU, 0x879394878f88588cU, 0x888d8a8d9975a69aU, 0x7666907377a0ad8bU,
  0x987cab75918c7886U, 0x978f878374928e9eU, 0xabb16762959b899fU, 0x6b9e9a7391a27986U,
  0x7a8496707c678482U, 0xaeba7472ad7885aaU, 0x6e9f9d8a96b27886U, 0x867f887c736a7f65U,
  0xb7ca7c80898b6c9dU, 0x68af888dbabbab90U, 0x878fb482898e638fU, 0xb5c88779807f868fU,
  0x7097967bb69f7793U, 0x8d7b9e688c6d8c86U, 0x8dcb8c70959168a6U, 0x829a908ab18b76a1U,
  0x7a8d928d966b977aU, 0xa2c77f62858f8182U, 0x679881829ca98086U, 0x7a819b6a98836290U,
  0x9eb07a7a8e8a8b8dU, 0x759f828aaf9887a0U, 0x89959f6f88508d84U, 0xabbe6d837e707d92U,
  0x84b8878f9faa82a1U, 0x6e87797095827991U, 0x94d66f848858718fU, 0x79a19a94b6a68785U,
  0x8a68916b987f73acU, 0xa7bb7874997b768dU, 0x7fb29167b49e6692U, 0x9c787b91705fa29bU,
  0x98b072838ea68690U, 0x859f928fa78f657aU, 0x7d7e837b95996970U, 0x98b28881a9807cbcU,
  0x5ab69c9791937e7fU, 0x8b83846a7d8e8563U, 0xbca67374a9908c94U, 0x839c9794bc8c7691U,
  0x818c7f94686ca27aU, 0x8fae697f76968f8bU, 0x9293908183918d7dU, 0x926f868592898697U,
  0x9bb9868e7f8560a7U, 0x5ca286899f929888U, 0x588780678b7e8d8dU, 0xb48e7a7d928c90a1U,
  0x81b17394929d6781U, 0x7f7b827e63659a94U, 0x97ae62788e99889aU, 0x879ca47f98958b7eU,
  0x7f91757d82897164U, 0xb5c96c768d805999U, 0x60bab18ca991777eU, 0x8c8c8a72839d7a7aU,
  0x6a819d8363a07493U, 0x806b93928f849290U, 0x83819582b8b28989U, 0x928d759897827c81U,
  0x768785957e8493b3U, 0x878c9a8a6f89889aU, 0x766fa7826b7e9665U, 0xa387917f748d748dU,
  0xa489aea39c90969eU, 0x818288937e7e7485U, 0x7660a295907e9ea2U, 0x729b8389b3926d87U,
  0x91798288a778907fU, 0x8a92668a8e8279abU, 0xa491918f90709d98U, 0x74717f7a7d78af7aU,
  0xb680a17c728d7e8fU, 0xbb85b69e8f78908aU, 0x7f889ba2669d8f87U, 0x8158aaa48e729290U,
  0x7f969c938fb27174U, 0x937a8e7e938d7f74U, 0x7f928f918b8b9bb2U, 0x9d8981808b8897aaU,
  0x6e75748e958d9e6bU, 0xad618e8370a0989dU, 0x9194b39a8469848fU, 0xa3828a8f9f868f99U,
  0x777974708b859fa4U, 0x688ea18988878f85U, 0xa79ba4829a5a749aU, 0x857c6e9b86a09aa1U,
  0x71848c886a95869eU, 0x9eab829f885b7c8fU, 0x908e8a75afadac99U, 0x7572ad76a6ab85a0U,
  0x997e94967d7f896fU, 0x8d968c779e9d85b1U, 0x7891876f857794b3U, 0x839986709376857bU,
  0x868b8d96a89485b0U, 0x7f8a86947f75927cU, 0x928e7f83966d7c7dU, 0x68969095a9bda69fU,
  0x6f6fa8789c947488U, 0x96a699777d777a91U, 0x749b68a37d83a197U, 0x8b70977f9a939b84U,
  0x8a94ad9497768d8cU, 0x7c8f6b8f98917db2U, 0x919288929a93918fU, 0x899c8b968f517d72U,
  0x88a65e93a9bc789aU, 0x7861a7618b8d84a5U, 0x6769b0b7d77fb76dU, 0xa16b89e3757c9d98U,
  0x93c087939fa1d292U, 0x8365cf9dc78cc477U, 0xb76382e48067a9b3U, 0x93ffa3b08c9fb485U,
  0x70918cc2d6b39e91U, 0x9e856ecd6f85a8aaU, 0x56a06aa285959094U, 0x6e78a0a9a17b8c7eU,
  0xa06a6dc66175aba6U, 0xb5b66fb089b8b5a0U, 0x5f79b185c99ca46fU, 0xb26692b94e5d93cdU,
  0xa7da93989aa2b69fU, 0x7fc29e85909b8da5U, 0x835b7f7c7c808595U, 0x6dbe8dd6a59baf9cU,
  0x4877b393b3767968U, 0x9d575cbf517597a2U, 0x84a693aca680b271U, 0x54669390b9717f6eU,
  0xc16a6cac76717fb0U, 0x90bd5eb08b9ec98eU, 0x6d96779ba27e9281U, 0x998968be746d8fb1U,
  0x868552928b6d7e7fU, 0x7076b09a7f87a28eU, 0xb3679aa77c758181U, 0xa49076a78f9d74a0U,
  0x7469858f829a897fU, 0xb569989d6c7f9584U, 0x899888ab88ac7f94U, 0x6f7387817cc0995eU,
  0xaa82817c60657e87U, 0x9b8a779f6d77a286U, 0x7661847fa09ba988U, 0x877ba47582788f76U,
  0x9f7972a48d9c978eU, 0x826787908ca78990U, 0xa78d8893897b987bU, 0x9b957c8e7994739dU,
  0x88629b9692a4a48dU, 0x99677da668689077U, 0x899e7eb98b74a977U, 0x7469a18f8f97928cU,
  0x9b698c937b778e76U, 0x868a92a18abc8788U, 0x694f95a088a1a878U, 0x8b658e777c909264U,
  0x9a987da16ba08a97U, 0x926ba09684c38b7fU, 0xb1769a7c585f8a8eU, 0x87937ca1988d9b73U,
  0x979d6f49406c68a9U, 0x4390b31896b08173U, 0x6b147c6b976e6e63U, 0xba993e663d703d94U,
  0x4aad89459a9d4755U, 0x9e007c6457753c6bU, 0xa3a48e48496b669bU, 0x8e8e864d979e813cU,
  0x8280b2818a634959U, 0xcbcc5b8173aa72bcU, 0x98c88e58c0b26f7aU, 0x864b8769a985567dU,
  0xb3a0628268b07bbaU, 0x83de9d30a2a68734U, 0x700aa66482755880U, 0xb986aa587a988277U,
  0xa695b76083879986U, 0x9f548a2fa0757290U, 0xc29e898657a1749fU, 0x78a69d669db08e5bU,
  0x6b5eb1616d844c7aU, 0xd1a2618862af7db2U, 0x76c1ac53aca7854dU, 0x9443973f7c846c7fU,
  0x9c7f7d8c649f8780U, 0x7d9da15fa6af9073U, 0xa958bc6096a28a78U, 0xa78d77869b8f9989U,
  0x909eb069918f8f70U, 0x9e878394588c9d9bU, 0x8c8474838e989280U, 0xa07eae9784868c79U,
  0x98968f8999ab605fU, 0x9c9276a7a3ab6cadU, 0x6a957a9e896f7288U, 0x6b9262818a799b63U,
  0xa07b7375a79d9885U, 0x959d8a72a7846477U, 0x968a6e986775aa96U, 0x93908f8e829e91a1U,
  0x918b91868e89715eU, 0x8f82778b7c917b7fU, 0xa18b8c8b8cad74adU, 0x849895837e79798aU,
  0x6f9961767696a87dU, 0xa5907d84a58c9686U, 0x859b7f7ca8847e75U, 0xab72859e6b8c9ea2U,
  0x76877b8e7794869dU, 0x9e72937f919b966cU, 0x8c8d979778818963U, 0xad9e8d9684af8eccU,
  0x78a9998293798d74U, 0x7ba05a799c898b5cU, 0xa4ab897b748b7093U, 0x86869996a3977491U,
  0x6d768d7fa3717d78U, 0xaaa18a76a68c6ea3U, 0x6aa79278a98d8ea6U, 0x88778f6e8a59a798U,
  0x959d958a61619d6dU, 0x9986986b9aa7a191U, 0xaf6dae85a3887e86U, 0x8cc09988749b6f96U,
  0x7196879d8d9c888fU, 0x7c82a36b84846989U, 0x95a4977aad8782a1U, 0x67c0897ca6906c9cU,
  0x7b7c7064816ca79bU, 0x7f9286768366ab72U, 0x9693a0758fc38194U, 0x8684ca8a928f5a8cU,
  0x8ead87846b91837fU, 0x7d74838f89838a89U, 0x707a8b67a58f8c86U, 0x95a08967809a6da3U,
  0x7cb38e81b9a88392U, 0x9879776a96619989U, 0x698b6f8f7a76996cU, 0x937775808ec3708cU,
  0x8481b77980626f99U, 0x96aa7277629081acU, 0x68b19d5e78998171U, 0xae508b6f8087666fU,
  0xa7be5977609e5492U, 0x71bf993f9f867764U, 0x7c4b5b83718b4e7dU, 0x87ab7e56579f758fU,
  0x63a9a98390727862U, 0xaa966487687f7672U, 0x93a8889963877391U, 0x8fb3a2649d96575cU,
  0x7c599a8194907182U, 0xa8aa6e92559b8076U, 0x8a9c8574a4b07f58U, 0x9a3a9a8461a57683U,
  0xb39ea78a6b8e7397U, 0x82829884978d7388U, 0x976d7f79809d7260U, 0xb5aa60807a957885U,
  0x76beae71a39a7097U, 0x8d5f7f7b787f79a1U, 0x90b48fa26e9e9e93U, 0x709d9b6b8d967665U,
  0x765f8e6468846787U, 0xb6a2957372a6839aU, 0x6ba2aa819f81a97bU, 0x8b6d8a758fac7694U,
  0x3ea9098bbdcc82ecU, 0x3db6f37e3e58cd75U, 0xbe5982863d911dc9U, 0xbc027f3abe8334d7U,
  0x3dd225963eaa306eU, 0x3e4618cf3ee39c19U, 0x3eacf8c0be8bd05dU, 0x3f0cf6be3ebf7231U,
  0xbf0789633d07f976U, 0xbd7b677ebf93d06eU, 0x3e4f6c073f8f2d5eU, 0x3f84ab913f8972d1U,
  0xbe3561ad3e9dd441U, 0xbeef9c5f3f01401fU, 0x3eb5bd813eda022aU, 0xbf22a2b53e1e8ccfU,
  0xbf216bec3e54244bU, 0xbe478af73f1604a6U, 0xbeeec9b43eb6c871U, 0x3e385bed3f1448b1U,
  0x3ec0f3dfbe65ff7bU, 0xbf2d11f33e2911dbU, 0x3e2658153e4951d2U, 0xbe5879eb3dc42103U,
  0x3e680461bea9ef04U, 0xbf1ca59dbf25c703U, 0xbef787663ecd62bfU, 0x3ea138cc3e09e6bfU,
  0x3db722193e616c51U, 0xbe25e25abc1306feU, 0x3ec667f43f1e8515U, 0x3e516b89bf814492U,
};



AI_API_DECLARE_BEGIN

/*!
 * @brief Get network weights array pointer as a handle ptr.
 * @ingroup network_data
 * @return a ai_handle pointer to the weights array
 */
AI_DEPRECATED
AI_API_ENTRY
ai_handle ai_network_data_weights_get(void)
{
  static const ai_u8* const s_network_weights_map[1 + 2] = {
    AI_PTR(AI_MAGIC_MARKER),
    AI_PTR(s_network_weights_array_u64),
    AI_PTR(AI_MAGIC_MARKER)
  };

  return AI_HANDLE_PTR(s_network_weights_map);

}


/*!
 * @brief Get network params configuration data structure.
 * @ingroup network_data
 * @return true if a valid configuration is present, false otherwise
 */
AI_API_ENTRY
ai_bool ai_network_data_params_get(ai_handle network, ai_network_params* params)
{
  if (!(network && params)) return false;
  
  static ai_buffer s_network_data_map_activations[AI_NETWORK_DATA_ACTIVATIONS_COUNT] = {
    AI_BUFFER_OBJ_INIT(AI_BUFFER_FORMAT_U8, 1, 1, AI_NETWORK_DATA_ACTIVATIONS_SIZE, 1, NULL)
  };

  const ai_buffer_array map_activations = 
    AI_BUFFER_ARRAY_OBJ_INIT(AI_FLAG_NONE, AI_NETWORK_DATA_ACTIVATIONS_COUNT, s_network_data_map_activations);
  
  static ai_buffer s_network_data_map_weights[AI_NETWORK_DATA_WEIGHTS_COUNT] = {
    AI_BUFFER_OBJ_INIT(AI_BUFFER_FORMAT_U8, 1, 1, 5504, 1, s_network_weights_array_u64),
    
  };

  const ai_buffer_array map_weights = 
    AI_BUFFER_ARRAY_OBJ_INIT(AI_FLAG_NONE, AI_NETWORK_DATA_WEIGHTS_COUNT, s_network_data_map_weights);

  return ai_platform_bind_network_params(network, params, &map_weights, &map_activations);
}


AI_API_DECLARE_END
